FFC40034
FF2C023C
0288FF33
013A0027
FB2F00BD
F9D3FB63
FE43F9C7
FF1DF1DE
F5E5FE89
FCD0FDB2
FC7BFCB6
F271F9C0
025C034D
00A3FA08
019000A1
01E0012A
01EA0003
008A01A3
012EFF8D
0245FE78
0019FD36
FCF202E6
00B40165
F9D4FFC0
FFADFE61
00E4025C
0241FE5D
FFC9FE01
FF5C0139
0142FF7A
FF67FEC4
013E0121
FE64006B
FF3B0088
FF92FFE8
073BFE7B
FFA5FE45
04830238
ECECFDFA
024E0126
FF700293
007BFF7C
FF15FE87
FECC0286
01A2FEF3
02F6011F
039C0292
039602E0
FDE50196
FAAF0733
15B803C1
04CA0286
01F80411
FEF4018C
01B3FE7D
03560727
FF5904F1
03FC0450
00950031
FF25FF6E
FC3B0150
FF510345
0088FD7D
FF1D0181
FE7B0035
F774FFA8
030D00BA
FF1DFCD6
FFA2FFD6
000FFFE6
FF3C021A
0126FF2B
0304FF28
0262050C
02D7006C
FF140073
01C9065F
F9C8FDA1
0E81FAB0
FCB0FAF9
FB0B00A2
FEFBFF11
FFDE00DC
0025FEFD
FFF80090
0631011C
FE9601ED
01980436
FFC01599
0507FE8C
0133FA66
F518F83A
FBBA0019
FB01FE10
0039FB72
FB80FF3F
00A201D2
0278F9DF
FC19FEBC
00B1039A
03110141
03EA0385
04D804AB
FDB10370
FEE7FDB7
0086FB1B
FEAE0114
FE72FFE8
0174FF2F
FCC9FB7E
F87C03FE
04EAFC75
0108FFF1
FD710185
02590196
FF1F01F7
023A019C
FF1405DF
051FF8BB
EE57F9BD
05190084
FFBEFBEE
00BBFF77
FFEAFFA9
FF49021C
00AF0026
FD75FEFE
03ACFB28
FDC30269
01C100C8
FFA402E4
005300BE
00BDFF41
FFB9025A
0214FEC1
02B60035
0036FF7C
FC9A01C4
FFAAFF61
FFA1FFDF
0372014C
004E034A
03F700CA
FFD80409
0291FFE2
FF48FE37
01F2055A
008A0129
FB150139
013902BE
0898FAEC
F957FD82
0088034F
FF6EFEB4
FF050292
0301FFE2
0190FFB4
FA3A01A5
0093FC6A
FF21FD26
FED50417
0431011B
FC58FC94
FFBFFF37
01A70030
00860107
0001030A
FF6A0197
01D5FF0F
FEACFF6F
FFE200D1
00E301C2
0126FD0B
FB2AFDC9
FFD2FF3F
FD28FC38
FC370344
FFA901A5
009E0033
011E0236
009EFCA4
FCA2F8CD
FBC5FDA8
FBC2FB09
FD0E0153
036BFEDD
FF13FEC2
0096020E
0328FF30
0479F837
FD13087F
06F90429
0177011E
027700EE
01690604
02AF0118
012A0A10
055D002D
02790007
FE08011B
03D80324
0217FD22
FF8A0047
0001FF29
FF030083
001EFF35
FF85FF78
015B019F
FFC2FC82
FEF0012B
00280033
022CFF32
F3CEFFF9
01860501
FDFAED54
09340384
FE9E0013
0163F82F
FCADFD39
F9EC0137
0026F846
0DF20499
FF6B00A7
00230BBD
FE4F02AE
FE4E00CE
FFF0F534
F4A50651
FDF3FF7A
0041FF53
0038FFA7
0124FE91
FE440098
001BFFA1
009EFFB2
FF9DFFE1
01E5008A
00BF0060
00450086
0369FEA7
FE9D0388
00E10228
F9790347
004F019B
012302CA
02AAFF5B
002D02E5
FF690009
FED2FEFA
023F01C1
041CFF40
F68A0239
003B0184
FED4FF23
FE21FDF5
00B00018
01260065
FB6803A7
07180148
0093F478
F815F7EC
0050FD84
00AD0193
FED6FB3A
033A0380
013BFDD5
FA4AFECD
FCE40074
01B8FE17
F6B9FF01
FE56016C
01A9FDE6
FB2EFE57
FF9801A4
FCF10052
09BCFFA3
040F04C2
049AFC8A
FC21022D
FFD900AA
0238FD7E
F66EFCC6
0140FFB1
01B4FF86
036BFFC9
024D02A0
00C7029E
00A20182
01E70208
0262FF69
022101D0
011901AB
FD8FFF75
0168FFB6
FF63FEF5
FEC201B6
FE5502A0
008A00A5
010FFDE4
FD64FE22
FE920200
01B6FE4A
0311FF30
FEC3FF78
005E04CB
019F000F
FC3A018F
008603B4
01FFFC6D
F805FDA4
0266FD92
E890FDAD
046AFD8C
FFC00AC7
FA89FEE0
FE600069
005DFE3C
00B3FD3B
00410224
FF1701FB
00DBFFB5
0082FF01
FCD9034B
03FAFE91
02F3FDCC
032F0E53
FECA00CB
0348FFEF
0221F682
FD22FAB7
FAB801DC
02CC00F2
01700068
FF0C0238
FCA5FC3D
0432FD78
02290132
0051FA80
FEC7FDB3
004D0232
0003004B
FF6FFEE1
FDC20478
FAD8FFA1
FB080562
0530FE9D
0259FF69
FD6B01B0
017C0081
FD8DF3A5
052E017C
0098FF42
FE1B0095
001CFF35
FFD1FD9F
FFD3FFFC
02790068
FE0AFE40
FE8B0435
03760007
FFE8FE41
FED60024
00EBFDF5
FEDFFF9D
02E0FF20
FC5600A3
0006FF45
FFCAFBF8
FA78FF62
00F60305
02D3FE00
03A4FB08
FF61024F
FEB3F937
000AFFF9
013FFFE1
00BC01BB
FF290016
02DA00B4
02AAFF73
FB5909E6
F8D0FFD3
0052051A
0073FEF1
FE5D0066
FD2E0304
FF08FE0A
018BFF2D
FF4F026C
011B00EB
FEE30036
0286FF6A
0EDD08F2
0935FE76
F8BD0584
06620CE5
01C401B3
00640050
022F00D3
008AFF47
01440071
00BB0021
006A04F8
00F1FF12
0633FEDA
FFB300EC
007CFC76
FDD4FF02
FF8FFF85
024900D5
02DD0178
06F707B1
009CFD01
FBFE00BE
FF1D0430
FE04FAAC
FDA6FD32
FF8BFFAD
FE8D08FE
016EFB17
FA4EFEB3
FF510684
FE0A0023
FF74003B
00640039
0087FE74
FE81000C
001100B0
01390201
FF26FE35
FE940241
0322FEA1
FFCD0059
0015FF9B
029B005D
0133028E
0315034B
F7F2FC9F
027600ED
FD9EFE06
FB17020E
F8BCF8A1
FE42FE5E
0105FE60
F8B0016F
FED605ED
05520036
00FEFD8D
FECE0811
065CFB84
FFF90094
05440D64
03F800F8
0884075A
FF020569
FDECFEE2
FEADFEB3
FE60F3D2
F67200A5
00EDFF73
FE1501BA
027E0028
0234FE4D
05B90468
FB57037B
FE0B05F2
038305C2
061E0062
FF730152
FECE01B3
FFDF01EA
FD49FFEF
011DFF37
035505C2
001DFB84
03A1020A
066B03D5
02B3FFF9
FF5F0670
FD8F0313
00F0F9CB
018A060C
F66EFD5E
FD370000
FD83F7AB
033800CF
FF0E032D
042CFF0B
022BF973
F82F029A
FED900A4
FE56FD2D
FFE902E0
0110F953
F8AAFE9C
FEEFFE98
FE31FDBD
06AB0258
FE22FE4F
FF3902A3
030D00FA
029C01F0
01A000AE
FE370217
FFD1FF2C
0073059B
02B30086
FC58005A
0041FB78
FC83007B
FF35FF8D
04CC0199
FDDEFFAA
FF05FE4D
FFD60060
008900BE
00B8FEB2
00DCFD75
FE180003
006C0160
0222FB5C
FBD50119
0486FBBA
FEF00C6F
05150009
FF1B0253
0160FED5
FCF1FEC4
FF8EFEF5
FE56FC6F
FF72FE52
FEAB0217
03E0F953
F667FF8C
03B80093
036E0084
FCE50005
01E703FC
01FBFA59
FBC5020D
FE67FD87
00A000BF
FED500CF
FBDCFD83
0297FB9C
FBABFD50
04820134
FFD1FFA5
0016FC55
0132FE42
FFEE02AF
010F0175
FF65000E
FEA3007A
0775007C
FF3AFEB8
005E0001
FDE60084
FE90F911
F7E90B41
FAD6FF5D
FFA9FB6C
07F6FC9A
F99E038F
01DA025C
FB5D01EF
05E30036
0004FFAB
FEC0000E
018DFFDF
FF02FEB3
FDE3015A
0C630441
FE04FF54
012C063C
FA9703D7
FFEB008F
012FFF9A
FFF4019C
FFACFF91
FF87FEBB
0183FE76
00E8023E
00EEFD4E
FCB0FEBF
065CFF71
FC3D000A
FD89FBA2
FC25FF91
0276FDAC
040407E1
026502DB
00B80160
FF2DFEF0
0056FDFD
FD52003D
FFF70143
007BFE6E
FF3201E2
02660195
FF390082
047900A6
01E70333
00400084
00460114
015B0112
FFC2007E
F93B0178
F8F4F7D7
054D00E5
FF6301B1
007402A4
04BBFF73
FA0801A2
FF08F853
F9EDFC47
FFCEFA11
FF20FF11
006400B4
01120034
01C20329
00B5011B
FFE8020E
FE860351
01AAFF69
03E8FCFA
06371663
FE6E0693
F83D0699
FC5D00C3
03FEFCAD
FE78FFEF
00FF0291
047CFE80
007CFF0A
FE8FFF95
FE600030
FFB8FD90
02D6FDF4
FDED0040
FF780108
0011FDD4
028D0138
00C2FE5D
FFF3008B
0135FEEC
FEF3FFAC
00A6FF98
FC0D000E
03B3039F
FFE002DC
01EBFFA8
F8D2FD2E
049BFA0A
FC090034
0268FF5A
007F005E
FCE7FF1F
FE59FE5A
FD7CFEDE
FE40FF7E
0210FEA3
FB7EFC0C
F94FFD00
FFCA0380
046E00EE
FD1903F9
02FFFD19
0081FA97
047F02B8
FE2AFD19
FEE10072
02590176
02DD005A
01F202F4
FFD7FF04
0006FEC4
FEE0FF0B
002D00F1
FD520187
FCEFFE1E
015AFE9B
00B4FF06
0132024D
FE45007E
0011FFA3
FF40FF3A
008E0109
FC96FDD9
FC230093
04F9FFE8
0172FF2E
FF10FEA5
F2E5FEE7
01270035
FE0BF093
0445005F
0000FE78
FF63006E
00CE0012
0076FFD1
00F9FFF9
085B03B1
029B0176
02A100CB
0348014B
0030013E
FEF20008
006300F8
013DFFCF
008F00A0
FF41FF57
FE9C00B4
00D9FDCE
FF90FED1
FEB0FF88
01A60084
0391FEC4
FEBDFFCE
FDD2FFB3
021D002A
FE80011F
FF650191
FE2D00D7
FFD100F0
FD7601EF
003B0036
0386FEF1
FE4EFE86
FF18FF1B
FE640012
FF7FFFB3
FEC0FF08
FEFAFFDB
FBA4FD07
FFFFFF9E
FF5CFEAF
FDF5FFF4
01CC02D0
0100016F
00D00225
FCEFFF01
0099FF66
00660081
FF28003E
FF67FEFD
FEA0FD4B
031BFF16
001F00CA
FF61F9CB
FE45FE0B
FFBBFE6F
FF33FD8A
002AFFC7
FDD0FE8B
00DD002D
FEDD0122
01D3FC6A
035CFDAF
053A0052
FF6801A5
FE28FFB6
005200F3
0228FEE5
013FFDEB
058202D4
FCA9030D
FE65FCA7
FA90FCE1
03C8FE85
F3A3FBE3
FCA6FD16
012DFEB9
00CAFFFE
FF70FFC4
FFE80077
FEE0FD03
FE7AFEBF
FFE4001C
FF5EFF26
FF91FFD5
007FFF1E
00FA00CE
014E0102
00350111
0134017B
FFD8FDF6
016DFE50
042AFD5D
EDFCFB74
FF25FB5F
FBE3F881
FA6FF971
FC50F6B2
FB86FF57
FC9DFF00
00AFFF12
FB80FF02
FD9301A3
0185FBC9
0113FFCB
FB99FD5C
FC43FDF7
F933E9D4
029E03B3
FE33053F
FE75FDC8
02A300EA
00120196
FEEBFF4F
FD2C0150
007EFFF6
00CB0457
032C01F2
02DF0105
FDB6FDE6
FDB6FD78
FE89FCDD
FE8BFCF1
FE840109
01030004
FFD0FEAC
0170FFF0
FF91FFBD
FE7AFE61
FC28FCBF
FE22002A
FC9BFF40
FCDAFDA4
FFCAFC88
FF75FE51
02C002D3
01F1023B
050AFD2A
F809FBD2
02DFFB31
FFEF03A4
FB460506
02490389
03D60D6D
FD5BFECE
FFA20001
012FFD69
0260FC4C
FD92FE1A
021DFE7E
001BFD14
FF10FF45
FEBFFF6F
02E4004B
0DA900ED
0FDE15F6
FB6F039D
00AE0493
03440738
FBEE016A
034B036B
01D0FC4A
FFEF0136
01450038
0094013C
FD11FE60
FE60FEA0
FF90FD2A
FFAF0096
00FE01E2
01E00159
010C001F
FFA40046
00E20072
FFD7FF9C
FFE6FFF4
0031FEB0
FE70FED3
FFADFF96
FEA30053
002FFFAE
0055FF25
FF9E01C4
02D3020F
FE4D00CC
FF09009A
FDD6FE9F
FF3F04E0
040BFDEC
0206015F
F9BEFE67
F8A3E182
FA16F09D
01C8EF03
03DF073F
0170FF88
00C8FEF0
012D029B
00FA009D
003900BC
003800E5
01E7016C
010F00C4
01B20082
027DFEE5
FC52FBF7
FFC2F7B1
002101F4
00D90248
01F400BB
01C900D6
000102B9
FE6F019B
E604FFB3
025EF862
04A4067F
F70CFB6B
0041FA4A
FFFD00E0
00B2FF99
FFFE0081
0000FF94
FA05F638
FF1700FE
FC9801A9
FFC9064F
FFFCFB1B
0036FB99
FD1102C0
FEDB0015
F9F7F408
01760242
00CE01EC
00FB00B1
FE8EFE62
02A9FDD7
00F9020A
027B01C7
0037022A
01A0FF63
0010008A
FFEFFE65
FF2501C5
FF81005B
003B003C
FED5FE72
01BEFFBF
00DA0051
0066011A
FD88023A
FF4BFB22
FB8401ED
FC35010F
02EB065C
03170107
016E00DE
FE9D0197
FFC6FDD3
00F6FFB6
004601CA
FC930072
0437FBD1
FF54FC01
0041FFCC
01C30083
FFC2FF79
00B9FE00
019900BB
004F012E
016500AB
00940103
FBD6010E
05CA03DB
038700AD
006E0071
F9A3FCCF
00E7FE99
00B4FE69
00F9030D
FD6C0131
FF8B0028
01D30294
06BFFEA7
006AFDC9
027703AE
FA01FC45
FEE9FBEB
FDF6023B
FEBAFFA6
FCEEFFBD
FEAB03BB
FCE3FBF1
0422FDBC
0375075E
FD7CFE39
F5DE0009
F5ADFA7E
014C006B
FE8A00CA
FEB60128
01630048
00680077
01DB00CC
02A10128
002F02B8
02C40210
FF34FF26
FFE70031
FFB60098
02CD01F4
01B4014D
017A0231
FF750024
FEC0FF99
00C7011D
FF6A0103
00C7014D
FE46FDC3
FD06008B
02260047
FECDFF6C
05AF0388
0284FFCD
048E025F
F926FD08
F550027A
F3ACFC68
FC5CFB04
FB4CF9EA
FC9BF8F9
0ADE0017
FF8F00B7
0069FF6D
FF20FDB2
FA5EFDBF
F52AF47D
F5EDFED7
FE17FF67
00650417
0389018B
007F022A
00900048
00AB0088
FF680034
FD4601B0
FE31FB07
FA7C01E1
0619FEA9
01F9006C
005EFF91
FF8DFE09
FEB2026C
0332000E
00D70001
FFAC0411
FE7D014A
014BFEB6
FC240075
FF31FF1C
FF44FF92
FFE20040
F79DFE9E
F366F611
FF0C025C
FD850195
000EF6C4
FF48FE80
001CFF45
FFA000FB
00B8FDF0
FEA701F5
01740438
FC2D0016
FE6D00DF
000EFDFD
FADEF99D
FE55F772
FC93FD36
066A0776
006A0A1F
FF8901E7
00B000A8
FF18FF80
FFBD0041
07550079
FF3E0249
0041FD59
00B7FDD8
FEE20131
00E30188
0031FF61
FE1500FA
FEF4FF1B
FFD0023F
0023015A
00E302ED
FE79011D
0031016B
FFED008C
003CFF8B
0056FF1F
FFDF0137
0D390B1E
022C0DEB
FF90FD9C
FD74FDC4
000CFE36
0189FDEB
F606FF56
FE20FE29
FE4B038C
FD12FF04
FFD9FF8D
FF45FCA7
0348FCF3
FF51FDB4
0131FD9B
036E064C
0000065D
0081FFC9
08F60AB4
FDCA0E61
FD9BFB95
FDAFF9AD
02F5F862
FF83FF96
FCAAFE6E
038EFD49
FE640310
FE34FDCB
FF5BFD33
FF07017D
FF5FFE88
0377FE73
061F0962
FBD7FEAD
FCEFFF84
FC26FE48
0608030A
FEE10446
FE85FAF9
F898FCEE
FE16FC59
FCE8FCD0
0166FE77
FE78FC62
FB19006F
0182FFF2
00C3FF5D
FF9B003C
012C00C9
F1F6FFD4
EDA7F9E0
03AF0179
FF59036D
FFCD02A5
000900EC
00E20166
0135FE6F
FF5C02B0
FFCA025E
FE830119
FFEE04EB
02AFFC6B
FFE0031C
019DFEA1
00BCFF6A
0221010F
03870670
003507FC
019B000E
008EFDC3
0048FF9D
007C003C
FF90FFA4
019900D6
01E1FF55
FF1E00BE
024900FE
01A901BE
00BD0131
FCF30154
FCCDFEB7
FF91FFAB
FF03FF60
FF8A010A
FE4DFFCE
FFD5FF26
005D0100
00430009
FFB2FF4C
FFCA0034
0027011C
00250118
FFE9FFFB
000FFFF3
000A0066
00430072
FFB5FFB8
FFFA000A
FFFD004B
FFEFFF27
FF9FFF37
FF29FD9D
00FA0082
FD4200C3
FDC5FDFC
FFDB0190
013E016E
FFDCFED5
FF18FE9B
FA54FFDB
FBE9FF55
FEA1FD7D
0009FD8D
009E0020
FFB0FF5E
FF6600D7
00980132
FFDA003D
002400DD
01C60000
001200B7
00090015
005DFFCC
FE0F0187
03260142
033B00D3
FC5FFF95
0128FEBE
00B7FD6A
FFD802D6
00A10210
FEAD00F9
018400AD
000AFEF6
FE6D006C
FF920196
FED00247
FCA700B1
F8C60040
017DFD86
00DFFFFE
004F004E
0055FFB2
0198000D
01C7FF22
FFE40170
001B002D
01B9FECD
027E015F
02E50173
FEC8010C
FE3A011F
FF25FB06
FEFCFC4D
FE83FAFE
FD04FED4
FF18FF14
FE78FC73
FE9500A2
026FFDD4
FE0CFE41
FE530112
01030050
FFD7FF6C
FF2500E2
018D0073
031BFFB1
05CB01E4
005E01CD
01A301BF
00A602A6
01B403A9
01DB0260
0069FF27
FD740033
003C0024
00850003
00620009
FFD20029
FFDB0023
FEFEFE8E
011DFE10
014B0277
0027FE4B
F6E5FEF1
F047EA97
F931ECAA
EF36E617
EA55E5D0
00680008
FFB30046
006DFF69
0091FFE6
013600A7
FF9AFEE8
FCAE0058
00D1FDD4
FFC5FE6A
FCCFFFF9
004BFF5F
FE03FF15
FF50FE2F
019BFC9A
FE6C015E
0081FEED
FFEDFE90
FEC3007A
06210247
05B003A7
069AFE38
0996052F
013C0617
02A3020B
F9E90021
017D014A
00F40297
0691034D
045104E7
06AEFC3C
0AE50451
0038052B
00D10189
FE8F03E9
0285053D
03BC0736
01070185
00250156
002AFF03
FE91006C
00CC006A
FE6900E1
FF22000B
000EFDF3
FE920106
031100AD
0084FF52
0067FDD4
01CEFF68
FE36FE1F
FDE2FDEE
017BFECD
FFB6FD9A
FE39FFB2
0BD70345
0620069D
07E205AC
0EC9064A
00E70A0A
FFC30055
FF0D0088
0029008A
012BFFBB
080202E4
08A10447
0AD70484
09230583
002A07CE
00040017
FF9E0001
0086000B
FFDEFFF5
FECBFF4F
FFDBFE86
FF46FFBD
FE82FE26
0112FD69
01290064
FE7BFF9E
FEAAFE96
012F01ED
004AFECB
FB82FF37
FBF9FD37
034105A9
00B705D4
02B5018F
FFC7FFC6
FEEB0106
008600B6
01B103CD
FFAF03A5
FDC4FDF9
026F02F5
FD9E02F8
FE7FFCC8
0128FE57
FDF4FDFF
FD41FF3B
0066FF97
FFF7FFD6
FFEAFF9E
00260023
012400A8
02060326
0123002C
FFE6017B
FE7AFD92
FF180021
0258FF49
FE76FE23
FDD800DA
01A4FFB4
FEA9FA71
02F3006E
FF41014C
014E0230
FAFEFD92
FB6AFC9D
FA7601F2
F993FC7D
0007FB21
0088013D
FE6C0058
00B6FF32
00310108
FEB7FF4E
012D0005
00EF0103
0004FF96
FE65FE85
00EBFAAA
FA86FA5C
FB35F994
F9ECEFB5
00F000AF
007A0155
00E1FF95
01D9008D
006601F3
00FC00AC
FD80FF1D
FFDCFEFD
FD77FFBA
012500C7
00830090
0068FFC2
FE480041
0592FF67
057C0664
062304AA
05E405C4
060F083B
F5B9FB95
F75EF8D3
F616F714
F1B6F7CF
FED3F6A3
01780136
FFD5FF9F
FF23FF6D
00B3FFE3
FFA2FFFE
0062FFDF
FFEB0023
FFA700A8
FBE60055
FACDFD32
0367FC60
FD4CFC6E
FCF5FC23
FF9CFFB5
00E6011D
FDC5008D
007A0153
FF04005C
FE2CFDB1
FFEC0084
00AD007E
01BAFFF3
FA970145
F95EFED6
F74AFE84
F5A3FBA8
01F4F8DD
044404E4
FFAC0414
046F0464
053807DB
01B7FE25
01BDFF15
02D1FFA9
002EFFFA
FD4E0075
024C00A0
FCC9FD60
FC7DFC6D
FD23FC4D
FDB2FF4A
FF130043
0027024C
FE660095
01FC0074
03B10526
02C202D2
02BB054E
042506E5
008801AE
FF70FF82
0079FFD1
01630152
013A0043
0226005B
03B600BE
FF880034
01050068
08860389
08350573
09E003BA
09490376
FA9B04E1
FA99FA4D
0023F9BE
FAD3FABA
FAA6FB87
FDA700AB
FDB400ED
FDEC0018
FCFBFE4E
FFAFFD71
001B015C
FFEA002E
0125FF54
00D2FF64
0141003D
FFB000D7
FF8A0203
0090FF25
0182FE8A
01AA00DA
FF2A0202
053901B8
047A0284
FDD2FFBE
FFE5FDE3
FF46FE33
00A7028B
FAFB0201
FB64FCF6
01B800B6
FE91FFA2
FF82FDAD
0645FFC5
0630022E
07300370
05210413
00350663
FB37FFB2
FF9BFF35
FFEE006F
00F30383
00270122
011A003E
003E02C3
FF7BFEAB
007AFEF1
019701F7
FDDBFF20
0194FE73
00BB00EC
004B0025
FFDC005C
FFFA0031
0044FFE8
FF1EFFEB
FF7CFE00
FF64000A
FF72003E
FD95FC26
0184050C
FC3B052C
FD2AFEA5
0007FC40
FE7BFDD2
028CFFA1
FE74FF30
FFAEFF93
0212FE72
F686FDB0
F559FA63
F0E8F9B1
F1BBF963
FFBCF587
FF29FDBB
008EFF6A
0088FF38
006AFED3
01AAFF52
004FFF20
02CC008D
02C6005A
00100214
FF2B0048
023B0210
00A8033F
02850404
FEDDFC9F
FF77003A
FF98FE30
029FFF06
FEE9003F
FEFA00F0
004500DA
004F00AB
FFF300FB
FDB2FE14
0433FE11
049903E6
FEB0FFDA
0134FF39
004FFE01
FF8C0057
009700DE
FF71FFD6
F53DFD95
F6DEFA94
F51CFE24
F13EF9D6
00B3F607
FEBF00BE
FFA5FFDD
03ACFFCF
F6D8FDAB
007B00F7
FFCCFFE1
FE730097
012D00D2
00CBFF18
FD29009C
FB5BFCA9
FDB0FCA3
FBBAFA85
0107FD60
FC95FF7F
0250FFDD
0125FE9C
00DFFFB4
016C00CC
013001FA
FFB501A9
FEEFFF9C
FF9B0000
00D0014E
0115FF81
00A500CA
00360199
0170FECD
0241FF91
013D02CA
02E602D4
FFFDFEB8
007FFE98
00C700C8
00A5006F
005100A9
FFBD00CF
003FFF8F
0061FE5C
FF0E0130
044903B5
0135032A
020FFFD5
051001C5
FEFA0327
FDD7FBB0
FCF3FB92
FC36FBC9
FBB7FAD9
0A6F0349
093605FB
0BB200B0
0D510675
FE920A32
FDD2F855
FDD6F90C
FB51F661
F919F33A
01E8FE06
009EFCE2
018F0004
0025FFF4
00600003
0033FFA8
004DFFF3
FFE3FFBC
FFC40088
04E80802
FE2107D1
FA9AF8F0
F435033F
FC3FFFFF
FC62FD3E
FF8D01CC
0043007B
0069FD5C
0176013E
01CB0245
0084FEEE
005C02E0
01090154
FFA6005E
01A7005E
0077FDF5
FF7B0014
0438001E
02DF0250
04B4FE24
0727025E
FFDB0427
FFE0FF9B
0015008D
0061006A
004300CA
FEB1FE80
0079FE28
01640236
00CD0035
FA0B0111
F8DAF9F0
023CFF27
007200D5
00C10250
FF8DFFD4
FF81FF17
FEE40070
FF01FF24
FE07FF56
FE5C0132
013F011F
00850233
001AFFD6
FFEFFEBF
018DFE97
FFBE014C
FF37FF0A
009FFE32
026F0423
04D702D3
017003D7
021E033F
0433011E
FF46010F
FCFD0571
FD1801B4
03D3FBE0
032903ED
03690685
054C01DA
00EB0257
0005FE3E
FD92FE3D
FCF60671
0098FF48
FD47004A
FB4EFBA4
FEC0FDF1
01D9FD66
03A2FDFB
FDD8FEFE
FEE2FEAE
FDFDFDDF
FC67FD88
FF47FCA8
FE91FE45
00890102
01EE00AE
02760188
FE1CFEE7
F92C013F
F9780971
0580FF6D
012C000F
FFD90188
009201BF
005B00C8
FFBC004E
FDB3FE6F
017DFDE0
014CFD88
03BA015B
093903B0
088D017E
F69CFE97
01D1FDD5
FDEFFD79
026E0303
FB89FEB6
F5A6F848
006500B4
009100F5
014800C2
056700C8
00060071
032AFDD1
FE9CFF61
FD96FE02
FD4F0737
018BFFD1
0002FF0D
018C007D
000F00A9
FFB903C7
0186FEC1
FD0EFE57
01B3F99E
014901B4
023103D1
FE780217
FB8D019B
10CF0AB9
FD23FC70
FE170415
FF890140
00BB01AC
02450056
FEC0FE61
F90EFF4D
00660031
03AEFD10
FDBC05E0
026DFD1C
06B8028C
0591FF36
FE5E0579
039A06C4
FC2BFDE3
003CFC3E
FE90FC97
FE39FFE1
005AFE8B
FD88FE7B
0087FD81
FC1AFF82
FDF5FFB1
001EFEDD
015401C7
031AFE4B
01140118
01C0019D
011E019F
091EFE1F
FB020229
FF4E0429
FC9BFEF6
FBB6FF80
F9DCFCE6
FC5AFA35
FED20041
F3ACFC1F
F1DDFD20
F7990793
F233FB8D
0222FAF4
02E000EA
FCB202F3
020D03D2
02340042
FFB6FD54
0205FDDD
035A0276
FCA1FE92
FF3EFCF5
FF9E01B1
02F10069
FE2E00EF
FE6E00D7
FFBBFEC5
FFB700B6
FDB7FF2A
FF16FDED
01150194
FED700CE
05C9FF71
FFB5FCC4
FE600279
FCF603C0
072EFD1F
FD7E02F5
FD260385
00C1FB81
020401FD
F9CB01E1
045D0387
FFF9FE1F
FFBA029D
FF7B0035
FF57FE0E
FD62FF31
04C8FF88
02C402D1
FF4905BF
040A052E
02F1034D
FF7201E8
FEF201F2
001CFFD4
01500175
FEA60292
FE580069
0239FE4D
FFA70068
019701CC
FAB1FD53
FA76FC8D
FE580773
FDC90158
021D009A
FF88FF09
012201F3
039F00B4
FD6C01BE
05560286
FF710609
05AD03B5
FC09FD26
0239FED7
01740255
FEB701D6
01A301C7
0123FF35
02EA034C
FF4E0452
01700047
FFC803E9
FADB01A2
FCDEFF29
0345FB8F
FF260348
0157FECB
0150FC12
FEA1FD3A
018F04B3
028CFE5D
010D0132
00810251
0002FF74
0161007F
FFCC013F
001D0088
015FFFA7
FF3C06CB
0042000D
FE57FFFB
FDA6FA20
08CE061A
0123033C
06270EFE
FFFCFAFC
FEBCFDB8
0052057F
03C1FD42
00570187
0C8A0AA7
076B0076
01D90047
FB3EFC18
F956F911
11A4F81A
13D21E4F
0C82FB30
01520126
011A036F
02F5FFDE
FF24FFD8
FDD1FEC7
001100B8
FF790052
00440076
004BFD30
0078FE6C
03DB0376
049CFE58
FE6B017A
FD70FD02
FFB1FC32
FAEA00B7
FFC2021D
01A1FD57
FF8904BD
FFE6FFDF
030201AE
FF410049
FA86F8AD
007A00BE
01720125
0245FF17
FBE7FE6F
FE5AFF0A
FBACF978
08140168
FDD5FCD0
0467F836
022F0156
FE0AFFCE
FF7EFBF3
FEAFFE44
FCABFE92
FF14FC23
0322FF98
FE340204
001A0461
0A5B01A6
073C0203
05350479
0635FF08
0397FF86
036A0268
F85CF79C
0185F843
01AD01EF
FBC2FD8E
FB7DFCCB
F9A9F27F
FFA9FFD4
FF08FE8A
FE94FBFE
FB59FE2D
FD01FD55
FCF7F8AD
FF24FDBA
FF8CFC2F
FEEC006B
00CDFEED
FE4DFFF9
0290FE8D
0085FEB6
FC84FF42
013C01D3
FDFCFD72
FCBDFE62
FE3C051B
FF63FCDF
FF57FFBD
02F7012F
FCEFFFC4
011A013E
01AD0043
02BAFEAF
FE060366
FF9904BB
0042FC8F
02480364
02A80856
FEE7FFDF
021E01F6
FF6301F2
01320137
044101D5
039F00DB
02FA0322
FE9301C6
FF5400F5
0146FFA4
FECB005D
FDB9FFE0
08FD0686
020109F7
00B1FDF7
FA58FF68
FFF1FC66
00850217
04C90145
000702F7
05880321
1154017F
0457003D
106F13D1
FA4EF9EE
FDDDFBA5
009BFC23
FEF3FF16
01E7016A
01F6FFAB
FF9D00E4
041EFF19
FC19091B
02EBFFF6
FE2EFEDF
FCBFFBB0
00C10255
015AFD56
01E00B85
02FB01E0
01A10301
026B019D
01EE0030
FF4E00AC
FF8F0176
FEEAFF9B
FF3FFE27
FDF3FF79
FFFF0029
FEF8008B
FF41FE2D
FEDE01F8
FB2B012D
FB02FCC3
0154FE1D
FEBAFEF2
FF12017E
006AFCBB
FA5700CF
04890558
FF0EFB30
FFD90141
FF16FF92
0273FEFF
FFCD0059
01CB00B2
FFCAFE9F
0351FE3E
02000576
0157FCF3
044801AA
04A103A3
025601F3
019E060C
030F0256
0050000D
00CEFF62
FFAF015C
FFFF0037
F94DFEF0
0378009D
0836FE5E
05A80139
FFF30D7D
FFAE0153
00B0FEF1
FDA7FB6F
FFE10340
FF970268
FF60FF06
070A0142
FEBA0005
FF9AFF27
FE2FFDF1
00AEFDCA
007D0141
FFDFFFDE
02BCFF98
0130014D
FE27F9F7
FEFAFAE0
FE9E0048
0241FEA0
FF1D021E
00080472
024701A1
0557FF13
FF02FD0D
F24805FC
02690497
FF0C0098
FCDFFDF1
FFC2FEE6
01E4FFCC
023901A1
FF420254
012E004D
008D009B
00A80208
01EFFFF2
FE77FF2B
FF6F01AC
02A301CC
01CCFF7F
029901E4
012702E5
014702D1
019900C4
FFBB0153
02C50590
01C9FF11
FA8AFCD0
0439FECE
FEFA05F2
0000FC67
F7BD0158
04C0006F
014D034A
02180018
FDFA0045
FF81FD2D
026AFE64
00D70058
024E04F8
FC7EF89C
01350218
052902B7
FF000046
FF3C0008
FEBB006C
FC92FEB7
FD91FC90
FE51FD63
FC89FAF7
FB180367
0632FDCB
FE850143
056F02C6
0353F8B3
FC330497
013001B7
FC15FE4A
0254072A
08DFFEDD
FC98017C
FD330002
034B01C9
027DFCBA
FB21FF28
FDAA02C8
FE2CFD10
FC68FEB3
03790021
02F6020E
0368FDDC
FD0BFFE6
09EA04A6
036EFDDA
029BFEAC
039FFECE
03C4006D
FF20018C
FEF3001B
060700E5
057601D3
033800E7
00D1FB01
FFB5FEE4
FFC4014D
00ECFF4E
FF82FD04
FE2604CC
FABEFF3D
FCDE01BB
03D9F8B3
FF440157
03970441
03260178
FDE2FF0F
0482021C
04C7FEFA
FD6EFB86
FFA4FBF1
FFD2072F
0105FF30
FEECFEF8
FEE4FF23
0743FFF2
0141FFB3
FFCD0357
029A0410
008302AC
FDF6F7BA
0472FFB3
FD6AFF07
FD46FA67
FEEB04AB
FD300178
FE8600E2
027F0100
FCA9FC35
FA76031F
FB61F6DC
01C1F6B4
042B01F2
FCD2FEFF
FE39FF8F
FD1AFECB
FE0F021F
02C70095
046C032A
019EFE6B
FAFBFCE7
0020FE04
0752F8EE
FB9900EB
0337FE36
02320072
01220241
021701FA
02380332
02CD02B1
022C00FD
FF040047
FFC8019E
FED8FE4A
04DB064B
00DA06D8
02DDFF40
FDADFF80
FFB0015D
FAD80336
00DEFE8E
FBB800ED
FFC401EF
FF4DFF46
FE36014F
00B6FECA
FED900F6
01E800DF
033E009F
FE3A04A9
00BD01B5
FE97FD47
01BBFEE6
FEA50042
FF8C0094
FF6DFD81
0220FD7F
FCAB0160
02BF0497
01C9FDB2
FD9B006D
01EE03F5
FBCD08E1
FCAE0320
FDF7FD7A
FD2EFF32
FBE6FBED
00AEFE9A
0165FFAD
FEBDFCB5
00DDFF7F
FF20FF94
00B2FE18
021EFD41
FF0B0314
FE3BFF41
0635FFBC
0407034F
044808B4
FF8FFF5B
FF390000
00090245
FF6701AF
FEA702A8
FE5FFDB9
023500CF
014A00D1
011D0020
FF07FF69
0461FE5A
03A50254
F75DFFF3
FFFEFFB0
00090003
003B0160
002B01A7
00C4016B
FF4CFFC0
016EFF4F
025800D3
0413007D
066D0101
0653059C
089AFD9F
003AFF97
0168FF3C
FF8804D4
03F30626
04570AC5
FA06FC0E
FF0FF790
FC30015E
00F3009D
01BFFD4D
0132FCB8
FE18001F
FE06FFDC
008500F7
030B00E0
0077005C
003900B8
01330027
FFC000A5
FF87FF18
00040164
FF85FE7C
00570202
041700AA
FA5E01FD
FF4CFFB1
FC60FD43
0245FEBB
00B8FD72
0274044D
01DF02D8
00F1FFF9
020F0139
FEC8003C
F9D8FC93
FF50FF28
FEB9FBB0
0208FC4B
FC21FE39
02B7FCF4
FC7AFEDD
005D0144
001FFECD
FEE900C8
043902BD
FF8F0269
023DFEFB
02A6030C
01B90855
0300F91B
0014FCB1
025FFB6A
02320230
FF6B0082
FE5BFFB8
FE30FF93
FE8DFF1A
FFEE0072
FE9FFEE1
014F01EC
0202FFDF
03510361
02DB0349
FFB402BF
FFBA002A
018BFEDB
FF95FF14
00D6F800
007C0043
FF870265
FEFD0088
00BA003D
00D60043
00B3FFE8
F38AF8D0
FEF9F714
FF75036D
FD01018A
FE7A0014
FE77FD35
FD13FE55
00D7FDC1
008DFF39
FFB2FF2F
003EFF74
FE37FF46
FFFE0097
016C016D
0441FF7E
00D601F6
FAC0018A
FAECFE1B
FEA700F1
FEC30245
000F0030
FA42FE32
FF1DFC84
00F40040
04D2FE80
017A026A
0048FD00
010AFF13
FFA7FE78
FF3E01CF
008BFE8F
01ECFF17
004A024C
000C00A5
FF36FF9F
FECB020D
FF57024B
FF210271
FECE006F
FE21FF8D
FF70FF29
000B006C
00BF006F
020C0038
024902AD
00B200A2
FD750032
FC78FC9C
023F00F4
001000C8
01BB0251
02CF025D
00820125
01E0FDE2
FFA1FE03
01A6FD23
008E0219
FA870379
00960006
FF95FE68
FE2D00BF
FD95FF8B
FE7B036E
087003D4
05040260
03AE0496
F79AFF41
01F7FF71
F746FF8F
FFE8FF02
01C1FFB8
012CFC00
0142FF55
FFBEFFFB
001300A9
0167FEF1
FFD7FF14
FEE6FF47
FF760029
FF7A008E
000B0143
FF0F00BD
FDB300E9
FDBCFE39
F9C0003F
007F0060
001C005B
F561F85D
039BF740
026CFF17
012E02C7
FEB80153
FE32FCD0
FA68FAA5
0437FBC2
FDB90465
01C70201
00260011
FC7BFFC4
F9B40276
FD3FFE42
FF3D038D
FF2DFE25
FDDDFF8C
FC1BFDE8
FE37FF3D
0136FDD6
0237011E
005C00FD
FFAC0160
FE39FFC4
0001FC93
0166FD06
025602A7
0043FF5B
FB700357
FB08F6B0
0143FE0B
FF5C013A
03550527
FEF0FD29
03A9FF17
045200DB
03A30049
FD5AFFA5
FBA7F98E
FDF3FCCB
010AFBCE
009BFFD1
0760FF1F
0101FEC3
0037FAC1
FBB5FFF9
FC7BFD2B
FF030653
00590118
003C031A
02F000CC
FDDCFF4D
FE74FDE8
FE9BFC89
FD1AFE01
059DFE9E
09270692
00CFFEFB
FEDEFD2D
FD590015
0347010A
FDE10178
FD69FDF1
02D7FABA
FFF8FAB1
034F0310
FC23FEAA
FF3FFE81
008DFE36
03DAFFA9
01A80047
0335FF9E
FFD60047
FAB701C4
FC6900FB
FDFEFABC
FC80FBD8
FEAE015F
0365FFCE
01DB01CB
005FFFCF
034B02D7
FF9000AD
FFC2FEAF
FFF3FFF6
FF6300C5
00A90007
00C7FFB1
0101FFBD
01AA0112
02F30131
03530175
04890644
02260132
02C7FCC0
FD000203
FEB10367
F24CFBA5
F578EF5B
02FA040A
FDE603E1
FF4300AC
FEA8FF3B
FFC0FEA9
00F7FD71
050E010C
FE2D02DC
FE8EFEE1
018E00C7
017F0178
01F50214
072806F3
02BF079B
008D012A
03FB00F2
022200B3
FEB400AB
029C00C6
036400EA
FE43FF55
0358FF93
FD5C02CA
FB28F3BB
FE78030D
012801B3
FF92FE54
FECD00EB
02AAFFF9
0121FF47
FEC7FF62
FDF70081
0344FFF2
00C60368
FE84FE65
FD51FD16
FD80FD53
FE07FC6E
FC500D6B
02A20237
019D0295
02B20020
014BFE0F
FE8DFECF
FD7F008A
031F013B
003701CF
FFD801F1
FE47020E
01AA018D
008AFE8D
FDC90187
FDB2FFBF
FEB8FFE2
FEA0FEAE
FEE1FFFA
FF53FA45
025EFF04
0126F9E5
FF01012D
F8A501BD
007E0577
00A50050
0107FF97
00740086
0080FB9E
FFF50284
034BFF1A
01E5FE39
0978FF69
003701DE
FDFAFFDD
FEF30010
03B600AA
05B70296
0117FF82
00EA0050
0208FF72
FF8E007B
01F30197
017CFF8D
022906F6
0325FBE9
00FD04CF
FD6CFE6A
FE53FDEC
FD70FF67
FF21FE67
FC20FE0D
FE32FD5D
002B0175
FD6A005A
FB39002F
FDD9FF55
008CFFD5
00C7FFDA
FEC60057
FACF009C
FA15FAFB
FEB1F6BB
F885F89E
FA6DF93E
FD3DF5D3
FE7DF707
0098F9D2
F6C6FE92
0147FF10
FDA000C8
050E02E1
00ECFD88
FED8F8DF
FED3FDF7
FFE6FEC1
00DDFDE6
019BFE6B
0145FFF0
015E0224
002B0128
FFFB010C
FE7E0167
0045FFA8
006FFEBA
0123009B
FFE90081
FF6200D9
FF9D0021
056000EC
FF6AFF5A
FFC1016B
01F600E3
FEF40065
027400BD
0052FE9E
FEE2031F
FDF1FDD7
0DA804EC
0273077C
02DDFFE9
01040034
062301BF
0416096D
FDEBFFC0
0136FDA8
00030182
ED40F3D2
04FDF1AB
07450B71
FE54FF6B
0169FE02
023A0406
03A502F4
FA7C0286
03600037
011CF963
FF120537
01C701F3
00AB0135
FF3CFF41
00B602B3
FD4C0095
0274009E
00420020
018D0258
FF60FF06
0272FFC6
00ED0284
023BFE94
00E902D4
FEC1033C
FE12017D
FEE7F99D
FF64FBA8
FC42FE11
FD14F92F
01910039
FF35FD2F
FF9100A2
0134FF87
01890109
016DFEB5
FDE10161
FDD00472
006104F1
0252FFE9
02F4FEE1
04FF0884
FD6BFE5A
0141FFD7
021E000A
017B01DA
FE4D02BA
FEC7FF82
FE2CFF59
0179FC04
00C7FF5A
00C40262
030F02D2
01A2052C
009E0011
FFB4FE82
FFDCFA67
FE9A009D
FFF50065
FD81FE37
FD020098
02B7FF70
038E0344
FDF5FFEE
FFBFFF0B
FEBFF7AA
07C50985
FF150778
FEE6FA0A
FD4AFCBD
FDD8FE55
FED0FF47
00F5FF66
FDD000B7
00090B21
017DFC7C
FD32FD4A
FD05FDA4
041C0328
F05F02A1
EDC8F40A
FD6EF723
03B5F9AB
04EF0225
FFF90059
FF490260
00DC0239
FBCAFFCB
FEAFFB95
FC2A02B9
FE7BFF71
FFF302E2
FFE5FC3F
FEA601ED
FFA1010A
FFACFDF4
FCEEFFC4
032BFF5E
03980459
FEEEFF43
FD7F00F7
FF57FFB8
0400FCAF
FEEEFE18
009F033F
FCE70365
FD1A02B7
FD0CF98F
FDE6FFF7
046D0042
03280344
023F0136
00D600B1
00CB00E3
FF79007D
0A1DFF9D
0C380DD9
04B903E1
00290640
0062FEDD
FFEAFDA9
FEA1003A
00BDFF6B
001AFFF1
00870024
02E9FFF6
FCCF0317
007D0192
01C500CF
FD56FD66
03950A11
FEBEFF00
002103DD
005CFD39
FF1AFE26
FEAF025B
010CFD24
FEABFFEA
024602E8
0516FBDD
FBFDFEC2
FCF805CA
FEE7FDDD
013C02DB
01A8FA70
F96901DF
036A06BE
FFF2FEDA
FFD2FF03
FFA500F2
0007FF5C
0239FFC0
FF8A0010
FEEDFF5E
FF700150
0332FE19
010403DE
01A7FD67
FC9200F2
FE5B003D
FE57FFBB
0168FF56
FF5CFEC3
FE950128
01B3FF6F
013E01BE
01CBFE3E
FE33FF07
0283FF29
FDA700A8
0414001C
FC9EFCD6
FB1000CA
0320FC8C
0202F9EC
F49907FD
0EAD015B
0291F3D8
00C10C17
FBD301BA
FF470074
00E5F85A
FE24FF89
0116026F
0134FD37
FC48029D
050802D2
FFC6FC1C
0057006D
01A00058
0013FF1F
FDFAFE4C
02D20743
0246FB38
FA45FCE8
FBB5FD69
0088052F
FB51030A
035E05B8
FEA8FD58
FB63040F
0036FE8F
FEEA0115
FF25017F
FFCF00C6
0050FE47
FD6B0066
FF7CFF1B
FF8DFEDC
FE7B00D5
018F014A
03E3FE81
00450151
FE50FE8A
FFB0FED0
FE23004A
FF5FFBF2
FEC20188
0227FEA8
FB4CEA02
F0DC0657
07FEFF20
FBDBE6E7
00E30850
01E50019
00A40123
026B014A
010BFFC0
01AA0180
051FF959
FAB3FE62
024C00BB
F7A0FCDC
020EF965
FBCEF3A4
F7990A7C
0838FDD4
06B103FF
03AAF5F4
FB520912
0632051B
FF5CFB35
0020008D
FFA30023
FF590035
FFDA0069
FDD3FDF3
FE06FF7E
0452003B
FFD602F1
00F6FF70
01300194
014A02AF
0255FE44
001A02B6
009D00E9
FF4DFE39
FD190017
0066FFD0
FB3AFF26
0384FFF2
048BFEE5
FBA90754
0641019E
010EFED5
FC460096
FC94FE65
FE98FD95
FFDCFD98
FB230306
FCDD01E8
FF9AFC72
FB0B00E0
FFD00024
01CAFE3B
FF77FF6B
00650307
FB97FE95
0120FE89
FFEAFED7
FF1300A8
FEEBFFC2
016B0103
016002E6
FE8B0089
FEF50038
FEFD00AE
FC0FFD84
FF8D0075
FECF0086
02B5005B
008B000F
013BFFB9
FD50FF5C
0249040E
FDD8FD07
FBA805F6
02EAFD98
FC49F8DD
FA4706F6
0277FFE3
01E3FEC9
0133007B
FF33FF93
FF53FD95
FFD200DB
010F015C
00B2FF62
FF10FFB5
089E0CCB
01ECFCC8
FC45FE3E
002F00E9
0043FC75
0024FF6D
FFE0FF79
FFF0FEF3
FEB7005E
013302C7
0253F7AB
F97102F2
003903F2
FFE9F968
FF9F00C2
002C014A
0117FF19
FF790086
FFAA0319
0344FC76
FD26023A
00DC0415
03A7FC83
FB8C035A
01330242
029BFCD4
02730015
001CFE9E
F48F078D
0A3CFDA3
07940571
FE44FCBD
01170337
FEA5FF0B
FE4C010D
FF58FFAD
03CC0296
017FFC66
FB7A01CE
043D0505
017EF9D8
FC55011F
040E034D
03EAFD57
FC8B0343
001D0071
FF720034
FED80029
00C9010A
FB760026
02B5FD7E
0067FDBC
0308FE7B
FE8E020E
0760F92C
F99A0234
06FE0464
04E7F728
FD86FF1A
050AFEC9
FD82FD52
008F024C
FAF1FD4D
FF28000F
FF5200C6
FF99FD55
FE0BFEA1
01520142
FD520303
0321FEC0
01C7F9DF
FA600392
01ACFE54
028EFFBA
FC61FDFD
02FE00C0
09CAFBB9
F6EE04B5
04550B39
095AF55D
F94402A6
031302E8
016EF8A3
F9E40289
0482012C
FC6CFC2E
00FCFDBE
FFE9FE4F
FB690167
0283FDD5
FF99FF97
FE30FD77
FE0E0489
0161FF7B
F35BFCF0
04BFFCCB
FF6FF926
F56B036E
0172FF6E
00B502BC
0039FE29
FC1AFF7A
FF33011B
0223FB2B
02E8FC98
FD86FFD2
01D102BC
02A1FC01
00010156
FF47FD7B
FE4900FD
007600F6
FE4DFE96
01B9FFA4
FDB8FB39
FBD2FF97
0096FF37
FE2B009C
0193010B
FF93FCA5
FE90022E
028BFFEB
02380405
FF0AFE02
003EFF73
FFDE0239
0074FFC8
00D00205
00AE013A
020D012C
0029002F
016500CB
01EDFFD0
00EC0090
01730041
FEDE00BF
02D709D3
FF98FCDB
FDED03E5
FA63FE87
EDF80035
FFCDF84B
FBAAF3DF
EDC4FEC5
009603EC
FFC5FE68
FEAF0271
066906B9
00F6FAC7
FD0F006E
013302FE
0100FE1C
000801CB
010901FA
FF61FDDE
FDD00090
01A8FEFF
0207FE76
FEC3FE2A
FDD801FB
01DFFE57
034CFFA4
FFA9025E
01F9FDDF
FF110174
FE690073
01FFFE52
00200144
FF91006D
01D9FDE1
FEC7FFA6
FFF7FFBD
0165FEA2
FFB70165
0141031C
01D3FF75
FEF9FE3D
FF5002CA
039DFF29
FE4BFFC4
FE19FFCB
000901E3
02E5FF62
FD240004
FE68018D
FEF7FF15
00A4FF39
0074FDFF
FEABFF8E
01E4035C
013CFDA5
0053FF42
015FFF71
07BD0098
F7F303ED
039C0564
0ADDF936
F8A005ED
00A001F1
00860132
00ECFF64
009800F9
002401D5
0300007D
FE07FE32
FD380109
FEBC050D
FF88FE33
FE4901CA
01C7FD65
FF3DFC06
005202E2
00C4FFAB
016BFE3B
FCBD01D3
00E5F9F7
FFF20024
0047FFB8
FF3CFF8A
FFCF0063
F88F0038
03B9FEE8
0002FEC6
F6E300C5
0515FDFA
035A052B
FAACFB65
0652FF9B
FFA0FCA3
FDA50958
0400FC63
FDE1FC6D
FEE70045
FEDDFD00
FFBAFFCE
FE8EFFB0
022AFEE4
010DFDD6
FDFF034F
FFA9FF9A
FF9FFE95
FC2E0017
01ADFFC4
00B902BA
012800EA
FDEAFFAA
008301CF
06D300DF
FCC0FA5F
F5CD061B
095F044A
FD78FCDC
00C00053
FE7BFF77
FC010042
00E1FFB6
011B0324
FEFB0049
FF02FDBB
FC8B0388
05BFFDA0
FF8700BA
02B70620
0030008F
FF2F00D8
0181FE62
013C01AB
00890459
03E9FFB8
0449005E
00830115
FF5D0354
01F702E1
01C6FFBA
0232014C
02450014
00070113
004F022F
FE67FFBE
01F3FD47
00CCFD89
FE0100B1
FFC7FCE5
1243FF2A
FCC9FE28
02A80E69
13F1FF89
FCE90031
FB800333
00D5039D
02EDFBD4
F9210283
011806D0
00270217
FE9AFEAC
00D200B3
006800B2
003603D8
FFCBFAB8
FA4000D6
FFCD040E
FFA8F8F8
FB8100E3
FFD40116
0204F827
F8D60145
00FE0212
0050FEE5
013C0073
0192FF63
FD900127
01CE0396
04C1FB34
F9A50263
0404040D
051E0A5F
0AF4F715
F5C20244
05DE1165
0960F53E
F1F5FBC0
FBC0088A
0A50F473
F1C5FC5F
003E0149
0134FF08
FF3902AD
009FFFDB
FAB7FFCF
037DFF76
FF01F99E
F8D5019B
026FFEA9
00B5FF2E
FFD204F0
FE20FD5B
0068FFA4
FE7BFE8B
FED10030
0020FE8C
FE2F0268
00D6FFD9
0081FE80
FDC60268
FE10FB7C
FCF4F9BE
FAE0021F
037C03F3
0284FBEF
FA410017
FE94FF82
0334FEA0
FC270099
035200A0
FC75FBC6
FEDA02DC
0151FEF5
0039FEF5
FF3500AE
01FF003A
0072FEDD
FE24FF4F
017DFF6F
FFAAFE37
FE6E010B
01DD0018
FE4AFEFF
FFB00056
00BE00ED
001C01A7
01A8007B
FFB6008E
0162FF20
FD5F0233
FCCEFEF0
FFA5FB27
FDB7FE29
FE6301C7
FD33FFCC
FEC1FE06
FFD400DB
FCDE00B9
FE31FCFE
03A4FF4E
FF66FFAA
FEA50225
00E6006A
030502F0
004A038E
0049FA14
FF36FDD0
F270FE73
0B2BFDBA
FD28F1DB
F99B0B7A
0A63FF28
F738F99A
FB3CF7CA
0027FA30
0119FDCD
02EBFE5F
00640061
FB060154
0047FABE
003CFA6C
FDF7FD58
FE990405
0270000F
016FFAC9
FCEF022A
FCEE0055
0139FFAE
035AFDE0
03E701FB
FC88FCD8
FD31FCF6
FBA9016A
FB83FAE8
FEDBF99D
FF5EFEA9
0171FEEE
0089FF1F
021F01E0
FCEBFCC0
FEDBFD32
FE560398
FFA401C3
008001FF
00B501AE
010100CD
00880276
00A502C8
FED70184
021F0173
01F401E1
008AFEDA
0087FC62
020E04B4
02B7FAC2
FA8EFB02
F9E6FCD0
FE22FB23
FA8FFB0F
008AFEAB
FD7DFBDE
FECEFDFE
0049FEAA
019801A4
FFB50023
0092011E
00D300F9
0048FD5A
FB6E015E
01250240
FF7BFA4A
FE23FAF7
FB10FD7B
FF20FD0F
FE66FDCA
FEE6FF52
054F0325
05A2003B
FEACFFBE
FF1DF8FB
01CEFDB4
FC5306CD
02C1FB5B
FFFBFB92
FBF9F9E7
FCA7FB31
FD08FD9F
00DC00F6
FFF10211
FD95FFE4
FF5100E4
026402A6
FD610328
FF27FF46
FA23046C
FDB00063
01BFFE3D
FF3D047F
021401DE
FDF3FC35
FDD2FEB6
FCBAFCD1
00CB0101
00A1FF01
FF7BFD8F
F8ACFF3E
001EFD86
000CFF02
FA3AFC52
FECBF998
FE0CFC64
FE4801AE
0153FFA8
00B9FB0C
FCE400BD
FB97022B
FB9EFAAC
02D70125
FFE30127
FD95FFF4
03D1FF60
02AAFD9D
03CDFAA6
026CFD49
00A4FD77
FFADFFB5
016C00FC
006E0093
00F2FF44
042D03D1
FED50377
FAA00198
FB33FAFB
FD30F9AE
F7DBF712
F7C9FB9B
FCF3F87B
FA35F89A
FF14FFBA
FDF300AB
004F02CC
0072FF1C
FD860063
FB5000B4
01C1FD4C
FF3BF95E
FB8001E8
FE4BFAA1
FF980156
FED1FDA4
FED9FF75
0020FE32
FE25FF0C
018FFFC2
008E00C3
00E0FFC1
FFA3FF5E
012F0061
02840183
00FDFDED
FF29FF3F
FF75FE53
F746FE4D
FCF5FDF7
FEA3FC59
FD3AFC75
FD8AFDA5
FF8CFB27
FE0DFE17
FF74FD31
00E103BB
01FE00CB
FF570386
00E90310
FDDC0012
0326FE7F
00B8019B
035FFE2F
0124FFD2
FFD5FD51
0004FF12
FFE90127
FE87FE6A
F6E402BB
0216005F
FF96F7B2
025E0258
0124001A
024501B8
FC4000E0
024E06A0
088503E6
F6B5FC84
FA5FFACA
F876F845
FDB900EF
0158FCB1
FB62FEAB
03050038
FFA3FFE8
FDC400C2
0336FDE7
00F80009
03760071
05C200FB
01050305
015AFF3F
FDBB0121
0114027A
02B20040
FE0B00CE
FAD6002B
F85FFA4E
F9FDFD59
FD0AFB08
FC69FAF3
F8BEFFB0
01DBFFA2
02C700D3
FDBBFA8E
FF9FFBD5
00ABFCCA
02AA03FE
01880234
FD74F8B7
02510362
0079F727
FEE900AB
FC56FC22
076FFDAA
04AB062E
FE9F00A1
01DCFF7E
023A008C
FB92FEE9
FFF4FCC1
FF1AF8DE
009A001A
012F004B
012600CF
FE3BFFC9
FEABFEB4
F727FA13
02A3025C
0592FB67
059407F8
FE7A007C
FEBA0168
01C8019B
FD76FDF3
F42D00A8
F272F546
FCE9FC05
027AF9E3
06FB0642
0384FF0A
021200CD
04A2029E
FF4FFC41
02C9FFA9
0072FDEB
FB6AFF28
019EFFB0
04350489
074D01A1
003A02E5
FB4BFBC7
FCB8FF92
0391FDA0
0137FC6F
ED61F65B
FCDEF14A
F75BF0AB
FEA9FFCB
0172FE06
0030FC89
016F008C
001EFF4E
003604C8
006F0065
FAABFF20
FA6BFD40
FD3D012B
FE2FFE8A
FE330095
031AFFDC
01F4FF6F
FFC70071
FF6A00D4
FDFFFFD2
FD51F9DD
FE20FEA8
FBBAFF8A
FC80FACE
FDD0002D
0077FE71
FF69FDE3
0144FE9E
FFC5FF02
00B4FDEE
00C9FF04
FC9EFFF7
0049FFC7
0216FECE
02D700B8
02D20210
FBB8FF87
FE640048
005AFD14
FD5CFEEE
001F0219
0103FDF1
FF9D0037
02EE03C5
0310FCFE
0042FD13
0042FF35
009400E9
FCEAFFD6
FE38FF7C
FD22F7B3
FD990155
FDAF01BF
FC80FF04
FE38FD51
FD01FBED
FC0CFAF8
05D9FCEB
FE7C0100
FDB5FBA6
FB50FFD6
F7ABFFCD
030DFC18
048FFB1D
F8A8024D
05C700D0
04940348
FE2301C3
FCA0FF97
01FEFDF0
FE88FD46
FE45FDAF
FD00FDE2
FFB6FC4A
FD74FE88
FD6BFD31
FDF1008D
FDD8FEB4
FBADFFE4
FE8DFF8E
FDC5FB67
F8B100F4
00DDFC4A
049B0CDD
FFF10158
FE1D0064
FC90FAD4
FD2602BE
02EF01BC
02D5FE70
F8BCFFB5
0117FEDE
01EAFDB4
009F0163
FEA50232
FDF3F9E0
FC720240
FC0F0140
F9BCF687
FD84FD65
FE3EFAED
FAB6FAFA
01D7FDE7
FF55FE7B
1108FC96
0012FEA5
00C80389
FFE3FD19
F792FDC9
FFDBFABA
FDD3F862
0048FFF9
028D0098
026BFBE3
FF6CFF87
0215FDE9
01FA01E7
FCA6033A
046E0031
03AD0423
FF5B0095
FFA9FF88
FE37FCB3
FC26FE24
0191FE76
01B2FF2B
0624F5A1
FF4C035D
004EF309
FC12F95D
FA08F948
F970FBD4
FBB9FC22
0003FAAA
00700097
FE39FF98
FF59FE46
FFA8015D
FE33FF05
005EFEBE
004DFF92
00AE001F
02CE0082
01950340
FF4602D3
00230029
FD25FE39
FBB2FF02
004FFE5D
02000262
02FF000B
FF18022E
00B4FE9E
006EFE8A
FF67FC0B
FF0BFD6A
03D604C9
05E6034F
099C024A
02CD020B
FF2604D1
FF2BFF55
FCC9FB6D
FCF0FA8F
FCE6FE9D
00D202FB
0133FF7E
FAA5FC24
FB19FF2F
038FFB27
00D4F9AE
FDD70478
032A0004
FF30F82F
012400D3
05ADFEBA
FFF20347
FE4CFFA0
FE750186
002701EE
01D7FC52
0060FB6A
024800AA
04AD01AF
FE640158
02090314
FFD4FD53
0237FEB4
00A303F0
0176FFB4
FC9A0069
FF6301F6
01EA0102
FEB401F1
003DFADB
FFB800FF
07010229
FCE60430
00B00BBA
0230F3F0
FA8F026E
FDA7004A
0266FEE5
00B2014A
FE660303
039801F8
FAC4FEFD
055F019F
03BEFE26
FC7702C0
00A203A4
0707FE2D
FD2E01DE
00D2038C
FC5CFBC8
FC43FB9F
0346FE87
FBDFFE68
FE8800EF
0044FE21
FE790118
FF38FF52
00DBFF2A
02310015
01FB02A4
FE4A035A
02220100
030CFF12
FF3C007E
FF4C002E
016EFF67
FC9BFF62
FF76FCFF
FE35FC25
FEE10028
0008015B
00C6FCCA
0056FD2E
FE3BFBF8
FF710270
0378FF5E
041E0074
027DFF0C
FBD400F6
0080FE55
FE16F7C3
FC93FEB7
F966FF59
F92CF1F8
FA38FDB3
0300FFF2
04CD0270
F381FE23
0424FC9A
049AFD5C
042AFB04
FEF9FD8A
FE400300
FBCA00D6
FDFD010D
FE06FFF9
0131FC15
0463FF8B
0524088F
0681003E
FF6103F8
0184107F
06D7FFA9
0B33FBA6
07E90641
FF72000F
F9CFFBE6
F516F9DA
00FCFB61
FF2CFC34
FE260509
032804B3
FFF30484
FE890021
00560365
0084030D
00C201E8
FD3BFECD
FEACFEBA
FEEC00CA
FCDCFE75
FF69FE3D
010002AF
00ECFEA3
00D5FEFC
005201B2
067E05DE
FEDF0631
FB38FC40
F95AFDF1
05D5F895
06710DF9
04A40692
01C70409
FECC01EF
032800C5
00E1011D
FFCB01D0
023C0075
FD5FFF4B
FEE8FAEE
00A9FC17
FDF9FC6B
FCBAFE3D
005DFF1D
00E9FF98
00DA00DA
00B400C9
00E300D6
001CFF65
FC1F00F8
FF68021F
00960003
F9FEFD9C
0093FA6C
018D023C
03100265
FEEF0361
FF070206
FC0DFF8F
FE27FF3A
FEBC0028
0232FF7D
0219FEFF
FC3601E7
01B40056
FF79FE35
FFEA0078
001FFDC7
FFE7FE72
FFA3FF2C
FF2A002F
FFD3FFC5
FF8CFFC9
006DFF95
006E0009
00AF0109
FD49010C
FF020176
0076FA71
024DFF9A
FD0B00FB
FCEE0938
EE48FBDC
0000F847
FFE7FFAD
FDE1FF77
FFE9FE39
FFA7FF9E
01DEFEA7
FFE4002C
00BFFCB7
0466013D
FCA700FE
FE48FE06
F273FFF3
023D0192
03740406
01D6FFF4
00D0FDB9
0057F183
FDB100A7
FFD7FFCD
FEE50036
FE22FE86
FF040415
FFECFE75
0078FF7C
FC44002C
041CFF0D
01ECFF1F
FF33028B
FEFFFFD6
FF5B01BE
FFC4FF32
FEB2009A
01CC0202
041301A3
02EC050F
FBF7FD54
0282FC31
00BCFD6D
F4810CAC
01D2FFFE
FEF4FCC2
0142FECF
00B1FEA4
02BF030D
00F40003
FF50FFEF
01910201
FD9A0142
FE1AF5A7
FF38FF87
03CBFECE
F868FFE4
03A5F823
0266FF41
010BFE16
0067FFD0
FFDA00F7
00960226
01620260
0064FEDF
0010FE47
FFF106EE
04FAFF3B
FFD7FF77
FF61FE44
0383FF7C
FF93004D
012AFD67
FFCDFF29
0295016D
FFCBFE91
FF71FFA3
01A1FF94
0127010A
FFA201F9
FEB7FFFB
FE8D0154
E89201DB
FAD7FFC8
E662B329
EFF902A9
FFB8FFEB
FFCCFF9E
00FEFF66
FFDE006F
FFCBFFCD
02E200BC
0053016D
FF25FEA8
FC82FCCC
0083FDF2
0131FEAE
0030FF14
FFC8007F
0077FFC9
0082FFAA
0092FFFF
03CFFFAB
FF2EFFEA
007E002B
FFF30426
05DAFFB9
FFCD0189
0127044C
0259FDFA
FD12001B
02A00362
0202FCF8
FE2B0128
FF3C0033
FF15004B
FDD5FD49
0004FE95
FFDD011D
FF940083
0097FF96
004300B7
FDF400CD
FEC60225
032A00C3
FFE30150
00510177
FFDF00BB
010DFFCE
FFD10002
007B0008
00E20088
018FFFE3
FFDEFF24
FF61FFCF
FF09FFB0
FD01FFB6
FC72FEAD
FA45FF6E
00DDFF28
FEF6FF46
00E4FFC4
FC920080
FFDA01BA
003600AD
F7D10044
014B016C
052001DE
FF670012
012D0059
FFF001C8
02B701F4
01A8002A
00EA0344
FCC605A3
04DF04D1
0452FB7B
FC990284
FFA901FA
018F0180
007B024F
FF37EB3C
FD5E0243
FF550166
028F0137
0059FBC1
FDEF019E
003C00A2
0039FFE4
00DA028F
00920285
FF83FF1F
FFBB0053
02530084
052E0240
FFCAFFE7
01720023
00EAFFAD
F8F0FFDB
02400001
0027F509
03F7016D
042B005B
037DFD8B
FB3F003F
FFC9FC16
0049FCD5
F9FE0032
FE7AFE02
008F043F
04CBFE75
00F0FF16
00F004E2
03490106
012F00E0
01AC0167
FFFA01BB
006B02D7
00F4005F
0024FF88
0120FF94
0119FC70
01FAFF1B
FE91FF90
FE71FB07
FC6900BD
02ACFF2E
03A602D0
0137013A
FF6BFEED
0123FF66
FFC1FFB5
FE13FE81
FD56FF56
FD17FE41
008AFD62
01A5028A
020C00D4
00D30226
02200032
0055011A
FDEF01DE
FFF202E6
09140695
FFC20A95
FAEAD5B5
FF16FE42
001DFEEE
FF53EDD6
05ECFDD2
018000B1
0153FE01
00E200B9
006100EE
0066FBBB
00440034
00A300B7
FFF90005
002C0089
FF63FF91
036604B0
004E0158
036F035A
02B70890
FFB2005D
0289020F
0620043B
FE42FFF3
017E015D
008D0244
FDD6FF73
FF56FED9
FF15FDB4
FFD900FC
01EF01A7
0086FF6A
010A0037
00E2FFBD
FEE000EA
FD4CFFB7
00BA000A
FFE20032
00E20066
00DA004F
FF8D0038
00190089
FFC8001B
FF99004A
00CFFE97
FF5A00B3
00B802F3
FEBCFF39
0166FE6B
00F0FF8E
FDB502F9
00740117
FDE4FE5D
FB58016D
000D02E0
011C038F
0170FEFC
FFC1FF4E
007D0116
0155FEB5
0013FF0E
015000D2
FED300B5
00C40011
00410156
FF590363
FD70017F
FFF7F799
016E0027
FF29002B
FFC600D3
FFF30073
0099FED5
FEF8FF61
F4F8FE96
0038F9F0
00BA0165
0608006C
02720121
02320197
012E018D
FFFF01E5
00A6020D
052F0188
D41100E4
0846FBE9
03DCF724
004501DC
FFDE0111
E6220083
00D5FCE3
03EF1116
FFC4FFBF
FFC10032
00A0FF5E
0058FF29
FF33FF1F
FF27008C
FE73FF17
FF0AFE4F
FF06002B
FF990120
010E00FE
0043FE66
0046FFD0
FF54FF7F
FFEDFF08
000800DD
00DD0058
00700167
FE700067
FFAD00BD
05C6F84C
FE21FFEA
0011FECB
FF34FDEF
FFABFFBD
FEBEFFB7
FE5B00C2
00D4FE39
00A0FFFB
02CBF74F
056E00C6
FFAA0192
FFF502BE
018001E0
FFA30051
FED5FF67
FF49FFB3
FEEBFE9A
FF0200A4
013EFF5F
FF48FEF5
FFFF00AC
F88BFBA7
031A035A
FFC0FF62
FEC2FFA8
FEC40023
0047FDEE
FFF3FDB4
0124FDED
00F601F4
FFF2FE6D
04C100A3
06C40280
FF0FFFF6
FF06FF96
FED2FFCA
FDFCFFE2
FFEDFF5E
016B024D
03DF00F2
03630062
03D807AE
FD590241
0465FFE9
060E0317
036A0116
FF730293
FEE50022
F92AFBDB
FEEE088C
FFC0FC81
009EFFB5
FED6FFC4
014A0328
0330FF56
00380060
FFFCFF6F
FFCB0016
00C5FF4C
FFAAFD9F
022A0015
0039008F
FF6E005B
0043FF03
00A7FECE
037A0288
FA290405
FEC305A4
014005B0
FF1CFF50
008E015B
FA13FCDF
FF0E0086
017F05C8
01940264
ED7AFEE2
FFC6FF3A
0040FD17
0873031D
FF0505E6
FD90EF9F
03DE01DB
FF680182
00D0002F
FF6F0577
025B0257
FF34FD80
00120046
FFE40068
FE7101CB
0154FFFA
FE77FF6B
FFD2FEF0
FF7602FF
0078FF1F
FF090152
FE45FF50
007EFFEC
FD7DFDFD
FDF0FEB1
0006FE52
FFDD0005
FED60035
0069FF4F
FE62FD84
FF290264
0339FE63
0014FC9F
FE6FFF12
0147FF18
00CAFFCD
FA38FF7A
00D8FE4A
01C306CE
0063001F
FFD4FFC1
0240FFFF
FF620023
FEB8FF43
FFE00098
FA9DFEC6
FDA2FD5A
FD19000E
FF25FF3C
0165FFB5
01D3F4A7
00F401E2
009301FA
FF18FFC6
FC29FFC1
00BDFF13
001BFFCC
FE94FF27
FD0BFFDC
FF2901FC
FE5EFE23
FE3DFD9D
FEEAFE27
FE06FE53
00C7FC6A
FED60091
00C500BB
01330104
001A01C5
013800BF
FFDDFFAB
FEA901E9
00C60105
00F5FFDC
0078FE9A
01C60091
FFFA019C
FF22FAC2
FF79FFB1
FF9E0149
FF140003
F97AFEA1
00E9FE97
016D025F
FCC10048
FFF70077
FE8EF87C
FFEE02BA
0184FFD5
01FA0147
FEE60083
0107FFB9
003FFF65
FBE1FF10
FF15FE6D
FEAAFFC6
06EB0017
00320256
029EFD82
ED340248
FFEF06ED
015CFA03
FFB5FEE3
FEA7FE1B
FD03FFFC
FE66FE94
00BDFD93
FFFDFF6C
02C8FFEC
0073FFEF
006200CA
02B800B8
FEEE0113
FF3CFB78
02AB0037
002F01E1
000DFD2C
FDD6FF38
FF16FE52
FE9CFD28
FF460015
FF08FF7B
FF140180
FFE3FEAE
01F8FEC9
00E200D8
F222FAD5
004BFE21
01ED03D9
0093FFC8
FFE8FFC2
FFDEFF6E
00A7FF63
FF52FEEB
01290201
00E4032F
FE2AFD1B
0302FEDD
FDA5FB50
FF41FB35
008605A4
FDDA0139
FFE001F2
02C2FFE8
FE28FF3C
002E0146
0409019E
01E0FF8A
FF2CFFB1
01440056
FECC0179
FE79FE56
FDA2FF90
01270415
0375036F
04CFF407
024800AB
009800DF
017CFD9A
FEE5FFBF
FDE2000F
FDC7F7A8
FB98FE66
FE12FE78
FE0A0572
F69FFF8E
FC12FF72
F9DDFE81
04330122
FFCB0320
FFD80166
FFD4005A
FFAA0024
FF81FF89
FC34FFC3
002B00F7
00C3FDFA
044E00A7
F5A6FEF8
F3B9F5DF
F7B4FF41
0091FE13
008F04F1
F8520726
00660586
01FEF480
0540FBE9
00D0FE84
00B3FDAD
FF7100F0
FF210017
003901CD
0083FF59
0176FEFC
FE1B026A
0113FDB5
0206000F
018900E0
FDF7FF8E
00B8FFB6
009DFDF1
FC2B0344
00F10555
01A4028D
05F7006F
F1B5FE47
04FEE5DE
024EFE53
00EC0031
037802CC
00E70043
000BFFE8
008FFFB9
FF16FEC4
0439FEDE
F379EF3C
FDC4FE2E
02320306
FFB601F0
F79CF9F7
00AEFF14
FE4C01C2
0337FCC4
FFF50086
016EFA94
FF640082
FEB20003
002AFFD6
FC58019F
001E02E2
FFEA0026
FF12025A
FFF20364
00D2006A
FF840140
0010FFE1
007FFDE2
0056FD1E
FF5C00C6
FFF001B9
02A5FFD3
FD580126
FE9DFBF7
FC0FFFFB
FEAAFF54
FCC4FE19
FD92018E
FB81042A
FC310E3F
FCE50673
00020693
00060151
FFC30015
0052006F
00350085
0035035D
FE7A06D6
FE41FDCE
FEA9FC50
007BFC2C
000103FD
01970060
01030002
FFB400A8
FE26FED1
00A400BA
00E9FEBC
FF57FF48
048E0156
0331F751
FDD7005E
FEA7FE0B
FED5014A
FC33FF29
05C40545
0308FE27
036CFEEB
FE87000B
048E02BE
FF7402D4
FF03FC93
FDD20593
00F500CF
0038FFB1
002D0194
0099FE61
0109FF00
FFF20372
FEC400D5
FF7C0003
FE9D011B
010E032F
0096020E
FEFCFE10
04CCFFCB
00B60062
013FFF4B
0028FFBB
FEFDFFD8
FF99FE8A
FF3C030E
FEEF0330
013F0715
FEFF00C9
06550166
FE78031C
FB75FC95
01F703C4
FE49FA11
1019FE11
FDF8028F
FD3AFFE9
009EFF22
02C800E2
016D00A6
FE78FE78
0156FE47
0047FE96
0579FD0A
FFA00041
012BFEB3
0271FD00
FF46FF27
FD50F76C
FE99FF4A
00760041
0060001D
00A00043
FF450035
003800ED
FFA4001C
001CFF5F
00CEFE39
0072FF09
0085FF46
FFF6FDBF
FB55FF14
00630025
FFFF0015
FE240115
021901B1
01C0FBE2
047BF9DA
029CFA02
01E505A5
04DC0274
FF980067
00A30092
01500258
FEA40210
02CB083D
0320FD4F
02B2FEE7
FF8DFE42
F0F7041C
FC0D0644
FACBFF2E
FC1402B2
FF3500B2
FF0B00DC
01FDFEF8
FF16FF02
FF0C0059
0086FFC4
005FFFD3
FFD100D7
FF78FFF4
FFA0FF75
FE0A1032
037AFE73
02340111
FFE0FECB
030B03F5
01CDFDC3
0721FBE5
011504B9
FDDFF992
FDC50AF3
012B0168
0330019A
0426FC52
FAFEFF40
00B6FF80
0006012F
FE990170
FDFF01F6
012CF313
FF930225
00AC012B
FED8038E
162404BD
FEA20752
FFC2FEB0
FEC30057
FF19013E
FF390321
FF7AFF87
0145FF48
FFAF0205
0761034A
FE90013C
FE2F03AB
FF7E02B7
01F90148
0129FF12
FD3C0161
FE2902F3
FC50FA40
F9CBFF46
FFAC0025
FE7304ED
F7CD0139
FE65021A
FF2FFF51
FD4000CB
0003FFCB
0139FECE
0006009C
018200AE
013C00D4
012C0053
006CFFED
FEB2FBE2
FD88FF57
FF14014D
FF320203
FEE3FFA1
00110035
FF6B00A2
FF73FFF7
FF450021
FF29008C
FF1F0153
FE26FFB6
FE8D0167
02E4009D
029806BE
FD1EFB23
F74D0255
FD25FF7E
FEC2044F
005F00AC
FDCFFF12
FD7B01B4
01DE011B
009B008D
FF71FE8A
FF8CFEBC
0064FEE4
0171FE9E
FDB5FF41
FFCDFEB4
FF4DFEC9
0E180E77
F9EC0CD5
FA9DFFA7
FCE502E7
FDD5011D
01A30351
0211FF83
FCE80161
025702B0
0993FDA6
FDCEFC13
00570603
FE3E040C
FF210425
FF93002B
FFB00006
0027FEC1
FFF1024C
FA04FBA5
FFAAFF4F
FC92014D
FC820054
00D2024B
009CF65D
FBD7FDC9
FA79F9E7
FB8C0DF2
032AFD95
FEAAFDF1
FE0DFE9C
0245FF21
00D7FF3B
009001C2
FED0019E
FEEF0164
FFF4038E
0341FEE1
01B3FF5B
01C80027
0275FFAC
FEEB0048
FFD60392
022D0025
FF1AFF8E
FFF1FF41
EEAA00E7
FE86F971
FEA3009E
01F60168
01A2035A
01B602A4
FE98FFBB
FFFDFF99
FF510191
F900FF4C
FFCA017A
0062FE77
044A000F
00ABFE8A
01240098
0002FFE4
FFD00061
FE3400E3
02120190
020D006D
00C50077
03C3FF9F
FBB2FF1C
0141F876
FC6EF94A
002701AA
018D04AF
FFF2FF62
FFF1FF23
002CFE44
04DE0169
0098018A
0022F322
FD0A015F
F9FF02A3
FA8701C7
FEE600CD
FF6E003B
FF70FF52
006F00C2
05C3005E
0537FBC2
FB5E00FA
FF2201C1
FF53FBD1
F0A30277
04B102CA
00F9FEC3
06B6FD23
0511FBAB
F7ABFF7F
0005FE1A
00C00150
FC10065F
0336FFB7
0190000E
013201DA
02BC014E
00F30198
019901B2
FEB00000
00B70030
00BDFFD8
FA79FF75
FF3C0050
FF4A00A5
001BFFFB
FFBEFED7
FE6700C0
0264FF01
FF91FD74
004FFF38
FB0802E8
00FFFAD9
F896FC98
0174FF68
FD46008E
FD76F357
F6450541
FE2903E1
FD080D53
0827F156
044EF3D3
028CFAF6
FF5F00E7
FC57FF73
FC2308A7
0417FF0F
0560FD13
03ED173E
02DE0004
00540096
FFFDFE85
00ABFFAE
01D9FFE6
FBFFFB15
FF06FEF6
0417FF11
FB98FB66
00F20001
006403A7
0085FFAB
0521FCF8
FF17FF66
00BB014C
01500296
009DFFA1
FCEF0262
01B5FE5A
02C805BB
FAA3FB52
FAC2FDD1
FE0B0422
FE4FFD76
FAD5F56C
FD2CF240
FDFD0D55
00CB0104
FFD3FF90
0158011A
017D0115
01F0FF2E
00BCF0C8
FF33FF1D
02AEFF13
03040247
FF9DFE32
FF56FD48
FE30FEDE
F846FD2D
008CFB26
017EFC9F
FCA7FFC1
FD0B002D
FF8103EB
0450FF1C
007C00FA
011600D2
031CFE3F
00CBFF5A
0007FF66
00A3FF48
039C00FD
0240FFA3
0380FEBB
FE68FDB8
FE0E0001
022EFEF6
0049FE1D
FF41FDB6
FD10FEE8
008AFFA1
00480206
F3B1FBF2
FDDAFA6F
0105049B
060CFF50
005AFFEB
FFA3F323
FCE8FDBF
02CEFE56
01B7F613
F1EE03A0
FC4C062D
F991FBD5
F3FE01BE
FE90002B
001AFEB2
00A60079
FF6E0105
000000CA
F7CD0046
03C40086
02B501FA
FF6103C3
019A044D
02AEFBF5
FEA80151
005E0123
009202C4
01CBFF2D
00F6FF21
00D6015D
02BAFF36
FDA3FF9E
FE0C00A4
01FDFE56
0012FE37
00D80139
FB6FFFAF
FB96FC33
FC01FDD7
F9E2FE23
03FFFEE8
05ABED91
FE120059
018802A4
01ADFE77
02FAFFC7
005FFE8C
00D2FE8F
0106FF47
FACE003E
FA350A50
FD6DFD4E
FF8DFC7D
FF56FCAD
FEB0FDF9
FF93FDCE
FEF60259
00ABFF06
FDC1FE93
FED4FE73
029100D8
05AF01D3
FD5B0254
003BFE71
FE64FF9D
0086FC2F
0139FE4D
FF760097
FEEBFEF0
FFEBFDC6
00B6FF41
0031FFDF
FDFA02CB
02F10316
FD7602D2
022CFDDC
024D0208
0207044C
000DFFB4
F4C000BD
F66CFA71
FDF3FE1A
0033FE91
0027FEED
00FF016D
0055014B
014D0125
01F901B5
00990262
006501ED
FEC7FF45
FFE2FFDE
FF770293
FF08FDE1
FEEEFF00
FF70FFB7
FF0DFF68
0107FF52
013B0097
FE120192
FF0700D7
FF4701AF
0002FFA3
FF54FEB4
FBD5FD38
02AB038D
FFA50064
00CD0738
FC7A003D
FC69FF2B
FE07FFA7
FF8CFFC2
011903F2
FE64020B
FD7C01A5
00D7FE2D
014FFF38
FE6E02D1
FDD90028
0345025B
FF530142
0286FEFE
01EA02B5
020E0107
FCC30095
FC0EFDCB
FC9AFDD4
00A1FE22
02380406
FE8BFF1F
024AFEA8
FE990030
00ABFFD4
01A500CB
FF91000A
004901ED
021A018D
0035FDFB
FC4AFFB8
FE7AFF51
0337FD75
FDF302B8
FE040015
0037FE54
FEF60613
FF53FDDA
0579FB3A
FFF203F0
0122FEAF
002BFF27
FEEEFFE8
00E9FFDA
01080360
F68BEE2E
F7F8EC9A
FD1301AD
06040390
00790A6F
FF8300DA
028901DF
0163017A
FFCEFF1E
01CE00F4
FFDBFED4
013CFF85
FF3D012E
FC21FFC9
FB02FDDB
FD27FB70
FDDBFAED
FF740079
FB80FB7B
01EDFF3E
044CFFEA
FC2CFEF9
00E3FE27
00590088
FEE1FF9A
FFE1FF8E
FFFC0052
F65BF8B4
0452F6C3
039A060E
FF13FC71
FE3EFBEE
FEE3FF4B
00A1FFA0
0238FFB7
015E0022
FFBD0090
FF81FEFC
FFDC011A
001C001A
FED40036
FC53FF10
0245FDFB
00ADFF0A
0345FFD5
FF26FFED
0131F911
0067FFAD
FD520515
02BC0597
004303CF
FBC1FFCF
006306C6
00E3FCF6
00C7018F
FFEC01BA
FF04FE27
FD53FE61
FDE5FF22
FE7DFED3
03D9019F
004900D8
008D0031
011901C8
014C0154
0177FED0
FE12FEFA
FDB20030
FC93FF03
00EEFEAF
01EDFDC2
017F026B
FCB3007A
01AEFE57
FF93FA86
0036FEF5
02D4FE99
003CFF59
002F0062
FF1A020A
FF84FF04
0248FD5F
027CFBD0
FFA0FF78
07430086
FB41FE18
FBD8FC96
028CFFDC
0090003E
00B40019
FDF5FF25
0227FD21
033804C6
04790232
FF3B062D
FF41FE20
00400191
FE57007C
FE8CFEF9
FEAC002A
FFFFFF1E
FE910014
FEC8FE9C
FF7FFCFC
FF670086
013C0052
FFEDFF0F
FF78FF5C
00D5FF7D
FFB800A7
012AFDFD
FF2BFF94
FF97FF8A
FDE1FC0D
0A680258
FAB104B7
FCA0F1FC
07A1043E
FC640565
FA21FCE4
FADEFB7E
F9DDF924
0372FECE
FC7A034A
0108FAA9
0215005F
F8E0FC57
FF3AFC8A
01B205F2
FF60026A
FF7B0174
0085FEBB
006E0094
FE870024
FDF8FEF6
FDF1FEE9
0105FEFE
00370007
FF5B00B0
FEECFFD3
01F0013A
FD1C02A1
01D1017A
05D80367
FFC2FE38
01C0060C
FD9FFFC7
029D0173
FEDAFFB9
FEBA000E
FC7DFD68
01E5FFA0
044400EA
F886F9B2
FFFCF99B
FFB7FDB0
02960364
FEA503A6
FF48004C
0359FE8F
FE4B00E9
FCA20047
FFC3FFDA
02B2FECF
02D40038
FF86FF9A
0A4CFF76
0D910933
FFD001EF
FBBB006B
F9EBF954
044AFF13
0190FD97
01DF02DF
0110FED9
00BD012E
FFDCFDB8
00640281
01D6029B
03C60585
FE03FEAF
FF13FEC3
FFD50055
FD15FF73
F8D3FF13
F8FFFB3C
0120FD39
FE14FFE6
02230119
056F070E
00A80787
FFC30107
FDCFFC45
00B5FB8E
03D6FFB6
FDF6010F
01D1FEF5
00E7FD70
00590034
00BFFFB4
00160170
FF48FFA1
014EFF73
016601F6
FEF60089
FF51FEFF
FE17FDB0
001C01C4
02170231
FEE0FE23
FCC000B8
FD67FFB5
FD6700C1
00DA0248
FC6A0250
FBCEFA5F
00A20036
00B40193
00D000C5
02A00118
00230098
FF0EFDD7
FFC000B1
FED30010
FEB40004
FDFFFCD8
04CCFCD2
04250731
02A7FF3C
FE6B0089
F911F97C
FF5A0420
017E0045
01290104
0652FD92
021A036A
01B3FAD8
FF98015A
01B80194
00C8FF12
01710282
013F0135
02610191
FF8E00DE
FB1AFE51
008EFF70
020F00E5
FF2201B3
FE81FF57
07180173
FF78047F
FF5FFA02
00FD02BA
0135024E
00900047
FDECFF23
01A8FF7E
01D40082
FE9E00F1
FEB3FFBA
FD36FD01
FF720128
0106FF30
FFEEFF5C
0001FF6B
025CFFB1
02AA0365
FFA9FF72
FDEBFFAD
FD53FC72
FF71014C
00DE001E
FFC1FF6B
FF83FFEE
007602AD
004400B9
00D5FF75
FDFAFF90
FE66FD5C
FF01FFF2
FF2DFF0A
02390148
01AAFE92
0728FDCE
0996060D
FEE40386
FCE50203
F9A1F88F
01CA0181
001D01BD
00AF0011
FF88011C
004B00F6
FD6FFEEC
0669022D
0011FFCF
FEACFA53
FFE200C9
015F00BE
00E2FDFD
00700196
FF70020D
FF620223
0295FF36
FFE10278
FFFE01E3
FFEAFFB0
FFB6FF91
FFE600E9
FF6D0033
FC080001
FA52F9D5
FEC3FF65
FD7DFDE0
FDAE022F
FD0EFF7E
0031FBF1
039102D2
FD0CFADF
0040FAE2
062B0064
FC0002C3
031700BE
0133FE60
00D00053
00D2FEF4
009600C1
FEAD00A8
FCF800FE
FC62FF8C
00EFFE37
014CFE0B
01F30200
FF5CFF8C
FEF2FE02
FF050183
FE79FEA2
0619FDF7
05970266
01F4FD69
FD40FCD2
FE1D029C
FDE0FEB9
0160FE64
02550279
FF88FFC7
02D601B9
FF2D0024
0664FFD1
FCB002BE
FB1CFD16
0055017C
01DFFE76
01B601C4
FD9F01CD
FC2B02DA
FC09F6A0
FA6101AB
001D0090
FED30380
00960054
FF840119
FE970036
01D2020C
FDA7FF7B
027401C8
FE5EFE58
FFEC011B
03D001A9
032D0077
FFD301D2
0294FDAB
FE700174
F9B1FF8C
FBC2FAB5
02E00002
05D20240
00C5033A
FE92FF5A
FD87FF3C
081500B2
FF70FEA5
FC78FED7
FC97FD10
025401CD
FF3604CE
0001FEC3
0138FFFF
01890138
FD4701BC
0082FFCD
FCC7FFFD
FC81FA9C
02B70166
FF220297
FF41FC7F
0276FFEC
FFCA00F1
01120559
FF4200E2
022000A6
0214FF4B
FDD1FEAE
00920002
00FDFF0F
070E081F
01A60A19
0181FF1A
FA54FC12
0000F959
FF49FF7E
FD8FFEB1
00D800BA
0040019C
0149006D
0087FE49
006002EA
FEEBFCF5
FE38FCAE
FCF9FDF4
00A4009C
02F200D5
03F902C8
01D20041
00E4028E
0113FD00
01AB03F5
FFC50288
FF5BFFE9
FFE2FEB1
01D0FFC3
0169FFF2
FAD7F97C
FE6DF9F4
0120FBD9
026407DD
06DF08BB
08AC04B9
0262018D
FAB7004A
FAEFFDBA
FA1DFE1B
FFBCFF7F
FF32FC6F
F796F63F
FF57F621
029AFFF1
02CC0188
FFD2F8D3
FEDC00E8
FF54FFD3
005FFE76
FFFE0117
FF5DFD13
013EFE52
003D0144
FCFB003B
FF0AFF64
FE33FE19
F87BFAAE
FF90F9BD
FE63FE78
042D017C
F19E0236
EFDDEB93
FB9EFF25
FF68FE6D
FED30069
FE77FEE3
FFEAFEDE
00C2FE62
021D0090
006300F8
048909D0
F8E1FD36
013AFA5C
01B7044B
0015014E
00ADFFE2
FFEDFF1C
FE31FFE6
03D8FF2D
FB2B023C
0116FE08
F5F8013D
0888FFEA
F980FB27
F411F643
F9B9F9E0
001F0457
020C0229
FFD2039B
0242FE78
037CFE88
02F4036A
005EFEDB
02110096
00700050
FD190235
FDE8FE45
FD58F993
014D0096
031B0294
054B03D2
005B0111
FFE7017C
00750236
0214003A
FDB600AA
FE04FE59
0509060E
FB2C07C5
F90805B3
FD46FDF9
015BFDBA
0056FBE7
F169017E
0128004D
018D02DF
006A004A
FE2CFFF5
FD56FE14
FF770145
01550225
01410183
FD7CFE18
1043FC2D
0F1F0D4B
03040242
01B30187
FF6B09DC
F6E6054A
FB4AFFA7
FC6E0445
04D7FD89
0163FE89
02ABFF83
FF30FDFE
FEA30070
FA4502CF
FE5FFF99
01970033
FE0E0108
FCE000F6
00BF0139
00A40129
002801AD
00D00140
00F6FF48
01860433
01E105A3
0005FAF8
FDEDF88B
07BAF89F
FA0DFBC8
01F90046
FD97FDF9
05020133
016D0049
FE2C015C
FE40FF8F
01AEFF36
F97EFF2E
08C1F771
FE18FD70
01D8FEC7
F495017E
FD9C090C
00DCF852
018800AE
01D1F659
FC530308
FAD1FD42
0146FE40
FCF2FEB6
0159FBF2
F919FC64
00F4FA68
FF9C02A2
07760345
FDB904BD
FD5CFE2A
FFDB008C
0201015B
00DAFEDB
FFF902B1
00CAFEB2
0034FFB5
FB36FE39
00D10310
FCEB01D1
FA54FE2E
FD92FE65
FCB0F989
F335F68F
01D7F7C9
0118FB97
025002F1
000C041A
00620107
FF4BFFE3
FED1003B
FDDCFF6B
F532F09D
FE23EE40
01CFFE37
036302AA
007302A7
015C00D7
FE1E001B
FE97008F
FEC3FD39
FDCA0227
FE2FFF06
00E40084
FFD9FF9F
011D0163
FE9AFA5A
02E1FEE0
FFDAFD07
FF7F0629
00AB0529
FFABFCD8
FF57015F
04D3012C
057F04FD
FC0702D9
00EA0170
FB0EFEF1
FCA1FDEC
00C601B1
FF040112
FF17FD76
FF32FF1A
FFA9FEC4
FEFFFF5E
009F001E
FE4DFF49
FC6EFCE5
0010FF7E
FC9500C7
FDB80122
FF88FD74
00EAFD12
FFB5FFD4
FFFB00A9
01530087
022B00DF
FC67001F
047AFF2D
0570FF4D
0135FF5B
02EFFDDA
FFD2025E
0178FF2F
0215FEF4
FD89F978
0B0500A5
006DF838
FDA304A0
FA3604D0
002805FC
FF18FFB4
00120052
00ED0129
030307C5
FD2D00C4
FED8FF65
FD7000BA
00D806F1
002203E8
FEA1F991
FFC9FEBB
019EFCC7
F9AFFF85
018A02A6
01C90113
0026FE68
FD84FF3A
FF5FFE4F
FF67FF66
FF0000CD
00C90062
004B018F
00DAFF72
0062FE93
FE80007A
FE86FFAC
F60C0002
F5B5F2B5
0081FC10
FA0CFBC0
F5E0F207
016FFE54
FA95FE64
00F7FD07
FC9B0031
F9D9FFA7
059AFAC0
05A1015F
037FF5DC
05E0032E
EE48FA4F
FFF2F7F0
FCC8F7B5
F5FA0063
FF70FD7A
FF7CFF9B
FEC1010F
FFC2016D
00E200AA
FCB8FF4C
FD27FE42
FB51FECD
01D702FF
0637034E
078405E4
FE09010F
056F00F7
007E04D7
02C0FEA5
02AB0184
FDD40294
0191042C
02EE0053
04E3026E
FF1E005D
02CB01E9
09330432
FEA2FDA4
01ACFE10
01E101AE
0145032D
FD9A0349
FB86F611
06C3FC87
013BFEB4
0838F41F
FF4600CE
FE97022C
FD6CF786
017A008B
00EEFFC3
00F104DB
03A10136
FCBD00AB
FABBFCB4
066BFC69
0222FBE9
00A8FF08
FD230095
02C40055
03E105C5
F9A5F448
077DF375
084406E6
F9D6FF07
FF32FEBA
FFE0FE4A
03D6016C
012D0317
00F1FECC
0185FE46
010DFFD8
00850435
02F105D9
00160494
FF15FD5F
FDEBFC3C
00BBFDB3
0332FD7D
0216FDA8
FD7AFEFF
FD51FF9A
FF3AFF79
FFDAFEB6
0091000A
00B100D6
024F0154
030903A6
FEC1FD74
FE5FFEAF
FF7D0302
0249FE95
011E0412
FDFFFF08
F9F7FC8F
EC6C03B3
EFA6EFFA
087B060C
FDEE07BB
FE710599
0094FFBC
FEA6FF70
FE00FE4D
FECDFD54
FDEDFDC0
FE04FF10
FFF800DE
00BC003C
FF5FFF63
0458FC14
00F6FA7E
0294FEAE
04DB016A
FC31032F
FE1F014F
FED7FEC5
FFC00270
0112FC0F
01CFFA93
FAD9F8ED
F670ED1B
046E0261
FF1600B9
000EFF1D
009AFE86
FE7EFEFE
FF08FF42
00B0FA1C
FFFAFBB1
FDEB0242
FF54FCA7
F868072D
F710F6F1
08AAFC68
FF61FD27
00340016
FF43030A
02B601D2
02B601E2
023701BC
01B90135
01210181
FFC400A8
FDACFF7E
FE0CFC3E
04260127
FF9D0284
0130010F
FEEFFFDD
FD3CFF38
FE0BFE22
FDB9FF81
FF65FF74
FFCEFDA1
FBBBFACC
FE220682
011300B8
049C029A
01EBF8B1
015C0186
FF2DFEAB
FE59FF6B
FD5DFF90
FFF00079
01990118
01380006
F8FBFFDD
0174012A
010C04BF
0015013F
FCEE01BF
FB76FB2E
FF14FFB1
0025FEB1
FE69FFD6
FD5BFE71
FF94FD8D
00FD0119
FD90033A
F76FFED4
FEF1FBCE
0256FFFE
FEC9024A
003D0117
FDC8FB3B
FDB3FB7B
FF3EFCD9
054C049A
FB5A04E9
FB0CFFA3
FC78FE68
FEA2FEE6
FECBFFA5
FC34FF45
F490FEFA
F48AF1B5
0093FDEC
043CFDCA
055604F4
F3F1FC6B
FDD9FCFA
F739FC98
F7B2F945
FE86F967
07580090
0420FC48
FB7CFF5E
FB1BFCA0
FF69FF52
FFDDFD75
004F01EA
FF57FFB9
FE48FD82
FDF1FF91
00F1007B
004C007F
FFD3FEB4
FF95FE7D
0127FE38
00B10139
FDC4018D
02E5FCAF
04BCFCF5
FED7FDCE
FF2DFE4E
021A0261
03B90429
FF1804B3
051EFF5A
013B0030
04A8F397
04CA055D
09160517
FD150658
F8CB046F
04A501FE
00E7036E
04330650
017FFF27
F59DFB0F
F6D1F66D
F617F552
066AF6E6
06640CF2
00A40061
FE6E012F
FFF3FDD7
FDA1FCD0
FC6CFD7E
00D9FD95
02C2FF3C
0706FE7B
F66C02B4
02B7026D
FFD8FF32
FF1DFED2
00D7FC1F
FE5FFF17
FCFB01D3
00430082
040E002C
FD4CFF20
00F0029E
FD95FD53
045CFDD8
FAE6FBF0
F28601E2
F174F1D8
010A0154
0024008E
FB3202CA
FE2FFF52
FF6E0340
FF490094
FBD80253
FF5FFC32
FDA1FAB8
02B2FE59
FECAFEBB
FF2204C5
06A0FB42
FE18FB76
FC01FA9D
F7E50272
01E00486
00F0FE27
0126FCB2
FD7EFD5B
FBAD0176
017FFFAA
FBF3FF05
FC99020A
FF9AFC1B
FA4EFC16
FE140224
FD82FF51
02F5FDA1
00D1F8E0
0252020B
00B70275
0290FE8D
FFF5FF71
FE8EFF7E
FEFB01FC
0068FDBC
01AEFE55
010BFFD8
0D89129C
FCD21046
FB24FD17
FE19F9F7
0025F903
0189FED7
FFD8026B
00C200ED
025100AB
FBE6F792
0057F807
02D50622
0430039A
F88403FA
F6DAFECE
FBD80047
03A5FD1D
0129FFA2
0276043A
FF1807A8
FEB40647
FEE6069D
FDA7008E
0248FB35
FD820120
FE8FFF62
FB5D03C0
FE7A007C
FF60FEF3
FF3A0087
FFC7FE16
05DCFE1E
04CE05C7
0097FD5A
0115FBBD
00B4FDFD
F963FBBB
02CDF716
02190271
F92D000E
FA8FFFC1
F90EFB04
048A003E
FB55FF0E
F774F6B3
0254012E
FFA70262
FF0E0124
0016FFE3
04A0FED7
0459054D
03B30454
00B00196
009DFF7A
FEA6FF00
FF08FEAA
FE100137
0028008D
02FEFF87
FEC20384
01A2F095
FF180992
03F0029B
03D30B9F
FD2802A5
019FFC7F
FE6CFD5A
FD39FF67
03830182
0298069F
FBEB011C
0422028F
002E0056
0972FED5
F76FFDC3
0074FE4B
0266FC6B
FEAAFFEA
FD9DFAD7
028FFCB6
FBA802E8
00B9004D
FF1200C2
FEC9FF70
00F7FFA8
005F008F
00D00213
0290027B
000B015D
FF2EFFB1
00B3FF1A
020D0199
02AAFC8A
FE4203EB
00A5FFE9
0057FFBF
00AFFF47
00F4FEA7
0011FFF1
005AFEFA
003B00F3
0066FE0A
02EE0254
006300AD
FDCA03AC
FA8603B6
FD820109
FDD4FE92
0484FF67
08E8FFF1
0A40F88A
041B0065
FE770241
FD82FF86
09000430
FEBCFBB2
FBE0FE87
018401C3
FC31006F
0328FE69
01350290
FEE900CD
FEAFFF32
FFD3FE8C
FF56FD85
FED2FF58
FFD0FF9E
00B20153
0063FBF6
047802F7
02A3FD71
FE1B00E0
E721D860
FEF403FF
019CFFB5
013A010F
FFE400FB
FFF10335
FF68FF37
FE24FEAB
FF0CFF87
FBAB0537
FE6BE6CE
FF93FD35
01C8030D
EE630185
06DA0529
028E02FE
012D0259
FF2AFE91
FCE301D9
01A103E1
FFD0FF00
024700C2
0178006C
FF3CFF80
0039FE12
FFE100E6
FDD00100
0120FBF3
0143FF86
FE6A00B5
FFA200C9
F9FAFEC3
03490550
FE680078
FC2DFF72
FF88FE53
FF01036A
032B030E
01D00254
014FFDDA
03ED0199
FD21094F
0417FE2A
000300D8
000CFF87
0234008F
0028FFF0
FFF3FFBF
009BFEE3
FF10FEA4
FD37FD92
FFF90033
0012FDDB
FFD00195
02F6FF5A
01840069
FE6701C4
FF61FF1D
FC8BFFE0
05D902E0
FF7DFE2D
FF0F0064
0194023B
FAC10590
FE220216
02A2009F
0179FEAE
FB5002ED
06FBFF74
FFEDFB66
FEC50408
022C015B
08D3F67C
FEC109CB
071DFEC8
00D7009F
003D003D
FF0A001B
0082015B
011B00CC
FF3A02A4
03CAFDB1
FF9BFD16
FF310013
FF810120
001AFDC4
FD80003F
FF7E0139
FD3CFF0C
FE54FD28
FDD6FF62
020AFE67
004000A8
FF8001F6
026C01A6
FE3E074B
01B3FF75
FDF7038A
FFFCFEB8
F7C80529
FC180021
FDD901A4
019503BE
00ACFC64
0673FCF8
FF62FE0F
FF090250
01E601DA
0086FEAE
FE6A006A
020F0096
07570644
FC600576
FF8104D1
02AF01E0
FE33FDF0
0098FE47
FC490278
FD88F1AD
FD22FDAB
FDDAFF5F
FF99FFC7
FDE500AE
00260029
FF92FFBB
FFB70003
FE8D0095
000DFD8D
FF11FE92
011800EE
0029FEE6
00380564
00D40385
FE6A003F
005FFDB2
F9B200EA
008C05AE
FCADFD8F
00120159
01EB001F
03D90358
FFA3011F
FC7CFDDE
FBF0028C
F89709B3
FD4AFBBE
0151FE88
01C8FF47
032E01BA
FD84F98D
02F5FDA6
008DFF9E
0103015E
0105FED7
FFA4FFD9
00B200D0
001BFF77
FFB3FF14
FF1E0024
006E00D5
030D004C
FED8FFE5
00550249
FD0DFC32
04050222
016CFEF4
FF8C0438
0002FEDD
00C0FEFA
02FE0493
FD0DFEA6
FEDEFC29
FCA2FF38
04E90013
0092FFD4
0058FDBB
0153FF66
FDF90014
FE76FFD7
00B900E2
FB5003C9
FF4F05C5
FF370399
0326FE75
09E50136
08E40098
FEDDFB9C
FFE20085
00DF013B
04C0FFFC
FF250062
FEFF0004
010B00B5
013A0210
013D01A6
00710158
FE3403FA
FA2CFDAF
F644FB2A
FE6E003A
FC700152
FDCBFEB3
001FFFC8
0139F8FB
FD0CFF41
003201F9
FFDFFFD9
024A0103
FFE90114
00BC01B8
00450057
000200C7
FE56FE3E
FC5BFF39
0051FE7F
FFDA0116
FBD00535
FF37F96F
FEC90018
0015002B
FD400031
FFC6002D
005BFF79
00F00103
FF93FFFD
FEF2FF16
FED00046
010D0085
FA5301BB
01F800F7
FA630290
FA050171
FE9802BD
FC8EFE21
FD9EFB6F
FBFAFDD3
FCFCFF1D
010F0000
FEC3016D
FEEB03C1
0022FDA9
FFA1FF37
FF17FFC9
00FFFF7F
0028FE6B
01050117
034801E4
06F505AC
07FCF9E8
01ACFEB6
FE65FFD2
04FA01BB
FDE7FF3A
FD830685
04DC0074
FD45FEB4
FEBBFC8E
006301C6
0033FC85
FFD1FF5F
000EFF5D
012C0070
00E2FEF7
0024FFC1
FF0DFFAD
EB630083
05D4F339
02C1012B
FE0A0068
001F01E1
F67E09DB
00100B7C
06C5FEB5
01D0004D
FF470046
FEBDFFBF
FFBE0084
FED7FF74
FF6D0076
014CFD7F
FF7DFDD4
FF54FFB5
0156019E
021900ED
FFAA03A7
FFD5FE88
0042FE61
018F000F
01060206
01110131
FDE400F6
0008FD4E
06DEFEC0
D660E9D9
FDAEFDA8
FF5DF9B4
006FFF34
02C60029
FF660000
FF950057
00ECFF77
FFB202F4
02E5F964
030200A6
0066FD77
00C500AB
020A0146
FECD0129
011C00EF
0141FF8A
FFFEFF30
FE820283
004A000E
000AFFB9
FF9FFF93
FCBFF92F
0040FFE9
0400FE99
014AFF92
0012FF88
FF9F01F3
0211FF38
FD93011D
0145014E
03DF03B4
00FB0803
FB230217
011F00A8
FFE8006B
001B00C1
FF990098
FFB6008F
006404BA
FB98020E
FE93FE99
FFCE0150
FE68FF28
FAF5FE96
FB8AFB17
FE97004E
FF97FEAC
03AE023B
F8680D08
00B4F6AD
FEC802B9
005D0041
010300EA
00900205
0363011A
FFC00279
FF3EFFA3
FFBAFE80
FEEBFE9A
FED9FF42
003BFF07
0289FF21
FF30FE88
FEEDFFFF
03E4FDBB
FF160151
FB6302CC
03F1FC5A
FC6601C3
FE36FE6E
0466FF25
F809F89F
022AFD2B
00A2F2AE
00E50238
FBC3FDC8
FFCCFCF6
FB02FC8F
08490DD7
019103D5
01140854
FFC2FC55
FF3D04AC
FEDCFF99
FFD9FE02
02180068
FBEFFFC0
FF23FF44
FDD8FEE6
FE000100
015F01E3
FC70FFA1
FD6AFF6E
FF830B8E
FC16F3F5
FA6AFD99
0013FE7A
FB74016F
07600598
FE3BFE75
02D102F0
FCE60285
02C703C3
0359FE9F
FDA50188
005EFF50
096D00CB
FF6900E3
FEEDFCE8
024601E5
0092FE9A
FE1602BF
F1360164
F5EEF4F7
FF4AFF43
00C1FF98
F83BFE5C
0162FF12
FD8CFBB5
FF8200EF
F7F304EA
FC3801D9
023001E2
FE7AFECC
001BFF64
FD41FF28
FE8DFD67
006EFAEF
FF41FF86
FE400433
004900ED
00B0FE1F
0011FF98
FEEA008F
FE23FE57
FEEC01C8
FCCBFEF8
054C0223
02D6FD7C
FE3F05CE
00A201A6
019A007B
FD910163
FE6E0228
FFECFDCB
00A1FD9A
FE5600F3
020400CB
FE1C0031
FCE7FEFD
F11FEF69
0818F4BC
FF37F3E2
FBCFFF72
FF7C006C
01CC010E
F3AAFDAE
0449FCD5
FE88FC85
FC290075
064000C4
0673FC4A
FFD1FFDD
03AE04C2
FF06FFFB
FC7EFDFA
FEE9FFF7
FCB7FE17
FF35FBF3
FFBFFEB5
FE940009
FCF90383
FDAF0036
FFCCFEAB
FC6B049F
FC40E9C8
FAF3FAD5
011B016C
FFCB0136
FE2D00E1
FEEAFF1A
FF14FEAF
FE66FF98
01EEFDF0
FF2AFED8
FED0FE26
FF4BFA6A
F856FE7A
FCABFD9A
FFA6FF87
FC8BFBE4
FE7BFCD1
FF1F06D0
013DFCD1
FD70FBD4
FFF4FFF4
014A0056
010BFF66
004500A6
03BC003A
01DB02D2
FC6E0146
FBC00082
FFF3FFEF
01FC00D3
021A01EC
02680035
01CA019B
FFCE0244
010E005A
FDBC021B
0503FEE2
FBE30162
08140294
FEF50405
FC42FCBF
FD39FB45
0191FC73
00000083
FF670101
0173FF7A
00780166
014BFE3C
FD98006F
FFE5FF5C
FEBBFFD6
0033FF02
0005FE26
FE540067
01E7000A
02D401D8
FEF80081
FF8800F1
FF96FFB3
FFD6FF2D
000FFF96
0035FF45
004C0096
FF7A0080
FFE100DA
FD5C011E
0139FFEC
0052026E
FF13FF24
003B0048
00650048
0079FFFC
FFCF0013
FFAD0043
01640056
00C0FF28
012EFF1F
FF590035
00EE0059
007C0233
030E003F
00CF02C2
022F01EB
0169FD2F
FF36FCEC
0071065B
04CD0239
FFB001E5
FFA0FF32
004C004A
FFE6003F
FF6600CD
009FFECD
0038FF49
FE640150
FF73FE72
FF6BFF17
FE840079
006AFF07
FDA2FEE5
FDC5FF24
009BFF3C
002AFE00
00D401EA
01E3FFCA
01190052
010DFFA3
0003FF30
0106FEFD
0031FF33
FFA6015F
0119011B
008E0011
FE350128
00D40128
FEF8FEDB
FF21FEA1
00670168
021EFE8D
00130118
01090173
FEF30017
FE93027E
FB3DFF09
FEE2F833
F9E1F4AB
F6E4F961
F77FF408
0088FE63
FDF0FF5F
FDB80451
01480180
FE8EFE99
002A0072
FE2FFFBE
FF4CFFAF
FFE5FF5C
FF08FEAE
01BCFF43
FE9DFF73
FFCFFEF0
04C5FF0B
03FF0302
FEB201E3
FEE0FF1C
FE1EFB70
FF22020A
FA7A00EF
FB890104
FE0DFFC2
FFE2FF36
FFA9FFD0
0065FFE6
FF51FFF1
FFBF0014
0253FFBD
FEC300E8
FF340242
FFC1FD01
0005FCB4
006F0308
00C80502
01A6046F
0283042C
FF7FFFCA
0054FE99
FEE50044
009CFF8E
0006FF0B
FE53FEF9
01210061
01B7FE42
00A0003C
0157FF17
FEE6FEC8
00C903F1
02580002
0071FF70
FE51FFED
02D1029A
0003002F
FF070094
03E4012D
03890251
042F0427
048601F6
FA6C0245
FABCFFBA
014DFE0E
FC57FCD2
FC8000ED
FFF80037
01DFFE77
02000411
FF530017
FDA801D5
FE27FC14
FF16FC13
FCA2FC27
FC57FD2B
FFB8FF48
00A8FF5A
00A000E3
00ECFF64
FE46FF28
03AB01DF
027B004E
FDFC0059
018E01BB
01DDFD1D
FCB4FE45
FADAFDBF
0011012E
FF5CFEE1
FF77FEFD
009EFFE8
007BFF33
016600A2
FA1DFCEE
FF9DFA99
FCF9FC03
F764FB4A
0055F78E
FEC6002A
FF09FF1F
006101A9
007FFF4C
022B0239
01ED01B5
03850245
030EFF72
003C005D
001DFFDC
FF7B0009
0082003B
00010081
FF53008F
FEAFFFFD
FD79FE42
FD5EFE3D
01DEFDAE
FFA1FDFB
01CE000A
FDC800E1
FEE200AC
022F01FD
02C601E9
026202E0
FB110083
FFB4FF05
FD74FF94
0225FE2A
0145FD8B
0113FDF9
FF25FF96
01EAFE67
020D0574
FE1EFFF6
046700BD
079B08A6
006108BB
04140BAE
0602091B
00050013
FFEC0037
FFE20015
FFF50026
02860079
029504CB
FFF1FE1F
FC65FE39
FCE5F97B
FFE8FEA8
FF2DFF08
01B101A3
018A0274
F91C00F8
F9A0F47E
FB02FCAA
0230FDAA
01C9028F
FE3DFF2D
FD11FDD2
FB8503F7
FBEF001B
FFBBFE71
FD8EFB61
FF73FF42
FEC000E9
FEF90112
FE97FF68
FF07FF88
FEF7FF0E
FEA100FA
FD71009A
F9C9FA87
FF09FC2C
FDA8F9B7
FC17FAD1
FF4B0099
FFF900A8
01A7FF26
FF5CFECF
FF45FE12
FEB7FFD9
0212017E
002E0185
002BFE46
00E5012E
FE6C004A
FE88FEDC
005BFF52
03F8FF2A
01DB049B
05EE009A
01520089
01290128
03F3031B
07310498
092A047E
0962040A
014205C6
FFDDFE88
FF5A0067
003E01B6
0152FFEC
FF7C0005
00040057
004DFFE9
FF930031
008B008B
02B90246
07080561
05490447
06600523
014DFF17
FD560070
04820043
FE7DFDA0
01B1002A
015F0111
FFEDFF89
FE87FFC4
FE59003A
0441029F
05D3040B
05CC01B9
03D5031B
040203C0
059D0349
FCC00448
027204FD
03F003EA
028800A1
001F0098
FF59FEAA
FBA2FF4B
FE9BFE45
FE3B0088
0236FECC
FCD10068
00340033
02FFFE7F
FFD4FF97
0074FF3E
FDF80152
03EEFFC6
065F076F
018D065F
037D08A4
05CA05A8
010701D6
00F70137
FF55FD87
FFA400E2
016B0065
0045FC1B
FFA5FF84
FF73000D
FF61FD74
0008027F
01480295
0274FE52
FF690129
04E300F3
071A089F
FD250853
05320A1A
06FA07EC
F1D2F6BF
F681F399
F40BFBD9
F490FCE7
0024F939
01010083
FEBDFEC5
FE43FEBE
FDFEFC50
01000005
FE10FFDC
0016FD62
FF7F008E
03BE0081
0529073A
01610722
02F507B3
039E05B1
00A7FF54
005FFF39
01F2FF17
00A3FF89
FD0BFF53
FA69F56F
FCA2F580
FC2BF29D
FA11F509
FB9EFD69
FB6AFD4F
FB85FFC0
FAFBFDA2
02E3FD6B
0041FF0D
FF7D0394
FFB5FFAD
FD28FE70
FEEDFF8F
FD26FDBF
FAE1FFB4
FFA1FDC2
0086FE89
008AFDB7
006C0095
FFBEFFC3
FFED0241
FFF80008
0009003C
FFB1001F
FFFDFFF7
008E0020
00D6FE96
01060158
01D90177
02530100
FC64FF25
01ED003D
00F1FC2E
044601B6
00D70139
00BF0073
0159FEB0
FE4C013C
0182000A
F650FC56
F762F869
F227FA7A
F2FBFA38
FF06F7AC
FF41030C
034503C7
00630468
00D901CF
022300F5
0137016A
0242FEF3
01710092
004C017D
FFD9FF5B
FD12FF69
0102013E
0077FFAD
0193008F
FEF30068
0165FF84
FF8DFD8F
007BFF77
002E00F9
01050137
FF6E00ED
00FB02C2
019AFFDD
FE7FFF27
FD8AFDBA
FFE500A5
00E5FF30
FF060097
FE3AFF4F
01690051
00B7FEC6
FC65F90A
FDD1F98C
FD81FE26
FF4FFCA2
0424FD13
F74FFEA1
02650440
FDB7F2EA
FB53FD01
007FFFEE
01CDFECD
00280276
00C9FFFE
00EE00BD
FF490039
01B50136
FFF2FF37
FD44FFCA
0094031C
030AFB99
FE55FFEE
01330256
FE0AFE8C
FECCFE41
FFA70184
004F01D3
000F0363
0017FFDB
FFAFFF6C
0175FFCB
FFE6FEE0
FF26FF3C
FD3AFE6B
FBF4FCA3
FF02FC06
FE43FE4A
01410092
FFEA0091
01770046
008EFFAB
FF38FF37
0019FF93
00E9FFCA
FFF30178
0140022C
0378FF1E
FEAC0043
FEAE00C2
FD5FFAEC
01E9FB05
FDA7FF9A
023804D7
025E029B
026FFFC2
020603C4
025505B4
04E1FF1C
051A0558
FF8C06BA
00400203
02C30002
FF790391
FF1300FC
00620154
0195FF42
004C00C9
FE83FE8E
FFDCFCA5
FF80FF52
015EFFCC
FFFBFFFF
FF4F01EC
F6C8FBB9
FB78FBC6
FCDBFEE1
FFA5FC54
0270FA34
039102BB
001BFD13
FCF6FD84
FC47FF54
FE97FDEC
FF1EFCD6
FEABFE0C
01970067
008E0217
FEAE0035
FED1FFEC
00D60008
01F0FECF
010201E0
FF9801C7
FF89FAC7
FF8F025D
002B01EB
FF7700ED
016CFFBF
FFD8000D
FF710068
025E000D
FF71FF35
00D2FF75
FDF8FF13
FEDEFEFD
FDE6FBE9
06BD01F6
FC4101CA
FC4BFE72
017200C2
00330068
00FC015B
0158FF88
001AFFF6
006F03EB
0020FF0F
FE9FFF79
FFA1009D
FF23007E
01F6FF8D
FFA50055
000DFF9C
FF640069
01D70033
FE440973
0BD301A4
04BF02C6
01C40031
F510FE10
FE5BF9A0
0090F582
02D6051A
FEDBFE82
FF580384
FE46FF91
02ADFFCF
029A005E
F96A01DC
01670232
04C4FA5E
F62BFCCF
003DFAF4
FEF90072
0511FDA6
02B902A8
0033FDF3
005DFF90
0029012F
008401A3
FC0EFF5E
0048FF31
0068FFB3
04C501E4
FD4D00E4
0211042C
F387019F
0326FA59
027DFE00
0007012D
003BFFEA
FFC9016E
0036FEAE
FEC8FF5B
0177FEF4
FFF500DF
058302E1
04B80688
0B87FDD5
FD53064A
015009BC
0350FFF4
FD6701EA
00D2FDC5
0134FF54
034FFDE4
02200409
FF8A069E
01EF0043
023FFF66
FEB7FF84
F92F00CA
016AFF1B
0258FEB8
010DFD72
F6090111
0068030D
FF89FFE3
01D70204
029AFFE8
004A013E
01210275
0210FE14
05C4001F
02F10713
F88A02E6
00C20401
F7D50671
05FC0179
04EEF99D
FFB7FF48
0182FFE8
FF07FFC4
FFBB003C
FD82FF70
021DFB20
F854F0D8
F8140046
FE0AF968
03CA04F2
0C7701E3
01EAFDD4
00720D05
FDD70319
01B800B9
01D902B3
047601A2
FF32031A
FF09FF8B
000700C8
046AFC4E
FF280248
FEB50775
009FFFF6
01CAFE65
FCA2FE24
FF220157
FF41FF6C
02B5FF00
01B0FDBF
F4C903A7
FF91027A
00A302C8
03730228
FEB60037
FD7301B2
FE750224
F57F034D
0320FB2B
FAF2F649
FFAA0668
0087FFA8
00D00034
00170083
FF9901A0
007802C3
0149FE72
FE4BFEC6
0148024C
010C002D
FE5E01A2
020D0160
FF84004A
00D3FFB2
00A6FF23
FFB00035
FFF8FF37
0016FFE8
FDB2FEBB
01200183
FEA6FD3E
FCE00328
089A00CE
00A0FDE1
FDD5013D
0195FD49
FF42FE83
004C0247
00EB0133
FE9505F0
04BCFDC3
FCC6FE71
003E00D6
00F00036
00970005
00C501A2
FEDB00C3
FDB7FD75
01100442
04F0FEA4
FECC0208
007A0140
0123FE4C
0013FFA7
02D9036A
002AFF98
01670063
0174FFC6
FFC8007C
FEE200A4
FEEF017C
FDD20108
00C2FFD7
FF03FD32
018400D5
FFE100C3
FD3A012D
0044FDDA
FA60FAF0
FFA600DE
FF77FED4
FCAAFADB
F9D602A5
024EFE27
FE3900DA
002C021D
02EAFE07
00C10176
05EF02E9
0573FF31
FD2005DE
05D00490
0042FCB9
0225FB38
F68BF56E
F69F0277
FFD7FA9B
FFA3FFF0
01780129
00D902E2
009EFEF3
02390159
FF0B0117
FF5EFFE2
0139FF91
0074FFEB
FF1AFCF7
FEE3036F
0146016F
FF30FE90
FD870136
01CF000A
FB05EDDC
026906DA
02920586
FE57EE84
FD51015F
00C9FF48
F844F3A4
FE14FB7D
FE69F9D8
FBBCFACA
FC7CF2D0
FA21FD5C
FBDAFFE8
F635FE48
020F03E5
FD62F8F6
FF2C01AC
0078FF76
0195000D
003C0101
01C30103
FFBE008C
006BFFB7
FFD60020
0099FFB7
FE33006A
FEB3FF9E
0114FAF0
F20DFF88
0249FB37
0193FEDA
FDFC0266
005F023A
016802E5
01720330
FDC100E3
011C00E1
F866FE77
056BFF09
FEFCFF97
FF3600B9
FEBB00AF
FFFAFF14
0044FF8D
001DFF94
FE09FBCC
F8CD03DB
025601FC
FFF70000
014DFE47
FDD7FD9E
015BFF86
FBBE0665
03ECFCF4
0041005D
FAA804A5
03E4FE71
FCE900B4
FC63FE4C
FC240161
00E7FE22
0B63FBB9
008604CA
00C80354
022E011C
FE4900DF
01A802F4
FB770072
FFB2FD61
FF1DFB2A
034F0393
00DA00A6
FF9E003B
004C019C
01B00152
00CBFF31
0050022D
024B00B3
00A0FFE7
00E5005F
015B000B
004F0122
FE420198
02B0FFAF
012800A4
FF2BFF21
FFD20091
FEB1FF88
00C60160
FF31FEF9
001E03E8
0264FE58
FD9C00E0
040901FF
FF1FFDB7
05CB0335
02D801BA
F01E070C
0297FE48
051904AC
005A0032
01A0015A
FF51FED9
008600A1
0111FF3A
026E020D
008C0200
FE7FFFC2
017101D9
02E7FF03
FF7FFF00
030E058D
00EB012F
FBFC0448
005FF778
026E03C6
FF2F02B9
01170371
03B40019
051400EB
FEA3F8CB
FFC301DB
FD0D010E
FE3EFA20
FF14077D
00FEFF71
008EFF59
FE1E006C
FF5EFED1
04F801BD
014FFFF3
0044FCD6
FDD3FF10
FF3C015F
01A6003A
FE99FB11
01CF0581
FF0502E8
FF16FF88
0168FF5C
FF10FFEF
00EF0176
0038FE95
008B015E
00D00240
039700BF
FF6401CE
00400046
01DAFEE7
FE59FF6A
FF5EFF5C
FEFDFEE1
00B1FE98
FEA6FD42
FA960052
0051FDED
FE4F0036
FC5300ED
047301C1
0073FEEE
FF8CFE36
FFAC0028
0222013C
FF8D0032
0004FFAF
012AFF44
0003FEAE
076A02A6
FDD80C1A
FE20FD14
FFB0FDB6
005AFE6A
FC990044
FFCBFDC5
00CC0046
00AEFFDC
FFA100AA
FEEEFE23
0028FFD0
FD7903F0
FF27F814
FF2A0118
0085F67A
FFB4FEE5
0140016C
0035000B
FFF400FA
0211FED2
00DB0087
010C0048
07A004C5
FBF801AF
FFA7FDD7
FE08007D
FFE9FFBE
004300F1
0864FF34
FEFA012D
02400109
02F901B3
FF8C0297
01390239
FA42FEB7
03C70316
00D90AD8
FDA0FD2B
029E0088
0728FB8B
F9750444
FB20052D
FE7FFFBB
0095FD55
0062FED6
FFB20217
011EFFD7
FDF100C7
01010288
026BFE6D
FE140097
FE8DFFEE
FF88FEE6
FF3E00CB
0162FFB5
FEA3FFAE
FF81FD32
FA4C0024
FAD40026
FEC7F9F8
02A1044A
00BEFF0D
0656057F
1060FF92
FFBDFEF4
00B5027E
FFB504E9
07B4FFAB
FACE0257
043C03A5
00F6FFB4
05CF0259
041B0565
FEC509B3
FD73FD83
FDB8F8DF
F495FFDA
FFDBFF6C
01D900D5
0226014F
00970104
01EE029C
03A8FE7B
FE8E013C
FF6EF89E
F44FFF01
FBC2FC04
0035FE86
047A0004
00B9007C
01080432
FC07FF7E
03A4FE4C
FD3FFD9B
FACEFF36
FD04FF58
FF6904EB
0624008A
0145FCA7
FF4F0674
F7E5011E
FFFFFFFB
FD8AF31C
03F8FDD4
FCB90039
FF8C01A1
FBAA00A7
008304DB
0556FF09
008BFC91
00AF01B1
FE45F9A6
F681034D
03A4FCB5
FEA4FA4F
0276FFF6
012F02BF
FF6F00AF
FF44FEFC
01230081
FF8F00A2
FE950200
0324FF2C
00610026
0257016F
0007FF32
FB9CFCAA
013AFF80
0037FFFB
02C204DA
026C0273
003301EF
00D001D3
03ABFE2E
FEDC0257
00160121
0089FFC0
014300AA
FF61FF92
FDB7FF76
0038003F
01B3FF52
0982FEAA
FCB1012D
FFCC0193
FF81FEBA
0095FFAF
FF36FC49
017DFF3A
FE6DFF72
FD9CFF04
F982FCEE
02F0FCD8
0145F9D1
053B0887
FD8AFD8C
020BFFBF
005701E2
013E0176
04E606EA
018D0073
00EAFDEC
FFF8FDEC
FDA1FDE1
0138FE50
FAC0F5DD
FB8604EA
03CBFC62
01350200
0031FF05
0088009F
01CD00B0
03FA017F
FFE601BA
FFAE032C
FEA3FED5
FF3FFF94
0033097F
FBBCFB04
FADCFD96
01C8FFB8
FED9FB81
03F8FD9A
0102FDE5
FDF90249
FEE00293
0026009E
01E80020
FD5600A9
0163036B
FF5BFB8C
FF670201
02010B4A
FD04FD41
01B6FFBC
FE31FD79
FDFFFCF0
FD1EFEA0
00E9FEA8
02C9FEA9
FE17FFAF
0062025B
FD66FF18
023BFA62
12660862
0076087D
04480886
FE99FED1
009FFDD0
FFAF0242
058EFCB7
0043FDB6
FFC60514
FDFBFE50
029F0116
FD3DFE06
0324FE34
0115FFB7
01470488
069B01DE
F5AE0291
F663F854
0006FFC4
00E4FFAF
01C2FF88
FFA5FF82
0062FFB9
00AAFFDE
0361FCD3
FE2FFD06
FF58FC13
FD9DFD62
FA2BFDD8
F831FB4D
0B0A02A0
00AD058B
005C005E
FF0F0089
0073FFDB
FFCDFF47
FB09FE97
0011FE70
FF5301DE
F2E9026B
02D30059
00F40B23
07ADFD94
FE14FA91
F80DF558
FCE002D2
019EFF45
FD20FCBF
FAECFAEE
00B7FC6D
01CFFE68
00B0FF4C
FCA407BA
0344017A
FF0600FD
FD31FB80
FBA3018A
FDA6013D
00A0FE64
01EAFFAA
FF500104
FDDF0190
FE88FEAD
FC08F9B2
FDA8FB43
00560180
F6460117
F9ABF9A4
FFE6FF46
08BD0E81
FDCCFB71
000D04E2
00EE00AA
FE960082
FDC3FE52
FF94FF3A
FF7AFEDE
FFAEF9AA
031A0411
019EF743
FDF201D3
FF81FE8E
F659FE17
010F0A86
0269FC6D
FD3500AE
FCF30004
0123FC3D
FF1DFDE4
017A025A
FF23FC3D
00D7FF0E
00230238
01960023
FE9FFE01
FF28FF1A
00EBFF8D
FEC70110
FE6A004F
FF87FFC9
FD750012
FF5E036A
FE2DFE65
0053FF81
FC16FDCD
0059FCD2
018CFB1C
001E0091
F7FCFCB0
00E8FCDF
FE9CF266
031EFEF7
0087FC5A
00EFFFB7
00890017
FF8000E7
FEF2FFD1
02E0FD3A
00DD0032
01210776
00F201BB
065B0094
07730462
FE8E0370
00C306CD
02E8FF59
0026FF4C
FE8A00A1
061F006F
FF48FF7B
012C0170
FF04FF28
FEA101F3
0068FE4D
FF98FDC9
F9AE026F
02AC0071
0031FFA1
02C800BF
00AD021B
FD5601F3
0221FD15
00DFFF86
FC7AFD4E
FF65FD93
FF6BFE4F
0118FE83
00DB003F
FDE70099
F9F9FC1C
FCD8FDAF
FD36FABF
F8CBFB5D
02E5FF6C
FD7F0000
FF0AFCAA
FC90FEC9
FF9D0071
FEADFCEE
FE8AFF42
0028FEED
00680198
FEC3FFC5
0412FECA
032D0726
FE8FFE55
0322FDC3
FF97FD4E
042B0358
00C3FC42
FC5FFEDF
07700031
0293FAE5
0236FAA7
FC2A0071
026501A8
01D3FF25
FD5301B9
015E002F
FF0DFD83
F6BEF5F6
F88AF378
F8B9F6D9
FF0BF9CA
FF23FBD8
FE78FFE4
F9EC018E
FFBF0426
FE420112
FED2FF22
FF1DFF66
001BFDAE
FF79FF6C
FF9F00CC
FF92FFE4
FF8C0049
FF75FF61
FE72FFB2
0073FD22
FE39FEFD
00380068
00FEFEB4
FCCB008B
FB7CFDD1
FB21FADF
003AFEA6
021F02DF
FF4701CC
020E00F1
00CB02ED
F92BFCD3
006D0549
1B10FB22
FA0FFFAF
FE77FF21
FD73FD01
FF72FFE9
FF05FE87
FA5DF8FD
0739FD16
FF6CFD4F
FFD6FE95
00B3FEE2
005A019B
0186032E
00B20090
005AFFF4
FED1FE95
00DCFFB1
031D00CA
039B01C5
FD35FD45
FAB4F95E
FC02FEA4
FF20FE2A
FB990241
04BFFF19
00A1FBBA
0257FFC6
01FB0434
00720003
FCE7FD17
FDF701DE
FF05FF1B
00EAFF03
02AFFF7B
FFD1002D
FED00075
FDA900A2
FCCE003F
FFF9FDA1
FE98F892
0769044E
00940275
0177F0B7
010E0084
FBF6FE18
FEA3FB70
F7C3FB0E
01D5FDDE
023C012E
FFD5FE74
FE33FF83
0339FE9B
FE1BFF5F
0162FEC5
FEAA0465
FFC0FC65
FA59FCB2
FCD9FBEC
FE3CFE4E
003CFEE8
FCC4FCD8
021F0182
01D700FE
008AFF85
003E0311
00AB0331
032D02F8
00430446
004C0535
0020FD6D
FF790165
00F60262
FF39FF0E
01BC004D
FEF1FF83
FE69FE88
FFD6FEC1
FE1CFF7E
FE320014
007E00AA
00F7FF7C
00160178
FF82FFE1
FF3CFE6D
FC1CFE48
FCCCFF45
FED704A7
0478FDA8
FE18FCFF
FF9BFFA4
FCCCFCED
FE5700C4
012E025F
FF66FD95
FF86011B
FFF6019E
00B9FFA1
FC99FE1D
0138FE77
00C400FE
FF3EFF14
FF3BFCE2
FDB1004C
014403E4
017C052C
FD7DFC08
FC35FC33
FE6EFC5C
0569001D
FF9DFD82
FD09030E
0539FE25
008B04A4
FD970329
FD310421
F8D5FCBD
FF16FBBC
FF13FDD2
FE21FF91
02290122
0238FFB6
FDF1FCA2
FE500060
05880329
FB0801A1
FDC9FCF4
FE2DFD11
F69DFD20
0476F93E
02BDE240
FF17FF20
FF81FE28
FEE3FE36
FF8A0033
011CFFC6
01CA0213
00DFFFAD
001B0007
FF0B0020
FF2E03AD
FFCB0251
FE8FFE02
0045FF72
FE87FFB5
FECBFE4B
00B7FD54
FAF1FE2A
FA0FFCF4
FF03FFA3
FD3BFCD4
11B20617
05A9FD09
FF94FE66
FF83FD3F
FD4FFF2D
FFADFE48
FF4F00D6
000D0110
FCAFFFD8
FEAB0465
ECA2019F
0496FF97
043CFF7F
FE8D0228
03460501
056B04A0
FFD2FF15
FE47FF4D
00D0FCE0
FCE5FF4D
FA04FFC5
00FE0203
0888F2B3
F83F009B
09EFFEB1
04DD0547
01990476
0338FEE1
028E0196
FDB3034A
FE75FF08
0022FDC2
0262FD27
FE54F665
0008005B
013B0067
00F7FF52
01D101B1
0523014D
04540839
02EB00F8
FCA6024C
FBACF969
0052FAAC
036AFC22
029BFC1F
010400D3
006D02B7
FCAB005B
0294011D
FE65FDA2
FC7D0528
02E40011
01480029
020B0219
0124FF8F
FFE600BD
013A00F4
00710044
FDD802A9
FEFCFFA6
FEEFFFAC
026BFED6
01EF016B
01B301F3
FF6300BB
0182FE4A
FE4900A4
FE960495
0193FE92
FEC2020C
016FFE9C
FFCBFF45
03540025
FEECEF62
FD500047
050D0022
03ADFF3A
FE6DFF1B
FB29025F
015E010A
031E09DE
FA05F6DA
01B1F693
0240FEFA
F560FB08
FAABFC5D
FCC0F9D3
FFC4FDF7
FECBFEFC
FD4E02DF
0095FE9C
FFE7FE56
F94001F3
0245FDCC
0093FA02
FCF803F7
01D90038
FF4C000F
FF0F05D6
FFE401E3
039CFCAF
FAB700D4
029002ED
02EBFC27
FCBB03CE
FC5E01BD
FFB30137
006900E2
FE0BFD4B
FE6BFF9B
FDE2FCC8
FC23FA97
FB10FB74
FF2CF8D8
FF83FEC0
FF410023
FF5700B0
0053FFA9
FD0CFD38
FC4BFD9F
01280075
01F60124
022401DC
FD7EFEB0
0149FDD2
FFAC0157
FE1CFF1F
016FFE0C
FE40FF29
0133001A
FD62FFB6
FBBA00A7
01C102C0
0136039C
040A0050
FE4EFF21
FA2001AB
FCCDFAB5
FF97FA3A
FD15FE79
03570280
FCC7FE98
FC80FC6C
F8F2F94C
FE86FED4
FF81FD2B
FDEBFEA4
010EFE60
FE26FBF7
FC0300C6
06DCFFE1
00EA00DD
FFE20397
00640002
FDC0FEA7
FDFD02AB
FFD004A0
FFEF03D7
FF49F98E
039EFEFC
00BA0194
062D06E6
0707FDA0
00810577
019C0655
0491FEB8
FF400100
0051011E
029CFCC0
FDFBFF70
FD26FE0B
FB2DFA70
016AFAA1
FEE2F95B
F107000E
01080F4D
FD640374
FF12021B
02500076
02F60064
FB85FE51
FF8CFE37
FF430087
023101E6
021602D9
035A0241
03AF0245
FC29052E
FDC90326
FFDB025F
FC020311
F951FAF3
020F021F
FF37FDA0
FF50FF9F
FFCEFF44
0075FDE5
FF3E03EC
FFD5FE7D
05D9004F
04C3044B
0025FF3E
FF46FBD1
FC67FD38
038B02FF
03C2030E
06A3FEA0
0740050F
EEA406D4
094BFB89
01ADF2C2
F5000525
0684FB2F
03D607C4
FFED0665
001EFEFD
FA4DFE4F
0130FD95
FE52FF59
00CDFFC5
0071FFE6
000A0107
000F0072
FEF4FF70
0175FDCC
007DFFD6
011300C4
01FF01EA
FED1FFAD
0071FF9B
017F02F3
05F9053A
06140540
072DFE71
066C040E
FFAC052E
FFD2FE66
FF52FFCA
00E6FF3A
015B012F
FF47FF09
0144FF29
00F1FEF5
0285002C
FFD5FFB8
FFB40040
017B0040
FF99007E
FFC70024
0047FFB4
FEF6FFF3
FF34FEB0
01BF0018
FF720144
FF0DFE22
FC46FF4D
FFB6FEF1
FF90FE46
01A8FDC0
FD710068
FD75FE59
00D1FD66
0078FE40
FF920074
FF830071
0079012B
0179FF37
0075FF0D
FFAD00DC
FFC50026
00BEFFA7
FEE2003D
FFADFF02
0056FF73
01590089
013E01DA
FF37FE35
FDCBFF3D
FF3EFCAD
037A0095
01120199
FEC2FEFE
FF810362
019D00A3
FD580096
00BAFFCB
018C0067
0246066E
01D9FE51
FFEDFF55
00C3FEF8
FD57FE67
FF9802B3
030BFEF8
002AFF2D
024A00A6
FD89FF83
00BD031A
00C5FDAB
015EFE3B
FD71FEA1
FD40FFC9
FF15FB35
01E40125
0133FE98
0080FFCD
035F0214
018600FB
00F7FF0D
FD6CFFBF
009BFF61
003FFF85
FF6EFF5F
01A800BD
FF8EFF6E
00E2003E
FD6F00CD
FD36FF36
0075FC2D
F9E5FBF8
F931FF60
FF96007E
009400D8
01290287
FF5FFF6E
0025FF88
000DFFE0
007D0035
FFF10020
FFDFFF49
FE950201
00D10090
0157008D
FD21FDCE
0521FE9D
07BF075F
FFB80491
04C406C7
05F4079B
007E0025
00DEFF8A
FFEAFFB5
0090004B
FFAAFF62
FFE2FF19
FC57002C
FED6FF92
FE6DFF04
0151FFC9
FF4BFF64
FE8BFEF7
FF1F003E
FEFF0003
013F00A7
010E00CD
00EAFED9
FE87001A
03F90617
0457060F
042FFC58
038B0603
048406B0
0580044A
F8100474
06330452
059706AF
00F8021C
01A5038B
042EF8A6
042601CE
040B01A3
04A202C4
00FF028A
03890364
046F02A3
009F00C9
002AFF79
FFC20080
FE260070
002F0004
00080033
FFB00143
0044FDCA
008900D4
FF5202E8
FF330155
FE9D0024
00C10067
02540020
01C4FF58
FE6B0091
00970095
00A4FF6E
F897FD1B
000BFBD6
0146FE66
FB3E0080
FFA7FF0B
00F4FFDB
FE70FEA7
FF2A0172
01DCFEC5
FE6F00C7
FD4CFFD0
FC1AFBF7
FB22FF45
00CAFDE1
0031FFFF
0086003B
00DB00A0
009C0056
FF8AFF86
FF89FF60
FF18FF2F
FEF2FFD4
FED6FF9E
FF090085
FEA40072
007F0037
015B03BE
00D5FFFC
FEB9FFFE
FE59008F
02AC0260
036201BD
02CF00AA
FF31FE54
FF520341
0090FFF4
FFCAFF50
014EFFA8
0207FF1F
03270088
FB9301C0
FB09FAB3
03EEFB67
FC28FA19
FBF1FAF8
0023FFF4
FFE6FFD3
FFD3FF7B
FFEDFFDE
F482FFD7
ED72F061
0047FF0C
0902F860
05B702EB
002B00ED
017B00C9
0012FD8E
FEF90384
F8A500B8
FA81FCBA
FCEFFA31
0696FC45
098203A7
FFFEFF95
FF7F01C8
00E300AA
005B00AE
FEE40082
FF2102EE
FD04FE30
0243FE60
0239035D
00AB0004
00790058
0022FFF2
FEBCFFFE
04A7FFD4
0598061A
0414096B
03910AD5
0350055A
006F00C1
00330132
01250114
02670143
FF9200E8
FFEAFE7C
FA85FE80
0272FE27
0239FE8E
00E30095
00BD006D
FFBE0172
FE350048
FD6CFF48
FAE5FF0D
004EFEB1
FB73FE34
FC0402B0
F7D9F9E0
F543F8F1
F429F994
F315FAB8
FE49F9B3
006A007B
FF6AFD64
FD58010D
0043009D
00170066
004B008F
005EFF78
00C20112
FCDD0119
FB02FBF4
FC46F942
FDB6F7C8
FA87F954
FEAFFFD5
FE6C00B2
01170063
FFA1FED7
FFA50246
00CB015F
0200FFE7
00470137
0007FF61
089C021E
090A047D
0DC40007
0EAA03A1
038E060B
02930214
FCD90302
04DC025C
03D7035C
00C90097
0056003B
00EBFF4C
FC6100CD
FFD800FD
01A7FE04
FC51FE94
FD3A01FC
035BFE8F
00380069
FFB900CB
015B0238
FD10000B
F6030040
F524F6A6
FF43F6E1
F5AFF685
F669F860
009C0135
01B70170
FDD7002B
0077013E
FEA6FE29
FE31FDB3
FFD40049
01A00066
02910396
FA02FDD9
FCF7FDF3
FB27001C
F7D8FD01
04F8FCAE
0524FF0F
FBB501FC
05170258
05A200EA
F6E5FA7D
F6D2FB80
F51DF87A
F6DEFC89
FFC0FA75
0034FF76
00E6FEA1
FFCEFEAC
00170095
FFC9FEF9
FFDF00CB
021DFF9A
FE89FF94
0188011E
018FFFE0
FE24FFDF
00E8FF7E
FFC401BD
FEFB004A
FF71FFA1
FEC4FE4C
02040199
FFCB017B
0059028A
FDFD0020
FEF200F1
009B0224
E347F388
E3B6ED30
DCEDEF99
DB2CF004
007CEB66
FC4200D6
FF24FE49
0077FDAA
011D03D4
05570233
02380482
0543FFB9
056F0309
FDF40545
FE7CFF5F
FD3CFFA6
02F5FED0
01AA00E4
FF89004D
008E0002
007A00BA
002A0024
FF7E000C
FF49FDDC
FE21FFD7
00490056
0049FE0D
02380328
FD1C0359
FD5CFF8B
0104015C
FEFE0020
011C0068
FF10FE14
FDAD0140
0322FF7D
007900D3
041400DD
050A003B
046601AB
FC340297
FBF0FC35
FF7BFD26
FD3DFC00
FC29FC1B
FCF2019B
F7DAFBE5
F284FEC3
F620F943
01ECF3AD
018C0346
FF4700E9
0252FFDF
005B00D5
FEF4FC9D
FDEEFE94
FF1BFE2A
01CF021F
002A02A6
FF47FF4A
FF09FFF9
FFAE0051
007B018F
00FB0021
FF9900D9
0143FE86
FF69FE8C
00AAFE83
003BFEE1
FF8B00A5
01950028
020CFCEF
051901B6
04D702AE
04C302FC
03770296
05D40440
F9F2FE52
008A0329
076DF79D
F459FE54
00610069
01B900C4
0040FF58
FFC2024C
023CFF81
FDD6FEEC
FDEE00B4
0219FEA9
FE02FF42
FF330095
FF24017C
003EFDC9
FF9F00A9
FF130088
FDF3FEA3
FE06FFD6
00D10082
FFB20177
FFD1015D
006BFFFB
0160FFAD
FFC501BF
FE8600D2
FEEE00FC
01A6009A
005A0243
007800FB
007EFFCE
FFA9013E
FF5EFF4A
0227000D
FDFA00C1
FF21014E
016AFE72
FDD2FE68
FE5D0094
02350081
035400F3
034500D6
02BE0101
FE9901D0
FF86FEF5
FEA7FEA6
FE54FEFC
FDCBFEB4
FF24027B
022F02FE
02D50011
FE2304D4
FA63050D
F9D2F8BE
0031F752
F9A4F51A
F8DBF36A
FF61FED0
0043FECF
FD9DFE10
FE87FE80
0106FE35
006600D7
FEA1007F
001F000D
FFC20282
FBB2FABE
FC5FF6AB
F93E03F0
FE08F412
FF40F2D2
FEC1FFA5
FEE7028D
02050308
00FCFE45
00880019
FFEBFF52
00F4FF0A
0137FF2D
FF90008D
012AFD6E
FE97FE18
000C031C
024AFD09
FBE4FD6E
FB44FC64
FA57FE5C
FA86FEEE
00A0FD60
00890123
001EFFBF
FFAE0032
FF1BFF61
FFF005FB
FEB50627
FF17FFD4
FFE9FDE7
FE3BFE5F
FAF60104
00FA0095
FCD20281
FDC4035C
FEC2FFC1
FFD1FF94
FF85FF85
FEB7FFE2
022CFF9A
026E0118
FE58012B
FF26005B
FEE3FD54
FF31FFE0
FF01FFF3
FFC30000
FFCBFFA9
FF960014
FCFEFF8B
0FB6FC72
FF9A022B
FDB9FFBC
FE64FD97
0148025A
FFBEFBB5
0385015E
00BEFD75
005EFF38
11D50026
FFE404B4
FFF400B7
032101CE
002FFD71
FC12D900
0497024A
FFCAFF2B
FB10FDCC
0555037C
03B9019E
03B307E9
FEC7004C
FFD2FF6C
FFF9FEF8
FF64FF50
00F90037
FF88FFB4
00150207
FE7100B2
006FFD38
014E0068
0159FEE2
FF86021C
FB18FDC6
FFB301A3
FFEEFF4E
FE15FFF3
003E0054
00A0FF6C
0187FEDF
FFBCFE0C
FF770127
FD2901CE
01DA0062
01710326
03330134
009DFFD2
FEBB039A
FE06FE47
FB0A021B
006EF77A
FF71FCD1
0038FCB2
FF5000DB
F7050070
00A4FF10
FE8301AF
FEE2FFA6
042EFF45
FFF2089F
FEF2019D
FF51FF95
FF7FFF45
FEEAFEEF
FECEFF13
007CFE6A
FDEA01D8
0346FC88
FD01011A
FD1C0024
04920187
FC51012F
312D05A7
054901B6
FD51052F
FE59FF4D
01AAFEA0
0073005A
FFF200AD
FF30FE35
FEE0FF93
E520FDC7
FF130552
FC6B00FA
021501A1
F86CFEB7
FE931D65
01DC0050
0130FF42
FFAB0028
0432FFE3
FF4A012D
FF2FFE86
FD97FF6F
010203CF
FFB701D0
00AB003D
FFBD033A
006D00E8
0200FD90
FF75FDA6
FE6FFF99
00E40231
FEECFE03
FF2B043E
01A8015B
FFDFFDBA
0460FD02
0194FDB4
FD5200AE
0013FA5F
FFDA0019
002CFD55
FF1AF86D
0319FEA6
0000FF91
0018FFE6
0047001A
FFD5002A
0001FE72
01850015
03D4016D
FEA300E2
0226008C
002EFEEF
002100A0
0173FFC4
0083FFEB
012D002D
0218003D
FF37FF96
FD65F942
03600054
0075FEF9
01CEFEE7
F85B0210
00B8FA64
FB74FE07
0440FE0E
FED7FB8D
00D50B47
017EFD1C
FF9FFC12
013FFCD4
1060FC33
FCAD0259
FFA3FDD6
00AD00DD
005700BD
0089016E
0007008F
00750069
0185013A
01C2FF26
FF380129
013BFF9C
03D40254
0104FFE6
001D033C
00730183
FF69FF6D
FFCAFF55
0139FF5D
FFE1FFC1
005EFEF6
FE71FF6A
014BFF66
FF3F0061
007700C3
FF71FF28
FCB5004E
0EAD013C
FE2500E7
FAF8FF59
F7D4022A
0144FD78
FDF6EFFA
FEC500F7
012FFD6A
0090FFE0
FF7F01FF
FFECFF94
FFB7FF3E
FD9604DC
016FFBC5
FD04F92A
015B0376
FF3EFDAC
FEB20076
EF7CFF57
FFC203BB
FEC101A0
0025FFD4
00EAFE5E
FF340042
FFD20049
012DFF2F
000F0076
FCFB00ED
0098FF81
00CD00EF
00E2FFE3
FE0EFFAE
01E3FC9F
FE16FF4C
FF1BFF6A
FEC9FF9C
0341026B
FD4702DA
0003F56F
00BEFDC1
FC790200
FFB2FC7C
0006FF4C
023CFC5B
0345FFEA
EA050093
00B4FC4C
FCBF03BE
FD48FF91
005AFE6F
FF49058D
FFA9018B
FFEBFDE6
00550115
002E0029
FE030017
FF3AFEC1
0068FF8A
0036FF98
009EFF8C
FE94003E
FD53FF88
FFEDF97F
F7F3FF45
00F9FF84
00090813
0490FF40
018F00F1
041EF6D9
04A0FFDA
FE810480
FCE5FBCE
FF92FFBE
049F00AF
009708A0
008301E2
009B0020
FEB0FDCA
FF790068
FE1A013B
00FF0080
E9B5FE9F
0197FEA8
FF31EEAC
F6BCFE39
003E0063
0299DBAD
04CB00A7
FF16FF91
FEB4011B
01C4014A
0163FFB1
FCFDFEE6
004F01BB
041A011A
0097FC64
002A02A3
01EFFE8D
FF3003A4
04E90252
020CFFB1
FD66035B
0215FF99
0016FF8E
FED7F0AE
0327FF12
005EFF9F
029F00F6
010101F2
01E000D6
003F0190
FFFAFED2
FEEB00AA
FECDFCCA
FF7AFF7B
FFFE0021
FF6EFE1D
00BC0071
FF91F892
FA48FFE0
00860030
00A7FEB4
FF79FE9C
01B7FFBD
0054FEA9
FF6200D9
033CFF48
FEAFFF87
0169017E
0197FEED
0264F66B
EEA3F18E
01DE00B2
0047F46B
FE76FF44
02A6FE5B
002F0118
001F0376
00B20044
0080FF48
01C6021C
FEFCFE60
FFEF0001
00A70114
024F0033
00A8FF2A
FFFFFEAB
EF69FCF6
009D01A4
00F6EB68
00F6018C
023002CA
006A00C2
FCAA0281
01F6FF40
FEE8FDA6
FEBFFDE9
FF2FFFE9
FFB0F9C3
01750069
0132FF9A
010F01E4
0139FECA
FFE3FFBB
FFD3011E
FF46FED3
FBC9FF52
FF5F1794
FEFD0111
0068FFA6
006C0253
E12B015A
FCEC00B7
FED3E86B
0006001E
009AFF96
FFC60042
FE8BFF4A
FFCF0058
FF4200CE
0082FEF0
FEB40058
0038FDE5
0059FEDC
FE2B004A
FF71FFE7
FE58FFB9
FFEFFE44
FE93FE50
FED8009F
0195FEB2
FE5CFEC2
FFD4000C
0120FF7D
FD4DF123
041300C9
FFABFF9E
0096FFE5
0271FFB1
002400DC
000700F3
021FFFBE
0069FF79
FE43EFD0
FF5501C9
FEB7FF8C
FF770021
0238FE9D
FFC00059
FF97FD55
FF4B0088
009EFFF8
0132018E
FF6F0028
01AC0014
02EEFE2E
19CA02C8
FBA401AB
FBCCF45A
0121000C
FE8101A8
015D0305
FE52FE79
01250015
0059FFFB
0209017A
005CFC43
FF20FC05
FF6C0011
00050027
0020FF46
FF50FFD2
013B003D
FD5F009E
068A02BB
040B0013
01A7048E
00950081
FFC3FED8
016A0813
004FFD79
FF5A01C9
030CFE24
F948014A
01D00416
01DFFEF7
FFDE004B
FF5E00B3
FFBF00D6
FFD4FEE4
00C70091
FFFD0092
0228000F
FF5BFF64
FF79FFC7
00CF0038
00280013
FE47FDBE
FD85FFA4
FED4FF0A
0446FE38
FFA6007C
02A9FF11
03CCFC2B
FEF4FE91
FEBAFD32
015AF5AB
FDC3013A
017D038C
FF04023F
02B00073
FFA5005D
030AFEF8
FE9BFF0E
FF87FF27
018AFBD9
011CFD28
FECB01CB
FF9803E6
FED60063
FDD50201
01B8FF6B
00B9FF0F
FFC2FF3B
002D0163
FEC1FEFE
03A80030
0281FE98
F0BB0030
FEB7FDC9
004FFC05
FE8D01ED
FEB60111
023116C0
FE4E0273
00CB00E9
FD05FFB5
076501A0
FFA6FFD6
FE90FB8C
001FFF87
FFB0FC2E
FD6E112F
FDF6FEAB
02CCF957
FFDE0166
049F01E0
FFBAFCFE
FD480504
0250FF95
00B2FED9
FD01FEAB
01C300CD
FFC8FF23
FFA5FEAB
F9CAFEE7
FF82002A
00730157
0219FF25
FFB6FF83
0161FF91
FD77010E
FF7D00A2
01530021
FA2900BF
FF360149
01C6FE92
00BC00B8
011EFD61
FE27FD6F
02DF01DB
01A6FDDD
0134FCD1
F255FDDB
01B5002D
0031FD50
FE39FEFA
FF13FE92
00A9020E
FECBFFA5
000DFE6F
FF1A004A
01EEFFDB
012800B1
FE5800C0
03DB011C
0379FC8C
F7FB0371
0312FF99
00A4009F
009EFDE4
0111FF02
00E9FFD7
00D00082
FE9DFE47
0044FCDE
FD27FBDF
03600231
01B7FF8E
0149FF39
01840061
FFA2029D
FE2CFE38
0177FF8F
FF05010E
FF8A00D3
045D0348
FF0101C5
FFBDFFDA
E84BFE7C
00CB0523
FBF6FFED
FF41FF52
0041000B
006300A6
FFD3FFE9
007000E0
00E400CC
FF9EFFDB
FFE2FF91
FEF200AA
05150337
02CA0171
023A0842
02290250
FFC2FD71
02C2034A
FC8A005A
0128004C
FF2802C6
014C017E
008FFFDE
FF5EFF64
FF24012D
0062FFB5
00E3FEA7
FFD7FF89
0106000E
00140149
FDA4FC73
FEA8FDD8
FEBDFEE0
0041000C
FDE50085
03C70028
FF57F4D3
FA1D0CC8
043EFDC5
06DBFDA7
01BBFD2F
043FFD0B
FB3EFF8C
FF09FD37
FF50FEDE
F68F0341
FF2DFD32
FEC6FD6E
FC57021A
0716FFF6
00AEF6B0
F9AA0387
01260247
014701C6
058E0179
0061FFD2
FE80042E
FFBAFE9C
FF0EFEE8
0001FF13
020F0060
003000D3
FEF1FEE8
01D40035
FF9400A3
FD53FCF3
FFA7FE93
FDF7FEB5
FE55F864
01230386
004B0494
00640030
01C40084
00790041
0037FFEB
FDB100B1
0058FEE4
FDA7F4B8
0D2B0033
FD770050
FED8FE3B
025B0744
00C40651
FB9C01EB
022EF7FD
F95FF943
F6700630
068BF4E4
006DF4EA
029CFB0C
F8280149
FFB1FA9D
0092FFA4
FB2001DE
0345023A
0173F5F3
F84C033B
00470235
FFF5008F
0132008F
FF1AFFA4
FF98FF89
F71BFA84
FF6AFEA5
FCE1F87F
0CFD0627
FE9902D6
FF43FFC4
F655FE4C
01C8007B
FE5EFBC9
001CFF62
FE5BFFAB
FE7A00C4
0008FE93
0073FEF1
FEC8023B
FE140157
FEB2F977
FEBFFEE4
00B2FC7A
FBD502CC
0236028A
03A0FC77
01E10224
FF99015E
02A5FF82
FF61FEEE
FC720033
086DFFDE
0222FEF9
03B20722
068DF959
0326F968
033B0323
019300CA
FE470123
FD70FF70
FE6801BE
0126FE8F
FF92FD92
FC31045D
FE3BFC98
FCC0FD88
0800FD0F
FA76FBFF
FAE8FFFA
FF6303CC
03B50260
01C8F6AD
FF04003D
017701C7
0153FF5A
FF650122
016E0118
0154FF91
FE35FA65
FD66FAA7
FAC2039B
FE6D00AE
0209FE78
00B2FF9C
FC690327
017A0184
01CAFF74
FE67FE2C
FE8502DB
0B55F7BD
FDB9FE3E
FF060650
FA21F291
F154065F
FF37FF5B
F734EE99
F1980010
04F2F92B
F6E5F0B8
EC91FE2C
01D7F516
02E501AF
03B2FE3C
02EA0288
0294FFA1
FF04FE5C
FE11FE6A
FDB0FE4E
FE39FF6A
FD83FF78
0089FD9F
FD95FD9A
FB8BFE90
FDDBFB17
FF3500C5
FFECFF65
FE5DFE46
FF5E026C
FF1A0141
0049FFBF
00A70049
FE980018
FE75FF61
0225FFA5
00B5011C
FED4FC71
00CB00DC
0734FF88
F9BFFBA2
FBC90BC4
0B6FF82C
F7BEFA60
F369FCFC
FED8FDB9
03A9FFC4
037FFFE7
FD1C0204
FE38FC6B
F9F7FBD4
005FFD11
FF7EFD87
FBC3FB3B
FA83FE21
F88DF492
F9AAFD36
022EF9BD
FCADFF7F
FA2100C1
FE4A0247
FF56FEB8
FF20FEAB
FE970153
FF6FFD54
FDA8FD35
0155004D
027B011F
00ED0261
02A303AA
0462022F
FF1FFF65
FF35FF9E
01CFFEB1
0000FE05
FD740011
FDAEFEAB
FAC8FDA1
02D600CF
044DF871
FCB5FD77
FCCFF94F
F964023C
01DB0725
03EC070C
05CD03FE
FC9AFF8C
016BFCDB
F94DFE3C
FE9600C4
FFB900F0
FA74F477
FD7D0135
FD380386
FE0DFD60
FEA5009F
FEDF015A
002AFF30
00BAFFFB
008A0039
010DFF27
FFAAFF9A
FFC90064
FB51FD42
048902D6
FFD4FF32
FD5EFF1D
F5FEFC4E
FA770951
07B9F8FF
F308FBA6
001A051C
FE77012E
0326007D
FBBDFF6A
F996FAA2
FF150180
00E600DF
0128FDF0
FE7CFEE4
0170FE83
024FFF9F
F54300C1
FEFB00F3
01200795
003A029B
FF94010C
00FA025D
FCF3FFB7
FDCCFFD8
FBC9FBFE
F7DEFF4A
0286FF11
02CD029B
FAE70550
04D90031
0531EF41
FA3304DC
FF3A0048
008C0563
FBA6F8F7
0201F677
FF870493
0083FF3C
00D1FEE4
FF30FE24
FD2BFE65
FA850229
F797FC63
01E5FE28
FE4EFF41
FDFF01B0
014203FA
009A027B
FDA4FF0F
0041006E
FCADFE97
013F043D
04FFFA7F
FA75FF8B
007903B6
01BFFEDA
FECDFE17
FD6EFD1C
0128FDF6
FEEDFDA8
FD8DFD43
FF86FF64
FFFFFED1
FD7FFFEE
FCC0FD97
FDB801C1
09B3F822
F8E1FE56
01430756
0145FB2D
00C4FF5F
FDE6FF2F
FD6FFED9
011B0416
032B02C6
0376FEC8
009B0349
02C302D0
0274041F
FFBD01C7
005D017F
0085FFDE
FFBDFF38
FE290251
011CFCD2
FDEDFFC0
039EFFC7
FC90FD86
FD84018B
025CFC1F
FD19FB0D
FA8D0392
FCB0028D
FCA0F977
FDE3FD98
FFB9008D
FE18FE13
FFCD01C6
004500C0
004BFEC0
FD1E0236
FA71FDF5
06D5FDFE
FF620057
FF9DFEA5
FF4FFD3D
F749FCB2
02FFFECC
052209F9
FFC3FE6B
FE31FEEA
FFFFFCE9
0380FF3A
FDA20191
FD57FF7C
00EDFF5D
FED70035
FF16022F
00670189
013B00B3
0037FF9A
015D0055
0116005D
FE6E00A1
03D500F3
FD1D0188
FDD2FF75
00CFFE2C
005AFF70
0759F79F
FF1FFD16
FB540027
FA79FEEC
FFC5FDA7
FD77FC5A
FDFA01D0
FFC1FF10
01470188
01E80673
F4A1FE8A
FF7EFB67
FD89FA19
FB1CFD95
FFD4FCD1
0048FA3A
02E8001F
00BA01B0
01E4FD0F
033A008A
02BCFF76
00EF01BA
FFA30147
FD4803DC
FDF3020A
FFB40164
015C0095
0189011D
0223FEDC
005EFE77
FF8200E2
0397FD98
FF2EFC86
FFEBFBE6
FFF70037
00CA0074
FFAF0037
FF9800AF
FD1F0080
FC8D02EC
02A3FE3B
015FFC87
010C0518
FEE5FE10
022E0071
0046FE9A
0106FD76
0097FD36
01640030
FD85FE60
0050001B
03BF0100
0035016F
0286FF9A
024B011B
FF2CFF86
FF22009D
00AC0018
02C00030
FF0200AD
FF1D007D
03710347
01DF027C
FE48FF32
FEFF0082
FF14FE64
FF8B05BE
056EFF5A
FD49FE53
FFE802C7
0080FE79
FFBDFE16
FC7FFB56
00D4013F
012305E6
00170037
03BE036B
FDAC04D4
FB7FFBC1
FB35FB70
FEE4FC38
00540049
026D008F
01730170
018EFD26
005F0191
01AFFE35
0106049A
0160FF56
FF390132
FF8B01F0
0062FCF5
FD8BFD3C
FFE60298
017102D2
03AEF94C
FA1F0114
FF47FD8D
F5EB0414
001E0493
FF35FC10
FC2A037F
079AF8A0
F995FFCA
FCF704E9
05BDF435
FA5BF848
FB960404
0939FB75
F7C3F87F
FFE80620
008D004C
012DFF27
FA69FD85
FA54090B
FE41FDF2
FEDD0400
0252F92B
0009FC6D
FE6202F9
FEEEFC1B
F73503A7
01E60296
0294FC3A
FE9BFF01
0189FE2D
FDEFF857
004B0048
FD4D021A
FE110650
096CFDC6
FBB9FA10
FB8E08FD
FB2CFD63
FF02FC41
FC68FDB9
FC4802C5
FD7000CB
FC490033
059001A9
FCC103C2
FE13FD90
FF59FF66
007CFE77
00CDFFBC
014CFEC5
FDC8FF5D
FEEF01B9
0449FF02
FDBA00C6
FD75023B
064BFC3C
FEF6FDD0
FE32011E
015CFF0E
FD0FFF38
FE6700BB
FEEE00C0
010E01B7
022E01BF
0106FFA9
FB9FFC3B
FB050284
FB69F778
FC18F79D
F8E6FFC2
049400D5
03B3FF38
01DD038A
03BB0173
FD5A021D
FD2C0529
0129FE69
00ACFC12
FEFAFCDF
F9B70277
FF3BFFF6
04CBFD84
FFADFE6B
01020099
0131FDCD
00E20077
00AA00E6
0015FF85
014CFE77
0008FE7D
FF650017
00AB015A
FF350153
018D0645
FE67FCE7
FF00FAF3
00B5FCD1
FE1A0339
019FFF47
01DE0013
FEEDFCF2
FDEBFD67
FF8B0728
FE4CFD50
FD16FD5D
FB3BFAAB
02D30420
FFA804FC
FDF30155
017A0354
0018028A
00D3FDDE
FE8C00D9
025C00E1
FECF0109
0066034F
015FF946
FC42010A
02D601F9
01B2010E
01B4FF55
FAACF9C2
003FFB4A
0013FE25
0038011D
FFCA0094
FFF9FE14
0120FE3E
FE9200B1
FF77FF93
005DFE38
FF81010D
00A600CD
003C00AE
01AD01EB
00EAFECC
022D01BE
01640117
007B0170
FFE5FEFC
FF3EFF2A
FF36FF5C
FFEBFFFC
00F10090
000A011D
FE50FE98
FF6FFEBA
FE98FE55
FFBB0074
006700A9
0097012D
00820070
FFEF008B
FFED0043
FEF4FE93
FF72FF51
FFF0FEE9
01D100D3
FF94FFF6
00730140
FE9A00AF
013DFFD6
02720266
FF33024F
03FA0334
033DFB54
0340FFA3
FF0C00CD
FF93FE99
0125FF64
FFAB00E4
FEFA0171
00B700E0
FF81FE5E
FEA5FF4D
FF8200C0
036FFF96
04510164
00F30440
04E40453
0597034E
FD87FC6C
FF69FCC3
FFE90008
02AC00C6
0145017B
FD54FECA
020BFF56
011FFE3B
0129FED8
F5FBF3D3
F53AF0BC
F4560014
F496F2CD
FD50F133
0136FE0C
FD6FFD38
FF5203AB
FFEBFF74
FE4B02B9
04ACFCEF
FC38FDE8
01210196
F708FCFD
FB4BFAD1
0217F967
F91EFA3C
FA89FCC8
FF190634
024705B3
02F1F7B0
00B1058B
FEF90565
FFBFFDF0
FD6DFFD1
03C80043
042102BD
FEE0FF6E
FF6BFECD
FF08FFA7
FDE50042
01150128
FF25FD53
FE980214
021A011F
01A00295
FE11FEF9
FDB3FDEF
FC2A02EB
0029FF7C
FFE8FDF7
00680005
FFC2FF8B
0021000A
003C0070
FC3CFE97
FFBDFE92
FF59FF8B
026F0167
FC5A0173
FD74FF1A
00E0FE1C
FE0BFD1B
FD88FD64
FF53FFED
002CFFD2
00AAFF33
FFFEFFC7
FFD50078
002DFDB6
FEC80272
FFE80264
FFF7FE41
FF83007A
003300DD
00B7FD37
FCF3FFB9
010002EB
FFB5FFB8
FFF600D8
0031003B
0031FFE4
08C10BD6
098B0F48
0D33F6C3
07520791
FD390A79
FC3800F8
0572FE85
FA36FE11
F9C7FBE7
00E9FD43
0148FC3D
011600CB
027B0159
01570162
024404D7
00740214
005604BD
01A80512
01430043
FE94FFEE
FF79007D
00AFFFB3
0174FF3B
FF610002
FEE70015
007DFF56
006300D0
05D1FFB7
FFD100F8
FE3BFF69
03D20003
017DFFFD
01F902D2
00E70172
023A027A
03230193
00CC00BF
017EFF64
FFC8FD0A
FE17FEC8
FDE4FD8F
0132FEDA
FF27FEA1
FF910209
FF50008A
FB9BFAEF
FBDAF9DA
F991FF73
F885FC48
0013FAC2
0090FFF4
00110032
FFFE0052
00650043
FDB5FE98
0010FE63
000F0083
FFE800BF
FDF40096
FDE4FB4D
FF5BFF24
00C1FEEC
FF90FF71
00030215
044D0208
04D800EA
F9CDFCA3
FE97FCF4
05C501AF
FBFD002E
FFBD01E0
FF75FF98
FD67005C
FE9300B4
0005FE8D
FD2FFFB3
FD6CFFB6
FD23FE2E
06D6FFE9
FD54FF13
FC68FD36
008B000A
00150030
FFB500B8
003AFFBD
FF2A0000
01B10355
00C7FD0A
FE42FF29
FFE4FC8B
00C9FD69
FE5E0308
0187FF24
0063FFA9
F7C8FED1
F608F8B4
053400C5
05AF0120
09CE07FD
FC39FB0B
FC8DFAD8
FD490537
FEAEFC25
FED6FCBC
FFBCFD9C
026E0016
017BFF1A
FF460310
014FFF94
FF43FF37
FE420030
FFCBFF95
015C00B8
FFF0FF05
FF8101AD
06D6FD4F
050700F3
FFABFF19
FDD9FD89
FDDE0035
FE9400FA
00C3FF68
01AF002A
FE88FF8C
FF76FF67
002401FC
0048FF74
FF26FFC5
FEEA0250
0042FF4D
EF060010
EC38EB47
F0D2F100
F44CED83
F37EF5BB
FA13F7F7
FBC2F5DD
FB950138
FD98FC97
001BFC4A
0118FFA8
FF8BFFA7
FE1801E3
003E006E
FFF1002B
FFF50034
FF77FFE4
FFA0002E
07090077
088009A3
026305CC
05620729
077202E0
FF5FFEE8
005100D5
0107FFD4
00CD012D
FFE1FFC0
005100CD
012100BB
007BFEDB
0125009B
FFD00147
FF5FFFF2
FFACFD68
FE3C0034
F025FFE3
EC8CF25A
FFFAF4D7
F30DF106
F096F40F
04DA0172
FC7202C5
FD17FD96
FF0EFF50
FE70FED8
01E90143
0113FF45
006303A4
0282FEED
FE84FEB7
002DFF48
FDD9FFC9
FE99005B
00CA00E2
00D900E9
0088005D
00AB0052
FFACFF86
0067FFDC
0153FE3F
FE05FF3E
FFDCFF8A
FE71FE38
FE22FF90
0035FF58
0142FEEF
000EFEAE
F86CFF2C
FC0CFCAB
F8FBFE69
F9B4FDEA
00EDFCBC
00C100EE
0417034C
01EC0282
0138003C
F489F750
F65CF507
F4D3F58C
FB3EFE7C
FDC0FD81
FD6EFDD9
010AFFA8
FEF4FF95
FF7FFFE4
FDFDFE7E
FDE300DF
012FFF4A
0005FFD9
023E0179
04670438
02220567
053D0767
060A048D
FE26FDDA
FFDCFE25
01D80219
FFE7FFE6
0091FFD0
00C3FF7C
FD7E00C1
03C20050
048701BF
00DE016F
02A301DF
04E8FE76
034700FF
FD3C033B
030CFEB7
01660053
024301BB
FD6CFEC5
FD7203A2
00CE03DD
018FFC50
00FD0498
FF1004D5
FDA5FDB1
01CC0026
0029FF78
FED80074
00400043
0020FFF3
FFC8006B
00110025
0145FFF3
00830013
01850060
FD2DFF53
FE7B0032
FB76FC8B
0429FB62
02530022
00FD034B
FF810231
0219FF60
00770133
FE3300DC
019A0093
F5C2F613
F505F35A
F2ECFA18
F747F72B
081CF5AC
09390466
FE9602CA
03D40208
02F80013
FF0DFFE1
FDFD009C
FF5BFEA8
001BFD52
FF2CFE11
0041FB54
FCDC009A
FD6E0065
FDE7FD62
00760026
FF90FEDE
033BFFF2
FFB9FF87
FE4E027D
FE8F0085
FF70FFCA
00B10010
013901AB
0040FF65
FF4FFE7C
FF0CFFCA
007F01AE
FF10021A
00BF00AE
015BFEDE
FFA9FE7F
003BFFA1
FF47FC63
FCFDFAB1
FC2900E4
FD49FDAB
0388FD55
FB170031
02E10226
0105FB29
FE5F025F
FF560062
FFB40027
015A003B
00460026
02750043
FF470031
017703E0
047CFEF3
0007FEF4
0095FFF9
FDDB01D3
006FFF2A
FF82FF44
022C0239
00890098
FD5BFF83
FF74FE7B
0018FE6C
FFA2FE54
FE86FFFF
FFE1FF81
FF2C0066
FFD30034
0060005D
FE3DFF15
FEF3FF18
FE8CFDAA
FF68FF0B
000FFF81
0000FFC4
FEE3FFEF
00E80085
0127FF42
FEB301D7
FFD501EB
FF23FFF9
FDD1FF59
008AFF93
0011FF5A
FF9800A5
018AFFD2
01680108
023F0021
006EFF65
007D0376
05300292
01E10306
01B4FECF
040302F2
003E028B
01130178
0685FFE2
002BFF0C
FF72010B
FF40FEC0
FF2FFF6D
00050175
0083FF3C
007EFF0D
00620074
FFFFFF84
015FFF53
01FF0143
FD550260
0391017C
017BFDF6
FDE2FE4A
05D2FF3D
0639059E
0247FFD9
FD9AFFD4
FDCCFF3E
FD49FD5A
0086FD25
FFD601E9
FDA8FD7F
FDE6FE3D
01A4FEAC
FFE1FEAD
00240374
FF2CFFEF
FB1CF822
FADBF72C
FB1D0309
FE14FA90
002EFB25
FFC700CF
FFF8FFC4
FFFBFF68
FFC8002D
03BC069A
FE3207A2
FD49FA8A
FC9EFD9F
FFD9FC6D
01D8009F
03810036
FE7A0695
00450377
01CB0005
004F00EF
00600045
00D0002B
0109004F
017F02B4
FE6FFF3A
FFFBFF04
0072FFE7
FEA5FEAE
FF7EFECD
FFC2FF4E
0002017A
04FE005A
0664FFA9
F2FC0504
05B80552
0654FE5E
FEF70712
F950022A
03F3FBE1
FC62F980
FD9EFC3B
FE9A0029
016BF961
FE9D00FC
0120011D
FEE9FD91
FCC7F9E8
F27A02B0
FD22FE83
002AF49A
FEEFFFAE
03880435
FF5DFFF6
012800CA
FFA2018A
FFCBFFA6
011E0021
FFD3FF44
FE4500A6
0045FFAC
FF34FD07
037A009A
FF1D0191
01340086
FEC5026A
FFC9FE82
030600BD
00B001F7
FF3A0022
FFE70121
00A8FE84
FEB70048
FD6FFE47
FC74FEFB
FE92FCA3
118705DC
FF7FFDD8
FABFFDFF
FFFFFC62
00470081
FEE102F9
000AF6AD
ED52072C
16FBF3D2
FA28F07C
02430CA9
FB4C001F
0D590463
0328EB61
F78A04AA
F718FD45
FC82FC7F
00C4E4AB
F324FA64
0134FE0C
FDF5FF6B
01A7021D
015AFE6D
FEAB00B7
FF36FAFD
FD83FF24
02A1FDB8
04720A5F
00A804E9
0182FFBF
E8E31388
FE54FE76
FF27FEC3
005F0310
00D6FF9C
01420054
00360247
FEB4FFEE
FEC6FC64
0294FEAF
FE12FD83
F8B50026
FB6B04A7
099CFFF7
FDF8FD6B
FDB30184
00B702B3
017A0058
FF7E0010
048804E9
010B0266
023A011C
FA2D0109
036E0009
0170FE37
01A201DA
FFC00173
042A00E6
FE58F954
FCCE0043
F8570371
08750238
F63E00F8
F7980920
FF8FFFBE
010200EC
FDF7FB13
FEC90432
01F7FE5F
FEC6FFF0
FFA90183
F926FEBD
FB78FC35
004A02F1
00A600FC
FF7A0207
01DB0303
00B00220
FE15FE6B
0047FFA2
FEE3000B
000DFF63
020BFF2E
026C014C
032A02A1
004B00DE
FF23FF2B
FDBE00CE
FFD40076
014D0482
027A0118
FE7B00B5
0094009B
04DAF594
FA7602AF
017EFEC6
022AFEA3
F9C5FDEE
F65F0192
022EFAE5
0A6AF93E
FF15F855
F933094B
0D320789
02B9F72B
FFBDFF97
FE8300FA
0148FF33
FFA4FF4E
FD7A00B9
FE5CFF6E
0218FEE0
FEA5FFC8
FDEFFEA7
01C2039A
0065026A
01AD0133
00BD0181
FEE50037
