FFEE0011
FFF7FFFB
0075FFD8
FE00001E
FB93FD46
FBF0FEAF
0EF600A0
FDEDFAA0
FBE4FC1B
FA78FC67
037EFAA6
FA4F07E2
FF1FFA96
FB63FCF3
06B9FA44
FD2CF8C5
FB40FDAA
23B8015F
003B1C78
00081FB4
FA05FCA8
FBBB1D80
FA6AFB66
FC6EFB94
FC93FAE9
FB61FC24
FD04FC2D
FAC3FAB7
FB0AFC08
FC39FAE4
002AFA83
F99BFB6C
FB61FBE7
FC2AFD91
FCA4F8AD
FB32FC56
FC4BFBF6
FD1DFADD
F8D3F9B4
FCE0F8ED
FA47FF3B
FBC0FDA8
000AFAED
0004FFF4
FFDDFFEC
FF1EFF17
FD43FDEC
FDA0FA79
005BFB07
FB5F0CB0
FB9BFE3E
FB37FC18
FAADFA73
08760272
FA4DFA9D
FD02FF7E
F960FB44
F7960543
FD3BFC58
00B5FA4F
1C582418
20080082
FC16005D
1D2CF932
FB98FBBC
FBB6FB3B
FA62FD02
FABCFCAA
FC23FB1E
FAC6FD07
FB71FAEE
FA1AFA3F
FA30FBE9
FB3C0087
FA60F915
FD91FA12
F770FB1A
FC01FC9D
FC81F9F5
FA3CFBD9
F971FCFC
F857F7BC
FF18FD1D
FE32F9E1
FAF1FBAD
FFEF0006
FFFB0001
0118FFCC
FB62FF5B
FAA3FD8C
F966FB9F
0DA2FF28
FDDCFBB6
FC3BFBE0
FB29FAFB
FFBFFB31
FA8F0990
FFBAFAD6
FAE6FD97
053CF85B
FBDDF786
FAF6FE47
23A8006F
00A51BE8
01682108
F9C3FA46
FD3C1CD0
FB6FFABE
FDEFFB99
FE47FBC2
FB43FB7A
FCCDFC4B
FB68FB61
FBBAFCA0
FCA5FB54
02CDFA13
F9D3FB81
FDCFFB42
FC7AFD59
FCF1F892
FA59FC3F
FC25FBE1
FD99FA52
F7AAFB0D
FD93F8F5
FB23FF75
FC18FE17
0000FC42
FFF2FFFE
00070002
FC700020
FBF2FCA0
FABA02FF
FBBDFBE7
0257FBAE
F897F9C7
FACBFAD4
FC25F913
FC54FBEA
FB1AFBA5
FC6CFA7B
FCF1FCF5
FC14FB50
FCF8FC12
F7EA0236
F9ADFB2B
FABCFA80
FB11F8FE
FA7DFCD1
FA25F7E4
38B80902
08961638
062500F9
FA380BA0
FF00FC99
FA53F80E
FC9AFAF5
FD7E0655
FEF70432
012BFC88
0008F9B2
FCA5F9D9
FAA90031
FD0BFFCA
FC520169
FAFBFCB3
FF58FC97
01C9F9C4
00210474
FDD1FF61
FFFEFEEA
0009FFFD
00220003
FC97FF1F
028DFB48
FB5FFB4C
FB21FBED
FA69FF99
FB21F930
F9F2FAFD
FC6FFCCE
FBD8FCB2
FAE5FB1C
FCF5FCEC
FBDFFC79
FCE3FD04
005DFE5C
FBD3F849
FAC1F9A2
F8D5FB17
FD29FB31
F750FB33
09BCFAB0
16F83850
01DB087E
0B900633
FDAFFA4D
F955FF64
FB84FC12
072EFCEF
055BFEA8
FE6F002A
FAAF01F9
FA9900F6
0174FE14
008EFC41
02A1FF47
FDDDFD1E
FEB3FB5B
FC0EFFDC
05EB0300
FFBB007C
FD2BFDDD
FFFAFFFD
00060009
FFFC000E
FAB0FB88
FBBF02D1
FC6CFA94
FEE3F989
F89FFA0B
FAC1FB75
FA8FFB03
FD40FC51
FB2BFC31
FCD4FAED
FBADFD72
FD7EFBD6
FFD5FE40
F98F024C
FAEBFC3D
FAE7FB47
FBEFF96D
FBDAFDF8
FBE2F91F
39780A10
062A173C
03DDFEA0
F9CE0978
FD60FA77
FB44F842
FB02FAEF
FEDD03B5
007402D3
0018FEC2
FD7FFAC1
FDD8FAAD
F94D0168
FCB3FEF2
FDD4FEFB
FB50FC1A
FFB2FD81
0068FBE4
FF08074D
FE7CFEDA
0000FC44
00AE1BDC
003701A2
009A0E58
FF90FEEC
0007FFFB
FEE7FF76
FEF7FFC4
0063005A
00170044
0054FFB5
001C0045
FF8FFF41
FFA3003F
005300AD
00E0FF39
0199FFCD
00290190
FFA7004D
01700083
FFB2004F
005F00DF
000BFFC9
001B0086
0036FF76
004D00D5
0008001D
FF4600AB
00C50076
000B00FA
0186FFDD
00A0FFA6
004EFFA5
FDC5000E
FF7A0000
0091002D
00090146
006B0109
FF7AFFC5
FF2CFFB0
00E4000E
FF81017A
FF98FF60
1B60FFF4
0024008F
0D8A0038
FE5F0056
0001FF8F
00D50145
00230078
FF3AFFFC
0019FFD7
004AFF6D
007EFF56
FF8DFFEF
FFF4FF22
00E6FFFD
FF4100A2
FFE4FEF6
003EFEF1
FFFE001F
0091FF9C
001E00A2
0010FFA0
FFB4FFFD
FFA0FFD8
FF2DFF2A
0007FF99
0125FFB8
FFFFFF41
FFA7FF92
FF65FF73
FFE5FFED
FFD100E9
00B4FF40
01B2FFA0
FFD6004B
009B0005
00300013
0051FF99
00310152
FFC2FF20
FF1DFF4B
00FC003F
FF7EFF1C
FFA7FF31
011A1B58
00260005
00E10E72
FFEAFE7E
0135008B
00AA0107
FFF6004F
001FFF57
FF97FFFD
FF9700BC
FFB4FFE9
FF29FFCE
FFFDFF9D
009A00CD
FDADFF69
FE2A0007
0052FE1D
FF59FFB7
FFC4FFE5
FF24FFB9
FF97FFC1
FF45FF26
FE7EFEE5
FEECFFD8
FF65FF1F
FEDD00F2
FFD9FFBF
FEBBFFC3
FF8CFE44
011AFFBF
FEBA002C
0027010D
01720279
FFEE002D
FFA600B0
FFB6FF6E
0110FFBF
FF3D0066
FFDC003C
0003FE3A
FED600AF
FF17FFEC
0000FEC8
0005FFF2
FFF80003
FC4700BC
F526FAA7
F57EF862
F9FAFE05
00ECF730
F83DFB63
FB1CF982
F844F874
FAE0F7B6
F9B01700
F614FBAE
F464FA16
F2CAF9EC
F83DF7FE
F784F96B
FD21F9FA
FA68F7B6
F78C02A1
F7D8F8EA
F698F833
03B9FAEB
FEEBFB06
00AAFF9B
F65CFE23
FE7FFA36
05C4F9E2
F8BA1644
F93B0F1E
F95FF9C4
0111F826
0A02FF25
FBBDF9B6
FAECF8A3
F788F953
FABEF946
FC4EF74A
F9DCF7E0
F8D9F6AA
FD0EFC8B
FB69FD1D
FFFDF819
00070005
00A4FFFA
FB3CF8D6
F99AF654
03EAF3DE
F77EFC56
F8530414
F8F2F7D4
F8D8FB71
F620F796
1844FA4E
FB0BF944
F99EF57E
F9EFF2F4
F819F2DA
F8F2F7AA
F988F64C
F79CFC90
0437FA68
F8F9F752
FA08F756
F80CF65E
F99E01BB
FFB7FEDF
FFA40025
F9E9F5E0
F94EFDF7
143403C0
1054F842
F9A0F815
F702F6E4
FF8702D5
F8AE0C76
F78EFC96
F898FA45
F971F598
F65EF9F0
F53EFC1B
F5D0F90A
F9D5F884
FB90FCA3
F83FFB2B
000EFFF9
FFFC0006
F37200C9
F6CAFAAD
F3EAF8BF
FCF8054C
03B2F61C
F77EF7F2
FACDF903
F7D0F86B
FA1EF554
F96F1850
F46EFBA6
F1BAF919
F346F96E
F620F907
F670F7F8
FD7DFA97
FBE0F85E
F7C202DF
F7DEFABC
F7AEF98D
01D2F801
FED4F909
0090FFD5
F5E60057
FF83FAB8
0248F9D4
F8B11110
F88A138C
F6FEFA37
0408F630
0DD0FF32
FD3DF872
FBA5F6F2
F61CF8DE
FA8BF97C
FBFDF6A8
F6C2F556
FA1AF6D8
FCE8F6DE
FB6BF9B6
0000F8AD
FED70028
03CD01D1
F574C720
FE55005B
015C005B
FFF700A8
026D01BC
00290002
0002FFFE
0149008D
0060003F
00040008
FFF0004E
003E0011
029DFFDC
060700C7
003D031E
007A0084
010D008E
00DC01AC
0054008B
020B009A
006B0096
002E003C
00440004
007CFF64
FFEA006E
006BFFE9
00300052
FFD90024
01150043
00790076
FFECFFFF
00070059
FFFB0014
002C00DF
FFF400E3
003D0086
006500ED
00AB011F
0069001C
0022FFBE
000C0054
00BF0070
FA8B0088
FFAA004A
FFA40186
FFA10084
0124FFEF
008E011B
FFED003B
002F0006
FFDE00C7
FFED007D
00F1FFFC
000AFFDD
FFBB009E
FF1A01E1
01530096
019AFFD3
00DF00B8
014500BC
00910142
005900AA
01CA0162
0131006E
FFCF0015
0081FFF6
006900D9
FFD7FFC7
00160079
00350043
00560021
00EBFF43
FFC0FFC4
00340001
FFC7FFC6
019900DD
01B50021
FFDAFFC2
00C1003A
005FFF9C
FFB600AD
FF87004C
00630024
FACB0097
FE23FE92
00261440
FE87FCC5
FF52FE60
FED8FF3F
FDDEFE44
02720027
021E00CC
FF2CFACE
00E20200
FEB50015
017500C3
011E010D
FD2E0140
F8D0FF10
0016FEBE
FE29FEEF
FEAFFFE6
FED1FF39
FEB4FEA4
FE520213
FF3600A2
FE1FFF9D
FED2FFCB
FF540080
FF58FF2C
FD62FEF8
01D3FDFF
FF910253
FB7C00D0
FD44FD30
FD0AFD3E
FF61FFFC
FF8200F9
FE9500D0
FF8E00F5
FFA1FC99
011AFDEB
FF01FF42
FF1902D4
FEDAFFFE
0000FFCC
FFF5FFF3
FFFD0008
FEA5002E
FB9CFB82
FC0FFF50
00BCFBEB
FF9908D0
FE6FFC24
FA58FB26
F90B03AF
010FFBEF
03CA1224
2F801420
FBAF1948
FD37FBBD
FC87FE06
0FE8F9C1
FD65FD83
FEF0FD9A
F834FEAA
F91FFB00
FB5E009D
F9ADF880
FA40F666
FBF7FA9B
FC70FB6D
09C6FE31
FC0D00B5
FDB9FDD6
FA51F8A9
FE8FFF3C
FCAC0223
FBA0FC2F
FBE5F80A
FB77FB01
FC3DFA62
FCADF6D6
FC43FD03
FE7BFB5D
FB1EF9CE
FC1FFBEC
FC6A04BB
FFF3FC42
0002FFF5
001D0000
FB3EFF8B
FF5AFAB9
FA9DFBCA
097CFFA9
FD680065
FACAFED2
031AFAC5
FBFBF933
12140191
146003CF
195030B8
FB19FA89
FE62FD50
FA26FC67
FD110ECE
FD8BFD30
FF23FE82
FB8CF7F0
0012F8A7
F9A0FB1D
F684FAD0
FA94F9F7
FC8CFC3D
FEBDFBCD
01190AC0
FD9AFC01
F6D8FD74
FFF3FA5C
02AFFF04
FA23FD31
F752FAB9
FA32FAC6
FA49FB63
F776FB87
FDA7FC3E
FB0EFC04
F957FDB7
FD56FAAE
044FFC15
FC39FC4B
0003FFF5
00010003
02240028
FAB0FAAA
FAB3FFAC
FFBCFBBC
00040BA0
FF31FCD0
FABFFB0B
FA7F0230
023AFD17
040212DC
31B01448
F8471994
FE49F8F1
FC66FB59
0CDAF90D
FBFAFD35
FDD2FC34
F7C4FF31
F8E2FBF6
FB27FEE0
FACCFA59
FAB4F6D4
FCCFFAA1
FA2FFAD3
0A10FCE5
FBAD011E
FDB4FE04
FA2EF5C4
FEA0FE8A
FD6703DA
FDABFB0C
FA10F684
FB9BFAD4
FBC3FB23
FCB7F8DD
FC51FE62
FDD8FBDD
FAFAFB43
FC06FE36
FC610462
0000FC1D
0000EC6C
0024037F
00F603E0
FDD8FD71
FE42FF31
FF77FEF2
FE3CFED9
FD79FC4D
FD0FFCA5
FE30FE6D
FE9AFF58
FD0CFFBD
FE9EFD86
FDDEFE5B
FCE8FD3F
FC11FE7F
FE12FCFD
FD01FEAD
FC79FEF1
FD16FE37
FDCFFE91
FDE4FCEE
FD65FD72
FD2BFE81
FCB0FC56
FD47014E
FDF0FDE0
FC78FD79
FE28FC38
FE47FEB7
FD68FE5C
FDF0FF4F
FF59FF53
FEABFE6F
FD12FE6B
FD99FD64
FDDDFE9C
FDC6FE91
FE94FE8D
FD58FD37
FC62FE2D
FDADFECA
EC64FC45
03090012
01F20035
FDB9002C
FE02FE45
FDFAFCED
FDA8FD77
FD4BFD48
FCE8FD9D
FE03FD86
FF41FEDB
FEFAFDF5
FD45FD93
FDD9FE20
FCF0FD33
FDAAFEC2
FF33FF20
FED7FE55
FEFFFD16
FE34FDF8
FF84FE69
FC6CFE43
FD59FE90
FED7FE74
FE5CFE74
FF7EFE69
FED8FE81
FE66FD56
FE4DFE7E
FE26FEAF
FE55FE93
FDAAFE7F
FD8CFE3B
FEBCFD71
FD4BFE32
FEE3FD9D
FF88FE31
FE17FD08
FE43FDE2
FF69FEE9
FEE9FE8A
FEC5FD0D
FD92FE3C
0020EC4C
001D02F7
FDF00259
FF18FD59
FCA5FDB9
FD60FD4C
FD61FD18
FCDCFC98
FD33FD11
FEC9FE57
FDB2FF6E
FDD3FED6
FE14FD3B
FD31FD89
FED2FC85
FF5BFEBB
FE58FF41
FD81FE71
FF4AFEB2
FD83FE24
FE63FE2F
FDA3FD9E
FD44FC55
FE37FDD2
FE54FE6F
FDEC00F6
FDA3FE90
FE43FE4B
FE2CFE13
FF5BFE14
FE44FECF
FD6FFD45
FC1AFD2F
FE53FDEA
FE42FD01
FDCBFEA4
FD71FFAA
FE4CFD1D
FDC4FE18
FEDEFE49
FD01FE1E
FE14FEA6
0000FD46
FFD1FFEF
002D0088
FD04EB14
FE8DFF8E
FEB7FE78
FD6AFC67
FC71FEFF
FEF8FE07
FECAFF44
FFAAFF24
00CC00B9
0002FDDB
FD8EFF59
FF2F00DA
032AFF8B
04FBFBF3
FEE103BB
FF4300CB
016EFF3B
FFBCFE2F
010102F5
022A002F
00440054
FF4A0120
007F0090
FF5FFD16
FE90FF42
01F4001F
FE3A00C8
FF81FF58
01A9FE47
FD9FFDF8
FDE0FE0E
FD740076
FF24FD8B
052BFFEE
FF5900D7
FE18FF0D
FEB6FF2E
FFFFFE85
FF1F001B
FE5DFCE2
FFCCFF48
0025FFB9
EB8C0078
FF37FB78
0062001E
FE10FF9D
007DFE13
FDD6FE89
FF02FEC0
02D9FDF0
FF49FDF7
FE3300C7
FF84FF92
012FFD98
FF50FF3C
FB66019B
008001DE
00CFFE44
FFEF0078
FE800091
019BFF8F
02F1FF81
FB680119
FEC4FD10
FFF5FF93
FDF6006B
FEC2FEE9
FF1FFE4F
0022017C
FEACFD61
FD4BFED4
008000D8
002DFCFA
001C04A7
FEB0FD0B
FF5DFE87
FF5704BF
FEEBFF8F
0092FDA4
FE14FE40
FEBEFFBA
FC6FFE85
FEDAFE19
FF6D0021
00290031
FF1FEB70
00E7FE0D
FFAFFF2C
FEBEFEBD
FDB50039
FE6AFD7B
FD53FEE0
FDB3020D
00C8FDEF
FF1BFDA7
FD49FF14
FF4D0123
003FFFAA
010EFBFC
FE3D0039
FE56FE23
FDFCFEE3
FF1FFE5F
FE34FD21
FFC80057
FDDEFAFA
FD7CFD27
FD7AFE15
FD42FDAD
FD98FDB4
FEF1FE35
FC9CFE94
FE3CFCBB
00EAFCDA
FC6B00D8
0628007B
FC9E00F6
FDE10045
013AFDDA
FF23FD89
FD63FDC8
FDF7FEC7
FF53FB02
FDD9FC98
FDC5FBDB
0000FE2A
1D2CFFF5
FB53FF5B
FBB7024A
026501C9
FF3FFF76
FF78FD79
FF12FE56
0007002D
FEFA0003
010E0165
012500AA
014BFF40
FFA4FF5E
0096003E
00630032
04E8FFB7
0196024B
01880255
027E00CE
003AFF0F
02650286
014D00E5
FED00148
0249026B
00E90167
0193FFF0
FF4B0198
021401D4
002A0308
02E1009A
00B7FFD1
FE7AFF73
FF200009
FE6D00B4
018AFF02
03A9012B
001C023C
FF510001
FF830133
024C0122
010B0191
FF77FEB4
000E0095
FF7A1B90
FF70FA89
0223FBEB
000A0251
FDA6FF36
FEB9FFDC
0034FF92
FFE6FFBD
0229FECD
000400E9
FF6600AA
FF890188
0028FFB9
00240084
FF8900D5
02C30445
029001D2
0122025F
FF8502A9
0236007C
014F0298
008F0117
0330FF92
020D0321
002B01C3
0213016E
01DCFE22
039A026A
00A50025
FF5C02F7
00BD02C4
0109FECF
007A00BC
FDC5FE8D
019601E8
023204B6
00E40014
01F7FF46
017BFFAF
01E60247
FDF50117
008AFF78
16B0FFFB
FD9AFF94
FA76FFE7
00F80157
FFBDFF25
00ACFFC0
0003FFF8
007F0093
FF77FFB0
FF8801C8
FFEDFF25
003BFFFA
006EFFCD
FFA30076
FFE6012C
03E600BF
012B018E
00620074
003400A4
0001FF27
00C40020
FFBA0016
FF11FF8B
00AA0042
00320113
FFE6FF76
FE5200ED
006A006F
FECE01DB
00C0FFDA
0299FE99
FF650052
002F0127
FF0C00B4
FFF2002E
01D3FF4B
FFDE008D
FF3FFFD0
00E9007C
005E0048
003600A9
FF37FE7C
0000FF64
FFC3FFE2
FFF7FFF8
17380106
F42CF6F6
FA3AF3A2
F970F83D
F855F83C
FA4EF854
F8ABFB36
F86AF9E9
F776F7A8
F9A2F580
F806F97A
FA66FB4D
F584F969
F9AAF572
F75EFCC5
F9720203
FE6BF894
FCE8FA14
F83500A5
FC44F664
FB45FAC4
FE57025B
FCEAFB67
FA20FAD0
FB78FA66
FA68F90A
FBACF92D
F9A7FE48
F442FA3D
F748F7EC
F81CF8BD
F67AF836
FA07FB01
FAA8FCC8
FBEBFE7B
FDACFB4A
FB4DFABE
FBAE00B6
FAFDF93F
FB73F89E
FFF4FDC1
FFFBFFB1
00FD0005
F8B718C8
F686F728
F72AF905
F7D2F8AD
F924F8B9
FB6FFAC8
FDD9F99A
F7DAF90D
F6DAF7D6
F9B5F9CC
FB60F89C
F960FACE
F52EF69E
FCD9FD2E
03D9F7BC
FB45FAB1
FB82FF57
011BFF3B
FA5EF981
F78CFD9D
FEC9F812
FB1FFE40
FC51FCBB
FAD8FAFE
F9B7FBD5
F963FB20
FF7AFC2D
FAEFF9D5
FCBFF502
F9DDF78C
F844FBC5
F829F6E4
FEA1FB40
FE54FAE1
FB65FBBD
FB66FDE6
00A0FB3E
F917FB86
F907FB95
FDD9FBF4
FFE1FFF5
000DFFF9
2848015A
EF34F3F4
F720F120
F5E8F3FA
F6A4F450
F712F80E
F666F9B8
F730F801
F5AAF38E
F754F4E0
F5C2F7B6
F870F99E
F158F7A8
F62CF294
F2F0EF60
F802F983
F911F62C
F73CF911
F4E8F5C4
F2E6F40E
F20AF2B0
F686F630
F666F484
F4F2F130
F65AF718
F804F72E
F6B4F854
F5BAF64C
ED94F580
F4E8F654
F504F738
F362F528
F8D2F0C2
F734F516
F932F214
FC22F892
F5AAF68C
F6FCF6CE
F85AF692
FAB5F61E
0000F7F8
FFBF1E44
FF3AEFFC
005002B8
FFAE00D2
FEDFFF7A
FE4AFF3A
FED6FEEF
FFE60350
00F600A0
0191FF84
00800048
0069FF33
0008003E
00570025
006E00AF
008FFFCF
FFC40195
FF790115
01A4FFB2
00BFFF91
000201BB
009F0051
0100029C
00D202A8
01280103
0159FF0B
FFE20024
01CB016E
002B0108
0185FF66
01150008
0120FF21
FE24FF02
FFD40023
01650009
FFCA00DF
FFE800EB
FF4A0011
FFF9FEB7
018500BF
00650160
FFC0FFB1
1FBC00C2
F69AFFE6
FF1FFF76
01480007
FFC40117
FFD10002
00D1004E
0144005E
0045FF83
01400036
002A01AF
FFC9004D
00AB0097
002C007E
00E90082
004200FD
01BD0188
00F50015
001AFF86
00120203
018CFFC5
FFDD0027
0263005A
02D70173
00680081
FF190108
00BF0123
01C0FF9C
01440234
FF04FFE0
005401D5
006B01E7
002E0291
0021FE7E
002FFFF3
00B801EB
010FFFE8
00B50030
FFC3FF95
FF9300BD
00ED017D
FFA40072
0039FFCF
FFC21E70
FF8DF724
FC18FE5F
014F00DE
00E0FF85
0152004C
015D0106
FF840098
003BFFF2
001E01A5
0004003A
0030FF8C
00A3007F
006E0071
01BD00EA
01FD016D
FFFB026A
00930042
FFF9FFF8
01660022
001A003B
00F60107
00F6011C
00900197
01580139
00BCFEA8
FF500073
015C0106
FF5F00FF
006AFFBA
0196FFEB
015D00FE
FF4E00CA
00810034
FFE700B2
0098FFF7
0078FFA5
FF910157
01E10079
00D000B0
00350051
FFE1FF3B
00000073
00201BB8
002805EE
00E500D8
FE31FE28
FF6EFF8E
FF66003F
FE25FEEF
FD43FCBD
FE14FC5B
FDA3FF4E
FF46FF62
FD530034
FE97FDF5
FE43FF62
FEAEFE04
FC07FE55
FEEBFCE8
FD3EFE39
FCA7FE69
FD58FD66
FE3FFDE6
FDB7FD94
FD0DFD8C
FDCDFD73
FCBCFC51
FD520076
FDD8FE10
FCE3FD57
FE88FCB8
FE1EFE98
FCDFFEF4
FDCE0140
013B005C
FEE3FE18
FD68FEC2
FE1FFDF0
FE82FD82
FD8FFE34
FEBEFEF4
FDB2FCF4
FD41FD13
FDB3FEDA
1C38FCF3
03D20024
00190029
FE2F00B1
FE41FDDB
FEBAFE26
FD66FDEA
FD66FD29
FC8FFD3C
FDEFFDBB
FFD8FE9C
FF65FF05
FE0DFDBA
FEE2FE6F
FE05FDF2
FDE1FFDD
0075FF18
FE4CFED8
FE94FD2C
FD8DFE0F
FF24FE8C
FD5BFE70
FE38FE58
FE58FEBB
FE16FF86
FE9FFEE7
FF06FE7B
FE3AFD94
FEC8FF05
FDF2FEDC
FF16FEA6
FF8DFDDC
FE77FE4B
FE4FFD30
FE01FE49
FF8AFE00
FE77FE58
FE33FDD7
FED8FD8B
FF1AFECC
FE2DFEE9
FF2CFDB2
FE12FE05
002A1C88
001403D5
FE26FFF5
FE48FDD5
FDEEFDCB
FD96FE4E
FDE4FD14
FCE5FC9F
FD5AFC5F
FEDDFEBE
FEBAFFA0
FE05FF12
FE20FDD4
FD8BFE88
FFE3FD66
FF70FF4C
FE87003B
FD93FE37
FE43FE84
FD8DFDE0
FEC1FE39
FE0FFDF7
FD99FD6C
FF49FD15
FEE6FDD0
FE0B0009
FD97FEBB
FEA4FDCC
FE3DFE55
FF30FD4E
FE68FF26
FDC7FF40
FCD7FE3E
FE8FFDDC
FDCEFDED
FDC4FEF6
FE80FE60
FDE7FD7B
FDFFFEFD
FEA2FDF6
FD7CFD16
FDD8FF2D
0000FD88
002DFFE2
FFFD0004
D61801DF
FD53FA56
F460EFA4
F788F59A
021CFCA6
F464008A
F52EF730
F5D0FCE4
F776FD2F
0465F9EC
F3840180
F776017D
F48CF14E
F2BAEC88
FBC2F320
F422F79A
F5AAF654
F5960443
F8AEF5B4
F7D2F6C8
FBF6FB80
F32CF6FA
F30CF674
F4AAFF8B
F758F8A7
FC47FA80
F5AEF73C
F59AFCBC
F3C4F45A
FD6CFAC9
F436F750
F4BEFAFE
F4BAF696
F848F576
0604F554
FF17FA0D
F80D046B
017AFD80
F746FCEB
F912ED7C
FFDBF716
FFFB0016
01AE000C
F9DED4D0
EECCF955
F544F1E4
FC7AF6C0
FF92FEF2
F732F468
FD77F59E
FD8AF538
F92AF744
01720386
01CBF208
F0BEF6B0
EA48F422
F3F0F26A
F6E2FBB1
F622F1C2
026BF530
F4D4F55A
F5B0F847
F820F744
F692FAC3
F642F284
FEE3F250
F845F3B8
FA79F78E
F65CFB6A
FCBDF502
F3ECF40E
FC3FF2B6
F752FD24
F9D3F6E2
F6A0F3E8
F612F42C
F4A0F6F8
F8960542
058DFEA5
FDA8F898
FCB6002D
EC20F6BE
F664F91E
0036FFDB
FFF6FFF8
D3F801B3
FB2FFB43
F172F0AA
F582F410
FE2EFD96
F39AFFCF
F596F7EC
F4E4FEFD
F60AFDEA
0588F9D1
F14401B1
F7E2026B
F478F0C2
F39EECBC
FD56F38A
F44EF75A
F6A2F6A0
F6220246
F7EEF64A
F9A4F756
FA50F780
F298F4D6
F2F6F4C2
F3BAFE6F
F70CF992
FBDAFA52
F670F698
F588FB9B
F3FCF3D6
FCF5FD30
F915F8E5
F42AF9C3
F5D2F6F4
F6E0F5BA
05D8F58C
FEC1F8EA
FA4604F9
FE90FAAB
F710FCD5
F951EB08
0000F5CC
FFEF0005
00090004
00770093
FC70FD5A
FAE0FFFE
F8EBFBE5
FB54FE38
FB25F820
FACAFB4A
00B6FEAB
F9E1FB0D
015EFC51
FB7BFB63
FDF5FB2F
F8D6FA40
FAE8FA7B
F9EBFB61
FC14FD2B
F8B8FAAE
16B8FF16
FAFA26A0
FB15F8F6
FBBAFE5E
FDEEFCE7
0462F97A
F99FFA94
FA260036
FB08F21A
05D10D26
F964F792
FEE9FF5B
F982F8CF
F7E6FC46
F45EFB54
F81BF8AC
FB98F8B8
0FB202D4
FCE1FAE3
FCF3FDEB
FAEFFC0C
FB7CFA09
FCA9FBC9
0001FB92
0005FFF6
0070000A
FD43018A
000BFBE9
FBD1FB5D
FF13F6F6
F889FAC1
FB2CFB6F
FDEDFB51
FAEE0070
FBFCF99D
FA8B01A5
FA5DFB0A
FA8AFE08
FA64F890
FA2FFB41
FD2AF9F9
FA7CFB93
FDFFF8CB
264815E4
F878FAFE
FCFBFA12
FC86FBEB
F830FE51
FC140556
0021F979
F1FEF99F
0C88FAFF
F7060482
FF27F99D
F7860043
FBC8F9D2
FB00F68A
F74CF2C0
F96EF83D
035EFB1D
F9B51084
FDBEFC82
F9DDFC32
F961FB05
FB1FFB4E
FB76FC9A
FFF50002
00030008
02B00077
FF25FD51
FB70FF8A
F710FB86
FB51FDE1
FBD3F889
FACAFBA8
000DFDE5
F8CEFAF6
028CFC1F
FAE9FA02
FE4FFA4D
F8B3FADE
FB8EFBA9
FA72F94B
FD24FCAD
F847FB60
1518FDB7
FBA82130
FA12F9D8
FB15FC63
FF52FD1D
05B6F8DE
F9B2FEBE
FA9E000A
FDEAF382
037E0CDA
FA31F782
FBF3FE7D
FA01F7DE
F628FB67
F382FB64
F92AF7CE
FBEDFB0C
10D8039D
FDA5F85D
FBE6FDDB
FBADFB33
FC2AF929
FD10FB7A
0000FB8C
00851264
0013F40C
045C0924
FFDAFEBE
FCF2FECA
FD8201A1
FF4DFEFF
FEA3FE88
FE16FF44
FBF3FD08
FDAEFC73
FE2BFE2C
FDB0FE0D
FE73FD7F
0013FDEB
0057FEE3
FDB7FCDD
FC11FDB1
FF5AFD91
FDF2FEBD
FD93FE22
FE30FE2C
FDD3FDA9
FC0EFD24
FB47FDE2
FB62FE38
FBB0FB87
FBE3FCF8
FC4BFC26
FCE6FDE0
FE81FC20
FDF3FBF2
FDE0FD3E
FF7EFDF2
FCDFFDB7
FD3CFC21
FD73FDE5
FC14FDAD
FCADFCE0
FEBEFCF4
FA94FFAD
FD0FFD2B
12E0FC59
F6D40095
0B060008
FD170698
FD52FCD9
FEC8FC3B
FC21FB05
FF89FDAF
FE8EFF8A
FB37FE75
FC96FD1E
FD08FDA8
FDBFFE46
FCC5FCFE
FDD0FDB6
FEC3FF52
FE000023
FDA7FD79
FD68FBD0
FEBA0028
FE37FCF6
FCB2FCD6
00ABFD39
FD10FE4F
FE4DFCED
FD6AFC58
FB6DFBCD
FCFFFBD5
FCD1FC4A
FD38FC96
FBC2FD14
F961FE46
FC24FE55
FDABFB78
FE3AFE6D
FC9CFD99
FE57FC36
FD50FCB0
FC21FCC4
FC7EFC92
FFC5FE7E
FD77FBC8
FC1EFD89
00661314
FFFBF6B0
078C0A08
FBF9FD63
FC3EFDB8
FBD0FFE2
FC72FBB5
FF6000E6
FF51FDB1
FD12FA09
FDAAFCFA
FE61FCDB
FCB5FDD6
FE8FFD57
FE15FE11
FEF3FB8C
FD43FE46
FB81FD75
FDFEFD13
FD97FE47
FC22FE44
FCCCFC04
FF3A009C
FD19FF6A
FCB3FE6C
FC12FA80
FC0DFBBD
FD2DFD7B
FD2CFD4A
FD3FFD9B
FECBFBC3
FD8DF9FE
FAEAFCB9
FD96FE31
FCF4FCCC
FD6FFD25
FC45FF4E
FCA6FD93
FDCFFB75
FE46FC8E
FB7B00A0
FDCFFDDA
0000FCBF
00010000
FFF2FFFD
0118FF87
FF0100C1
08FCFBC7
1C003180
FF2F1BB8
00B00928
0F641690
FB2BFEBE
FCA4FC3A
FD720151
FCE0FC27
FC2DFC94
FEA4FC1A
FEEFFFF5
FF01FB17
FF1EF90D
F99FFE19
FCBBFDCF
FD6DFB91
FFA200EB
FE25FCAB
FB59FAF7
FD73FAA3
FCE9FBC0
FDCFFB66
FC2AFB31
FCBBF9C4
FC82FC2A
FF40FCDB
FEBAFB9A
FC06FA6A
0163F712
FB98FF3A
FD4DFD93
005B0284
FBAFFB38
0C70F966
FDAEFE02
FB35FC2D
FB86FC8C
0006FC64
FFFFFFF9
FF7AFFEB
01ECFA21
FC6BFFE6
32780A1A
1B941CB0
04EEFF00
167C0149
FEDF0E74
FC05FB28
00EFFD17
FBF8FCE5
FC44FB51
FBEEFB6F
01E9FCE8
FB03FBC7
F8F4FF10
FD82FD60
FE17FA17
FC5AFC49
003AFE02
FD69FFD8
FB23FFC5
F996FA5E
F9D9FCDB
FC11FC84
FB5FFDE8
F9DDFCE0
FAF1FD16
FD38FC8B
FB4AFD9B
F7DCFEBB
F694FB44
00580127
FDCAFA90
01DBFEF3
FAD6FF67
F80FFB95
FE950CB0
FD48FDD9
FC0CFB1B
FCA8FB90
0008000B
FFF8FFFE
F69CFF8A
FDF9FFEF
0A24FAEE
1CBC3420
00961CE8
01B3038D
10E415C0
FB39FDC7
FBEEFA95
FB8BFF0C
FC08F9CD
FA89FB4C
FA9BFB31
FB4B002E
FE76F969
0002F7D4
FB25FF4E
FD25FF2D
FE35FCA6
FFC70033
0005FDC1
FB0DFB47
FD2CFA03
F9AAFA69
FCD3FB58
FCAEFB50
FCF1F966
FCEAFAC5
FCA7FD0B
FC2FFA7E
FC4EF7AC
FF90F53A
FB5001AB
011EFF00
004C02BE
FC93F9ED
0CDEF817
FD0BFEEE
FBECFDCA
FC14FBBC
0000FC87
FFFA0008
FFFB000D
FD17FFD2
FA210091
FCC400AD
FEB2FCA2
FE48FE42
FC49FBA4
FBFDFCB5
08DEFCC2
1C603508
FE880274
FE590658
021B1370
04670249
03D8FE05
0019FECC
000AFF0E
FEABFD03
FE4EFCE8
001EFF16
FDA4FB9C
FF150058
FE16FF9B
FE8602E2
FF050248
031DFBDA
FF80FC18
FE54FDE0
007E0405
FEA402C0
02420108
FCA609FA
FD6204AF
125403F2
01E0042A
FC76FEB9
FD7A0209
FBAD02E2
FDA3FEF7
FF8FFFD4
056B097E
0009FE81
0006FFF5
FFE3FFFE
00A3FD5A
FFEEF998
FB3BFB95
FD2CFD79
FB70FD5F
FC64FB4D
FC5AFB59
356008DE
020B1BCC
0647FE3E
1298FD7C
0213011A
FE4F03E8
FFFF04A9
FE6900F9
FD8900A3
FC85FE3B
FE7AFE8B
FBF30071
004AFD55
FEC50065
0293FDEB
01E9FE50
FBDAFEEF
FBC60324
FD9DFF1A
031BFE08
026D003D
FFBCFF19
09F200DD
037AFB0A
050E009A
03CF110C
FE9D00ED
016BFC7B
043EFD0B
FFF4FB2B
FF27FD62
08AEFE95
FE380524
00000008
FFFD0004
FC1E0018
FBE70146
FC2DFFF2
FDCDFB20
FC7BFC25
F8EBFB52
FBC7FCF1
07E4FDDA
1C483608
FE6902A8
FD340620
00B71298
03510126
042BFF93
02F0FEF2
FE86FE1E
FDFDFC17
FD85FC28
FEBEFD92
FC67FB31
FF0CFE8A
FD46FE92
FE2500B6
FEE1030E
0366FD2A
FECBFC1B
FEDCFD79
00E8042B
00D8023A
FF090127
FAE40AE4
01F80556
0F3A07D4
FFEC01BE
FD4BFC5E
FDBC017D
FAF4054D
FE5000D0
FDF5FEA3
03EA07EB
0000FCC8
010BE5DC
000BF4E8
0302091E
FEBEFDCC
FC87FE6E
FCFFFF41
FE66000B
FDDBFE72
FCEAFE9D
FC2AFE18
FDC8FCB1
FE06FE5B
FD76FD8A
FD64FD6B
FFA3FE20
FF14FE6F
FCF5FD58
FC93FDD7
FEA0FD6D
FDE9FDDD
FCFDFD6F
FEA5FDD0
FDE5FE81
FC07FEF0
FC07FD4E
FC5DFE6A
FB75FBAE
FC78FDC8
FBA9FB61
FD38FDE0
FE32FC4D
FE04FBC0
FDF2FD1A
FF12FD3D
FC9DFD2C
FCCFFC15
FD72FE0F
FC26FD12
FD2CFCCB
FE82FD8A
FAD8FEE5
FD1CFCEA
E604FCF1
F7B60113
0A0C001D
FC6C04B7
FD0AFC7A
FD94FC5E
FDBEFBAC
FF83FD67
FDDDFEF4
FC93FD63
FC89FD1E
FD2CFD69
FD2CFDDF
FCD7FCD6
FDC9FC95
FE20FF1B
FD04FEDF
FDA9FCFA
FD23FBF2
FD8EFF2C
FD1BFCCE
FC43FC77
00EFFD9B
FE53FE1B
FD44FC1F
FDBEFC9F
FB5AFC7C
FD88FB83
FB59FC1A
FDA7FBFB
FBE8FD04
FA25FD97
FCF3FE6C
FCCAFCA5
FD77FE45
FC80FCD4
FEA9FBE6
FCD4FCD5
FBFBFCA7
FC90FD16
FEECFE05
FD0FFBBA
FC6DFD71
0114E5EC
FFEDF792
04030896
FBF9FD22
FCA5FDAE
FCA4FE84
FC44FCF2
FE930083
FE1BFD5A
FCBCFBBB
FD0BFC93
FD9CFD2B
FC76FD58
FD5EFD2A
FE66FD90
FE56FC32
FCE2FCB0
FBCDFD9E
FEECFCA7
FD98FD9B
FBE2FDCF
FD10FC8F
FE7300D2
FC2E00C8
FCE1FE02
FC4EFBD0
FB8BFBE4
FC71FE13
FCBCFC03
FDC3FEB7
FE37FC11
FD8DFA98
FC31FD8F
FDD0FCBB
FCF0FBF6
FD36FD48
FC96FEE5
FCADFCE1
FE3DFB93
FE29FC9C
FB7EFFB7
FDB6FD23
0000FCE0
000B0002
0013FFF6
FD4CFFF8
F7F0FBBE
FA05F860
F9BBF8D2
F8B3F830
0572F7F6
F99CF8E5
FA5EFC1B
0A98FEBA
F590FB0C
FC8DF85F
F93AF6F2
F9B3F8DC
1330F9E4
FE090182
F6BA02F1
0089F65E
FCD4FA2D
06BD0419
FD17F4F0
03D203ED
FB7E0622
F96F003C
FFA3025B
0592FB7F
F88AFBF5
FB0DFA9B
F849FB82
FF8BFA81
01C40BF4
FFE8F720
F688FA5F
F56EFE40
F6181480
F997FBCA
FD74FDFC
F90BF864
00B10A12
F9D8FD35
FFDF19D8
FFF3F626
FFFB0008
0014000B
FCE6FCC7
F83FF89B
F8B1F95F
F902F995
F918F89D
F90D049B
FEAAF9E5
FE96FA02
FB150A66
F7DCF5DA
F556FD54
F8B0F97C
F959F9C2
0003132C
0250FE3A
F68EF6B8
FA7B00BF
04C0FC06
F44007D1
0212FC83
04A80095
00C1FC43
04B8FA09
FC2B004A
FCAF06BB
FA8BF972
FC31FA14
FAB1F8A6
0ECAFF34
F59C011B
FA13FEB1
FD98F60E
1504F602
FC1EF616
FCC1F8E5
F7AAFDA7
0B0EF880
FC5100E4
19BCFA03
F6A20096
FFF6FFF2
0008FFFD
FCD4FFE2
F968FD50
F981F897
F909F830
F9E4F885
049FF9F6
F9E4F947
F9A9FFB6
0B34FDCC
F5EAFC02
FDA1F7D0
F962F4F2
FB3EF803
1210F97D
FDB001D8
F81400E5
FE8DF758
FE1DFB07
08C20410
FE69F60A
021F038B
FA4600AC
F8EBFEED
FF62FAE0
0511F912
F9A1F9B9
F8FFFAC5
F746F963
0236F989
FFA01030
FF5EF4FA
F6D2FA48
F696FB70
F5CA0F3A
F8B1F904
FD24FD29
F9C0F7B4
FCD70654
F948FB45
00BA19F8
0000F85C
007FFFB2
F8AD0063
029F0E2E
FCECFDFC
FED9FE53
FD6CFD98
FD8BFD5A
FDF1FC9B
FCFDFC31
FC62FDD5
FF1EFDBE
FDD2FE9F
FD47FEB9
FD1DFE9E
FEF8FD4D
FBBEFD89
FEA4FDC4
FCCAFC93
FDA7FDA4
FE54FE2F
FEC4FC44
FDCFFF56
FCA9FD96
FE14FE3A
FEBFFD53
FD82FEC4
FC7EFC16
FD52FCA9
FD61FC05
FE75FD63
FDD6FCCD
FC98FEF3
FD75FD90
FBEFFDEE
FD61FE79
FCD6FE0E
FE0DFD55
FE23FC13
FD6AFBEA
FD0AFC97
FB9CFE89
FD18FEB8
FFBEFD4C
0046FFFF
0E00F7D4
FDCB013E
FF18FE98
FEDAFFA4
FDB8FE0A
FCD7FE6A
FCA4FE7A
FD06FD2A
FD73FB84
FF20FF47
FE9EFD54
FE4DFE15
FD23FD61
FC58FE3D
FD5EFA72
FB8CFE91
FDDAFCB1
FE78FD9A
FC25FDA3
FE8BFE0A
FC9AFD3C
FDF3FCC1
FC9EFD53
FF22FDC7
FBC8FD53
FC9BFC1E
FB1CFD27
FCECFD47
FD12FDA5
FF3CFDE7
FE22FD2F
FE2EFEDD
FE9CFC20
FD40FCF7
FCEAFDEC
FD2FFDBE
FB7EFDA4
FB40FDCA
FEF4FD03
FF56FB42
FCDBFCC0
002FFFBC
F9ED0060
00400D54
FF1AFCE0
FE78FE8D
FD4FFD25
FCF2FCF0
FDC4FCD4
FCE0FCF3
FBBFFCEE
FF55FDBA
FDE3FEEE
FDA5FEDF
FD85FDEA
FDA5FC7D
FA93FCE9
FE1DFCCD
FC3FFDED
FFD6FD8C
FD62FE9C
FF09FE6B
FD16FD95
FB98FC7C
FDA6FDB0
FDC8FDB7
FD9500B0
FC76FC6A
FCDEFCD8
FE2BFBF4
FEC7FDF5
FCB3FD9B
FD48FE3A
FD51FC57
FC5DFDA9
FE80FEE4
FDEEFE54
FE1BFDF8
FE4EFAC4
FBFCFC20
FDCFFCDB
FB80FDF9
FD30FFF8
0000FD68
00000001
0003FFF2
FDCFFF72
FB130016
F973FE30
FB6FFC5A
FE0CFD16
FBD1FD65
FA81FC27
FFDEFE4A
FF3DFD67
FC9BFEEF
FB1DFBAD
FB18FCFF
FC43FC65
03C700C4
FA17FE44
013EFBAC
FAEEFE16
0225FE34
FD11FAAC
FEC001AF
01CF0021
2A980393
24782CC8
0036035B
0723FD51
03D0FF16
045B0730
F92B071D
0169029E
FFA5FD01
0475FDA4
FE47FD56
0124012E
FFFDFEB2
01180771
010D030F
FF3C04E9
FF7A0244
173CFE60
035CF999
000209E4
FFFD0000
FF560004
00ACFFBC
FF34FB12
FC03F821
FD67FA6F
FCB1FF42
FC2AFB9B
FE00FACD
FCD20121
FEC4FFCC
FB5FFC3E
FD15FAA7
FC64FB1A
0179FC6C
00270335
FB5EFA0B
FCD80260
FE6FFA84
FA9D0253
022CFD5E
0237FF00
049503B8
2C302A88
013723D8
FD780073
FF84075E
06BA0490
0694039A
03A2F9AC
FC57012A
FC0700B1
FD190267
00D1FD6B
FEE00131
07F9FFFC
04800158
0596015B
02A2FEB4
FF3BFF22
F9A317F8
0ABA03E4
FFFDFFFC
0005FFF9
FFDAFF66
FB5C007E
F7F2FF2B
FA56FD0F
FFF2FEE0
FB79FC4F
FA79FC42
0267FE00
FFECFBE3
FCC6FEDE
FA5EFC36
FAE4FD5C
FC8DFC84
033600F3
F9EDFE86
01F5FB11
FB25FD61
02F0FEB9
FC58FB8F
FF920202
057902D3
2CB805B2
25902C90
014F0286
0882FD73
0380FDD4
03080658
F9AF0779
027B04F8
0137FC24
04E9FCB8
FC65FD1C
029C0125
00F2FEDB
011D07E5
01830512
FE76050A
FFBC0380
1824FEC0
0431FA1E
00000B46
FFFAFFFA
00070002
F3B20168
044AF803
0329F7D4
FBA80655
F95AF55C
FB3BF997
FAE6F7DC
0318F861
FB52F9DC
F95CFAF0
13D4F3F8
0288F634
0084F8B0
F79E0770
F830FB17
08D8FC5F
F6CAF4B8
0025F444
FA93F975
FF6EF6B4
F86AF680
FBBDF7B6
FE62FC0B
F714F7F0
F86405E7
F7F2FD81
F88FF876
0492FCA8
F3C0F686
0205FB85
F946FC84
16D0FA87
FB28F45A
01E1F9AF
F4FEFAAE
FA1AF7DE
F811F83A
FEE1FAC1
023EF796
FC4CFD19
FFF5F88C
0004FFFB
01980009
F5B8F036
F65A0021
0411006A
F372FA03
F892F80A
F6F4FACD
F5ECF9DE
F89A0293
FA74FA4E
F2E0F8CD
F48E1340
F7A80272
06FDFE9A
FB53F5F4
FBA9F6FC
F4A2090E
F2CEF5B8
F8CF017A
F6A0F9C5
F5AAFF22
F652F80E
FC90FCD7
F6C2FFC8
0576F740
FD7AF772
F89AF770
FD1BF7F0
F54405E8
FA60F28A
FAD50022
F996F678
F14E184C
F8DCFA29
F95E0472
F78EF3A6
F620F96D
FA35F628
F684FE7B
FC8701CA
F9D6FBF0
000FFFF5
FFFFFFFF
F09C019B
0026F5B4
FFFFF6E4
F8400279
F774F13E
FAF7F861
FA2BF87D
0231F632
FBA2F8B8
F93CFA9D
1344F35C
022DF448
FFFAF710
F5EE0710
F7C4FC39
0A60FB54
F6F8F5A2
019CF356
FAE5FAC8
006FF6D8
F7E2F67E
F9F8F6EC
FD9CFAB1
F63EF348
F77C060E
F80EFE61
F85BF9C8
0719FC76
F36EF580
0066FA33
F889FA9A
1A1CF9AA
FC5BF0D4
0390F7B0
F4C0F85F
FA57F7A6
F616F6CE
00C8F9C0
01C3F6F0
FC6AFC9E
0000F9BB
FFC0FEE5
FF80FDE5
0031DBC8
0230028F
0082FEE0
FED5FEBB
00FFFF8F
FFEF070D
01C800E4
04AF0387
FFD901C3
029BFF4D
003801B6
01F10110
0391029F
02F1013C
01910527
039E00B3
031CFF9B
02ED009B
00E10271
024D02CF
052A04DE
02AA036A
03FF02F1
0282FCC6
FFBB01F9
036D0370
FFEB0374
022FFFA1
04FFFFE1
04EF00DA
FF55FF61
FF8E021A
01EA00AC
02020379
004F01BB
FE3E0012
031C0238
03F503AD
027D00AF
00B00152
067302B0
003EFFC5
DCC0FFC1
03CDFEA7
01220485
00E903BD
02E20361
0368030E
006BFEEE
06D7FFF0
02BA039C
01180127
02B302E0
01DA017A
02BD0318
02B702E8
026100E8
0029023B
FFC404C0
0140020B
00CD01EE
030300BA
00D80204
0071021B
01D801CC
FD5002D6
015401CA
0298016C
0142029C
01160001
007901AA
03B80339
026C0605
01830312
01DD014B
0219013C
FFA302DB
01C301EE
0441FE06
021E0368
FF6C0264
01FF01FA
012B0037
FF7C088A
FFE700B5
FFD7DB00
02CB0304
03BE00E0
0382015F
037702FD
006E02C3
00FF0057
021305A6
014002F2
03080124
019D01F8
0268025B
03CB0356
020103A4
01EA03AC
0465FF7A
004FFF8E
038F017F
00AEFFAC
021A0333
029600B9
01E60036
02C20274
0216FCF6
01440149
029A0258
FF310132
0112017A
039D0092
06D6041B
0259029A
01C10238
FFC90246
02870168
01BAFED4
FE54028B
066C0358
01E70248
027BFF8A
0037026D
000001C3
FFA0FE9C
FFDB0082
004EFED1
01DC00CA
FFBDFEF8
FECDFF70
FDDFFEB0
FFFAFE5B
FF81001C
01550078
00850170
FFBBFF46
0041FF75
FFBBFFCA
FF89FF41
01DBFFE1
015001FA
FF6F00C9
019DFFA5
FF32FF4B
FFED001A
000900AF
0029007A
0186FF82
FFEC019A
01BAFF2B
FF79018C
012F00CA
00170158
017000EE
01930068
FFAD0080
FED1FEFB
FEE4FFA7
00C2001C
00AB00DE
FFA400FE
FE39FF38
00A9FFB7
00CC00B4
021DFE97
FFA2FF63
FF5200FB
FFDBFFB6
FF94FFB9
FFAA046B
FFBEFE8E
FEE40193
FF3300DE
FF73FEC6
FF98FF5C
FF21FF15
02B000A0
00C40170
FF99FFDC
006300FE
FFD200E4
FE11FE5A
02A1FFB0
FFB20102
FFE3FF6C
FF5A00C8
FF33FF49
0084FFA1
01800070
00B200A5
01570144
FD7C0073
00D401BF
007E0065
00A100E4
017E0061
00F40116
009D008C
00EBFF38
0004FF84
016AFE34
000EFFBC
00AD010C
FFDE0100
FFBDFDF0
FFAE0080
FF33001B
000201D1
00D6FF55
FFC4FF88
FFFBFFA3
01A9FEC8
FF3BFF7E
0183FF02
0077001B
FF25FF33
0039FF5E
FEF8FF09
01BDFF8F
01EF032F
FFE701B8
00C90013
00FC00BF
FF8000B6
00ADFE6A
0044033C
FF8DFF6C
0035FF54
FED7FF7A
FFC3FF07
FFA7FFF8
0164007C
014B014A
0022016C
025BFEA9
01060115
00F80086
FFC500E5
016401BF
006300DD
FFDCFFF6
FDECFFF0
FDFA00CB
FF38027D
01340037
011E0050
FE59FF85
008BFFBF
FF5F0045
021CFEAB
FF850115
000000A3
FE5C0097
003BFF9E
00860288
FE9EFDE5
FE00FAA1
FD27FC52
FB11FD85
FF2FFEF1
FE75FF39
02A2FED2
01C3032C
FDC4FE0F
FF7EFD6E
FDB6FF19
00DBFE9B
04360167
FFBE01DF
FECEFF7F
015AFF8E
0014FE13
FF20FF80
FDFBFBC1
FFFA00BB
FFB501C4
FDC901FF
0217FE3D
FFCD0022
0230FF65
010C0251
FEDBFE63
01FE01F7
FED9FE0A
F8E1FFAD
FE8600B4
01440145
FEF0FEE3
FD9B02C4
FE69FF63
FD4CFC4C
01D6002E
01BA0052
FF5D00DA
004602B6
FFFCFF73
03C8004F
00A0006E
025EFFB7
FE27FE19
0018FF45
FE9801DB
FE650020
00FAFDE7
029100B4
0082FFDF
FD7DFD7D
FE3AFFD6
FF07FD7F
FDF2FEB4
019C0277
FF82FEF6
00FFFEBA
FF08FF7B
FE87FFBC
FF13FF49
000BFEA4
0096FFFF
FF40FEAD
FFB0FDDE
FF1300C4
FE70FF69
0019FF69
FF520032
0216FD8D
FF45014E
04ACFD65
00CBFE54
04BCFCA1
FD94FF75
0143FC69
0135FE96
FF9AFDB4
FF41FDC1
FF9200CF
FEE00037
018BFEA5
FF6D003B
00280022
016B03B6
FFBC019C
FE0B0393
01A7FFC6
03FE0182
FFBCFEB4
FC52FD97
006F0189
00BD024E
FC9A0067
FE92FCCF
FD0FFE5D
FE4EFEC9
022FFC48
FE18FF5F
FEE8FF4E
FE67018F
0004FF47
FFB2FE97
FE05FDA3
0045FF36
FF46FF6C
FDEEFF86
00A4FF40
0050FDDE
FE6EFE01
FFB40023
FD250185
01AE02D0
FB70FE64
FB8E0356
FDAC027D
FE380712
FC55FDB8
FE3D00B6
FDA600CA
FCBBFFD1
FF02FEA6
004FFFEB
FDF1FEEA
0000004C
FFD90004
FFFD0002
FC64FF90
FD64FD9E
FC71FB0E
FD8DFD4C
FDABFC45
FD14F94D
FB97FFAB
0081FAB9
FE99FC4E
FC64FE0F
FB2CFAD8
FC040603
F993FC72
FB42FD01
FEC8FD5E
FDD7FB71
037DFD6D
FCF2FB93
FDBEFD13
FBCCFA8A
FD45FF50
F98FFC4A
FD3B020C
FB720554
FFF11508
FA8F1BB8
FD3401C1
2488FADB
FEC52078
FE65FC84
FB8EFFB5
0264FDD0
FCC9FAA8
FD58FAB3
FB1AF954
FC00FEB6
FE33FF34
FDECFAAB
FFA005BC
FC2C0C34
0001F953
FFFFFFE7
FF730007
FD97FC6F
FA86FDE7
FC9EFBDE
FB64FDC0
F953FD3A
FF7AFDB5
FA6AFB92
FAFDFFAA
FDE6FDF1
FA2DFC77
0619FAD1
FBF3FB74
FB79F9A7
FDCAFBEF
FBAEFF25
FD63FD7C
FB7003B2
FD2AFC63
FA0EFDE0
FEA0FBA7
FCF5FD74
0161F946
04CCFCE4
14D4FBF4
1C34FF6B
0264FB0C
FA64FCB9
206824C8
FC890025
010BFE69
FE35FD73
FAE50405
FA76FC5E
F8EFFDA2
009CFACC
FF1AFBA2
FDC3FEBB
066FFDE8
0BF2002E
FA30FBFD
FFD0FFFF
FFFC0005
FA81FFAD
FC49FDA0
FC27FA5C
FDACFC56
FE01FBA0
FD25F955
FC18FF59
FEF0FA27
FCAEFA82
FBE1FE0F
FA22FA4A
FBAA0601
F9F1FC39
FBA7FB76
FF68FC91
FDB7FCE2
04E4FD57
FC69FBB0
FDF8FCCD
FB25FA8A
FF24FE70
F972FB6F
FD55018F
FCBF0631
FF571474
FC621BEC
FD370238
2398FEA5
FF8920E0
FE83FCFB
FF1F018B
0540FE22
FAEDFBC7
FCD0FBB5
FBA0FAB1
FC5201B8
02D1FE98
FE00FE29
FE8A0601
FC780B1C
0000FA5B
00080018
FFFAFFF8
FECAFF04
FC4EFB4B
FF3AFD64
FED4FBD5
FE59FF08
FE79F943
FCDAFBB1
F958034D
FD94FB85
FDD4FBCA
FC7EFD6C
FB61FC30
FC4AFC5D
FF40FB07
0045FE96
FE3AFD57
FB34FDCF
FC62FDD8
FDA9FB5D
FB07FD50
0554FE9A
075200F4
00A60574
FD4F0522
039AFE6F
FF81FFF8
0203FFE7
02A702AB
FE5E073D
FA830403
30B80A08
F9E100CC
FF37049A
0108FDED
FD05FE46
FD180E7E
03ED0F32
FB3200B2
FE1B0228
FA12FE56
0014FAF4
00030003
FEF1FFF3
FACE015D
FCE8FB95
FA9EFE98
FE90FDFC
F986FE2B
FBCDFE96
0058FC4C
FB20F8E8
FA9CFCF5
FD2AFD8C
FB84FC81
FC69FAFC
FA46FBF0
FD3AFE82
FD5C0039
FD77FDFD
FD84FABB
FB3CFC2A
FE62FE88
FC0AFADD
FECC029E
0536053E
04070119
FE3EFD5C
FF8602BA
FEA2FE97
012A017A
04EE01C7
0346FCD3
083CFA50
00C331F8
03B5F957
FEF800A3
FFC9FF68
0F28FC59
0EE0FCA9
01050458
007AFB85
FDECFF22
FB18F9C0
0011001B
00040001
0201FEF4
FE29FD0C
001EFF72
FFE3FA5C
FF030029
FF7BF9D6
FD12FBE6
F99501F9
FDB4FAEB
FD9DFAC2
FBA6FD87
FB35FB67
FBC7FBE8
FE47FAF9
0080FE72
FC61FC8F
FAE6FC9F
FB14FD84
FEFDFC99
FB42FDF8
038BFDBD
0058FEB3
FB89010C
FB6A03F6
FF16FBC2
F9DCFD53
FE91FBC3
FBEAFF83
FE8E0408
FCDA05DB
37780960
F8F501F9
FA9D02F5
FE25FB91
FD40F94A
FBEB0FD6
05E80F4E
FB19009F
FCB50088
F9FDFFBC
0000FA5A
001B0011
00230001
271800C2
F5D4F88C
FB3AFB63
FB44FA8E
F955F8BB
FCFCFC26
FC93FB80
FDABF887
0564004F
F94A0353
FFD4FB57
FBFCFCAD
FDFBFCA7
F362FC93
F9D6FEE5
FC7CFD2A
FF73FBF5
FB8AFBF1
FC4FFBBF
FD27F927
FDBCFC98
FF2CFE27
FF4FF9D9
FDEDF961
FB2D02C5
FAB6FE9D
FE550051
0267FEEC
FB2AFD60
FC82012E
F95CFE7E
FDE4FB6C
FDF3F8F1
FA890321
FB940400
FB60FDBA
FC66F99D
FE21FB26
FB65FABC
00620B6A
FFDA01A2
001E0006
006F0027
F91A2170
FCBFF5FE
FDC3FC43
FA9BFC0E
FE36FA8F
FB16FDAD
F7C0FD3C
FFE6FD84
037804D1
FB41F815
FD410094
FCBDFC3B
FC98FFDC
FE9FF74E
FC17FA5E
FCCEFB98
FB91FF05
FB44FC60
F9A9FCD9
FECFFC9E
FE0DFE7A
F971FDA4
F7A8FE06
0205FCA3
FD81FA0C
FFA8FB16
FDE7FE26
FCFF010E
012DFAC6
FDFAFC5E
FAECF666
F807038A
0158FD6F
01C6F9BA
FE1DFBEA
F89CFAEF
F9A4FCCB
FB0DFD78
0B1EFB39
01950073
002EFFE0
00050013
189400A7
FE65FB61
FCABFD39
FDDC01DA
FCAAFDFF
FDA6FDBF
FC72FAA1
FE4BFA65
04450068
F8350377
001BFB49
FC3EFDB6
02E8FCAC
FB4AFE2A
FAC0FF38
FD75FC3B
FF95FD1C
FD9DFCDE
FE01FEA3
FE9DFE73
FD54FE0E
FE0CFE2B
FE8CFB24
FC02F83C
F8D200F6
FB22FC2D
FD8A00A8
FF95FCB0
FD9DFB8E
FC71FFD1
F79CFD8B
04B8F9B8
FD32F85C
FB05022B
FC1C011E
FB1EFE3D
FC1CF8DE
FCBFFC8F
FBF2FA90
00D9093E
0000FEC7
001AFFF1
000D0021
F75200A0
F6AEF7F6
F81DF9D8
F9DDF7AE
F992FA25
027BF8E8
04800425
F500FB4A
F834F888
FA55F648
F8F6061B
F80FFCA5
F4AAF8B8
FC2FF67A
FF0CF792
F75CF736
087AFA94
FA600852
F85DF8FB
F5FEF740
F6CEFC9A
FF4E2B78
FC7AFBEF
F818FCE3
098EF6E6
F85B0E48
FA65FA42
F686F879
FA6EFFE7
FBD3FA0E
FE9BF9C0
FA58FBCE
FA7EFEFD
FBE4FB86
FC3BF951
0417F72E
0104F6F0
F56A027B
FDCE0474
FC85F860
FFF0FE9A
000D0017
00AB0010
F772F8E1
FA43F768
F6CAF71C
FB09FA61
F90DFA16
05000352
FA1D04E1
F843F480
F610F824
05FDFA8A
FCCFF8C2
F8C5F7F6
F51CF5D2
F809FCD4
F6F4FEE9
FADCF736
081808BA
F8ADF9BC
F6EAF857
FD2FF5F2
2AE8F7FE
FB01FE67
FB71FC6C
F642F7DE
0D920A44
F8EFF87E
F8CFF8C1
FF76F674
FA46FA94
F8E3FBEA
FB91FEA6
FED5FA67
FACCFAB9
F909FC4D
F680FC13
F50403D5
003E0148
03E5F55E
F89DFDCD
FC48FC51
0023FFF2
0001000E
F71800AC
F8CEF6D2
F760FABA
F998F602
FB20FB0A
033AF921
05660586
F604F976
F7C0F817
FA5BF67A
F87D0669
F7A4FCBB
F5FEF90F
FD15F552
FF79F72C
F7E0F898
094AFBD5
FAD607ED
F909F910
F710F7C8
F72EFD53
FCF92C98
FBC5FC5C
F7F4FDA4
0B06F6CC
F8B40ED0
F84CF9A3
F6E6F6DC
F98CFFFF
FC89FA3C
0028F8C4
FA5BFA7D
F9A90043
FB91FC09
FD62F912
04ACF644
FEF3F7D6
F6B601CA
FCCE03E2
FC98F871
0000FC32
FFF8000C
00050003
FE460053
FCB0FC35
FE2803D6
FE3CFEF1
FBA0FD50
0CB8FB0D
FEA5FDA3
04DCFE33
0D22FF97
32F8FF88
048C05C1
F87910F0
FB9DFBA4
FB42FBFB
FB35FF49
FC6BFCFB
074D02B4
006DFC52
F9D1FC1C
FC55FC03
FB79FBE0
FC3FFCC9
FBCFFCE1
FFCBFDB3
FCC3FCF0
FE23FFA9
0128FF64
025EFD25
FF2AFF3F
FE32FB3B
FD9C09A6
FBA801D8
FA0CFC58
FD06FB2A
FD2EFFA5
FE05FD69
FCE1FE2A
FC02FE05
FCB2F7F2
FD5E1CAC
0007FD81
0004FFFB
005A000B
FC03FD65
03A6FD8A
FEA1FEA1
FF10FE5B
FB5AFBA3
FD440BB6
FED7FDDC
FF5D04B1
FF5F0E0A
064E3308
11C4050E
FB95F7F0
FB52FB42
FFDEFAAE
FC65FACB
0238FCD3
FC6A0796
FC0B0098
FC0FF97D
FBCFFC09
FD26FABC
FC8FFBFC
FD38FB5B
FD1CFEEE
FF5DFBB9
FF19FEAF
FCC20152
FFB40195
F92FFF79
0C5AFE6A
010AFBF2
FB7AFA7F
FA69F994
FE59FC81
FCE7FC98
FD82FDC7
FCDCFC17
F7A6FB87
1D10FC72
FD7CFD12
FFF20004
00050003
FD070076
FE01FC3B
FECB042B
FD00FE61
FB0900A0
0B90FC19
FDBFFD17
04A4FD95
0D90FF55
3268FE65
04DF0714
F72A1294
F9F3FA77
F9CCF959
F9ECFA85
FBBFFC9F
0597023D
FEE1FC77
F9ADFC8C
FBEBFC02
FA04F9A5
FC0BFB11
FC0BFD42
FE5EFD59
FC56FD96
FEADFF1A
0062FE90
010FFD40
FFA80087
FDB7FA4A
FA850CC8
FAA70096
FA04FA58
FCBEFB39
FCA2FC33
FD9BFCA7
FB71FD6A
FB8AFDED
FC34F790
FD221DB8
0000FC30
FFF1FFFA
FFFFFFF6
FCC3FF7E
FDAB013D
FCCEFF44
01CEFCA0
01DEFDE9
FBD3FFC0
05271294
013DFBDC
01D7FF70
FC5E0299
FE1AFD69
FA16FEC9
FEDBFF1F
FFB8FE06
FDC0FF3C
FC7C01D9
0281FF8D
FA530199
FE30FE01
FDCCFDF5
004CFD16
FBE6FF4C
00A3FE59
FE1EFFA2
FB30FF7C
FCE2FE13
FD29FB32
0022FDE6
FCDAFE1D
FC4DFAD3
FB33FE4F
0310FB7F
FD83FB24
FE0A02EF
08C0030D
0E68FBFB
FD73FB3E
38D0FE65
01B30540
069CFF28
FFFBFB43
FFF8FFF9
FF750002
01FDFDF9
FF5FFD88
FC65FC97
FD63024B
02CA007D
12F0FCE2
FB070689
FE97013D
0245010D
FD6BFC48
FEC9FE49
FF30F9D2
FDABFEDF
FE620059
01D9FE0F
FF8FFC2A
002002F4
FE92F945
FE12FDF6
FD38FCDF
FE89FE4F
FD0FFB50
FFA7FE84
FF2BFDAE
FDF7FA5C
FB23FCAC
FCF6FC88
FDFE0008
FAB2FC84
FEF1FC5B
FBB9FA77
FAAF02B8
02B2FCD1
03CAFDED
FD5F08D0
FAAF0E7C
FE64FD2E
04BF3908
FF4200FD
FC010630
FFFDFFF7
0006FFFF
FC30FF8F
FDB700B8
FCEBFFF0
0397FD1B
018FFF52
FDE605AA
070B1440
FF03FBB4
0057FD60
FCBC016E
FE93FDF6
F97BFECD
FF27FF74
FFD2FE4C
FE50FF47
FD240367
02430035
FACD00AE
FF4FFED6
FC30FEEA
FFCDFF8C
FC16FEB6
FFD3FDB7
FDECFFC5
FA4EFE79
FCA6FE78
FCAEFAA4
00EAFD6F
FCB5FE30
FC81FB78
FB33FF5C
0275FCE2
FEAFF9E2
FECA04C9
0A040728
0E80FE37
FC8FFD2B
385800A1
00C80585
05BBFDE7
0000FC3D
001F0009
FFFFFFF0
FF0FFFF2
000E1DA4
FE1537A0
FCD8FCA7
FFE8030B
0B0A01E5
08BEFD4D
00CCFF33
FE2DFDD9
FDDC0A08
FA5A0042
F8D4F907
00A4FB31
0635FEDB
019AFB91
FDB1FE29
F9D00133
FB55FEAD
0211FD5C
F5ACF94A
FEB8FC9A
FB78FD98
FC92FC6E
FEDAFD1F
FDABFABA
FB56FB80
FC54FAEC
FB56F9DB
FF85F9FE
00B0F99D
020EFB04
FA70F8CD
FB88FD9E
FD24FB99
FB9AFD2A
FC46FB5C
FA0FFC34
FBF7FE06
01F0FE62
FC9AFEA7
0000FBEC
00010022
FFDBFFFD
1E58FDA3
39580002
FC9AFDFE
03A5FEA1
01D800D1
FD640A28
FFBC0788
FE37014F
0AA8FD5F
006EFE16
F8D2FB47
FB95F8DD
0062006F
FD7D0625
FE6900D5
007AFD55
FFD9FA82
FDA5FC2D
F9BF02D1
FCC1F61A
FD20FE64
FCBFFB38
FD02FC40
FB9BFF02
FC5FFE81
FB44FB9A
F998FC2A
F9D9FBAF
F965FEAF
F9EB00D9
F8EA0157
FD7FF9FB
FB87FB5D
FD04FD08
FBE7FB7D
FBE6FC42
FCE8FA55
FEC5FBFB
FEB1024C
FB78FCC9
0004FFFE
0002FFFD
FE51FFE0
FF2F1E04
FE553978
FF1BFC14
00A4043B
0AF00118
07B7FC3A
FFACFEB8
FC9BFE00
FC660AE8
FA04FF9F
F855F822
FF83FA7C
046CFE4E
FDF5FC45
FD39FE0E
FAB9019D
FC21FF0A
01C5FD97
F72AF997
FE24FBC3
FA74FC59
FB5BFB6C
FC5AF962
FE21F9E9
FAE8FB61
FB55FAA4
FB9DF81F
FD22F90B
FFFFF8EC
FE57F939
F992F7E0
FB65FBEA
FCACFB34
FBB0FA7B
FC6DFBE6
F8AEFC0C
FC53FABA
0204FEC4
FCD4FE38
0000FB45
00F9FFB4
005EFF15
00E211F8
FAC2F8D8
FB83FDC1
FC98FAEA
FB3EFB94
FAFEF859
F936F992
FC0AF9BB
FBB0FC70
FB48FC36
FB3FFA4B
FABBFBED
F893FABB
F9CDFA9D
FA97FA4F
F9BFFAAA
FA37FCDD
FA04FC58
FAF4FB99
FBDEFA22
FA51FB08
FB0CFB11
FAA8F841
F8F0FCC8
F939FA8A
F9D0F95F
FBD8F8E6
FB60FB2B
F9EAFA84
F9FEFB4C
FB5BFD19
FB3DFBE8
FAACFB58
F9D6FA00
FA11FB05
FAAEFB1B
FB18FA5B
FAC0F93E
F89FFC55
FB55FAD6
00A7F88F
FF3D00EC
10FC00BD
F8A1008A
FBCDF9D6
FAC7FA70
FAF9FB99
F92FFA76
F9A8FB17
F925FA29
FCE7FC44
FB6EFB68
FA20FBE6
FB6EFA92
FA15FA22
F984FA46
FAABFC74
FAECFBA6
FC9EF95B
FC61FB7C
FC00FB43
F9C1FBA3
FA9AFBEC
FA82FA42
F9DEFB7A
FAC2FBF0
FAC3F9C7
F9D8F9C0
F9A9FB7F
FB33FC47
FAE3FBC4
F9D9FA36
FD18F952
FC20FA61
FB74FBC4
FAF3FB0C
FBFEFB19
FBC6F941
FA3AFA92
FA3DFB5C
FCA0FB54
FABAF8E0
F9D4FB97
013A00AE
004FFF13
FC9011B8
FC3AF950
F9FBFC38
FAD7F95C
F9B5F9D3
FA17F855
F9F4F9F6
FBA4FAA1
FB7EFC91
FC43FB61
FA50F97D
F9DCFAD5
FB5FF91E
FDDAFA4D
FC64FBE9
F95CFBB3
FDDCFCA0
FA17FC3D
FC19FB27
FB00FB2B
F919F8F1
FAA1FA84
FBCCFA10
F935FA10
FA0EF9F7
FB05F9DC
FC15F9EA
FD14FB15
FC7CFB3C
F7C6F95A
F971FBF4
FB1DFB9A
FC33FA7A
FB44FB3B
F93CFCCD
FAF8FA01
FA3EF9AB
FC1DF928
F860FC3E
FB72FB78
0000F9DE
002BFFF4
FFF90007
00D901DA
FFA2FE28
FFE0001F
FF5B006B
FF490090
FD97006C
FE10FCFD
FE67FF20
FE47FEED
FF06FF00
FED7FE97
FF70FE25
FF74FDCA
FDB60038
FE50FDBC
FE2AFEE8
FDD3FD4C
FF1DFE3A
FD6AFDFA
FF20FF0D
FE27FF34
FE79FF23
FFE8FEA2
FE24FFC8
FDD3FEE3
FDF4FF37
FF24FDDD
FFBEFE79
FF30FEA3
0035FFA7
0165FF2E
FEEBFE8A
FEBE008F
FCAEFECB
FFB6FEED
FF4EFDD4
FD5DFC89
FF0BFE5D
FD57FE89
FDAF001D
0040FED8
00010051
0173FFEA
FDE80100
FFCBFFB6
0014003C
FFEAFF7C
FD4EFF64
FCFDFE73
FECFFD56
FFB2FEBD
FEFFFE85
FEA4FF19
FDEAFEFE
FDC1FFF1
FF920096
FCE3FE81
FEB3FE73
FD9BFDFD
FE70FDCE
FE1FFE87
FEEAFDB1
FE4EFF2C
FF26FE45
FE1EFF45
FFD5FF79
FF23FE9D
FFB8FDCF
FE43FE8F
FDD6FF6F
FEA2FF85
FF490023
FF260024
FF3600A3
0150FEC5
FEFAFE90
FEAFFD66
FE25FFE0
FE44FF17
FE3BFDA9
FD6BFF0D
FFF2FDCD
FE2CFDB3
004E0044
FFEF0010
014101BF
0056FE0D
FFC300B7
FFC4FECE
001BFF7A
FE8EFD7D
FD1EFD85
FF64FE71
FF120051
FED6FEDC
FEF6FE83
FFDEFE20
FF67FE39
FE42FF29
FE84FCA5
FF6CFE9D
FEA9FE02
FE1BFEC2
FEF7FD75
FF06FF55
FDEEFF00
FF96FEA8
FF4EFE26
FF130064
FD9FFED8
FEDCFF07
FEA6FE90
FFDDFDB1
FF04FF96
FF4AFF53
FF83FF8B
FE5EFFFB
FE9F00EA
FE3FFF3C
0001FF70
FF43FE3D
FD19FF60
FF68FE09
FDE0FD69
FE120020
0000FDC1
0004FFFE
FFF20006
FCC8005B
0329FFD2
0196FF63
00B7FD58
F880FC91
FAFCFAFC
FCDFFBE0
FC4206B6
026E03C0
FD09FB9B
0055FDFD
FF1DFC6E
032DFDDB
FE30FF0F
0800FF12
FC03FDF8
FE2AFCEE
FD89FC90
FDFCFBE0
FFC9FF34
FEB1FBF6
0065FA95
FC2BFDE7
001801F0
FCDEFF0C
FD14FE1D
FC65FC61
FCB7FE22
0490FDD7
01172D38
0ADC27E8
00B40355
FEF9051A
0D3C0689
FEF8F9E0
FB4B00C5
033B0563
FE6601E4
FD12FF7C
FD72029B
0008FD52
0004000A
0039FFEA
FF23FCC5
FEAA0457
FDD500B0
FC720076
FB5BF736
FBDBFA98
06B4FCCB
022FFB87
FB010144
FD88FBE3
FBAB0101
FDA2FF39
FE460232
0029FD41
FD380769
FDA8FB15
FBE8FDA5
FB5BFE2D
00BBFE79
FA5AFFCC
F906FA59
FDACFFC8
FF85FC56
FEB10049
FD9EFC00
FBAEFCD5
FB6DFC07
FD6DFC13
2D200498
2848FF94
01F0087A
025E0039
0635FDEA
F9080E46
FFACFEBF
0358FA6B
0196020D
FD94FD17
0107FCF4
FDA2FD4F
FFFE000A
FFF70000
FD130059
0472FF6C
0077FDB8
01C6FDCE
F68AFBFA
FA2BFBCA
FC9DFB9E
FBCB075B
009DFF87
FBFDFA33
0148FD1F
FEA7FAEF
0150FC06
FD6FFE5B
07CFFEEE
F985FD23
FDCBFBC8
FC3EFC02
FD5EFC14
FF6FFF12
F8EEF7F2
FC89F84B
FA3AFB82
FF0DFEB7
FA87FDAC
FCB4FC81
FADBFBA1
FBD5FA27
0415FD2D
FF212CE0
07532870
FFC6FEAF
FDAF00F6
0D1CFFE8
FE78F94B
FA92FE09
00790337
FCE5FCFA
FB94FAEB
FCF6003D
0000FBFE
009DFF8C
FFCCFFB6
FDBFFEC9
FF28FF00
FD32FE47
FA80F93B
FACBFDC3
FF68FF98
FFF300A1
0419FDE6
00A60395
FF71FDB9
FE6CFEB7
FEB9FEC3
029FFDDD
027EFC30
014706B4
FF10014F
0514FEA1
FEF5FE4B
FF820220
FF2DFEAC
01C0019E
02D40235
027701C6
0373FF3E
004D040D
0599023D
02E50674
02C8FEE8
00F3030B
FF60FBDE
F508FBEE
FC8AFF26
0412FEA8
FF09034B
FDDD023C
FEE1FDFC
FE22FEBB
03A00339
045C0001
FFCAFF70
00210188
0049000D
0223FFFF
FE65FE63
FFA1FEA6
01480362
000C018E
FF36FD72
FFEDFEBB
FE57FF6B
027200DF
FFA500F5
FEE6FDBA
004C00E6
FE19FFE4
FFCCFFE6
02A900A2
00B802F8
FF48FD66
FDB500D4
FF83FD97
FDE6FF7C
01D8FF62
FF8EFFB3
FF90002D
0127FEE7
00D00188
FF24FF5F
01C900B8
028402A2
0312001C
0403FF49
0162FD93
FE9BFD70
00190263
0058013A
0099FE4F
012F0049
0039FD82
008DFF54
FEDF022A
FFD50246
FFCBFEF0
FFE10031
FFE300AB
FDE2015C
01610024
041FFF70
01AB00E6
FDBAFE4F
FE8BFE76
FEFFFF36
01BBFFA1
01AC026F
FE0700A0
02B1FF83
0045FFF2
FF58FF7D
FF8F027C
02970062
FDEA00AD
001EFF7C
FD74FE53
FFC0FFBD
FEECFDE7
FECBFE55
00BC0144
FF04014B
021C02D9
FF08010B
00F6FF9C
023501D3
006F0424
0081028D
FD3D02D5
FD490068
022AFE2A
0063FF32
FFFFFFB1
007B0054
FE80016D
FFFE0202
015801C7
0290FE37
FF96FFF2
0000FFF2
FF88005E
FF89FC61
0493F298
FF3EFEB6
FF21FEFF
FDF2FDA9
FE1CFE63
000B00D2
00250053
01AAFF77
003F0072
FFE9FF0D
FFA5FFD1
FFA3000C
0052FFD5
010E0015
00510135
FFE60062
0142FFD1
0027FFD2
0018007A
0016004F
01D5023F
011701E0
013501E8
00D2FFC7
FFBF0186
013500A3
006701AD
00CDFFC2
003DFFC7
00B7FEAD
FC9EFF32
FF380022
00F7001D
000D014D
FFD5015F
0018FF49
FF15FF7C
00FD00A8
00FC00A1
002A001B
FF71007E
2FE800CD
179800C1
FF62FE25
0104FF64
0231039C
00AD0373
FF1B013D
0023FFB3
011FFF88
00E0FEE5
011F00E7
00A0FFBC
01610125
0032009F
0268FE23
FE1EFE8C
00370169
0047FFC2
0027FF4F
FF63FFD7
01E30024
FDE50016
FD24FEE3
FF3AFDC3
02D1FE65
FFE1FF78
FF2C01B5
FE1BFE3B
02BB00DC
01CBFFA9
0193FCD7
043FFFB3
FFE503CE
01DD0231
FEEDFF70
FF320203
00BF01E4
0133FFCA
FE430086
FFBBFF83
00FDFF75
FF31FFCB
FF84FFE9
FC600820
FF5D00A0
006BFFCF
027A004B
01A6FFD2
007E0015
FF44FF6E
FF04006E
00010188
004500BD
007E00B0
0053007E
009B0140
FE83FFC9
FECD0213
016B00AA
009E00AC
002E003B
000A0086
00820030
007B01B3
FE98FF48
FF7DFEBC
001B0043
006600D5
01B1011F
0031003F
01160000
016B01CA
FCC0021C
FF660105
005602B8
0172FF6C
002700B9
025B007B
018F0040
FFF6FFB0
FEED0204
001E002C
003CFF8C
00000109
0000FF98
FFD0FFED
FFF40012
D8D80077
F8B5FEBE
FF9DFD8A
FFB900E3
FE69FF35
F84FF7B4
FAA2FC84
FDCB04B7
F584F891
FAD7F69E
F90AF8A0
FAA2FC04
F466FC50
F79A01E5
FF80FA7E
FE56FDAC
F901FB66
013FFC35
FC44F903
F9A8FBE7
FA57F44E
05B0F5AC
FF060294
F8B2FFF5
004EF7AA
FEF9F9B1
0096FADA
F867F8C0
0AC6FCA2
F922F5F2
0062FFB8
FC2C05C1
FF37FE6A
FC8EFBA1
001F02CD
FE8505BF
FE49FAF8
FA8C0D0A
FD7800B2
FB4AF604
FFF1FAF3
FFF7FFDA
00BD0001
FC3FD948
FC50F80E
FF88FBA3
FE6EFB45
F8E0FC87
FC7EF843
037AFA73
F72AFDF2
F58CF47A
F79EFADF
FB12F82A
FADEF9D4
FE0DF3EE
FB03F7A4
FDE3FF87
FADEFDAC
FB84F8CD
F86300C2
FBD4FBAC
F5A8F87F
F582FA1B
0376073A
FBA40022
F74AF8A0
FA140060
FC58FF39
F650FF76
FBDEF86B
F2F20A56
00D5F726
065C00A6
FD85FDA9
FBF6FEDE
0275FCBA
0582FE23
F9B1FDF4
0D92FD25
00CBFA89
F4F0FD25
FB97FAD2
FF9EFFF1
FFF90006
D6B000F4
F9D4FCEF
FA4AFDE7
F9B2FDBE
FBC5FE28
F786F9A6
FA43FCF9
FEC104FD
F4E0F768
FC4DF49C
F847F75C
F9FFFAF5
F3DAFB12
F8C1FF44
00AAFD1F
FDE0FD89
FA81FB35
007AFBF5
FB75FA2E
F967FADF
F9ECF7BC
08EAF85E
FE830372
F80AFBEF
00EDF962
FE46FB22
FE08FCA8
F97CF534
0E28FBA6
F748F3B2
02EC003E
FD2206CD
FEB9FF6A
FE5CFA8A
FD7200E2
FED50569
FB80F916
FB270D38
FD12025F
FB38F59C
0000FC5C
FFF00001
FFFE0010
FFFDFFC6
FEF8032F
12B806A8
00300127
FA75008D
FDF4029E
FD13FD65
FAD4FFC1
FBE9FF76
FC83FDB9
FBA9FBFB
FC8FFB8B
FECEFA29
F997031A
0884FB79
18D8FAA3
FD351D68
0920F986
2D700006
FFCCFECB
FA4DFC09
FB7FFE43
FF90017A
FB7BFD37
F708FCD6
FB22F9D8
0F6CF88D
F7F0FB5A
FCFDFCFE
FCECFE45
FDD5FD2E
FB67FC4B
FDDF00F6
FCDAFB41
FCB1FEB9
FD15FBE0
F9CEFC89
FC87FAD9
0FC0FB4C
00B2FD5E
0003088A
000AFFF2
FFC3FFFB
02B8FFE1
0673FE24
002A1368
0030FFAF
03A4F96B
FD0BFDD7
FE76FCF7
FF4DF9CD
FCF0FB3E
FB47FC54
FAB5FB28
F92DFBF3
0177FEEC
FA8DFA81
F9F908BC
1E6C19D8
F8E0FC4F
00960836
FE8A2DB0
FCB6FF60
FE95F9D5
0220FB6E
FF5AFFE8
FBF4FB7C
F8EAF5C6
F91DFA0D
FADF0FB6
FDD8F782
FDFFFCFD
FC7CFCF7
FB76FEFD
0090F981
FBD1FD31
FE92FC61
FCD8FC5C
FD54FCFD
FBC4F9FB
FC42FC27
FCCD10A8
074100DC
FFF40003
00050007
0038FFB9
FDEB03BD
15A407D5
FFD1FF97
F8C4FDCC
FF170454
FCAFFD38
FAC7FE6E
FAE9FFC4
FD66FC91
FB2CFC3B
FCA9FAEC
FDD1F85C
FB8B0289
0ABEF9C8
18ACFB5C
FCA91E08
0856F96A
2CD80014
FFDD0064
F909FC0D
FAD1FD46
FE7E01E2
FBE9004F
F536FBDA
F9FDF8F3
0F26F8F3
F794FB05
FD4FFF5A
FD99FE59
001BFD1C
FA31FC75
FE27FF30
FBD8FCA8
FCD6FE9D
FD92FD9E
F9E9FDAC
FDB6FC2E
1124FC70
00D1FCFC
00000677
FFAD0010
03A6009F
00310B10
FC3BFB35
FCB0FDDC
FC99FD85
FC0DFC67
FD44FAF4
FD27FD70
FCB8FB31
FE11FD87
FAE9FE01
FE2FFB02
FD61FCA2
FB2CFC72
FD07FBAD
FD85FC96
FCD3FD67
FCAAFE2F
FD09FCF8
FB37FF59
FD3CFBEC
FCF1FDA9
FD78FCA8
FA97FC12
FCC6FC64
FC14FD20
FBECFB63
FE24FB4D
FD62FD7D
FD41FBFF
FCF0FCD7
FC3FFE26
FBCAFE62
FCDCFD20
FAE7FCDB
FC43FD78
FC70FD99
FF1CFAE6
FC2FFBB2
FD7FFDF7
FC58FBE2
0013FC37
0087FF3D
0A92055C
FB02FF1D
FDC6FBA4
FDC0FC01
FBA9FC2B
FB10FB09
FCF1FCB9
FB3AFD7F
FCEFFC5C
FE07FD9E
FA80FA88
FBFFFDCC
FC56FCFE
FB51FABF
FAA2FC44
FD72FD42
FD74FBB8
FC04FBE7
FE40FBD7
FB3CFA97
FC91FBDA
FCA3FC15
FB60FBEB
FD5DF9BA
FC79FC4F
FB2DFB44
F9A2FAE9
FD4AFD8B
FB7BFDF6
FD19FD08
FD12FC7D
FEA0FBCB
FD5BFC85
FC8FFD22
FD49F823
FD29FC34
FA18FC23
FAE9FEF8
FE1AFB8D
FBDFFC96
FBD3FBED
FF590013
020E008A
FAF00B62
FC11FAEC
FB43FD6A
FB30FCD0
FAFBFA74
FB39FA8C
FCD0FD16
FC7DFBE1
FE1CFD67
FB00FDB3
FDFDFA96
FCBEFBDF
FD40FB61
FE9BFC24
FDEEFEBD
FC0FFC89
FB91FE01
FC5DFC73
FA7CFB37
FD3FFDE6
FC62FBC6
FC4CFCA9
FAB8FC16
FD46FBF0
FA86FCD5
FCABFBAC
FDB3FAD1
FE39FC72
FDC8FB02
FABBFD90
FC92FC8C
FC83FE0C
FD25FCFE
FAC5FB8A
FCA4FC6D
FC28FC46
FDB1FB15
FC74FADF
FCB9FEBF
FBFAFBA0
0000FBE9
FFFD0004
FFFFFFED
FE2DFF80
FBEEFBEC
FD23F936
036EFEFF
FD1E01A5
06B72C80
FD5015A4
F784FDB0
FBE3FBA8
FAB6FEC9
FA45F968
FBBFFCA4
F73AF9C9
FBBDFEA2
0B5CFF27
FC80F734
F5BCFE8D
FB74FE2D
FCE3FA0A
FC08FBB3
FA1AFB0D
FC57F7D8
FA64FEB7
F8E0FBEA
FBBAFA70
FB53FBD9
03CA13F8
F95DF99A
FDDAFAE3
FB3DFBD3
FDFAFDF7
0B4EF7EA
FAB5F79E
FC28FC45
FCD5FA44
FBEFF9F8
FD79FA57
F69602CF
FAE905E3
FCA2F973
FFF8FC60
FFFAFFFC
FF620004
FD4FFFEF
F99CFEEC
FFB1FD2F
027502F0
2C68FE5A
172C0720
FD7DFEDF
FC31F882
FEF7FC82
FA11FB0B
FC47FA39
FA66FC00
FE3AF6B2
FECCFB43
F6F80C06
FE54FC3B
FF69F712
FADBFB1D
FB8EFCBB
FD3BFC93
F9C2FB7E
FF0EFCF6
FD57FB53
FB65F90B
FC42FDD3
14A8FCE2
F8F304D5
FBDCF9D2
FC83FF11
FDEEFBF3
F7E0FC44
F85F09F0
FC9CFB0A
FB8BFBD3
FB0AFCD6
FAE6FC44
01D7FDF0
073AF73A
F9F5FB7F
FC2AFCD1
FFFCFFF5
0003FFF9
00FEFFA7
FCAAFD2B
FEFDF945
0411001A
FF5A014D
07C62BE8
FDF416C4
F82DFD66
FBD0FB96
FB47FEA8
F973FA2D
FC48FBAD
F6C4F95A
FA80FDF0
0C6601AF
FDA5F726
F7BCFE60
FBA5FEDD
FDC1FA95
FC45FB4C
FC01FD5C
FEA4FA93
FDBA0027
FACEFE44
FF0AFC1E
FD93FCCA
05831610
FAECF961
FEA4FC36
FAB9FCAE
FB9BFDEE
0906F6F6
FB69F87A
FCD9FCA1
FC9EFB5B
FCEBFAFF
FB94FA70
F77802B7
FC5107C0
FCE5F8B2
0000FE03
FFF7FFFE
FFFBFFF9
008AFF71
0066FB8C
FBDA00B2
FF54FEA7
FED9FF6C
0EFAFEA2
FF570349
FFBE0416
FDED0380
FAEA00AD
0201FC8D
FBAAFC5A
FF2302AF
011801A4
FC82F852
FD82FC0C
FF0DFF3D
FBECFCEE
FB67FB5F
FCEFFD12
0149000E
FB16FEF1
FE4AFC70
02180244
FAFD0628
FFCEFF20
FA43FC39
FAD2FBCD
00A00223
37500618
FFC6FF5C
0267012E
F8DBFEF4
FCC7FD52
0047FA84
FD59FD96
08AA000C
00CDFE74
FEF817AC
0156022A
FFFE00C0
0002FFFC
FF73FFF5
FC690066
0232014F
FF38FCDF
FFF8007A
FDF5FEFB
02420F24
0514FDF0
04480046
017BFEDF
FD98FB35
FC5E035C
02B9FC96
02E5FFCB
F841016A
FC89FCCB
FFB9FDBB
FD8AFFDD
FBD8FC01
FC28FC3E
FD21FD84
FE16FF85
FADBFA81
03CEFB50
0722027F
002FFB1C
FC0B0109
FC03FA45
0243FB99
069C00B1
FF4B38B0
0133010E
00A90329
FE64F9CE
F9D0FDD4
FD1D017D
0180FE0F
002D0866
16EC00A6
026BFD99
FF6D00CB
FFF9FFFE
00000008
012FFF70
FF63FC37
FD0000C7
010FFE9A
FF1A0037
1074FCCC
FDEAFF7A
FF1C03D1
FF210559
FB870146
0487FD23
FBD6FBAA
FE450252
020C03C9
FCBFF87B
FDD6FCEF
FDA8FFAE
FC9FFE38
FC4BFC42
FD6DFCA9
01D9FF53
FA4EFE09
FBAEF9CE
FE270162
FAC50257
012FFD63
FA7EFC6B
FC88FB29
005E0309
3BF806AC
001A0047
033C0212
FA27FEC3
FC38FBD6
FE83FBBE
FC29FB8B
08CAFF33
FE84FDC0
FC0F13AC
FF8800B5
0000FF13
0772FFF7
FC9CFFB6
FBD7FCD7
03090175
011A0071
FEECFFD6
011B0085
FFE301EE
FDB6FF68
03910350
014FFFA4
01280002
FEEE0067
00D0FFCB
00A1FF95
023FFEFF
0048023C
020E0230
03D50034
0094FFEA
017101E1
01DF0058
01120186
010305CF
016A0002
01390160
FFD702A9
00B40132
00520183
0119013E
00800099
0039FF1D
FEEAFF0A
FDA3FF59
0241FF93
00D501CF
FF6904D6
FF97FF30
FFD902AE
03E9012F
018B0124
FF5AFF22
FFF60040
FF300A00
051BFBAB
0165FBE4
FF46063B
FC8CFD36
FDF1FE36
019DFF18
FF6EFE2C
03E6FDF9
FF0202CD
FF55013E
01A1014E
FFA2FEF8
FED8010F
FF840173
01DCFE8D
045EFFF4
0024033A
00330460
02810234
00CE026E
FF4501B3
0429FE37
02530219
039602D5
03C3021E
0282FFAF
03B201E6
02760105
015103B9
FECC0007
FE64FE21
FF1FFBD9
FDFCFC90
04EA0547
071501FD
FD50FF2C
03B8FFB5
03E2FE1C
FEAA042A
FE8C01F8
01CCFF7D
E64CFF97
04D40177
0552FCCC
FC6C00DE
01EA00A6
02FE0511
027E01AD
01E20031
00ABFFC7
FF070077
00610182
FEE7024A
01A5FFDC
006800F4
FDF002A3
FE6201D2
FF7501A9
0070FE51
FD3D0076
004F007C
FEE4FDEA
0023FFC0
02A00092
FF47FCF2
FF8AFECB
FE60FC20
0008FF2C
FEB8FEB4
FED3FDDF
FD450080
0022FEEF
035400AB
FF9300A8
FFA8015B
FE7F030D
FD7FFC27
FF67FE96
FF45015F
06ADFED5
FF7BFC00
008C01CE
FEF90014
0000FFE2
00170005
0009000F
F50A01B4
F8B6F64E
F8EFF9E4
F9440808
FBA7F9AF
09A808EC
F804F91B
F9B3F6A4
FC4CFFDC
F89BFD7C
F788F9DD
F8210C0C
F97725E0
F78E0067
F81100A3
F57CFAF3
FA69FB8D
F69A0464
044DFD76
FB7BFA44
FA1301B0
FA43F606
FB4BFD0B
F828F800
014DF8BA
0114FB4D
FCBAFA4D
FBA800AB
F70EFEF6
0140F9E3
FAC7FAFB
F86BFAE1
FB31FBFA
FAE0FF90
F813F913
FC23FFCF
0351FB0C
FB8FF8B2
FA71F4F4
FCA90AD4
FFFFFA11
00050022
01CB0014
F516F740
F981F70C
072EF7DA
F94DF724
07D8F9AD
F8C00AA0
F566F96D
FF36F9E0
FCE3FB8E
F913F860
0C74F66A
2718F71E
00FDF8B2
0174F67E
FAC0F82A
FAB8F4BA
03BAFA5B
FD75F6B0
F8DD0597
02D7FB1D
F516FA07
FDCDF99D
F5B6FAF9
F8A1F750
FAAF01C4
F9B60175
0268FD91
FE5FFB67
F90CF6FC
FA3F0150
FAB9F89A
FB87F8B6
FF4DFB14
F95CF9FE
FF80F7E2
FA4FFBED
F7B8024B
F4DEFBF4
0B62FA2C
FAD0FC93
0021FFFF
00030004
F45401D3
F676F3FC
F65CF718
F4F607F5
F7E8F756
09C60706
F895F80A
F8C5F486
FBA8FFE1
F867FC1F
F4CEF7F4
F3A80C44
F7F029F0
F6560042
F6DE0046
F664FAFF
FBB1FBC4
F668030F
06C3FD8A
FB65F9E2
F96D03B0
F9BFF5C6
FAC8FD48
F75CF552
0202F8B3
00C9FA46
FE2CFA42
FC2E04DC
F5DAFE30
FE3BF9B2
FA32FA69
F7BCF9C4
FA77FB07
F89800AB
F6AAF9C1
FBE7FCC5
01B3FB21
FAF1F808
FAA0F572
FC710A86
0000FAC8
FFEBFFFB
FFFE0008
F60E0036
EF94ECE0
F4E8F590
F102F550
F554F20E
ED54F370
F1CCEE7C
F074EF1C
EB68F318
F494EBFC
F15CF028
F12CF09C
F8A7F240
EB98F190
F3D6F340
F8AEECE4
F06AF3C6
F350EBDC
EE88EE98
F44CEDC8
F124EDE8
EF90E8E0
EE8CF482
F0FCEC50
F04EF1C2
F6DCF15E
F3A2EE28
F3AAEF40
F468EC14
F3A8F45C
F178F310
F4EEF044
F244EE68
F748F230
F2E6EFD0
F282F136
F544F2B8
F1BAF424
F30AF03E
F4C2F076
FFEFF2EA
0012FFE8
0001FFF0
EC18F5D4
F53AF0A8
F452F470
F104F10E
F2CAF402
EECCEE38
EED4F192
F32CF006
EB28EB98
F018F45C
EFE0F096
F212F092
F438F7C8
F4ACEB48
EC50F3E0
F26EF8B4
EB94F0A8
EF1CF370
EC64ED30
F14CF4EA
EA80F2C4
F42CEEF4
EE58EED4
F234F138
F0E6EFA8
EF2CF634
EE84F336
ECCCF370
F3A8F5D0
F2B8F4E2
EF90F05E
EF68F466
F21AF200
F04CF660
F0E4F2F4
F2A2F278
F428F450
F0ACF162
F01CF340
F25EF51A
FFFDFFF3
0006001A
F98BFFC8
EB10EC60
F5FAF47A
F24EF44A
F614F254
EE78F360
F23CF014
F00AEDB0
EAACF2EA
F4D8E970
EE10F024
F056EFAC
F77CF2E4
EB3CF468
F40EF0D4
F8BCF000
EF38F2DE
F454EC64
EDDCF004
F4EEED38
F308F144
EFA4EAC4
EF38F4C4
F31CF1EC
F01CF4E6
F5E8F21A
F3CEF0A8
F210F068
F216EDA4
F6CCF432
F072F2CE
F3EEEF88
F320EE48
F5F8F2A2
F334F1AC
F392F162
F38EF318
F252F61A
F424ED9C
F5F2F098
0000F270
0009FFEF
0006000D
03CB007A
04130607
04E40988
07F60336
08180458
1D0007AD
0FCC0B06
086E07E2
06E80680
02AB0731
0A820616
060D0320
04B2081C
0AB0061E
06AE07CE
046613B0
0BE208DC
05610A1A
0C2C0B72
04C30868
03DA075D
05280C06
01D0042E
09A4065C
066A05F7
057C0400
081807F2
06C4065A
043E0E94
048706F0
07CE0330
00D9073E
03780702
01B402AF
FF5A07AF
FD7D0353
02D202CC
078F0874
05C80B3E
00710862
000C052A
00080016
00590005
066D03AD
0AA4037E
040B02E6
04030726
08F4083E
0B701EA0
087010D8
0624086E
0796073D
065A027C
038B0B50
083205B7
066E0505
09840A2E
146C06B1
08B203D6
0A4E0BE6
0C1A0516
07CB0BE6
07890539
0C4C0525
042C0544
061801B8
060409B4
0469075C
078E05EB
06A20844
0E4A06BB
05E0044B
02B50512
08800644
07C30045
02AB044D
08E0017C
02EDFED9
0278FD75
08B2034E
0C7407A3
08780617
058C00F2
FFFD000A
00000008
0456005F
035706B3
034F09C8
062902AA
07FC044B
1F0C0956
11280B0C
0A0A0972
092804C4
02FA0888
0AB4077C
05E6045E
0543072D
09B80752
071F0A1A
038315C4
0E3209D0
04EB0952
0CC60CDE
04080846
053909FA
05090BF4
01BD04AF
09CA0568
07D005E0
054B0496
077F06B8
07280669
04290E9C
03A50453
05840110
001307B1
03EE073C
00680412
FE8C069D
FE0E0198
00E90178
075906E6
064A0C62
01800866
00000669
0033FF1E
0005003B
004D01A3
FFDFFE6C
FE4EFFE2
FEEDFE8F
FE64FEAF
FE76FF27
FE13FDC6
FEE6FF6B
FF3CFF83
FE38FDB7
FE88FF13
FDBBFE14
FFF4FDEF
0070FE24
FC6DFF2F
FF20FE9E
FF3FFF06
FEF8FDD8
FE22FF85
FF65FE87
FEBE00B1
FF1E004A
FEFAFF98
FF26FE9A
FDC0FEA0
FDEBFFBE
FE5EFE9B
FE31FFFE
004CFF38
0034FE65
00D2FEF2
FDC0FE85
FE20015B
FD49FEF7
FEE90031
FE37FEEF
FD40FD23
FF09FFC2
FE8BFE6E
FE890055
FF31FFB8
00540028
0193000A
FE0C0229
FEE9FF3A
FDC0FE07
FEC6FF9E
FE50FEC2
FD9EFEBE
FE17FDBF
00E6FF8D
FE690001
FF1BFE2A
FD8BFE9E
FE01FE56
FDC0FFFA
FDEBFF4F
FE44FC87
FF99FE1C
FF00FEB5
FE8BFF54
FE3DFE55
FFDEFFD8
FF77FE1C
FEAA002F
FE45FFB9
FE8AFF7C
FFDAFE29
FE84FE93
0079FE56
FF38FE60
FEDF002A
FFA6FF79
FEF8FF33
020FFCD0
FEFDFDC9
FFB4FD46
FEECFEE9
FDD1FE13
FECDFD24
FDE0FEA0
FFF4FE88
FF78FE83
0018FF48
0001004B
01810204
FF69FEB1
FE18FFC7
0035FDA4
FF36FFB4
FF15FE47
FD30FDB4
0059FEBC
008000F3
FDF7FE92
FE86FF15
FE78FDD1
00D8FE9D
FFE0FDAA
FCC4FEAC
FF9DFDC3
FD9AFFFF
FFF9FF55
FEFAFD41
FF68FFC3
FE1AFF99
0057FF54
FF83FF36
FFCAFD58
FDC4FDCC
FEFEFF21
FE01FED7
FDCDFFA7
000DFF8E
FEFDFEA2
FF250000
FCAAFFD5
FD1A01CA
FE2DFEDC
FEDDFE8B
FE21FE92
FCF0FE9D
FE08FE8F
FEA4FDC9
FE750085
0000FF59
0015000C
0015000E
FD230077
FA91FBA1
FB71FB9F
FC28FD61
FC33FD43
FC2DF958
FB9F0850
FD06FEC0
FE05FF1D
FD530085
FE7AFB72
FD0CFEB3
0777FC88
00D201D3
FA1C38F8
071DFBFD
FB9A0586
0A1EFC32
FAB8FBEB
0386FE28
FFD4FC33
FFE2FDA1
F8810296
006EF9A6
FC79F95D
FCA5F8AC
FCA806E2
FDDF0136
FEE7FCE2
0023FD70
FCF5035B
0455FDC2
FB5AFF2C
FB29FD40
FBCC03E3
FC56FBE4
FE9DF942
FDC80091
00A3FC5B
00030416
00070D3A
00140014
002E0016
FCC102DD
FCA9FCA7
FE26FBBD
FFD0FCA6
FAC0FC6D
084EFC69
00EAFC4B
0088FCF9
01A6FE93
FBCFFD89
FEA1FE58
FD17FD4E
01610AC8
374001FF
FB8BFB6F
043A064D
FAFAFC25
FCD509BC
FC31FAF1
FBF10385
FD25FFCB
0305FF6B
F840F987
F8F90058
F88DFB87
0673FCC8
00F6FC37
FDEEFE6C
FFE7FE94
06DA00B8
FD82FC3A
FEEE047B
FC67FB21
03E4FB85
FBB3FB86
F906FC68
0135FEB9
FC0FFD8E
04F20132
0DD400B2
000D0000
000A0017
032E0052
FB4CFCB6
FA1DFA54
FBE8FD60
FB6BFEAC
FACEFAE6
FB6A07D9
FD45004C
00470083
FD8E01FD
FEF3FB53
FCFDFE2E
0AB2FB86
02CA0273
FBD034A0
082AFC85
FC3605E0
0B9CFC67
FBF3FCE0
0417FD8B
FC3CFA94
FF0AFB2A
F9040222
0011F948
FA14F8D0
FC25F7CE
FDD70604
FEA1FDAD
FF6CFBFD
0076FE88
F8D506E9
036FFB40
FAE7FCD3
FB0FFD5F
FADB03EF
FBF8FA70
FDBBF89E
FC600153
0131FADD
001E0739
00000CA0
1498FF4D
F6E0FFA0
039C01D7
0172FC6D
0020FCEF
FDE6FD88
FF54FED8
FE59FF8A
FD41FE17
FF69FEF0
FE42FDB5
FFC2FDA7
FDF2FF60
0060FD8D
FFEDFD96
F9F1FFAD
FD7AFC3B
FF03FF16
FFE3FCCF
FDB1FEDA
FE92FEFE
FED9FF77
FE00FFA6
FE13FE5D
FF7EFF41
FD7BFF5C
FBECFE48
FD7CFEE8
FE62FE97
FFFFFF8A
FE54FC7E
FF12FCC9
FE3BFC7A
FE79FDB6
FF85FD77
FE26FF62
FE8BFFA2
FF0DFBDA
FB54FF12
001CFECF
FC24FC66
FE2AFEBD
FF6CFC6E
FFC31418
00FBF5D4
FD67041D
FEC40203
00BC00AD
FFABFFD1
000BFF22
FED1FE53
FDE5FC2A
FE0FFEE6
FEDAFE7B
FFA1FFA7
FDD7FE54
FDC90144
0140FF2D
FC27FA58
FEC0FE3B
FD24FEE5
FFC50080
FF28FE17
FFECFE75
FD6CFEB0
FF5AFD89
FF38FDDD
FEEEFF56
FEA1FD1D
FF22FBF6
FE2CFDB1
FFC5FEB2
FC50FF94
FD4DFE46
FCBFFFC1
FDF3FF23
FD82FFF7
FF4EFF39
FEC3FE79
FD03FEC2
FE2FFF08
FE88FCF2
FDAF012B
FF5AFBFF
FCAFFDC4
14C8FF57
F879FFA6
0030FF13
00DEFFB2
02110069
0088FF2F
011A00A3
FE62FF34
FCC5FDAE
FF8AFF90
FE96FEA9
FFCCFE86
FDBCFED8
FFCAFE2D
FF28FE97
FBBAFF1E
FEB3FD14
FE9CFEB4
00A8FD40
FE350062
0010FF3C
FF87FE62
FDE9FDC3
FE96FF0F
FFC7FEC7
FD710032
FC4DFEF3
FDEDFEF5
FE2FFE22
FFC4FE74
FDFFFD0B
00E6FD7F
FE05FE2B
FF2DFDB1
FF1AFEB1
FE58FEB0
FECEFFCB
FFDFFE22
FEB30028
0055FFB9
FD43FE5F
FEF3FEFF
0000FCAE
FA5DFFC1
FEC0FFC0
FD58FCBF
02BFFF75
0144FF35
FEE6010F
FFB300F3
FE8002BD
00040064
02F7FF9F
FF5EFF6E
00720025
FEB20196
006DFF7D
0422FE66
033DFFFA
FEEE01B8
0045025A
0313FFB0
FFDC0155
00440194
021D0012
0219FE78
FFAE0317
00B800D5
003D021C
006A017B
005D008E
000800CA
005000F3
FFFFFF8A
01A8FEC3
FE61FE35
FFE9FEE5
01ED00A3
00010223
FFE701C7
000CFEB3
FFB101A9
032601C8
0188FEFD
005B009C
FFB0001B
FF64F87D
042EFE4E
FEBAFC8A
FE250517
FFA8FF9F
FEC7FE90
018FFEE5
0064FE0E
FE82FE61
FEC10297
FF6EFEFB
01990015
FF52FE75
FE6E0097
02E50334
024AFFD9
04BAFF28
00A100AC
0036033B
018201C5
00E900A9
00E30196
00DCFE57
0275008E
027F01BE
020E00F1
01C9001D
027F0190
01230070
FF490243
FD74002D
FCCCFFB7
FEBBFB31
FFE2FF84
0468045A
04630027
FC180020
013B0016
0301FE1D
FDBC0372
FFEC0198
010D0024
1AE00024
050A0116
06F8F963
FF2BFF94
0187FFEB
030D033C
021800AD
018AFFF3
0215FFA2
FEFF0100
FF9B0180
FF1B024A
011900BB
00F900AA
FEA70236
FBA4FE85
FFBAFFEF
010CFDBA
FCBBFFC0
002E0022
FECFFDA7
00D50209
0265FFB6
FE56FCBF
FEF2FE76
FDECFDF1
0070FE91
FEF3FE46
FF71FD9A
FCDC000B
01060000
019400FE
02F90130
FF8200AE
FDF30096
FDF9FE0C
FEBEFE19
FF900280
0569FE79
FF2CFBA4
00E1FF71
FFE40153
0000FFFE
FFF7FFFC
FFFBFFF0
FFCAFF66
FE08FF66
2258015E
FB79FD45
FCB6FDCE
FDB50606
FBDDFF86
1964FD4B
FDAEFD57
FC86F8C2
FA0C0439
FD69FC5D
FAB90D4E
FA0AFBF2
FB58F967
02FCFFB3
FD9FFE14
04CC23F8
F700FE49
0152F9A3
FE8CF813
01EBF9F8
F98DF862
FB00FD35
FD4CFCBB
FE01F91C
FA6002DB
FD18FE72
FAE5FF0E
005CFD15
FAE6FBB1
FC0AFA58
FD13FE6B
FD7DF8C4
FC0BFB7A
FE6AFAA5
FAA6F9A6
FDB2F8FC
0DBEF806
FFC9FE5D
FFF80A5A
FFF7FFF0
FF56FFFC
027FFDD3
01F6016C
FD3B2460
FD42FBE1
057EFC10
FF3FFD0B
FF04FB3C
FD8219DC
F8F2FEE8
055BFCE6
FC80F9D9
0DFAFCEB
FBF0FC79
F8E5FBC5
FFF7FC3B
FDAB0339
2480FDDD
FE7C05D5
FA3DF73C
FA5A01A8
FABDFE7E
F92C01F4
FC86F9FD
FC6BFAFE
F918FDD3
0261FF29
FEEFFA13
0082FD18
FC3DFB68
FB8A019F
F9CEF9CB
FDF0FD4E
F8C1FCE3
FB4CFD67
FA50FB94
F9D0FE8B
FA92FAD5
F866FE65
FF230E56
095EFFD9
FFF9FFF8
FFFCFFFF
FDACFF40
FCD101DC
23880196
FA9AF90D
FC73F8DB
FD4004C6
FB28003B
192CFEB0
0012FEAD
FBF8F7B6
FAE9061A
FB71FCB2
FCE90FD2
FC91FC1F
FD44FA97
03AAFE11
FD58FD35
04C22380
F7F0FE66
01AFF903
FF55FAA7
0271FBBF
F918F8FC
FB62FD5C
FE9DFC84
004EFA47
FACA0327
FDD4FFFF
FC080124
0421FD29
FA74FD46
FF33FA95
FC69FF0E
FD3EF819
FBF4FCEC
FF1DFA6A
FA9BFB27
01F9FB22
0E18F945
004DFF59
00000948
00030002
00190000
FB550006
FF1E0154
F85BF664
FB4BFB7C
FBF0FA14
0657FE20
03A0F8A3
FB23F960
FBF0FD43
F9FEFC9F
FAEFF95E
F96CF928
FC24F871
FB76FE83
FA22FA09
FEC2F8EC
F917FE28
FEB3F77C
FBE4FA91
F903F81C
05FC3B00
FC000AC4
FF0B0393
FB40FD66
F94EFF7A
F9DFFC34
FAD4FE2F
FA8FFC47
FB8A008B
0085FA5D
FC6DFA5E
FAD7F939
F8B0FA40
FBA5F9E7
018F0106
0475FE5A
FED0FC5A
FB92FD56
FDE205A3
01F1FC8C
00080840
00000009
FFDC001B
058FFC67
F7EA005E
FC43F96E
FBD2FCD5
FD61FE3B
F91807BF
FBE603E4
FE23FB35
FDD1FCDD
FA53FAC8
F92DFC09
F9A8FA14
FDA6FDD4
FBC8FE31
F9A4FAFE
FDC2FF4B
F8B5FA6D
FBD2FF01
FA5FFDC4
3B68F9DC
0C4C08C4
031AFBBB
FFAEFE9D
0130FC8A
FDACFA84
FEA1FB99
FE32FBD8
01F3FB88
FB23FE00
FAC40262
FAACFE36
FB24FC76
FB03F8EB
003DFD84
010B0360
027305F2
005401EE
06E2FE09
FD52FE01
06C60290
00000007
00160002
FB9C0018
FE490798
F957F879
FBCCFB52
FF24FB05
070CFAE6
0393F8A3
F9C8FB94
FD96FE1F
FAF5FDEC
FBBAFA49
F9CDF835
FE19F8C7
FE5EFEC8
FB28FC51
022DFA83
F8AE0054
FFBCF8C3
FF1DFCF0
FAD6FB9B
07523C90
FC9F0A8E
FFF5038B
FD28FCBC
F90CFDBE
FA7AF9A1
FB03FE49
F959FD70
FCA60102
0171FA08
FC78FA19
FCB5FB23
F8C3FC3D
FD02FC73
0309FFC2
04ADFF93
071D000B
FC1AFFA5
FC3606CC
0172FC39
00000767
FFE3FFB5
FE0EF5C6
0656E140
FF2600B3
FE90FD33
FD61FEBB
00B3FE5C
00F308C4
022C0171
05C3FF52
FF93FECA
012FFE8F
FF56FF56
0056FFD0
FDA8021F
FBE1FE78
00AF0026
0093003C
02A1FE65
016000EE
FEB6013A
0081FFA7
030B0738
FF580419
01D201C4
003FFB65
FE580087
00C40110
FFF3003C
0033FE59
00A8FF19
02DAFC8A
FC29FDC1
FFBBFF81
0108FE4C
FE9C00C8
FF7A0271
FF36FD97
00BEFE8D
0337013D
02550110
00B5FF72
FF2E00A1
F857FFD2
D9A8FEE1
04A8FC85
010C0904
017E0180
03230259
042703F4
010AFF58
05B50052
0044064D
02350130
017802AB
004300B4
02B70179
02D8018A
FF32FEC5
0050021B
FFCC026C
034A0414
0196003F
0119FFC4
FF7000C2
05EC0167
0039FFBD
FF7D00B9
01DB00B6
022CFF31
00B801DB
0008001C
0127016D
FE9504E4
00010752
FFD500F1
FFE200E1
00B101F8
011CFFFB
FFA900AE
02CD0032
01230292
FFCA039D
00B902A8
001900CE
FF22FF49
FEFCF9D8
FDFAD710
02B90210
0274FF38
0405024D
051A035C
00510305
0139003A
01F70255
005E0097
014300EA
012400D5
00EA012C
019D03C3
00480452
016701A8
02D60001
FFCDFFDE
039B0314
0040FFA6
0209028A
033D0282
00770033
023D0228
00B1FBD5
FEA700C0
01B00143
FF5A00AF
FFA40121
03D0FFEC
0659005C
02F801C1
01D700BF
FFBD0158
00520019
0107FF77
FFD60175
069701BD
02320251
024100B7
00F70042
0000013C
E1D0FF65
F728FEFE
FB0F03C2
01FC0146
FFEBFF5C
FF6AFF69
FFE2FEE2
FECE034F
00F600CE
023B02A8
FFE600D7
0099FF8F
FFAC00F4
000CFFF0
02D80004
02C6008A
FF5C01B1
00C302F6
02560013
FFCC011E
004F020E
01D700A9
014D01B3
0059022A
00F801DD
00FB00DD
FF96010C
012301B5
00570234
017700A2
00EEFF05
FF5EFEF4
0109FF22
00F9FEFD
015200B0
00BD01EA
00CD026E
FF87FE3A
0030020D
029B01DC
019B0100
00F600A3
FF4800F4
FF30E300
00B7F5F2
0079FDB5
FE50009D
FF30FF94
FE4FFFAB
0186FFE6
00C6FEF5
02200026
010C0297
FF10FFBD
00BA0097
FFE6FFA2
00270034
010103B2
00EF03D9
03A8FF31
00AE014D
010102D9
024200E0
014300E6
021201C4
023D01CF
02CE01C7
00D50194
01A30145
0240FF20
02FB01C9
FFF9008B
FE990196
FDD500D5
FF0DFFAC
FECEFFA3
00A900CF
027901BE
02A3015A
FDF4007A
0249FFA3
01CD0017
004102A0
006901E8
01D600E4
E914FF6A
FB5CFF88
FB47007F
014D0007
FFC3000E
01530293
00500165
00500083
0133FFB7
FFC5013B
004F0087
FFE20082
00E800C4
00780040
02A80151
02B4FF64
FF93FFAA
00E5FFB0
FFE00057
FF52FFE8
FF5BFFC7
FF89013A
00EE0092
FFDF0001
004100EF
FFE3FECB
FED20032
FFD40094
FF8FFFF7
FFA30039
00FDFFE4
FFE9FF0E
FEDD0039
00190096
FFB800A4
00050054
FFED0035
FF81FEEA
0302FF36
FFEDFEE6
00DDFFD3
0082FFE4
0000006E
FFF00005
FFF0FFFE
0451FFE1
FE0F0315
F800F7E8
FAA408E4
1380FA38
FCA6FF74
FDE6FABF
FF1FFF04
FB5AFF11
FBBEF874
FCCDFDAD
FBFBFCE2
F98DFB5E
FB3CF9EC
FC15FBDF
F881FBFC
FD25029C
FAB2FAAD
FAEBFCAB
FB05F4E2
FCA201EC
FF900402
FE08FEFF
FA5FFA90
F6EAFD58
0196FEA9
FAFBFC5D
FC941364
FF1FFDFC
FC83FA61
FE0BFCE4
FC47F676
FB59FA88
1B08F6D8
F8D1FCC3
FD6F13AC
F7361114
FDCF0151
FE06FDE9
FC74FC1B
0006F846
FFFFFFF1
FFC8FFF0
0608FCF6
F66AFFE3
0940F79C
F999F9F2
FCCA16E8
F8BEFB67
0054FBFC
FF63FF0F
F7F8F8DD
FD33FB2D
FBC2FC2E
FB24FAFC
F98EFA9D
FCA8FD3D
FB3EFC2D
04DEF865
FA58FD2F
FCB5FC03
F390FB41
FB2EFB20
0123FA79
FF29FF78
F993FE27
FD7BF98E
FED7F618
FD3A00B6
1370FA53
FEADFC7C
F88DFF17
FB8AFBBE
F4B0FD94
FC75FDD4
F5E2FB38
FD5B1AC8
1468F877
1170FCFF
0120F702
FC6AFE37
FB21FD9C
F889FC3F
FFE8000A
FFFB0008
F9E2FFC0
009A0758
F68CF4AC
F9A60B6E
1940FA26
FB08FCD9
FC51F882
FD1AFE08
F774FEE1
FBE7F7F6
FC97FD31
FAFDFBC6
FBFFFB40
FC9CF7F2
FC84FD0C
F9C2FC0B
FDB9052C
FB80FB64
FC7DFD84
FC49F6AA
FC2FFA5B
FFB5FDF9
FDCB0047
F994FAE5
F3B0FB0B
FD8AFDAD
F99EFB8C
FA36136C
FE70FE00
FBDFF75C
FDC9FB3A
FED7F502
FA7BFE0C
1BC0F854
F894FD23
FCA7162C
F86D0FFA
FD470196
FBDEFC4F
FC3FFB75
0000F92D
FFFE0003
FFF4FFEE
FCCBFFAB
FBDFFDE7
FC19FD29
FCC4FD40
0145FCBA
F974F8A3
F7C6F7E6
F8C1F9D8
FD1CF9BF
FA9BFA06
FC09FBFA
FADFFBD7
FE11FB24
004AF594
FA65F816
FA560469
FAF1FAAF
F7D0F8F5
FE1AFA4C
FAB9FA9F
FDA5FF21
FFBE0F62
10F4FF48
01913480
00040A6C
027B086E
0400002F
FB8304A1
034F0393
FF5FFF45
019CFA92
F5CE047A
0DF4FC76
FD2CFAA9
0A58FCCA
11240838
F9080F56
FCA4FC75
FCC2FECE
0045FAA7
0003F79E
FFFEFFF9
FFB8FFF1
FE4BFC33
FD91FCEC
FCA3FC33
FBF9FBA1
F9470116
F71CF938
F8B6F862
F82AF895
F945FD38
FBBBF9EF
FB59FB52
FAA5F9F4
F670FE4D
F7B6FFCA
04B8F9C0
FA43F999
F91BFA54
F9D2F79E
F9C2FDF7
00D2FA78
1020FD5B
007C0055
35101140
09B60114
07AAFEF4
00140028
03EC03E3
0258FAC6
FD32040B
F8A6FE59
03CFFFA0
FC4AF59C
FB930D76
FD90FC2C
0A9E0902
0E741014
FE09F6E0
FF8DFC64
F9E9FD3B
F84A006F
00160004
0002FFFD
FCDAFFC5
FBE9FEC8
FD80FE41
FBCCFCF9
004EFBE1
F9A0FB06
F8AEF7FC
F8FAF932
FE24F810
FA99F9F2
FBD4FC59
FA82FC08
FDE7FAF6
018BF6FC
F921F772
FA3003B9
FBE7FA15
F802F9D5
FE39FA59
FA6EF932
FFC402B5
FE6E10D4
0F26FD84
FEC33660
FE67089A
FB1705C3
039AFC8B
FA050294
039E00EA
002DFEB2
011FF991
F6D6044B
0E5CFC8A
FCECFBAD
09BCFD99
10280D6C
F9DE0EC8
FDF0FD34
FDA000CA
FFE7FB90
0000F758
FDF3FF2D
1750FF9D
06040066
FD1DFE54
FDE8FFC0
FF5000C1
FE57FD77
FF42FCC9
FFFEFDEF
FCD1FCF4
FF6D0051
FC95FFD2
00B4FDE8
FFA5FF2F
FC3EFF23
FE5EFEBD
FF880042
FE23FD82
FBA9FF72
0004FD34
FC48FD84
FE73FDDA
FF3BFEA2
FE6EFDD4
FAB2FD83
FEDCFC0F
FED5FC1D
FC9AFCDF
FEE5FC26
FCC5FD87
FE5CFE1A
FEB601A7
012A0129
FF5B014F
FCA3FF13
FD67FDCC
FE74FDC3
FC4A01DF
02F6FC13
FCD8FCCD
FF1601B7
FD04FEE7
FF80FFB5
FFAEFE3C
FF682428
FDEA0481
FEBDFCEF
0015FD7E
FC6FFD80
FD6CFCB5
FDD6FEE9
FC4B000E
0037FD4A
FFDAFFDB
FD40FCC6
FF420021
FF39FEC7
FE5CFE1F
00D5008D
FDBDFF4B
FF30FD0C
FC9FFBFC
FDB3FF25
FD58FC2D
FE8AFDC7
FDD2FF0D
FD9DFD49
FAF8FB77
FCC8FEBA
FDD6FFB0
FBF5FD6E
FD84FE38
FE5BFD90
FF78FEB3
FEB4FF4D
00E5FF52
FF41FE4F
FD9EFD10
FDA2FBB2
0050FE01
FBE2FC95
FD32029E
0111FCFE
0038FF94
FF1DFD99
FD79FF8E
0E18FFC7
FD7BFF12
FD45FE8B
FCE9FF73
FCD7FD65
FC4CFB80
FEDAFDC7
FFF4FE91
FE36FDC7
FF83000C
FD8AFF0D
FFB3FDB8
FF0FFED6
017AFE06
0390FECE
FFA80469
FE4FFDCE
FBD2FFF1
FFF3FD0D
FC70FCFC
004EFF48
FFBE00AB
FF2EFDD0
FC9CFF40
FF90FB90
FF15FD63
FE7EFE5C
FF86FD77
FE8FFBE8
FF12FE81
FEBF0021
00CFFEE2
FE950053
FCF4FDAB
FD29FF9D
FE07FE26
FC3200B2
00B1FCFE
FD98FF19
FF5B0111
FC58FF38
00000056
001EFFEF
FFFAFFF7
04B3FFE7
FE71FFAB
FC0CFCC0
FE49010F
013B006A
FC0604B4
FCBA0894
FFF4F8BA
FAB1FB06
F98300B2
FE940680
FB32FC95
023EFC39
04913688
FDCAFEF8
F71C000A
FE88FBD5
FE5B1790
FEE4FB4C
FF270264
FF27FE27
FA12FBC3
FD77FC5A
FAEAFC31
FC82FD26
FBCB09B2
FE0CFC04
FC7DFDD8
017CFE74
015CFAFE
0491045C
FEE6FC1A
FC4CFB63
FB03FD13
FCCFFDE9
FD40FA4E
FEC1FA37
FB5DFDE8
FE0DFBCB
FC660547
FFF1FDD2
FFFA0009
FFADFFF5
00C90304
FD80FF3C
01EEFC04
00F5FE80
031E0144
0888FD11
F995FC45
FAF700CE
0125FBAF
0739F95D
FCACFEC5
FC5CFB3F
39E00137
002D0351
006EFF2C
FC91F64E
1838FE4C
FBE8FE3B
018CFF60
FD7BFF10
FC0AFF38
FC6CF96E
FC88FCC9
FD1CFA6A
0A5EFD2D
FCDDFBAB
FE04FE11
FF08FCBF
FB0701DF
055B019D
FC6504AD
FB14FEEB
FC85FC49
FC0CF9F9
FA45FC8F
F998FD5C
FE7EFE8C
FAF9FBC2
0527FE9E
FD0DFCC2
0015FFF0
0002FFF5
0431FFB0
FFDBFF09
FDBFFD33
FEC603C7
017E0261
FD440221
FBFD07F6
0149F8B5
FA25FA50
FA3E0108
FFAF0709
FB5DFCB8
0009FD63
02AF3A88
FF6EFF8E
F7FAFD53
FEA9FD95
FECE188C
008FFCA6
FFA102E2
001DFE4E
FA18FB49
FD0DFC4D
F9EEFB2A
FD2BFCCE
FBB70B62
FDA7FD18
FD83FDE7
006EFF2B
015DFB61
02AA0666
FE84FBC3
FD0AFB2C
FAF9FC2F
FCC4FB1C
FDE3FA5D
FEE8FAD6
FD08FF4E
FDBCFC48
FD25054B
0000FD4F
002DFFEA
00100028
F80F013C
01CAFD7C
0389F93A
F9FDF8D0
F98AF922
FDCDF1CE
F8E910AC
FA37F8B0
FC82FBA9
0BC4FB54
FA94FDB3
F9E3FBD9
F67AFA05
F61805E4
FBFDFC75
F7BA21D0
01B504BC
004CFD7C
FBB9F508
F3C800B6
F7E2FD13
FBF3F216
F9A7FC20
FBA10075
F77CF877
FA9C03B8
FDFD0F62
0780FEB7
F55EF922
FA36F9C1
FA0DF9F7
F9CAF9B7
FBE0FA1E
FD74FD83
F9DAF99B
FB0AFA69
FBF8FF20
FA010077
FB7EFAD6
FD57F5B2
FFF6F7E6
00150028
015B000F
FCE5F9EF
F90A00AB
F92503CC
F8FFF922
F3A6F9F3
1034FD64
F78EF92A
FA78FAC2
FB52FB2E
FD870BC8
FB2EFA0A
F987F91B
040AF620
FFD7F502
22E8FACD
0430F64E
FC4101D8
F4B00014
FF56FAB0
FECCF302
F260F8CC
FC02FCE1
FEF5FAE0
F8CDFC78
0443F7D8
100CFCC1
FE40FE62
F96D0854
F954F428
F883FA44
F949F86A
F922F8EB
FD99FC43
F94DFE58
F944F937
FE12FA80
0014FB1A
FB2AF9E4
F5BEFB92
F8C5FD04
004CFFFC
00050010
F9920136
03F4FD6E
02CAFA3F
F9A9FA0A
FA3AF970
FE13F58C
F9251160
FC20F8C2
0105FBF1
0C58FC41
FB62FC87
FA26FBC9
F8E7FB35
F76A026D
FB2AFEEF
F6E221B0
07370414
01A4FDD6
FC73F76A
F4F80115
F954FF97
FCF7F508
FD24FC60
FD27FF30
F857F8F6
010704F0
FD770FD2
08B4FD84
F8D9FA1B
FBDFFB5D
F9C6F9A4
F9FFF927
FD33F8E2
002BFECF
FA85FABA
FC27FA54
FBEAFEFF
FB7101B4
FC61FBDF
FDF0F6AA
0000F939
00D10005
029800D3
0200087A
0157FD36
02180134
FE85FEE4
0057001B
0221FE8D
FCEB0013
0013FDEC
0014FF4B
00790171
FF0200B0
01ADFFD8
FE5CFE7A
FCE1FE63
FE28FE97
001400E8
022CFF13
00180115
0083FFFE
FF82FED2
FE86FEF5
FEE501BC
FD22FE6D
FE1DFDF6
FED0FE8E
FEE6FF7A
FED7FD9E
FE9AFFB4
001F0015
0101FF05
FB83FEF9
FFC90077
0254FFAB
FE2FFFD1
0040007E
0091FE9D
FDBAFDAA
01BAFF8B
FD7C007F
FE75FEFE
0013FE57
009D00EA
0B7602D9
FDE402BC
00CF01F5
FDFB0096
FFB4FD87
012AFF4A
0056005E
FE0FFE3E
FF21FF35
016E0053
003B0009
0001FF60
FE77019E
FD690063
FF5DFEAB
0213FE5D
FF84FF77
0041016D
FFF00018
FEAA00D5
0286FF18
017FFEFC
FCB6FDCF
FFD0FC92
FDA4FEAE
FF6BFFB2
FCE0FEF3
00D6FE7C
007AFEE7
FF73FF55
FE550012
0135FA5E
FF73FFDF
FFF702C4
00FFFCFB
FDB700BA
FC780080
FC91FDBD
FFB501BE
FF5FFCCF
FE5EFE64
FFE2FFCA
03B8019D
FE50BB00
FA6F00E3
02B4020A
01A5020D
02780294
0035000C
FFE6FFDF
013201BB
0001003A
FF38008D
FF9FFF8E
00770023
FED6003A
FF8E0122
FFE4FFB8
0082FEE2
FE41FF72
00A0012D
0021FF5D
01DDFF8F
0193003E
FFF1FE31
FFF7FEE3
FF44FE02
0000FF5E
FFFDFF00
FFB2FEDC
FE13FF6E
0062FF6A
0292018E
07670116
00570035
FF24010B
FFB9FE3F
0040FF1E
00340213
012F0147
FFEDFF5E
0034FF8A
0014FFDB
0000FFE8
ECA00014
02F1000B
FF6DFBB3
FE40FF64
FE4AFF37
FF5AFF92
FE7CFE84
FFB4FEC8
FFE7FF01
FF18FE7E
001E012E
FF44FFDC
FFDAFF23
FF80FFB3
FEE90008
0341FF35
FFFA01F6
FF02FFE2
FF0B019D
00ACFEAA
FF0200E8
0006FFDF
FF8E0059
FF890056
FEADFFA6
0072FD86
FFBFFE4F
FFA3FE58
FF3A000D
FF62FEA3
00DCFEA6
00900037
FEE3FFDE
FEFA007F
FE93FF78
FFEDFF7F
FF06FFF7
FDFAFFFB
02D7FE52
FF24FF62
00C500E7
FDCD0035
001400AA
0037EB3C
FBF10472
007E0127
00D7FE8D
00ADFE93
FF58FEE1
FE59FF59
FEF1FFB4
0092FF83
0039FE65
00A4000C
FF45FF8F
FF91FFFD
FFF4FF00
FEA2FE64
020602A8
FF8F0078
01A2FF40
FED6FEBB
FFB40033
FF2DFF42
FF91FF31
FFC6FEBA
FEF8FEE9
FFD6FEA1
FE3FFFBC
FE8EFFDE
FF13FF42
FFCBFE5A
FF7BFF7B
01F101F4
00A000F3
002E010D
00A6FF25
FEB7FEA1
FEABFD97
00FBFFCA
FECAFDEB
FEF80266
0099FEEC
FFC400DC
FFADFDDD
ECC00009
018D001A
01F4FB3F
FE73FF62
FEC5FEA8
FFD30028
FF49FFEF
FFB0FF1D
FF8BFF2D
FFBF00B9
FFE2FFC5
FF73FFD0
FFC7FF81
FE900063
FF91009B
03E6FED9
008701EC
FF75FF57
FDE801A9
00ACFF46
FF5AFE4D
00540038
00E5FF4B
FE7BFEF6
FEA0FE6D
FFB5FED6
00E5FE41
000FFE5A
FD85FF5C
FF36FD73
0234FF55
009E018A
01BF0082
011C0026
FE2C00DD
FD93FE6D
FF5BFE18
FDD20025
0103FF6D
FEDCFEB4
007CFFA9
FD5A00BF
0000FF18
00060002
000F0001
FFF600AE
FFD8FB17
FE05043A
03A0FE57
FDBEFDFF
F7340CCE
09C0F819
FCE4FC06
0085FB7C
FB72F9C5
F7D01FC0
F7DEFDC4
FF93F884
FA49FB4E
FD51FCB1
FBD4FC63
FA17FABD
FB46FA2D
FB3CFFD3
FB9DFBE8
FE53FDED
FF0FFCFF
FCD7F8F0
FCF1FB21
0549FB7A
F95AF7C0
1018FA28
109CF9A7
FA9DFABC
F866FB92
FBE5FB67
FE7EFAA4
FA04FD06
F992F572
FC9A1ED0
FD99FD5E
FC04FB7F
FE24FE20
FE6DF6A4
000B045C
000403DD
0004000D
00B90013
FA8E00A5
02FAFFC0
FDFBFE55
FD5C02E3
0DE0FDBE
F8A4F882
FAFE0ACE
FAD3FC88
F969004C
1FF4FB45
FD10F6EE
F898F704
FC3C0008
FC1AFAA6
FC71FD67
F97FFACE
FA5EFA2B
0078FB91
FCDEFABE
FC00FB56
FD64FD9C
F9C3FF93
FD95FC35
FB9BFCD5
F77A0519
F9B4F8B4
F8C91048
F9D710E8
FACAFAED
FADBF837
FA43FC82
FCBBFEDB
F598F924
1DA4F985
FE03FCE6
FB07FD88
FEADFB4C
F6B6FE03
04D2FDB1
0312003E
00080002
000C0001
FF5400CD
0221FA74
FED30354
03D4FEF4
FD9BFDA3
F7260D8A
0ACCF907
FC29FB41
0081F9D9
FAC6F9B6
F7262068
F74CFD5F
0038F8F4
FA97FD6A
FB97FB68
FC77FCAD
FB61FAC6
FC37FACF
FB6A03F1
FB14FC99
FEB2FCD3
0014FC81
FB56F9DE
FD1DFEFB
0545FAEE
F962F878
0FC8F9D7
106CF836
F959FA63
F886FA8D
FE35FB5D
FD5BFA40
F9EDFA92
FA82F835
FC851D0C
FDC7FED9
FAE2FB40
FDDFFEC8
FD87F5EE
00BF065D
000001B5
FFF9FFEE
00020008
FEAE0065
FCB12460
F7C4F81B
FC16FC71
F86EFBC2
F8ABFEAF
FC3EFACA
FB98FA18
053FFB0D
F893F84C
F95BF99A
0DE0FAC4
FA3A025C
FA4EFFCA
FFA4FDAA
0480F592
F718FB8E
F7E4FB5F
040EF968
1C10F9F9
034CFB3A
F917F4F6
FF64FC77
0888FAB1
F74CF6E6
F7B0F99D
F875F865
F7EE042D
013EF6AA
092EFB6C
FD61FCD4
FB94FA46
F968F676
029004FA
FCE2F989
FB3FFB9C
FC0AF977
069CFD5C
0A40F682
FE38F7E2
FFEEF6FC
00070000
00450001
24B000AE
F758FCC9
FDC6F6C2
FC2DFD72
FD97F842
FAD3F84B
F92DFB54
FAFEFBA9
F8AB0649
FA05F87C
FAE5F99B
02110EE0
FE9EFAA4
FE55F9C6
F588FFC4
FB6A034C
FBC6F71A
F9F0F6D8
FA9E0323
FB811C60
F5D60468
FA8AF8CD
FB3EFE19
F6800892
F9C8F6F2
F846F75C
04CCF800
F60AF754
FC30018F
FDE809B0
FA65FD24
F474FAC9
04BDF928
F9A205C5
FB05FCE7
F921FB50
FACAFC01
F6DA0733
F7CA0AF4
F674FE20
FFEFFFED
FFFC0005
FFC2007C
FC3C25F0
F5D8F728
FF00014A
F802FBCE
F7B6FC65
FB16FAE4
FAA5FA2D
0653FAE2
F82DF8C5
F910FAB7
0FD6FA7C
FBB2005A
FA45FF46
FFA4FE00
0239F74E
F71AFB52
F6D0FC2C
023CFA75
1AFCFA29
0515F925
F992F584
FF2DFAC6
0826FC7E
F778F726
F7AAF9CD
F91AF8E3
F7B405EB
00FCF678
0976FC37
FDD0FE89
FB4CFA25
FAF0F35C
065D0689
FDD9F9B7
FBC6FAC6
FBFEF83F
080CFADE
0B50F65A
FE34F744
0000F7D2
00070063
FF48059A
FE4DB4E0
FEB4FEC8
FF45FF05
FDF8FB0A
FDE6FDD1
0022FFF4
004C0071
00CBFFB9
000800FE
FFD7FF33
FFA2FF7D
FFDC00A4
02D6FFA6
02B7FEBC
002205DC
000A009B
01F8FFD8
009FFFA7
FFE90115
0019FFC8
010F02C7
023B0006
01E50160
01C5FB03
FEF502BD
034E018A
00B30456
0096FFA5
022F006D
FFE8FE80
FEBEFF9D
FD92FFB7
00A4FD80
01EE01C9
FFFC01A5
006CFF56
FFC60042
01350133
00EBFFB1
005EFF2F
FDCA0129
FCC30053
08EEFFC7
FB9DFEB5
FE260092
FF4FFF40
FCC5FCF4
FCB7FD70
00ADFEA2
FE6FFFD2
FFFAFD5D
FD87FE83
FDAAFD64
013FFE92
FDB9FFCF
FFB7FD1D
FC79FE21
01600120
FFF4FC61
FE3BFD3E
FD96FDBB
FDAE008B
FC8EFE8D
FF1AFBEA
FE8DFE0D
0213FC27
FE6CFDBF
FF6100F1
FC3FFB14
014FFE4D
FDBC01CD
FCB0FED1
0053FBC3
FF68FCA5
0196FEEE
FF67FFC8
0073FE4B
FCA000DC
FEA5FEB9
FC8FFEA2
FF1FFD51
FE03FC76
FD55FE2C
005CFDCF
FFEBFCF9
FCF0055C
FF46FB1E
FED9FDCD
FD10FE57
FC09FC70
FD8BFC42
FF8000FB
FD58FD7A
FE8600E7
FD99FD40
FDE9FD24
FFDB0127
FD8CFC9C
FE68FE5A
0109FB53
FC5801B1
FE94FEC9
FC4BFD89
FFC3FE6F
FE17FDD2
FC84FDBA
FDA40139
FC9AFE6C
FCC4FF38
01CEFEE2
FD17005E
FDB5FCA5
02BD0015
FE61FDBD
FB02FD41
FBFF0033
FDC6FE88
01B4000D
FEFEFF37
FFA40180
FF06FC44
FDBCFE47
FE1AFBF4
FC2BFF21
FDE7FEBA
0000FC46
0553FFB2
1B80FEFB
08DE14D8
FDB7FE34
FF30004E
FFB201C2
FF06FF3C
0183FE53
00AAFF08
FD39FDAB
FF92FF27
FE3700A9
00F9FF15
000DFFDC
FAFFFF76
FA0AFE49
FF90FCAC
FEA1FE4C
FDC70049
FF5EFE67
FE01FCDA
FD61FFBB
FF52FE0E
FEDDFE4B
FD7AFE25
FE75FF71
FF88FDB0
FCFEFE36
FF86FC58
FE31FFA0
FE26FF00
FE8F00D9
01690111
FFF40085
FE31005C
FDEAFE63
FEFBFE5D
FEF20066
039DFCEB
FE44FD28
FEB4FFE9
FE37FEC5
FFF5005B
FED30138
048B28E8
0097FF93
00FC012E
0077FF91
FF44FEE2
FFA7FF2E
FFD70016
01610036
FFCAFF26
0096007D
FF61FFF2
0035007F
FF69FFE3
000C0268
029F03DB
010400AA
0184FFD2
FFCF0071
01300171
01AFFFF7
FDEA0250
0181FFE0
FF86FFD0
FDF10005
0025004B
00130049
FF8DFFFD
0089FFA7
009AFFD5
022101C4
FF090027
00C10109
008EFF35
015BFF69
00BDFF74
00D6FF5F
FF4EFFC3
007B0224
FF920044
004F0073
00F0FF8D
00A3FFE3
FD76FE19
FF540BCC
FE5DFF97
FFC801B5
FF73FF23
FEC1FF00
0134FF2F
00EFFF98
FE83FFA1
0070FF1C
FF370005
0006FF49
00260032
FE7CFF2E
FFE4FEE1
000A0185
FE2EFE45
FCEFFF93
FF6BFF6F
FDA7FD99
FFECFF20
018FFF75
FF5BFFD0
FD9DFEEC
FF24FDC5
FFD0FE68
FDA3FEA2
FF94FBD3
FF0AFDDD
01C4FFDF
00E90298
02C5002C
FF98006F
FE450112
FDAAFEF5
FF08FE95
FED3015B
02B4FDDF
FEF1FE4B
FF42FF3F
FD780022
0000006E
02770046
0029FF9C
00F1F570
FFA10102
FF79FFFB
FF840020
FF540041
FE9C0127
015AFF54
017D003C
FFE4014E
0082FEFB
FFBE0096
008F0042
03360123
01E40115
00850438
FFB3012C
0066FFF8
00D9FFD3
FEB70019
0162007B
00F70134
01E8011C
007AFFF7
0036FE3C
FF18FF8C
00E700A4
FE83014F
FFD6FFE0
0063FFCB
023100E1
013A0046
00FF00BE
FF75FFB6
FFF2021A
FF9A00A8
FE0B0128
01F9FFBC
03140076
0139FF23
000300C3
00420091
FFD60379
F4D6003C
00FE0134
FF1200C8
FFD6005E
00B1FFC8
FFB4FF95
FF63FECC
026A000C
01920202
FE730070
00B40075
005FFF82
011900C7
01A60396
03AC023F
01F400D0
FFFB0092
002500BB
00C30121
00A8FF13
010C0173
0171FFC2
004901BC
FEC40059
006C0091
0147FF92
0179013A
003CFEEB
0157FFC3
012D00FB
008102DC
00C4FFC8
FFDA0187
02C2FFA3
009900BB
016DFFCB
FFA5FDFF
00830157
FEBA0352
009E015C
002D000F
033E0075
0035FFE3
0171F47A
019A0159
FF6F0025
00350108
FFBC0238
FF69FE52
FFF3FF17
FFEF01DC
001600AE
00F9FEE0
FFD20045
00B30021
03CC0218
03E9000F
0152046F
007E0023
FED8008A
00900001
FF4AFF7C
00DB002C
0047FFF4
013F00F2
FFB8FF55
FF7EFDBD
FFB6FFC1
FF680027
FE6AFFE6
FF7CFF38
015A013C
0169014F
01920137
00870204
FEC1FFEB
000F0105
FFB7FEFF
FDFC018B
01ECFE9F
00C1FE92
FFFF005D
FF1AFF11
0000FF9B
047CFFC4
006D0042
0172FCBB
00D2FF29
FEADFE33
FF9300CA
FDEBFF64
FEB9FEE4
00C2FEA3
01D0013E
002902AB
FEA5FFB1
008AFF0F
FF900060
03C6FF99
FFBBFDF4
FF1E03C8
FF2A008C
006BFE1C
FFDEFE49
FE7FFE95
FEEBFF1E
00FE005D
FFBBFFFA
006EFDB0
01A0FF65
00BD0004
00A5FF84
FF4800C9
FFCB02AD
00FEFF90
FF16FFAB
FEFDFE3F
01A9FE79
FF5EFEA1
FF0C00DA
00A60217
FDC6FEAF
01F9019A
00F300BD
006FFDF3
0215FFE4
FFC00114
0011031C
FC50005E
FFD9FEA7
FC5D04AF
FF97FEAC
0033FE63
FFEDFD66
FF3FFDBF
01A500D0
02E10353
FF2B00A4
FF4DFF09
008EFFF6
0017FF59
008305E0
07940211
0263FFCC
FFADFEED
FF880248
00C1030B
0133FF1B
00E300EF
015D02F9
FF6E01C0
FDFA0348
0140028A
017301B6
02EE029A
02D0FEB0
FF5000E1
FFA401C5
FB77FE8C
FD35FD0C
FE5002A1
01A3000B
031FFF8B
FDC300B1
020DFE41
01C500FD
FE59023C
FFF50253
02C20303
0648FFD7
00510021
007EFD50
02500024
FF72FFEC
021503D5
FEF502EE
0087FF6E
0260FEF1
00E4FFDA
003401AB
FE9B00A8
0125FFA8
00070057
03F60137
000C00FB
006F03B6
00ACFF6A
FF06FE7F
00F3FE95
FDD9FF5B
FF7401B5
001C0035
003C00A3
01ACFE59
0093FD82
00F6FFB3
FF6B0077
FED1FFB0
FF800095
0061FF8D
024500C9
00A8FF49
020CFFF5
FD80FE25
FEB1002C
001902AD
FDB501E6
05EDFEC8
00A1FF5F
00F7FEF2
016D00DE
000000D2
001A000C
0002FFF9
DDF0018F
F020F4F4
F812F418
F9E4F8BD
F7EAF836
F72EF6D0
FBB9F821
F892F45A
F372F89D
F654F794
F9A8F5AC
FB49FB99
F7FEFEA0
FFD1FA6C
F8E5FCB4
FB1AF7DC
FE02F80A
F714F920
FF97FFB9
FB31FAEA
F7340431
F80A019F
02D2066F
05A0F7D6
FAA3045C
FFE8F3BA
0045FB40
FC14FB11
EC3C0334
F47CF77E
F250F8DE
F99FF76A
FABBF340
F963035D
FCC107D1
0160F8E3
F8B8F3D4
FFE9FA43
FCEAFE27
FFABF534
FFF60515
000B0025
01580008
F5CEDB08
F4C2F1F4
F954F87E
F867FA24
F730F88E
F866F7DA
F680FB99
F8C9F884
F7EAF36A
F5D2F654
FB78F989
FE65FB3D
FA7AF72C
FFDFFE70
F6A6F945
F6F2FB5A
F96DFE56
FF54F732
FA9A003D
05F7FA60
0264F78A
05DAF66C
F71402B8
04DB05C2
F4B0FAA2
FB9DFFFE
FB38FFF4
045BFC02
F94AEC68
F983F4BC
F760FD61
F398F9F5
0346FA51
08E2F77C
FA21FC48
F3BE0183
FA0CFA05
FEF0FFB2
F5F2FC83
04EEFF9B
0022FFFA
FFE7FFFE
DE000173
F4FCF71C
F855F47A
FA0DF984
F993F9F2
F7E4F78E
FB57F8BC
F99AF7A0
F47AF8D3
F756F826
F8FBF5DC
FBB7FBB3
F83AFCFE
FF8BFCA5
FA290190
FC34FAC7
00AAF8FF
F7D2FA67
013D02B0
FD35FAF5
F7680607
F6D003BC
02D8073F
05C1F48A
F9B50495
FE5AF5AA
0139FD8C
FE4CFA78
EEE0035E
F372FAFA
FFEDF9B2
FA41F754
FD10F40E
F9C304CC
FD420B2C
01B2FA9E
FAE8F642
FEACFCB2
FBECFF84
FFFFF784
000005C8
FFECFFF8
00020009
FD78000B
FCD6FC3F
0A0EFD0B
FAE9FB05
F75AF6EE
FAEDFBC8
02D911E0
FD40FCC3
FD220224
FCAAFD81
FCB9FCFF
FBF0FCF7
FB00FC05
FAB4FCE3
F738FC24
FBD90427
FF840631
0240FA64
FB6FFCA8
FD6A0773
FDDB00E6
FC970787
009BFDFB
0435FF97
FCA6FD9D
FAFE0027
FD2CFDB1
0092FAB7
FEDBFB4A
00710047
FFED04F2
FEF81D10
FE41012A
FB291248
01F0F852
05C7FC8C
01792830
FC22FF6A
018CFF87
1168FCE5
00001CF4
0004FFFA
FFEF0004
FCAFFDD0
FD0BFC87
FC3A08EA
F524F98F
FDD3F668
11D0FB2B
FD3F0287
027DFCA3
FD93FE25
FC91FCBD
FC5AFC33
FBDAFB35
FD9FFB08
FC41FB37
0410F812
055BFBC9
F96FFF9E
FC550286
0715FB65
FED2FCD7
0708FEC3
FEBCFC50
FFBD018D
FDD404AD
005AFC6B
FDFBFAC8
FA21FCB6
FB5EFFAC
018CFEF3
04910115
1D80FDCC
00DB0028
1220FED7
F907FB75
FB110167
29C805EA
003101F1
FF04FBEC
FD760263
1ABC1098
FFE0FFFD
00010005
FDCC000E
FBC1FC28
09E0FC76
F826FAC8
F65AF492
FB04FE40
00EA1284
FB99FD2B
FF34043D
FD84FD3B
FB02FCEF
FB03FBFF
FB31FB96
FAABFD5E
F7A6FC0E
FAD70482
FFF705FE
0245F7FC
FB47FCE1
FBE007A0
FEE200AD
FBE50589
020BFD2F
0565FF20
FC9AFE1B
FB35FFFC
FD7FFE81
FFCEFAD0
FF37FB13
01A30071
FC3E03AF
00A61E54
00A3FE31
FB4D12E4
0271FB81
04A3FAC4
02A829A8
FC6300D3
035DFEF7
0ECAFCED
000019BC
FFF40003
0008FFF9
FF6E001D
FF4C025A
FB8DFDA7
FD40FE40
FEA6FF2A
F89EFA75
FD7BFCFF
0E74FF22
078D0536
1AC82228
0C0C20F0
2B08FC40
F96C2198
FF1DFF2E
F766FEFE
FF4BFE9C
F8F2F9FC
FF55F920
FAFA00CE
FCA3FE8D
007CF99D
FAE3FB3C
FD15FBC2
FF9AFB2F
FCA9FAB6
FAA3FA04
FAC8F97A
F9B5FD25
FDF1FACF
FC56FF40
FC32FA34
FB60FA81
F88AFB22
FB66FA8D
FC6FFBCD
FD28FBFD
FC60FBAB
FA14FA8D
FACCFE28
FD0BF6FC
FFFFFB64
FFFEFFF6
FFF8FFFF
0224FED3
FD3A0012
FEF7FC0F
FF45FCA7
FA26FE1A
FCCDF96F
0013FCDE
05BA0D1C
23100781
21701B14
FC6B0BC2
22602C38
FF52F9F2
FEE7FF69
FDFDF823
F965FEC4
F7D2F8E5
00FFFE4B
FDEAFAD3
FAD5FCE2
FBCAFFC7
FB3BFA0B
FAA2FC22
FAACFFD4
FA2CFCFE
F941FAF9
FD55FAC2
FA98F9F9
FFF3FDD8
F8D3FD56
FA69FC54
FAF9FCA9
FA42F886
FB99FA9F
FC4AFC22
FB81FD09
F9F7FC5B
FDD2F9DA
F7AAFACD
FB60FCD7
FFEFFFFE
0003FFFD
FF82FFF1
FE5C0124
FBA0FC31
F960FC91
FD09FDB0
F86FF93F
FCD7FD2E
0E0A0084
071405EF
1B582320
0A922120
2C78FBE7
FA022348
FF18FD6B
F8D2FEA0
FE27FD59
F9FFF92E
FDABF7A6
FA05018B
FCB4FC61
FF88FB09
FA3BFB9E
FCAEFB15
FF03F9F7
FC54FAB2
FA51FA2D
FAF7F9EB
FA30FD6A
FD47F9E7
FEE2FFE5
FCACF7D0
FD80F964
F962FB70
FABEF9FF
FC2BF9C1
FCEAFB9C
FB80FB03
FAADF927
FB0BFE46
FD08F794
0000FB7B
FFF10002
0011000D
2E100335
F01EF60E
F304F420
F2B8F52E
F136F30C
F9D6F21A
F5B6F5EA
F1BEF87D
F60AF21C
F094F784
F582F106
F27CF52A
FE53F4B0
00DFF280
F3FCFC31
FA7BF570
F5A2F84B
F894F534
F89FF70A
F708F766
F35EF12E
F2E4EFCC
F210F1A6
F134EDF4
F3D4F434
F3B4F50E
F31CF566
F2FAF356
F0A0F34E
F1ACF08E
F198F284
F2CCF272
F4B6F340
F446F168
F50EF60A
F6C2F466
F49AF2E4
F0CCF01A
F33CF1E0
F62AF692
FFF5F620
00080010
0331001B
F87B2FB8
F696F39C
FAB8F7F0
F91BF6C4
F542F72E
F6B8F9DF
FB2DF546
F23AF2AC
F9ABF730
F366F224
F5D0F70E
F65AF418
F5F6FBA1
F3B8FA57
F69AF368
F9E0FB57
F809F734
F74AF89F
F8FFF74E
EE70F744
EE74F134
F328F356
EE10F34E
F556F234
F696F466
F5ECF546
F394F3D2
F3A4F396
F032F0C0
F374F408
F2F8F254
F576F510
F22AF572
F5CCF4D6
F57EF590
F344F6EE
F310F61E
F242F256
F6CCF4A4
F69CF6CC
FFE3FFF2
FFFE000B
3060036E
F14EF544
F7A2F388
F73EFB68
F65CF7DE
F8EEF4D4
F528F616
F29EF5D6
F63EF292
F202F762
F65CF2E4
F35EF5E0
F528F50E
F54AF286
EF80F498
F950F41C
F4F4F742
F6AEF55A
F590F2BA
F438F4A4
F110EFC0
F44EEDB0
F3C2F2FA
F03EEE98
F452F38E
F5BCF53E
F40CF57A
F360F3A8
ECB4F3BC
F2A8EFCC
EC9CF2F2
F436F28E
F586F0D2
F52EF37E
F570F426
F70AF4A4
F370F302
F2D4F26E
F436F334
F67CF63E
0000F60C
FB74FFDC
FB4E0056
006802DB
FED3FDEC
FF1CFE78
FE9CFF75
FED8FDB8
0044FEDE
00FD0007
FE60FE49
FEF9FF7A
FEE8FFB9
00C2FEEA
0049FFBA
FE0BFEE9
FC6AFF1A
FF89FF80
FE7EFF7D
FF14004E
FFC7FF0A
FED8FDC8
FF0F0035
FF73FEFA
FF51FF1D
FF6B0028
FFAFFFC1
FEDEFED1
FE93FF8A
0022FE5B
FFD30026
FD42FF79
FC7AFEE0
FF6CFFCF
FFB2FF6F
FF08FFB5
FE900033
FFAAFF12
FFA4FE5E
0132FE6C
FE75FF12
FF42001D
FF16FD53
FFBE0018
FFACFA45
C5F0FF5A
0160E770
00EF03EE
FEA20029
FF52FF2B
0027FFF1
008FFFDD
04EC004E
FFB50082
FFA1FFBD
FFCE00B8
00290007
FF850017
00990896
08EC0B3A
02B600A9
02340124
00A70248
032D02C8
037C0186
0097053D
026300EC
00EC015A
FF3B01B8
012B01AF
0157FFA5
021901D4
00300051
00F20109
03270590
FFD3FF75
FFF102EE
FFEBFFFB
037E004A
02060101
00D20035
016B0084
02A1007F
FF8400DA
FEA1012A
01AB0078
FC35FFD1
FAA2001D
00C902E2
FDCCFC49
FE25FD24
FD15FB60
FCBCFA49
FF5CFEC0
FFF7011E
FE94FBFF
FEE1022F
FE75FED6
001CFEB0
0105000E
FD49FDD9
FA51FE1A
FF97FC61
FCCDFEF1
FD8EFEAA
FD8CFE0F
FDE6FD77
FE96FF2D
FF75FE61
FE5701C2
FE9A00DA
FFD9FE8A
FEE8FF88
FD52008D
01A1FCE7
01F00082
FD240018
FA1AFB50
FD7FFCC8
FE93FE30
FFC1FE6B
FD8B0126
FF340059
FF53FCB0
FF02FDA2
FE450045
FE1B0023
FD7AFCD5
0000FE28
FFF2FFEE
0007FFEF
025DFF98
05190C8E
FDECFC70
00C7060F
02DD0272
06A1FA16
FEC0FA71
FE3331E8
FFF3FB32
FF77FF5D
FF09FC97
FD07FBD5
FFC101C8
02B7FF2F
008CF7AA
F9B7FCD8
FABBF881
09E0FF5D
0651FF78
FE87FA62
F820FE44
F700FCFD
F8D4F722
F9AAF7CC
FCA7FB22
F9BBFA51
F9FDFB0D
FA06F9F0
0972FB83
03E2FA5D
0B7AFDDE
FA52FA9C
F9EEFA9F
FB13F999
FAB5F926
FAB40331
FB12FA30
FAECFA65
F93BFA82
FA75F8D4
FFEBFAA3
FFFBFFEA
FF9CFFF8
0CF40041
FC7905C9
05DAFE85
024600CD
FAF90300
FA3F0366
3410FCDF
FAFFFE26
0075FFFC
FCDBFFB0
FCACFFDF
01A4FCA8
FF63FF41
F8650177
FE0AFFBA
F9E1FA91
004FFC21
FEE308C2
FB6A05D3
F909FE39
F962F540
F7B0F75A
F7DEF966
FBD3FA63
FA96FCE1
FB93FA10
FA03FA0B
FB8DFA5F
FAC10916
FEE002FE
FA850998
FB51FAD8
FABDFA07
F9FDFAB6
02B5FA64
F9CAFA7A
FB5DFAC3
F95DFB6C
F8E6F9DE
FB0AFA82
FFF6FFE7
000BFFF2
0546FF62
03EB0BCC
FF0DFC50
0214056A
01B403E8
049EFB5C
FC40FAC4
FCE933D0
FE9DFB14
FF6601B4
007CFCB0
FCC9FE2E
FB400404
FE5BFFB3
FE00F88C
FB3DFB66
FAB6F907
048F0066
03D3F9CE
FBC8FAF3
F634F93E
F891F93C
FA0CF869
F96EF5E0
FCC7FAF2
FB12FA51
FA09FC21
FB11F869
0AFAFB4A
0198FA6E
07B4FDFA
FAB8F9FE
FB4FF952
FB09FA7F
FA57FAAD
FB0402EE
FA44F97C
FBC6F8A1
FA49F9B2
FB3BF99E
0000FC38
0006FFF2
FFFCFFF7
FE4F0029
3C98FE82
FF640CE4
FD500E1C
02182130
FF08FE3C
0713F83F
F7F8FD8B
F9ABF801
F9A5FA64
F891FB78
FABAFB00
FB04F9A3
F931FE96
0036F992
F878FA75
FA12F6D8
FC2DFA8F
F9E7FA16
F94DF996
F899FC63
FB20FCCF
F951F9D0
F845FABC
FAC1FCAB
F902F887
FABCF91D
FA08F8CA
FAEDFAFF
FE11FCBD
FD2FF9C2
F997F808
FEC9F95D
FCB1FBA4
FC7DFC5B
FAE0FCBA
F7E4FA84
F826F8CD
F7A2F84D
FAD0FB30
FFF2FBC3
FFFB0008
000CFFF8
FE09FBD6
0C7C3E30
0DACFF50
20F8FAB5
FD0F0134
F78AFC75
FD110180
F7A4F8AD
FA26F9E0
FB3EF9A0
FA74F7BE
F999F9DE
FF07FB8E
F84FF87B
FAFA010B
F6F6F83F
F990F9E3
FA08FCE0
FBC2FB8D
FD7EF9F6
FD7AF9ED
F9FDFBAB
F9FCF9F1
FCE0F7F0
F8C9FA4B
F8C0F8BF
F7FCFA41
FAD3F979
FCD9FB3E
F8BEFE2E
F766FDF9
F941F906
FBFBFE75
FC85FC1D
FCACFC81
FB25FA89
F95AF71C
F82FF7FA
FB38F823
FC7BFAEE
FFFFFFF1
FFFDFFFD
FC390007
3E40FE18
01D80D00
FB7B0F5E
008921A8
FC0AFDC0
0323F758
F9E2FCCD
F9D0F8B9
F957FB7B
F93EFA59
FAE0FB20
FCABFA98
F99AFBF3
FF6AF845
FA3DFB24
FACEF834
FD85FBF7
FD43FBD3
FA46FB9A
FB48FD98
FD51FDA5
FB13FAA3
F877FB19
FA9AFD7D
F98FF920
FA9FF9FE
FAD6F8E5
FC36FB04
FF06FD6E
FA13F8DA
FA3EF82C
FF7CF914
FE25FCDE
FCFBFD59
FBB3FD17
F67CFC2D
FA2FF9DF
F93AF917
FBBDFBC4
0000FCD9
00A8DCE0
00680802
0067006B
0052FFA4
00990013
00620043
FFD3002F
FF67FEE2
FF56FF29
FEF500E8
FFBD0053
FEDFFF81
FF99FFAD
FFBE0041
0055FF21
FF92FFE3
0043FE97
0006FF80
FF7EFFA1
FF62FF53
FFF3FF0B
FF9200BF
FE4BFDED
FF4AFE04
FF31FF28
FEEF01C1
FF4EFFA4
FF390023
FFA3FF97
006000D8
FECA003F
FF650197
0272011F
FFFFFFCF
FF370000
0090FFED
0033FEC9
FE9EFF8D
FFF60131
0036FFC8
FF8AFF22
FEFFFF66
DEC8FF1F
028800A2
00F9005D
FEE20008
FF88FF03
FF820038
FFC4FFF8
FEDEFF1A
FF77FFA9
004AFEF9
0072FF3D
FF0EFFF1
FFD3FEA6
003CFFAF
FF1AFFCD
FF73FFC7
001FFF1B
FF30FFC7
FF24006E
FF4AFF65
FF080005
0044FF65
FF5BFFA1
FF55FEB3
FFD1FF8B
0146FFDD
FFCCFF0F
0000FFAE
FFDFFF84
FFCEFF2B
FFE8001D
0102FE83
000DFFCC
001800F8
00CFFFC8
FFFAFF1E
FF40FFEF
FFD80030
00B7FE26
FFB9FFD0
FF800055
FFD4FF71
FF18FECD
00C3DEE0
00290261
FF4D00BF
FF78FED7
0047FF63
FFA5FEFC
FF58FFC0
0022FF49
FEFBFF13
FFF40064
00170050
FEFCFF08
FF32FFC5
FF700003
FF0BFF59
FED5000E
FFDDFF8E
FFD4FF40
FF25FEBB
FEE1FF6C
FF8AFF1F
FF1AFF6D
FE94FF71
FF15FF6E
FF71FF1A
FF20023F
FFE4FFD3
FF08FF8E
FEE5FF59
0038FF22
FF420001
002E013E
01220004
FF820046
FF700105
FFCDFFC8
0026FF83
FE59FFDA
001700EB
FFC7FF39
FF8AFEF2
FEA10036
0000FE8F
0004FFFE
0007FFF5
FF77FF1C
FFEEFE91
FC43FC8E
FF080160
FCF900B9
FA84FD58
FAC4FACA
015AFE9E
00FDFFBD
FC0FFF9B
FCBBFD16
FC2DFD77
FDB2FCD8
FD78FBD1
028CFF6E
033CFADA
0033FD6E
FF2604A1
FE1CFEC0
FC62FB6E
FF2102D6
017F0148
FFC4FE97
FBD40215
002EFD65
FB3CFB27
FEDE05E2
FCB5FD8B
FC6701A6
FE72FB30
FF7A058F
06CFFCF4
047208C0
0B5002CC
02C1FFC6
FE6FFB12
0104FFFA
048D3BE0
07B9FE84
FF64037D
00050716
0016FFEB
FEE3000C
FFCDFE44
FCE2006B
00ACFBE6
00FAFEF9
FDB4FDD1
FBFDFB2A
0054FAC7
FF7A021B
FFBC0072
FD53FC62
FC93FC5F
FD32FC41
FC94FE95
FF1FFEF4
FAC20426
FDCC04B4
067300BD
FEE60025
F9BDFF10
02DDFCCA
027FFD53
FDFD01F2
03180084
FD32FC24
FB900088
0749FBD8
FCBAFE69
023CFCED
FB8EFE86
07C90029
FD7EFE2B
09EC08A0
03C80598
01120AD2
FAA903F1
FF09FEC2
3B280328
FE730602
039807D4
069B0037
FFFA0003
00120012
FBFEFF13
003B026F
FBE2FD96
FF730136
FE7302A4
FB24FDED
FBCDFCFC
004203E8
FFCAFF91
FCF1FEEF
FC1DFD8F
FC8EFCA0
00F5FD5C
0130FC20
059B0090
048AFBE4
FF56FE9C
FEFE0661
0092FFC7
FDA4FA99
FDB9032A
00990276
FE18FD97
FB7402DA
00CEFC20
FD30FB91
FC7D0722
FB0CFBA1
029E045E
014FFDE9
006C0AA2
0B9AFE3E
FEA90ABE
0B3C0376
052B00DC
008FFB28
03E1FF39
064E3BB8
02E9000E
FFFD03D1
000006BA
0017FFFB
0000000E
F3C60236
F5DAF98E
0446FE41
FBE6FD12
F96BF9C8
FB9DF891
FAC8F78A
FA7BF8E3
F68CFC99
0731F816
F9A1F550
032FF86C
F24EF836
F448F6EC
FBA0FB56
F9FFFE45
FAE7FC3B
F57EFA2C
F822051A
FDD5FA1D
015DFA62
FF03045D
0B24F44A
05CFF764
F95DF93F
06A2F852
F5B0F53A
1934F568
F5A8F96F
F688F940
F862FAA8
F8D0F971
14D8FD59
0726F802
F88FF861
F999F9FC
FBD7011E
01B7F881
0356F9CB
FCA1F7CE
FFFAFEEB
000A000F
022C0004
F8E7F58C
FE24F560
FC300414
F8B3FA88
F8B1F91A
F6EEFB7B
F806FAB3
FDC1FA8A
F76AF5F6
F5120742
F6BEF911
F7B60314
F692F2D2
FB14F5EA
FE78FAE3
FC28F8A3
F9B3FAD1
04C1F510
F94EF746
F90EFE6D
03F00147
F3AEFE90
F8CF0A5C
F975068A
F858FA7D
F4FA081C
F53AF4F2
F9DE193C
F748F6C2
F9DAF68C
F8EBFC61
FF9AF7D6
F82A1544
F8A505AB
FABBF770
021BF917
F94FFB99
F91101C3
F7B60350
FF42FC06
002DFFFC
FFFF000B
F6140235
F682F87E
043AFEA6
FACCFBAC
F96AF758
FB21F9A0
FAAEF79E
FAD5F95F
F57CFDAA
0700F790
F978F522
027AF69C
F432F7FC
F5B8F792
FB34FB9B
F8950159
FAD3FD10
F6EEF9B8
F7E20368
009AF94E
023FF8D3
0007032E
0C1EF552
071EF93E
FA52F967
09F2F8F4
F67CF5B2
1944F770
F900F8F8
F5B8F776
FF83FA44
F730F994
1330036A
0651FA90
F855F844
FA62FA5A
FB330423
03ECFB63
0390F8FB
FCA0F79E
0000FF76
000503A2
FFA10077
FF20F5F2
FE06FFBD
FECBFDBE
FDF4FD7C
FD4BFE56
FFB202C0
00DCFFB8
0271FFE8
006801BD
007BFEF0
FF500051
00600072
030F0067
0291FFC1
013303B8
008900CE
0278FEDE
0127FF65
FFD50202
00A300CA
0273048A
029902B5
03440220
0285FCE4
FF8B024E
03B801A6
00FA0393
0188FFB9
01800092
010CFFC8
FD8BFF4A
FE4B0029
01A9FFD2
013302B9
FFE20236
FF73FEA3
00440048
02940210
02C0009D
FFEC0009
EB4C0225
044A002D
F9760021
0123FED8
01CC00BF
014202B6
01DD0308
FF6700AF
FFCCFE98
038BFF6B
01ED0013
010B00D7
00F9005D
0122011C
009F01E3
015A0145
FFEE0011
FFAF0282
FF890185
0079FF92
FF9000A0
02AF0063
FE480010
FF2FFF9B
008901C6
003A005C
FFB9008D
00090132
FF9E007E
01E60109
0108004D
0397FF36
0429010F
002F0292
01E200C8
006C0016
FEDA020F
00940224
02D1FED3
00DB0101
FF630081
00BA00F1
00F4FF36
0052E8B4
002904B5
FEC4F93C
00D20072
026301EA
027800CF
00DD0249
FF9FFF5E
FF7E0039
FFBC03D8
00D40199
004600D1
00D900D6
017C00E1
015A00E0
007C015C
0227FF40
0173FFEF
FF55FF21
00130052
0079FF50
FFAD0228
FF2FFD05
013FFF33
FFD9000A
000C0089
013FFF8F
001BFFBD
006CFF4E
00420174
FF4A0198
012A035B
0184043C
00C000C4
001401AD
01FDFFF2
01E1FE5C
FEE6000C
00A602B6
003A0081
0116FF44
FF0B013B
0000005D
E91CFF71
035E004F
007A00F0
FD58004B
FCC2FF42
FD4CFD06
FCADFD93
FDC0FC24
FD30FD01
FD9F0018
0095FEA4
FDAAFF1D
FDCBFCD7
FD46FE45
FDE4FE01
029AFDDE
00830243
FD2FFDDF
FE97FDDF
FEC8FDBB
0155FF09
FFE6FD5E
FF2DFF81
FE05FFA4
FE00FE31
FDF9FEF8
FE1EFE31
FEBCFDA7
FE62FE03
FE97FCE1
FFC7FDD2
FBE1FF4A
FE25FE0E
FDA9FDD8
FD27FCF7
FFAAFD56
FDBAFE55
FC0CFEE9
FE55FE8E
FD65FE52
FD78FFC1
FCF1FDEC
FF92FD39
0027E858
003B03FC
FE1E027F
FDEFFC6A
FC13FC89
FCFBFC58
FD0FFC79
FCAEFD99
FE54FE00
FE8AFD73
FE6300A7
FCBBFCFF
FDC3FDD2
FD9FFD1B
FC94FD78
FF14FFD2
FD40FFD3
FD90FD5F
FD0DFDE4
FD7DFD28
FC2DFEA7
FF31FD68
FECAFF42
FD30FDAB
FFB7FD7F
FD4BFDE0
FCE7FDF8
FD1DFE56
FCEDFE35
FDB9FE0E
FEBDFF0A
FDB5FB63
FD92FCEE
FCD9FE00
FCB8FD38
FE1DFF6C
FE2DFD8A
FE60FB8A
FD69FE32
FF3CFCBB
FDE8FD58
FCD6FD0C
E7C8FF92
02A30002
FFD30099
FDC1FE98
FC7EFE09
FBEEFC29
FB7BFD0F
FCF0FD50
FDC1FD25
FD83FE79
FF9BFD84
FD97FE0B
FD49FCDE
FD19FD47
FF09FCF0
FFFAFE17
FF87FFEA
FBE3FE05
FE37FD55
FD90FD31
FE1FFD2B
FD52FDD3
FDD2FEF3
FDEFFEAF
FE03FE76
FD85FE46
FD70FD7B
FE70FD51
FE8DFE44
FEA2FD8B
FF5BFE21
FAABFE28
FD33FD65
FD38FD0B
FDB3FD17
FDF2FE25
FDD9FE1E
FC01FCDF
FC68FE5D
FDCEFD70
FCE3FEFC
FD2CFDD4
0000FD32
FEFC000F
00C50065
FCBF008C
0063FEF8
FD3AFEA1
FE6EFCEF
FC9BFD67
FC10F979
FB31FB8B
FE81FEBB
FEED003E
FDE0FD29
FE42FC39
FD68FE63
FFB5FBA0
040CFDD6
FD7502D2
FCDAFFDC
FF95FE87
FCB1FDBC
FEEFFEBE
FFB3FBC2
FD96FEFC
FFE8FA31
FE10FD7C
FEFE00CD
FE08FE05
0038FDCA
0013FED4
005A0115
00DAFD99
FC3EFDB6
FEB4FD5D
FBFBFE6A
FE46FE70
FF80FF07
007B01BE
FCF8FF15
FC5C0044
FFB8003C
FCA0FC37
FDCCFC82
001EFE06
000BFF54
013F00B0
FE52FC1A
FDA6FF01
FB97FC88
FDA2FC56
FB27FB0D
FBCBFB81
FE46FC03
0018FF53
FBD5FEBC
FBE2FDB0
FE45FD87
FB6AFD02
FC54000B
066A047C
FFDFFDF0
FE35FCAD
FDA1004B
003EFE2F
FCADFF33
027A01F8
FD8CFF90
FF0A00C1
FF2AFEC4
FE78FFBA
FE45FD9E
0059025A
007300A4
FDA70076
FCC3016B
FC2BFA90
FD92FC94
FE16FCE9
FFA6FDC0
032EFF5A
FE360047
FEF6FCC7
FFCCFAD3
FDE2007C
FB76FD0C
FFC2FDFD
FDF80027
0082000B
04C001E4
FF05FC96
FBB6FD28
FEC40205
F9A1FE94
FD79FB4F
FCB2FBD2
FE38FB6B
FE2FFEF0
FC6DFE6A
FF69FBF8
FD6CFD60
FD38FCDD
FFBBF8A0
FC4AFF36
FC2DFE7D
FF9FFF73
F9FFFC6B
FDEDFF01
FA5AFA7D
FE6CFDE0
FE9FFECB
FBD8FC32
FD8901AD
FD2DFBF9
FC2CFBF0
FF64FCB5
FF640045
FF65FC07
F911FAFD
FEFBFD25
FB9DFF05
FC82FE30
FCCFFE0D
FE4B024F
FC80FE8C
FFB8FB1A
FDAAFF18
FC2BFE6B
FCC9FC54
0000FDA7
00040001
FFF5FFEE
FB2FFF80
FCABFDEF
FD0EFC95
FDFFFD26
FC19FE74
FC36FBEE
FE84FABF
FE5BFD09
FE3DFDAE
FD85FBF5
FE3FFD87
FD25FD7F
FCF5FE03
FDA50485
011E0177
13B4FA62
FB6FF8C4
FE79FB25
F95EFC78
FCB704B4
03700201
FBF1FBDB
072C0282
FE91FCF8
FE79FB66
FD6DFEEB
FD77FFD8
FEDAFEE4
00640060
FFB0FEB1
FE7A07CD
03EC04AC
F988F874
F9BCFF7F
0E02FE2A
08281664
2C7803B5
FD1F04AF
FC9F0038
0458FCF9
000509A2
FFFF000F
FF92FFEF
FD5AFBB5
FC8FFCC4
FD46FD3D
0090FF27
FBFEFA77
FB0EFD0E
FD2DFF06
FDD3FEE4
FBB9FE34
FD9EFD12
FCFEFE5B
FE6DFD2D
04A8FCE1
0103FDD4
F9E10235
F7DE1470
F941FBA2
FCA8FDAD
006CF8D6
FE3DFC4E
FD6F0196
FFBBFC1D
00EE03AE
FC55FF10
001DFF00
007DFE46
FF63FD49
0311FFE8
FF0F0123
0A9A00FA
04F0FEA7
F9820393
FF4CF8BE
FC98F9A3
176C0EB0
062F0968
03752D90
FEF4FE3A
FD01FB60
08E403B7
00010004
FFF9FFFD
FCBCFF6C
FC6EFD85
FCC6FC0D
FFB6FBE1
FB330135
FBE5FBDA
0018FA60
FCD0FD05
FCFFFDA8
FCEDFB43
FEEDFD33
FCA6FC53
FC64FC85
FE0705F5
0306010F
1390FB0A
FC79F6FA
FE42FB0B
F9ECFD3A
FC8D05EC
0051FC21
FCD3FB95
038CFF96
FB94FA85
FB43FA9A
FC02FEF7
FBE50046
FB7AFD39
005A0004
FED3FCA7
FD2E0A46
02FF04D0
FAF5F8A6
FA9FFD90
0CC4FC1C
06F516F4
30C80263
FE6003A0
F9DF002F
023CFA07
0000076A
FFD2FFA8
F9D7FFFA
FA3FFE24
010500A3
00580022
002A0033
0003FFC1
0029FF95
FFC90011
006E00F3
0063004D
001AFFDD
0045FFD8
FFFD0046
01670010
02C1004E
00C001F8
0018009A
0155002A
00850095
0021007E
01280100
FEFAFFCF
00AFFFE1
011300DC
012B0000
00590104
00FD0076
004E0125
00AD0023
01E0FFD8
005D007E
FFEDFFF2
002F007C
00A0FFD3
003E0191
000000D8
0014FFE3
016900FA
015B00B4
00A20008
0030005A
000300B7
003BFF2A
F6CEFF8F
003CFE32
FF3D0006
FF6E009B
FF73FF71
0008FF8A
00280001
0092FFE2
FFEC00F0
FF850029
FFB7FFF6
0023FFE2
FFE6FFEF
FFF500C7
00D80132
00920083
00410073
00860183
00AB00D7
00250039
01E900FF
02360080
01510195
FEAE0198
014E0173
00A50004
01870162
FFB6008B
FFB100CC
FFA20129
FF45FF8C
0005FD2E
FFC0FFA0
01F400E3
01670063
FF23FFD3
00B2000E
005E0022
0034015A
FFE700B8
01230034
02200062
22D00057
038C1634
FFF6FFAF
0008008B
02200400
FF31021B
0366003A
02F00036
FED3FE11
0219FFD9
FF110197
028C00AC
006F014D
FE4C02A3
FD1DFEEF
007A0176
FFBEFEF5
FF4E016F
0004FFC8
FF6CFF21
FE1002CE
FF81FEEF
FE30FE6C
FEC9FE16
FED60048
FF33FF2D
FDA4FEAD
FF1DFD98
FE2F006E
FDE0FF81
01D100FE
FFE6010C
FFDA023A
FF49013F
FF24FF6E
FF49FFE4
FFB6FF17
079DFDEF
FF72FDB6
FFC20245
FF6F01B2
000000C8
FF330076
F82B00EE
007302BE
FEC3FEB8
FE74FF2F
FE93FEE9
FF6AFEF0
00E2FF87
0028FFB8
FF62FE8B
0000FFC1
FEB0FF3D
FFC3FF60
FFAAFFBE
FD17FF90
FF8FFEE3
FF7AFF01
FFB8FFFC
FFDC0067
FFECFF46
FF80FF89
FE59FEAC
009C017D
009C0068
FF86FFFF
006EFFAF
FF4BFFF1
FF82FF95
007FFF8F
FFD6FFA1
FFB2FF51
FF66FED4
FDCAFF5C
FF24FFBD
FFDDFFAF
FF280030
FF1B00E9
FF78FEEF
01CDFDC2
FF66FFF5
00040043
FF46FEE4
00140123
014301C7
0BC411C4
FFA20AE2
00FEFDAD
0320FFA7
00DD0051
FF4A0080
FF870049
FE7B002A
FF80FEEE
011F0056
FEC8FF21
0017002A
FFDDFF72
FF6BFBD5
FBF3FC52
0018FF6D
009BFF28
FF98FF45
FFA0FF54
FE99FF37
FD49FE35
FEB0FF22
FD7BFE9B
02DDFE0A
FF76FEE4
FE9900A2
FCBBFD64
0026FF3F
0033FFD2
FFE1FE20
01E80009
FFB4FF9D
012E003A
FE9BFF23
FEEEFC7D
0098FFA7
FD71FF96
FDA10266
FF4FFF33
0008FFBD
FFDBFF76
00670027
030500FD
FFE00582
FE850015
FF68FFF5
FE930011
00BAFFE3
FF77FECE
FF6CFFCA
FF2C0013
003C002C
FF9100BB
FFA7FF2F
FF78FFE5
FE53FEEF
00BCFFCB
004100CC
FF4DFFE0
FF5B0037
FFE40074
FF0FFF84
FFCEFF2F
FFBEFEFF
FFEFFFE1
FF12FEE5
FF9E00D5
0060007C
FF8EFFE7
FF8DFE3F
00E9FEFF
0166FFD9
FF22FFFE
FB6E0016
0139FF1A
FF5E00CE
FD1DFEF6
FF7DFEE4
FF9CFF23
0117FEA2
FFB9FEA4
FFFBFF52
FF26FEA8
0000FFEE
048800C8
0C920048
FAD3F33C
FFC10078
000A0156
00B9023D
FFD0FF8B
00FCFFC8
0099FF52
FF61009C
00980100
FF7C00C5
013EFFD0
004E0091
0142FFF4
0208FF43
004E027A
000AFFA2
004B00DB
007BFFAE
FFA3FF18
00360119
00AEFE94
00280029
0016002C
013EFEC9
01230027
FFA3FF95
0007FFCA
000D0012
013FFFB7
015801AE
02360169
FF8D0179
FF690176
FF9C0050
FFA20130
FF030248
0498FF71
00BB0002
01620065
FF2F011E
00FA021C
0066050E
E5B80300
020BF058
00B40382
FEB400AC
FF23FF6E
00430040
FFDFFF77
04A1FFBB
011101FF
FFAD00C6
003D010C
00A60034
FFD10006
00ED07CA
09B40980
02D80190
020E01ED
013A02FB
03A503C2
03480254
022C0620
031501DC
02CB0349
FDAD03C1
030B03BD
015D0136
041D0349
FFDF0084
006B01AE
0359048B
FF9A017E
00AF0166
0170FF9C
049100E0
041001F7
01FA0006
020EFFAE
045A0160
FFAD025F
009303BB
037B009A
072C00CC
19EC020D
0319FFFF
FE38FF01
FFB401D2
00F10419
FF0B01B7
0305FFD0
020DFF8E
FDF6FEA3
0117FF8F
FE1B0111
0209006B
00C600E8
FD6101AA
FAE8FDC6
FFBEFED8
FEFDFCE4
FBBF0049
FE22FEBC
FDCBFCC5
FC9DFF05
00C5FE10
FD22FCE9
FCEFFD2E
FE79FF09
00ABFDCA
FC08FD36
FF9FFB53
FD220025
FFE3007D
02BA00F8
020701CE
FF3102A8
FD190238
FCB1FDF6
FEABFEA4
FE330297
034BFBF2
FE19FC0D
FFE10030
FD4D01DD
0000FFE9
FFFBFFF7
000F000E
FB63000F
F8F6FC89
F9890365
FBC8FAD5
0267FC72
FAE6FA76
FB0EFA2F
03EEFBC1
FABCFE1D
03F5FB01
FC57FA28
FDD9FCC3
FD97FDD6
003E075A
F85FFDE9
FD0AFDD5
FF75FC04
FB24F985
F984FDD4
F985F9D5
FB78FF2C
FECFFA94
FF4A01E8
2E400521
11200205
0BB6FED5
0234F80A
FBA4FCFB
FAAD110C
046AFC2A
F8A2FBBF
FA6D00A5
FAF3FB62
F9A9FF2F
F7F2FD64
012005C1
FB79FC2C
FDFDFDED
FE9CFD9A
FF0EFF45
FFFDF9A8
000EFFFF
FFD60009
FC27FABC
0327F9E6
F9C7F81C
FDC4FABE
FA2B0266
FA00FBAB
FB52FB4D
FE9404AC
FA6CFA1C
F9BE057F
FC35FC41
FDC7FD64
079CFCBB
FD3D0047
FDBEF8CB
FB37FC78
F85AFF7A
FE3CFAE5
F798F934
0017F984
FA62FA85
01C6FEB2
04C4FE75
020E2DB0
FE8B1178
F7CC0BE4
FD890297
1144FC0A
FD10F9FB
FAED0457
0091F977
FA2EF904
FF1CFA85
FD4DF939
0613F680
FA6E004E
FC29FA32
FE8BFE31
FEEAFE75
F9BDFEDB
000AFFFD
000D0010
FAADFFF1
FA2AFC25
F86E0301
FA3AFA22
03DCFF8B
FD98FAC5
FBFCFAC0
04FBFD65
FAB1FEA4
0618FAC1
FCFDF9E8
FD43FCBC
FD82FE36
01F30756
F961FDAC
FCDCFE3C
012BFB59
FBC4F90C
FAE2FF3B
FB40F96F
FB7D0047
FCE5FB45
FCA0006F
2C680710
115401CD
0BD4FDF1
02EEF744
FC31FED7
FB4B11AC
06CCFE8B
FBA8FB2B
F98101FF
FBA9FAB6
FAA5FEEE
F770FC7B
008A075D
FB9FFA0F
FEA0FDE2
FD830020
FEE0007B
0000FA54
FFFE0006
FFF9FFFE
FDA70039
FF6AF70A
F9F1FE9C
F9ECFD29
FE84FF93
FE02FBB2
FDF4FE1F
FB470383
003EFD85
FEB1FD30
FC36FC86
FD7FFDAD
037DFD82
03740072
FB28FD02
FC9B19B8
1F84FEEC
1B4C0ACE
07F11548
2DA0FD29
00E305CF
FF3EFD15
FDF1F8CB
009FFCA6
0034FD68
FDAAFD68
00B9FAF6
FF6B00E2
01E0FD4E
FF45FB56
F9CFFB45
FBE6FF15
F942FBF1
F94702B1
FA9E06DA
FD3CFB0C
FD2DF8F6
FEAFFF5D
017FFA3D
0214FE1D
00030620
0001FFFF
004DFFF8
F762FD2E
FFE0FF88
FE03FA73
0091F8B4
FA58FFEC
FD45FDC2
047CFDB9
FD71FBC3
FD8BFF91
FC69FEFB
FDB6FC37
FD48FD16
009002F1
FCF9038D
19E0FB66
FF37FCCC
0B501F00
148C1C04
FCAA091E
05592DF0
FCDD0191
F82BFE81
FC50FDA5
FD71FF76
FD67FF8C
FA03FD16
008D00CF
FD35FF40
FBF401C6
FC64FFD5
FECDFA93
FD8EFD10
02BBF936
062CF83F
FB0FFA3A
F83FFD25
FF8EFD3E
FAAEFE9F
FE8B0166
06C602DB
0004FFFF
00020003
FE7C0051
FEECF714
FA58007D
F8D1FCBB
FF150124
FE10FB22
FD26FCC8
FD4103C2
0032FCD5
001BFE38
FC77FD61
FCB9FDEE
01CFFD1F
040A0032
FBB2FDF7
FDAF164C
19A4FFC4
1B440BB8
09BE13A8
2D38FE14
016D048F
FF06FD20
FD0DF79E
FE11FC36
FE0FFE0E
FC7CFD94
FFDCFA0E
FF56FF17
0116FA6D
FDF3FC93
FAD7FBFB
FDD8FF0A
F9B2FE9A
F8DA0197
FA7804C8
FD3AFB1A
FE38F858
FD8F0029
0184FA76
03D9FE43
00000627
FFF10006
00030009
FB95FEE1
F7E8FA27
FA8CFC1D
FBFBFD22
FCF4FCE6
FD71F8ED
FB92FDF0
FF16FC64
FDD0FE15
FA7BFCF6
FD35FB81
FBF8FE14
FA83FC7A
FCCAF92F
FCCDF8E2
FB4104AA
FED7FAF4
FC28FC92
F875F944
F8C1FD08
FCF40131
01BAFD74
0769FD0B
237800C1
0B2A2248
01D32C10
163424F0
0300FF51
FD9AFBE6
FB0DFF91
02FEFEB5
FA94FBFE
FA30FD7A
FCDBFD20
FD1CFA8A
FC59FD04
FD0EFBC0
FCB3FA10
FD58FD19
FFD505B4
00060AFE
0006FFF6
FEED0002
FB5CFB5E
FBF6F6EE
FD14F9CE
FD86FACA
F8AEFE64
FCF1FD0B
FC76FB27
FEBEFEE0
FCFDFD9E
FB87FA85
FDBBFD65
FC0CFBB5
F8C8FA8B
F97CFC69
04CEFC64
FAADFAC9
FBEDFEF1
FA00FC99
FD99F77A
FF33F883
FDE6FD14
FE6902A6
029B07FC
22D823B0
2C680C10
2498030D
FF5F1640
FB9C02F0
FE5AFD8D
FFB5FBC8
FC0A0391
FDBAFA12
FDB9FA5E
FA99FD2D
FC6DFD47
FC35FC2D
FA3CFD9E
FD4BFC14
05D0FD45
0C7EFFDA
FFD8000D
0002000C
FC15FF04
F953FC7E
F9E4FC06
FA76FD30
FF9DFF89
FDBBF942
FB31FC41
009FFD4F
FD34FF42
FAF3FD4B
FDD6FC32
FBC2FDA6
FB0DFBBD
FC79F9C7
FC95F947
FAC605BE
