0511
0840
F5AB
F7FF
FF7B
0447
015A
049A
FCFC
F874
009D
0176
F6BE
0622
FF96
FDE5
FF73
0992
FF1A
02DD
0076
FEF4
095A
E4DC
0461
028C
0365
056F
013A
0605
0145
EF63
0384
05B1
0575
0BC4
EE27
F3FF
00F4
FFF6
0518
00F8
053B
0247
0BB4
0740
1138
FAC4
0313
FE14
03EE
03F1
04DF
F96B
FD9E
FBB2
021C
FCE7
EABF
04D5
02D4
FE36
FE16
F6CA
FD2D
0405
F857
0199
FB4D
FBDC
FE6B
F376
FED1
00AE
FF40
F9E9
F9BE
FFA6
011E
FC43
FFFB
FE3F
0384
FF92
FD6D
F780
034E
06E1
F545
0354
FDA9
FEFD
F799
F7D1
012E
054D
FF07
F5E5
09CB
EF0B
F835
F560
FD25
00B7
028F
01DA
FBCE
010F
0161
022F
FBDE
FE92
0169
FDD5
FC1E
01FE
FF3F
008F
0278
FAA0
FFF1
FD51
F86A
01FF
FB53
026C
011A
FF9E
F339
E532
FA53
E301
FB05
EB9B
FEF3
08CD
FE21
03AF
12F4
FF96
F8D6
FF6F
0384
F8C9
053B
07A0
FCCD
09B2
20B9
014B
05F4
099F
0074
E1F6
0696
0FA9
0B94
FB45
F692
03CA
0190
0810
FA0F
0786
FE0F
F2F0
FCBF
FDF0
0039
0682
F99B
0038
FEE5
0A09
FA1A
01FB
00C6
0713
06E8
01E9
F048
036A
0434
FC45
0B4F
FB01
0CB1
08F1
EF00
0560
0F02
FE11
FF93
F303
FD0A
FA15
03C5
0160
FFB7
00FC
038F
0861
03B6
F85D
FDC9
07E4
02E1
0D68
03C3
FAB8
07E5
0152
0637
DE84
191E
00E5
EECA
0443
0186
0162
0106
FD22
FEAC
1705
FC9C
0407
0C9A
FD05
1C5B
0791
FD0D
F278
FCD6
F970
FC1D
04ED
FE60
FF6B
FF4A
FC97
FDCE
039C
00FB
F817
FE91
03E9
0125
FCB7
FC86
FDC6
F5E2
FF26
07A3
FC94
F093
06BC
0657
F432
FC6E
0167
0637
1137
026F
0557
02E9
033E
FC26
F4E4
0660
FF36
0492
FFC4
06D7
0623
FCA7
0415
E77A
12FD
0556
2BE9
0043
0DB9
065A
0C4B
05CA
FF4C
02F4
0FFD
FDEA
052D
0694
0383
F255
051A
0093
FE7E
F9F3
EEE0
F875
01ED
F55F
0399
FA1C
05D4
003F
056A
010E
F3EB
FE14
EFB7
078C
0ADA
EEA5
0151
00F1
F6C1
FD23
F76A
FC7E
FE27
02E6
0231
0469
F467
FD47
0240
FF55
0088
FBF9
0105
FE8C
FAB7
F6F0
F436
0690
17E1
FCCA
E0F2
FF18
013D
FF4A
10EB
F9CB
DD54
07A6
0268
02FF
0531
0005
FF5F
01B2
089C
F1F2
00D9
04C2
0112
F89B
FEF5
F7B0
FCD7
EF6E
FFA8
FEDB
0CCD
F7F0
02B5
0384
02C1
0138
02B2
01FA
01C3
FDDD
FE53
FF98
EF64
04E8
02E8
F583
0E8C
FCDC
FC6C
0237
01FA
F0F8
F1FC
FA58
15C6
0898
F81D
00A2
029F
FBC1
FC96
EF65
F490
FAB1
FECC
FB87
FB6D
FBD5
0001
092C
01D9
FE7C
04A7
080A
FE97
F4E1
024F
FFEC
068C
FFDB
F524
F6C3
FBEE
0071
0138
084A
F821
01EB
0E7B
0167
F8C1
FA9E
FF78
FA4C
0466
09FE
ED92
FE48
F196
FF92
0052
00D3
F9DE
0FAC
1012
003F
FC13
1D90
FF5D
FCD0
0209
13BB
209C
F834
F8A7
0510
0532
FB89
EF3E
FB44
FF27
FCDE
FD1D
FC58
F445
EBEC
0522
04A1
EE62
03B0
FBD1
FF9C
FE4C
05DF
FF95
FE18
F074
F325
FE87
0292
F848
FCD8
00A7
004F
0904
0DC2
0278
FB60
FF05
0664
069F
04B1
F232
F9C0
FBA1
0242
FB14
F94C
FB1A
073B
F9B7
0594
F16A
007A
FB04
FDF3
0130
FB0E
F3E0
FEAE
0312
02D8
F962
1450
FC7A
FD06
F24E
FCDF
00CE
01EA
0375
FB08
1318
F94E
F9AB
FF93
FEA4
01D9
0040
FB10
F78A
FA85
FD9C
FD51
F7DA
0291
F936
05EF
FDF7
F71D
0036
F6DB
FD85
026E
F420
F91C
FDC8
FAB8
F34A
0999
FD3C
FED6
016D
0463
F78F
FDE2
F9CC
FEB3
00DA
01F7
FE8A
F7F0
FEEE
FB7E
FD5D
F194
FFC3
00FC
FD16
FB7D
FBF4
00A1
FD03
0163
FBA1
00E9
FA37
0093
FD46
FEEB
FF8D
FA61
FA11
02B0
FD9F
F0B4
FDDC
00E0
0212
FE2B
0016
FAD4
0592
FB70
05CB
1D2C
0948
02CA
F559
0439
FA4B
06BE
FD5D
0EBA
F1B2
FB71
FC18
00CC
01DC
00A8
F2B2
FE5F
FFE9
F6E7
FD2D
FF86
0197
16ED
0798
06C6
FFCA
FFA4
F59A
10D0
00F4
0875
EFE3
FAD7
03FA
FDA0
03BB
FE05
0180
0089
FE05
FE98
00CB
FEF1
0AC6
0BD5
FFE3
F135
0F10
0126
F622
FEA6
07A4
029F
0A69
043B
E1F1
F975
01AB
01A2
FFDB
FEEE
FFAB
F778
02A0
FE96
0391
0660
FA40
0D95
0304
FA67
014D
0B87
02CA
FD02
06DE
00EF
0190
FE78
0636
026D
1342
F149
01AA
FDC2
00E8
FCAF
FD4A
0A00
F4F2
FC81
04A9
F942
FF68
F45D
F3BA
BBD6
FF34
0201
0404
FE6E
FDD2
0068
04A6
0374
FDDC
02FB
FAEC
FC52
FFFF
0255
F752
0559
FAFF
009D
FFC6
FA9B
FF57
059C
0863
FF77
FD89
F88B
0180
FEF8
022E
FEDC
00DD
0282
0201
005B
FF13
012C
FE83
FED8
023D
00DB
0397
0107
091B
FC07
0306
0073
FE5D
FCC6
0290
0322
01B5
0149
FD68
0184
0300
0339
F614
0088
011C
FF3E
FE46
F8F6
0192
FF07
FF19
0008
FDD2
02F4
FED6
F7EC
FCF0
FB5B
029A
FB4B
0272
FD34
FF66
0244
FBB9
0067
FE10
035E
FE43
0258
E66D
FFE7
F61D
0093
FFB3
031A
02C2
06DA
062B
F44D
F530
019D
0866
FC60
F14E
ECD3
018B
FB59
0384
EEDF
FE69
FDE7
F147
F8EC
0615
04FD
09C3
022F
02F0
09CC
EE6E
0075
0341
06E7
FFE0
FE10
F377
005A
FEA2
07EE
F041
FD14
0424
0C69
070E
F7AE
0584
0274
0956
025B
FBD5
FBF2
0086
05C4
FBA1
0E26
019F
FF33
0009
0664
F4ED
0309
06AD
0034
FE8A
066F
EBEE
014B
FFC7
EB81
070E
FFC6
FE10
0330
FEBA
0245
02F0
FF69
0301
FD96
01EF
0166
F531
F630
FCC1
020A
F7E1
0190
02D7
FB72
004E
FB19
0198
FC04
FEAD
0385
F1A3
0691
FFFA
FD37
FD4E
0018
FFBE
0047
0229
FCFA
02BF
01B5
0517
035E
FD27
FEA5
F63C
F439
F921
023A
0392
F949
044B
FE37
FFB5
02EF
FFF5
FF37
02E6
FDA0
008D
FD91
F2EA
0959
163E
FBBE
FF40
F7C8
FD1B
08BE
F537
FEB6
FE95
F6D9
FFE6
F532
FC01
01D2
FD43
0D60
FCD2
04E7
FC15
F6B2
0306
0598
00B2
FD8F
F8A1
F3ED
FF5F
03EC
03A1
FA86
FBC3
26A9
F2C1
FAF7
E65C
FB36
08DE
FEC0
0077
0175
F674
FAB5
024E
019E
FAAA
049A
DBE3
F667
02E5
0287
FF61
FC29
FA4D
F984
EE4A
0206
FE9B
F741
FD85
FEC9
0345
FCDC
FF82
FB07
F3A0
01F0
0168
FDA2
F74A
FE40
FC4E
0008
00D8
01B9
0042
FE2E
0307
00B4
0181
FAC5
FE02
007B
FF0D
FE8B
0216
04B6
0578
FDC6
0257
0489
FF22
0198
FC6B
FE95
0349
0262
F86F
00C9
01B6
00B1
FD03
0170
FC14
FA01
03B4
F869
03D7
03D4
FE0F
FEF8
FEFA
0130
0205
FC4A
FD10
00E2
062D
FCD7
FE2F
FEF6
FD08
FC4E
05CA
FFE2
F865
036D
FB81
FF97
0832
FEBC
FDDB
FEB3
01C3
0721
0C39
07D3
F9E3
02A3
0871
FCA6
FB30
FDDE
0332
083E
FC4A
0492
00B9
04C0
0F02
0106
FFCF
FC4A
03B7
FAE8
F65D
051C
00A5
FF8D
FB74
F76E
E8D5
02A7
FE32
FD1D
06AC
0337
0060
FD7E
FE8D
FED4
001A
FF01
009B
0004
FDAB
FFC7
068C
0187
FCD6
0259
F9E0
01A8
FDE3
021A
0276
00C7
040E
FF65
FDB3
0B5E
FA1B
FE8C
0C1A
021F
F307
04FB
0437
FAC0
FE52
07F4
0563
05D9
E9D0
0562
0609
067A
0101
F719
00D2
0E86
0985
0985
01FD
EE0D
FD58
036B
FAC6
FD24
018A
EB1B
031A
048E
04B7
09D7
017E
F64A
FD4E
F981
0A7B
FA3F
02DA
0F43
FFE0
F834
0316
F1A8
123D
FFA1
0439
0574
F2CE
F5D2
0083
0140
00D5
0BE4
05C5
0853
F615
09ED
057F
FD81
120C
F81C
0514
FDC4
F74D
FFB5
0228
0A87
FB6A
FE3F
FB3C
FEFC
FCEB
FCCF
FF15
002A
03AF
02D6
FBA8
FD14
FE5C
01AF
FF87
FEA7
010C
00B0
0029
0394
FF31
FFAE
FFE0
FCDC
013D
FE43
FC13
FF0D
E49C
FF4A
EE4E
04BB
FE99
00B8
FD5C
FC8C
FF6F
0261
FF8F
014B
FD04
0163
090B
F99A
FDD3
0029
02A1
05C5
0345
FAE2
FEAE
FEC6
003C
FE0A
01EE
0063
0052
F4BC
E1F1
F95F
F49A
F4D6
0DC6
02DB
03CE
0033
EAB9
ED5C
FAB6
0B60
ED77
FDD9
07A9
FEC7
0204
0247
0314
0585
0804
0689
FC95
F657
F443
0380
FBD3
0191
0C46
FF23
00D8
03F0
00A9
087D
0271
F8BB
097D
0125
00AA
00F0
F63D
0113
04EF
F626
F8F3
2034
09AF
FE6D
0119
FFE0
204A
FE91
0B38
FE4B
0175
0277
FFBC
0139
01D3
1229
1BC4
F9DB
0B1A
F540
08FA
0034
FEA3
FFB3
FD60
FD6D
FA1D
00D2
FC4C
FC54
01E0
0072
02C3
01A6
032F
01F9
FE7D
0041
0356
FCDD
FDE2
FDD7
F552
02C7
FD3B
FBC5
FB56
0230
FE0B
FF41
FCFC
0196
FEE8
067B
0215
0079
0865
FD15
FF84
FFCC
FF9C
FB5D
FEF5
FB27
FD1F
0511
F9A6
0293
0237
06B2
FFFE
FF33
0018
00B7
05B3
00A4
F995
FF55
FDCA
FA38
FBEF
007E
F7C9
F4C1
0C5E
00C5
FB40
F70C
18C1
FE99
0179
FEFA
1797
19F3
07DE
FB0A
0443
0781
0013
FBC0
FFF0
058B
0026
FBD5
FCE9
072C
090C
03A0
F34F
FF4C
02CF
0127
EFA3
012D
0424
FE3A
02B9
071E
11D6
0769
F455
0735
014B
FEF5
F004
05B3
0471
0C3B
E9F0
F88E
01D4
FFF9
044C
02DF
0406
EBB7
F977
012E
003E
01B3
012F
0281
FAD2
E645
FAE5
FCA5
12C9
03E8
FF5B
0049
F01B
FFF3
FFEB
FD59
FD8A
FFB0
FC02
FB78
FD10
0306
FFD9
FF5A
03AA
0168
FE0C
F8C1
01DB
FB85
05FD
FE73
0300
01F0
025A
0053
FF76
057F
FF98
FC27
FE77
028D
FF87
FB87
F6EF
0171
FAA4
FFCF
0090
0257
FBF4
FE5A
FF92
FD6E
03A5
0636
002E
0381
030E
FCDB
FD1D
0009
024B
01AB
027D
021F
02CB
02F6
FFB3
0293
018B
FD8D
04F3
F4B6
FE7F
0064
DA88
FC84
E44A
FBE5
FE67
028B
0A02
F285
F888
FDD1
00C1
0537
FE21
FB2A
05CB
0367
FE4D
01B2
FB19
0186
02B4
FFD0
1233
019B
01AC
FED5
F7B7
FF3C
FBB9
0230
FF62
1847
F2E2
03FB
FF21
FCDD
FEE3
049A
043C
FDBE
05D0
FC0C
F803
E02A
17C9
01D8
03C1
FF6F
FEA7
FE6A
0862
FFA1
0047
F8A9
FA30
FF39
0108
FD60
0981
0B49
FCE2
FA6E
0591
FCDA
EF37
0428
056C
00EB
00AA
00E6
083E
06D9
FA2D
FEF3
FCE8
FCAF
F785
FE8C
0397
0616
FF63
FCDD
0896
FC1A
1E42
0CBB
0CF8
FF65
FFBB
FFC3
0553
FFC0
E7C4
FA5E
FE96
0456
FAC1
F885
F8A3
008D
00A9
0218
FC19
FCB3
081E
0278
F307
F62C
FD7A
FFF6
FBEC
004D
FB8F
0811
0138
FFE5
010B
FA9A
FB91
06D6
0290
F662
F72E
FFE9
FF68
1B76
0900
02C8
0CF1
0FF6
0DB0
02AD
010A
FF2A
FD2A
F55B
EFD2
03AF
FE94
00CE
08E6
FCC4
FE0B
02A3
041E
D185
0490
0264
FE73
0052
054E
01DC
FC66
0412
FC60
0037
04D2
FF92
01B4
F693
0122
0086
FFF7
FE80
FB6F
0074
F445
EDD9
08E6
0BF8
FA31
F940
0DBC
005F
0513
FEEA
EB05
04BE
F71F
04F2
08A4
CEC6
F864
F9AE
01CF
F87D
D231
FE1F
05F9
1132
0938
EB9E
0FF2
037F
FF9D
FE74
014A
FB18
F293
F28D
FDC8
0777
ED6F
F895
FB4F
0AF5
0753
00BC
03C1
01FC
FCFD
FF09
FF23
F794
0374
FF84
025C
03F7
053D
096E
FDA5
F856
FE83
166D
E8CA
FA0C
1411
00D7
007D
09E1
0332
1BF0
FF1A
09FA
FF30
0F4A
F950
FE30
02C5
FDAC
0390
0784
FC18
00C6
FAFA
FA9A
FA46
F517
07FC
FB06
FC93
0087
05EB
0A04
FCCC
2616
23D7
01C9
084B
04EF
02AF
06D1
05E6
05C7
FF99
EFAD
F9B4
FE9A
048C
FB40
FA9D
07AC
0142
12AA
1C3A
F3E0
FD8E
0618
040C
FF56
F551
0047
FCFC
FCCC
0454
05E1
0497
0047
0CEA
0861
177B
F523
041F
F9F5
02FD
069E
ECBC
F65F
061B
0810
FAD4
0284
0497
0366
08CF
0AC6
0303
FFB1
EB23
0308
F95D
136D
EBFA
0016
F546
07E1
FCCE
028C
FCA4
FFD4
F2B9
00AC
04B2
FC55
DB0E
0234
024B
057F
FE7E
04C2
FFFB
FEA9
024A
FF87
00AF
0553
0018
FE6D
026C
0070
FB88
0075
041B
062C
0042
03E3
045D
FF4A
FFD6
FFF3
062E
0664
FBA7
0271
090F
00E1
0199
0119
FF2C
03D8
03FB
FE76
0538
02B8
012C
FFA6
F4C6
FCDC
02AD
0329
FDD0
F7EE
03B4
0201
0005
01C8
0082
FEA5
052B
010D
02E8
0059
F88C
FFD0
03D9
00D0
FC02
F846
02B9
00C6
FE02
FC7F
027C
0068
FDDB
00E5
00C8
02D9
FEC9
F7F0
FBC8
05EB
011A
007B
056F
03BB
FEBD
F41A
FFB7
FB4A
050F
020E
01F2
0197
FD1C
F9DA
EEF2
0031
F3C0
005D
0154
FF10
FEC8
FD57
010E
0235
FFF6
02DE
0015
009F
00A1
050C
0080
FF70
FEA0
01F2
0101
000F
FDB2
FFB3
FB84
FD32
0011
FF5D
FD5A
F2D4
1779
0800
13AC
FEB8
0801
02CF
0810
0B93
0254
F6B5
F476
05CF
00F9
0175
0706
FBE6
06FE
FE63
089C
FAF7
FD07
02C3
F82C
FA54
077E
076F
03C6
0CF5
F88D
FAFF
0B3B
028B
054A
FA91
FAFF
05F4
0114
FC38
0088
00B4
F109
0170
0587
1117
0E14
F19F
FD16
01E8
07B7
070B
DFC5
0601
F8EE
0473
0AE9
EB5B
008E
FE9A
0B4C
FDBB
03F4
09AD
018B
0265
030F
04C1
E41D
01DA
04DC
F0EB
05BE
0386
074B
034A
FC86
04D0
065A
FEA9
01CE
FF36
029F
0440
FCBD
040F
0356
FFEB
FCDB
01D5
01C8
FE54
FFB5
F9F9
FF04
FA90
00FB
00B5
0000
08DE
FB00
017D
0208
02F2
0018
01BB
019D
0756
02EC
002F
008B
03FA
01E8
0103
F6C0
F3B1
013C
0083
FF17
FF42
00E8
FE66
FC46
05B3
FE21
FC3F
029E
FA87
01D6
F754
ED22
F903
0D3D
0710
F5CF
FD5D
FF49
1027
E826
0258
1071
F56A
065F
0344
0995
0187
FE56
1689
FD2E
019E
FAB6
01A5
EFB5
04C9
FD1D
0273
FB36
FBFA
1866
0933
F4C5
F869
FDC4
FD9B
F551
0235
000C
0739
0113
F621
15D5
0CCD
FD40
FCEC
F3E1
06C8
FAEB
0208
FEA4
FA82
F7F7
E4AB
F257
F7DD
09BB
0197
F5AD
FB21
FA00
FEF9
FFB6
EC02
0F50
0263
FE3F
FE6E
FCEA
01AF
01F0
FE24
FDD8
076F
0434
06E5
FBBC
028D
0368
FE4A
0421
0379
0131
0568
F3F2
0157
0103
022A
04EC
02AF
0565
F48F
FFE2
FA49
FC2D
FDF4
0048
FE7F
FF82
036C
F37F
FE7D
00FD
00ED
01BF
003A
0202
FE17
0095
FF48
FF4A
02F3
FD1F
FFF6
FCA2
05F2
003B
00D4
00FC
FE27
018E
FF8C
FEE8
024A
001D
01B6
021F
0104
FE21
0206
00B9
0045
FECE
006E
0137
0352
FF67
01B4
03AA
0572
FE0E
0351
0336
0042
00B1
FCFF
00AB
0354
FEA2
FD1A
0248
0107
F804
0170
0441
F8B8
00D8
F7F6
03DC
FF21
FF65
0268
FE25
013F
F1FB
FFBF
F763
FEAA
FF6E
00AD
FF3F
FFED
0201
FDFF
034C
00E3
FF00
FF74
F91B
0262
037E
02C5
0154
FC63
0107
02BC
001F
03C1
00EA
022D
0403
014B
01AC
FA46
F9D2
FBBC
F5E0
FFE9
FF0E
0087
05A7
FA45
FCC2
F8CC
007F
04F6
FDF2
FE9F
F7AC
06CF
EE40
FBE5
0221
FE7C
0C6F
F337
EC0F
0983
FDCA
048B
DE8D
FFA0
0428
0068
0907
075F
FEB2
017A
FE9E
01FA
FB42
01B7
F4B1
0EF7
FDF8
FDAA
04A4
01BE
0093
0017
FE96
020A
00BB
0045
FABC
012F
02B3
FE95
F539
07C0
FF04
F881
FE01
FD28
FF16
0659
FB88
04F7
0053
FCBE
FFD9
00FF
0207
F840
0339
0392
01B9
FEB2
FB38
FFAC
FB51
FCE5
FDB6
003F
0267
05AA
F574
02B1
FDDB
0135
04BC
015C
011D
0653
0071
EC78
0450
030F
0073
023E
FBC2
0BA3
FE21
FE5D
171A
FF40
031F
03DA
0127
0104
0420
FD5A
0229
0189
002B
FDE2
F68C
FBC0
02B5
022C
FE69
03D3
FF04
FFA1
FD8C
FADC
00A4
FC5C
00D3
FDD1
FB40
FE48
0098
0346
EF73
0333
013B
F521
F71C
0265
0850
026E
FCE6
04E6
05E9
FF23
02AD
FC7F
014C
013F
F7AD
019F
0498
0232
FA10
01F8
01E4
0657
0009
FF1A
04AB
FE99
0098
021F
0513
027C
FEC4
FD17
FC54
01B4
FE30
FF7B
FECD
051C
01D1
FC7F
013C
0128
FF0D
016B
F640
0072
096E
02A2
0114
FDA9
02E7
FC90
0181
0662
FE1F
FD0C
023F
03BE
013B
F6B0
057E
0165
F4C1
FE03
0626
0499
0132
FC06
F82F
F965
009C
0427
FF0E
0049
05AD
050B
0056
0065
026C
00ED
FE7C
FD16
FA42
05A8
0239
FFFA
FF3F
04CB
0092
022E
FA46
016F
0272
F993
F1A6
FB5A
016D
FEAB
FD4F
FEAD
01E0
F716
FC6B
FA6A
FAC5
08FD
FBC3
03D4
0A1E
0F2B
007A
036E
053E
0BA5
0486
FBDB
F90D
FE5B
FD33
0249
FD4A
FBFC
F981
FDD0
FCAA
0356
0C3D
FE9D
FB68
FCF4
002F
0145
0116
FB37
FFE1
FDDD
FE25
0030
FE4F
022A
FDBF
FC8D
FE84
FB0F
FFDB
006D
08CD
00D6
FD90
00C2
FEFC
FC94
FF40
01A2
FE3E
FD81
01E8
FDA8
0140
0166
F7C1
0178
011F
0084
FE80
F763
FD76
FC00
0161
FDB4
FF01
0050
02BC
FFC2
009E
FD00
FFF9
0092
FEA0
0008
FBD5
0195
FDDB
0261
00D6
FEC7
FD85
02B2
FC14
F3AD
08F1
02A2
0FC9
FD5E
024B
0F38
0D61
0E3C
F7EE
0C4F
0224
FAFF
018B
0D66
03C1
0C40
086A
F592
FB96
01CC
29A2
01C5
12A1
0261
0B78
FF27
F215
FDA9
150F
FF9A
FFF1
CE42
FD8F
0096
032C
FD85
041F
030E
FE62
FAA7
0021
0585
F85D
01A7
0465
0749
0B10
0297
0761
FA04
0006
FF42
071F
0D9B
F736
FC0E
0FB0
035A
0A66
02A0
0100
FE56
00E6
FDE0
02C2
0132
FE68
029D
00A5
0022
FE50
FAC0
0260
FDF1
0176
FFE9
FE1F
01F1
02B8
FDD4
02DE
009D
00F9
008C
0B6E
070B
FEA8
04FB
02C5
F605
026E
0449
FBDF
FE70
FF03
01BF
DB00
00C7
0614
FE47
0060
016F
FA79
F9CD
0508
FB48
0014
01DB
FD59
01FB
FD6D
FDD9
FB0B
FA80
FD06
F79B
0124
0076
FFD4
FEAD
FF45
011A
FC9C
0279
FE2F
029B
0B9C
EC79
05E6
032A
0E79
00A2
0844
063C
027C
1085
F1F5
FAB8
F997
0598
FB02
FA54
FFBF
FD0E
0923
042C
F982
053F
D5BF
E505
0C33
06D9
F4CB
0760
04BA
EB07
DCCE
F954
0845
FC5F
0EDB
FC46
011A
FD06
0087
1488
FF82
F66D
0A19
02F1
05CB
0275
FEBC
04E1
0778
0620
FC36
04DE
FC92
0019
ED8F
FB16
FE7E
0569
0CE8
F9CC
001C
0CB8
FC8C
FF01
F5CD
FE65
F9E2
FEED
F7B4
FBCF
FC66
FEFE
02E2
FD21
FE66
FBF7
04FC
0087
F7A2
FFAC
FED2
FEEC
FA7D
F331
F8AB
FE4E
11AF
F503
F9A9
FC45
05A0
FD55
03FC
F49E
0B3B
0143
FC5F
0CA1
FFBE
FF13
F276
F8F5
04BE
01B5
032E
0031
F63C
FDF4
0526
FE3E
03E8
FFDA
00F4
FFEE
FF80
F97B
F98C
0290
F5E4
1802
012B
FABD
FE17
FC8B
F85F
0A36
FFBB
FD51
0077
FA22
E4C2
FE7A
FCAC
F854
FDCB
FA9C
FF5D
F795
011D
E02A
E784
005E
1BC3
06AE
02D2
0651
FFDD
F602
230C
E725
FD78
11CE
FCCE
FFFA
072D
006B
F9B8
0368
F0F1
0EF2
FAD8
0BC0
F183
EA2E
EC8C
0736
002A
125A
F8C2
EF19
FDE4
0246
FE1A
FBA0
FD76
FEA6
F989
FF13
F3A7
FDCD
FA13
021A
E806
043E
FD9A
195E
F980
FEB8
FCA1
1562
FF23
00E5
0121
FC99
046A
01A4
0270
FE0A
03AF
03C8
0BBA
009D
FE36
0B6F
F9F3
FBC0
EBB0
FD92
F8D8
013C
02DC
05A8
06AF
E158
CCCB
0CE5
FD25
0298
01B2
00ED
0020
FD63
F30F
0991
0232
0A4E
FA9E
E409
0826
05AD
FAAA
063F
FF32
FF78
F622
FCD8
01B6
FEAF
0569
0212
0A45
014A
FB96
027C
0334
0046
0C19
FC9D
FFD7
FAC4
FD42
FCDE
0861
E71F
FECF
F72C
FAE8
FCBB
04C2
FB3B
D924
03EC
0134
F96F
01BC
F754
FD6A
FB87
02E8
00E3
FA75
068B
FEA3
FADF
0136
1043
0183
FE94
0090
FFCB
FB5A
FE36
00CF
03A0
F31B
FAE4
FE83
FC6A
FF1B
FC81
F497
FE57
F940
FE1A
FF7E
FE40
0264
0400
FDC1
FBE7
07A2
FE7A
0048
FD27
F912
FF22
FF20
F5CF
04B2
FE46
FBE3
112C
020A
022A
FE7C
0FA9
F5E9
04A7
FE10
FD6A
FDDA
006A
10AC
043B
0CB9
F529
F35C
088A
0792
E797
FD99
F3ED
FFD4
00B6
005C
05ED
F64E
FEF6
F30A
FF2A
F7F7
F81C
F53D
050F
E9D5
F642
F3A0
F23A
02FA
08AA
F4FA
F48F
F3B7
0B0E
E1CC
073D
FF5B
00A3
0478
FE96
F429
0AE6
FD82
011C
F9A2
F0EA
0992
FB66
F891
F8A0
FAEF
00AA
08FB
F46A
FD57
FC0A
F4C5
FD26
FA7F
1B37
FC0F
010F
FC11
F0EA
1A4B
02E4
085B
F743
F65A
FC11
FB07
FC03
FD73
026F
0158
01F4
FB85
FF19
02AB
0298
FC37
0C8B
FDE9
EF06
024D
05DE
04F5
F6EA
FF6F
FB30
01FB
FEB5
C7BB
F0B0
002C
F999
FEDC
08DB
F927
FE5C
F256
0141
FBA9
FEAD
1002
FEE7
FA91
1F80
0651
FA11
0418
F96B
FC2E
0068
09FD
00A9
01EC
FD41
FF72
FE59
0070
027A
FB68
E0D9
F7EC
E8AF
E803
FCF5
EC20
F660
F141
00FF
0054
F86C
04F6
03AC
07D0
0CAF
F4AA
0583
F9E9
0092
0166
FF46
08CC
05AB
03B2
0D05
F53B
0384
E8CC
F8C5
0DB3
0300
014D
074C
052D
FCD2
0392
0429
032B
08C9
0180
F842
F6DA
FD95
03B1
0260
FE22
EC45
04EE
E946
06BB
FDEF
FE07
0067
0332
02FC
F95F
FAC2
FC2E
03F4
061F
FBD4
FB42
FE94
0BEE
FDFE
FFFD
FB25
0331
0889
0B8D
FF5C
1127
FAEC
FACF
FA79
0120
02BD
FE15
ECA2
F303
FCDC
FA63
028D
FCF2
0006
FE12
0115
FE91
0035
022A
FC53
014C
FE6B
FD6D
02BC
FA90
05EC
FDC2
FC9B
F5E5
0006
FD02
1129
FBDD
F836
FF54
004A
FF0E
FEA9
FCCD
FE9F
049A
FDC9
0892
FE74
F966
0222
FDF9
006E
063E
FA36
FADA
00BB
FCFC
F10C
FE6A
FC42
FF99
0100
03EA
0AD7
F9AD
FA35
02D5
FD98
D397
F207
F8E2
F9A8
041F
087E
0847
022E
0502
038D
0574
0709
0028
FA75
0048
0516
04E9
FF77
FE88
FF29
015F
0740
0CAE
0549
FB52
03FD
FF2D
F9FA
F5BA
00CE
0350
FADA
11E4
FA3E
F02B
0452
FEBC
0683
0948
0604
0528
FC89
08AA
01F2
0B30
03A5
074D
009C
0E82
E04D
019C
FF51
FE33
0427
FF13
0534
03C8
F2D8
0A9D
0ADB
0B72
FD6C
0453
06E3
0932
FA4F
FBE0
04AF
FC04
FDB0
F6EA
0E57
F535
1E02
09D6
02CE
0C2C
0761
F169
FF7D
023F
FE30
F022
056E
F2E9
0556
00F4
FF4E
FFF6
FF57
038C
07E9
00B4
02EE
FA4A
FF1B
FF43
0E4A
E475
FC30
F916
FC88
017D
0383
0996
FE9F
07E2
07E0
F682
011F
F6AF
FBCD
0E26
0CCD
06BD
02AA
1DCB
0D36
FC14
EDA9
E2DD
0021
04BE
0D5F
FC23
01E4
03F0
FBBD
F991
0142
051C
0001
0848
01D2
FD9A
090B
FF6C
FA78
FE0A
041F
04A0
FC5C
F024
FEB1
0473
0230
F8AE
FD10
E2C6
F93C
07FA
053A
09FA
0188
049C
FE17
02D2
038C
01C8
0039
0853
F46E
0C3A
FFDC
00EE
FC74
021F
FC53
1608
028D
0455
FEBC
030E
030B
0515
02CF
FE6A
0094
FD19
0012
D845
02A0
FF6F
FC1F
0476
005E
03E3
0AB1
00D0
FC6B
0192
02F4
FD70
005C
0235
01B8
FB5E
00D9
FF33
00FC
FF66
FF3C
0113
006D
003E
FED3
FE4F
028D
00BE
035C
FD4A
FE52
033D
0039
0379
FCC2
FE16
0434
F9B7
FB75
014A
01CA
FDAE
FBC4
044E
F9CF
F0F8
FEB0
0065
FF21
FE73
0008
FF98
FCEF
014C
0285
FD33
0169
043F
01FB
0278
FF5C
FFEF
FFF7
01A9
FC1D
FC3A
FF94
02C7
005C
0229
FF7B
04F3
029F
0832
09C0
FEC7
0486
059C
FDEB
FD7F
03A4
F909
FD54
F416
02F7
00A9
F9B1
04AB
0596
038A
0A71
FF44
0564
0051
FE91
F41E
FE0D
0670
FD56
FA3D
0047
0067
F580
FF8A
01B2
0049
0C42
F5CE
F673
FDBB
F942
03A8
FFF2
F645
FE6F
FE8B
FE23
FB1E
1014
FBAE
0560
FACF
016F
FE7C
F7D5
FF0E
0257
0DD6
0099
ECE7
0077
FB76
FB50
F7F8
F888
0250
E1F0
EFD1
FE22
E46F
07BC
0215
0480
013E
019E
166C
08C9
FF5C
FF67
F7FB
021C
06DD
FCA4
06D6
0380
0462
06A4
0665
FFA3
0ED4
0279
0578
009E
F7EA
0792
1924
01E1
042B
01AF
0195
0EA6
F26C
FFA6
F9A7
004D
014E
040E
0AFD
FE31
06FD
EC81
F44B
F05B
FB9D
FCDC
04DE
FFDB
089C
FE7A
0FB4
0699
01D1
FCB9
0019
0586
06FA
03BD
0463
0403
EB9A
FE1C
0303
063C
EB27
F8E2
FC93
F897
F870
FE75
FEA2
F5D5
FBEB
0303
1222
0092
F99C
015A
F4A6
0504
FD10
FCFF
FBF9
0661
0971
E5B4
FA45
F807
F176
FFB3
0018
115C
0172
049B
FAD5
0F8A
F554
EE9A
F68D
0300
0F34
F358
FB26
E29F
09AE
01F9
FC4C
024C
F6B6
FF77
FC7D
F9EB
FD70
FA5B
F652
020C
FF3F
FF90
F3B8
F444
FD54
FD00
F3B4
0731
FB35
01F7
0141
033A
E3F7
FF9A
0476
F83E
0608
042E
0871
FE34
FFBF
0592
0431
FFEA
079E
003A
002C
0497
04CB
06C2
0346
00EA
F92B
FEFB
0085
FA8B
0020
EF08
FF0D
FA71
FFB5
02FE
FEC7
08B6
F211
0270
0203
020F
FFCB
022F
FE84
FD98
0416
0195
FEE6
069A
FEC7
FF6B
F66C
054A
03D1
0490
00FB
FA9C
0251
FDA4
FD68
0620
FFB4
FC8B
027E
FE8C
FF9B
0486
0074
F02F
0835
FE84
0390
0279
FC59
F919
060D
009E
F9FC
E530
E4AB
FE29
245F
09B1
1FA0
FD2D
FF33
09A3
0D6E
03EA
0A4E
FF94
0598
FAFE
01BE
FF5C
FBF2
05DE
FF83
EF49
FFCA
18CC
037C
F7B6
FFEF
03BF
FB34
EC50
FAF1
06D1
FDB0
FC94
0AD9
01DB
015D
FDA7
FD75
FD4A
05B2
095F
034E
FECA
111E
054C
02E9
0807
0338
01FF
EF1E
E8A4
0386
FD19
FE81
FE16
085B
0150
FC95
FFC7
FD18
01B4
024F
FF66
FD27
F960
FEF9
FF00
F8F2
FE27
FE41
040E
F459
05BA
FD65
01B7
0A23
0250
FFD5
F729
0007
FA7F
FEE6
00FB
01A8
FF91
F9E8
03B6
F32C
FD9B
02AD
011A
0221
0153
FB72
F90B
033C
FB14
00A5
FDB6
FCE7
FE0E
F68D
F88F
0320
F9F8
F7CD
FC2B
FD0A
0018
FF9F
FCE2
00CE
FA26
0179
052B
FF74
FF40
FF07
FA8A
08C5
FAD7
FBD6
FAD7
0091
018A
FF27
FE5F
F58E
FADB
FCF2
01B7
FB6F
0103
FF82
FFAD
0304
01B2
0F20
FE97
1C38
099F
FDFB
0146
FDE2
0174
FFB4
F63D
EBAF
FAFF
0462
07F5
03C4
F984
0135
04B2
0188
005A
0409
0277
08B7
039A
0699
01D7
FAA4
01EE
01FC
0124
02D2
F420
F9C5
FF22
F8CB
09BE
FCE9
FFDF
0DDB
F8DA
0256
0EA7
039C
FE26
FE92
02A5
F171
FEFF
FF3F
FFBB
00BF
FF7B
068E
009B
0247
0493
03AA
027B
04F7
FFB8
FFD6
0235
0074
021E
044E
0050
F6F7
0292
FECA
0234
00E6
FCFF
0004
FD93
FF54
01F4
07AA
FE20
13F8
0107
FBE7
009D
FF05
0150
FF84
0016
00AC
0156
0252
0138
FF05
005E
FBAD
06E2
0375
02FF
0180
03C0
04F4
0355
FE59
04B4
00A9
0121
FEE0
04D9
FEFB
01F5
02EA
F814
0AA8
F90B
FE66
F750
0382
0153
0026
F9B2
F5A3
F7A4
02FD
FF7C
FB7B
0151
FFB8
FDF0
FF35
F6CF
EC5C
0AC9
06DA
F15B
056B
FF6E
00D7
01D3
FEEA
FA9D
12F7
025F
0258
0E5F
0680
07D1
0501
FB20
FF65
034E
007E
06EF
FAAF
FA32
027B
F81F
0028
016D
FE63
FD54
0244
F990
FBC2
F9E3
F48E
EFF5
FCC0
000F
FF42
F30A
08AF
F8A0
0013
0032
FCA1
FE6A
081A
00AF
0129
048E
03A7
FF39
004B
0373
0062
011E
FF7B
0253
FE29
FF87
0155
FF25
0684
023E
FD14
0018
0354
02C9
0347
F995
0208
0AE1
03DF
0139
FED7
008F
0548
00C9
054A
FAC7
0D33
011C
FEB2
FFEF
FCD5
FC63
0339
FF4A
037A
FDBD
FF40
044D
F8AF
FD72
FDAD
FF86
FEA5
F4FC
00F7
02A0
FE60
0037
0169
00B1
018B
0155
FCC2
020D
0022
00A7
00BB
FF91
FF2F
F910
FD02
02CC
FDE8
021B
FF30
0369
03F4
00CF
0244
00DD
001F
0442
0739
FF83
0014
FD3D
FE63
FFA0
0257
0742
FF4B
F875
FA6D
FE47
000F
0386
F57F
FF9F
FBA1
F7E2
F51B
FEAF
0448
0011
FFE8
0104
FEDE
023E
FF14
02A4
FE77
FF3D
0122
00CD
FEB6
00D2
0233
06FB
FFAD
00AF
FFCF
0401
FE0B
FE2E
FFA7
FE8A
020E
FCDD
F9D8
FE08
F4D0
016C
0374
FB91
F71E
01AD
0293
03B5
FD9A
017D
FA3C
0398
0160
000D
03C3
02E8
0B50
01F6
FFC1
02C7
05F7
02EC
054A
ED5A
03E2
F48F
04BE
FCDC
0198
035D
0182
0A71
10CE
FDEA
0F6F
0370
FE4B
00EA
04BC
FF4E
0546
FD5E
02D1
01B1
004C
0280
F821
16BD
FEDD
FE48
FE95
FE82
016D
018F
00A8
FE56
03ED
01E9
057D
00CD
FE14
0D10
FCBF
08D1
F907
086B
047F
0309
0075
FA50
F4C1
FFF8
0E12
06D9
0D1D
FF77
0621
F346
FEF2
F13A
F598
F0D2
F576
0263
0558
03E2
FCBA
FA65
FCE0
02C5
F489
FF86
FB28
005C
FC9E
F513
F89E
03E1
D8C8
ED52
FADD
F86F
FE8B
F97B
FABB
0993
FAAE
FC58
0C20
0C79
FB1F
FFE4
F3DA
06CE
FC96
0007
0172
FFF8
FEC0
FB39
0399
FCC6
F9BD
FED0
F87F
ECDF
F73F
F961
DBFD
F21A
FC7F
FFB1
014A
F593
FA17
0607
1352
FF26
F81C
0325
F9B1
F7C4
0226
0A0D
FFC2
EF72
FD66
0447
FA64
FB1B
FCCE
FFAB
0153
0457
0F7D
0354
FBBC
FE46
FE13
095D
E996
026F
EDFD
FFAE
FF99
FFDD
0271
FF61
0197
F10C
0807
00ED
FFF6
040F
F9C8
FFEB
1FA4
0633
1356
FE19
036C
ED2F
FE7A
F410
01B6
EF51
0328
FBAD
FC13
FDD2
FFE0
0241
FEB0
0009
0072
FB8D
FE00
018D
022A
035B
FF01
FE75
FDF3
FF6C
FE0D
013D
00D0
045A
ED9D
02F8
016F
FFA8
02DC
FE6F
FFDD
FDA0
FF3B
09D5
025D
0243
01AD
FFF9
0DC6
06EB
FE8E
FEFC
FA15
0513
FF7C
022E
FD82
02D3
02A8
FEC8
0296
00D9
FF2C
01A2
046D
FAC5
0419
FF88
01FB
FA6F
01BB
001B
FAEF
FF80
FF58
01BC
018F
0169
059F
FFD8
FA48
F73C
0A9C
051C
FCCF
FF0D
F432
03AB
F82D
027A
02D9
F3AF
F560
FE6E
F628
FD98
F709
02A2
F545
0682
EE72
FF0B
FFF2
0935
F6DA
F938
FBC5
F3FD
FBFA
0F53
00C1
EFBA
F515
F72A
F0BD
0227
DDDB
0904
0959
0391
F960
F510
0059
FE54
FEFC
FD68
01CD
060D
EBD2
F692
FDDE
F96B
F8BA
FC92
F868
017D
F5E7
F6E9
03E8
FF83
0070
F561
050B
FF13
F9DE
0323
EC9C
FEA2
0502
0641
02F6
0EC3
012C
05F1
04B3
F2E3
2386
0C4A
131D
FCA6
F5F3
0343
FEC8
029E
ED54
0153
DDC8
1C36
05AD
04AB
02FD
05D4
FEE8
FC4E
FAC8
F49A
049A
F505
0632
35CF
0E96
08E3
E091
F854
03A6
F087
F036
FCC6
0409
08B9
F9B3
FE48
F549
030D
0552
FDAC
022B
003D
001D
030F
FDF3
F737
FA55
FCC4
063D
06D7
00FD
FCC6
0654
FABE
FD32
0116
FCC0
082B
FE44
0138
0269
F507
0D59
F54F
07DA
FF35
F347
FDA2
F587
006F
FF48
03E4
EDB2
0345
148D
F0EA
F829
FE15
01D2
0339
00AA
005C
FC83
F27F
02D3
0424
F9BA
0178
FAE0
FD5B
0468
FE8B
0DDA
07BE
1495
FB6C
FF9A
0429
FD3D
005F
FB3C
0303
00E4
FE1F
0074
002A
F6ED
FC38
01F0
F113
F9E9
0047
FF89
F360
01C6
FF65
0246
021F
FFEE
000A
FFDC
061A
03C2
00F2
0674
FA98
F8CD
F794
F84C
FD8C
FA21
047B
0130
0586
F4CF
0751
02B7
022B
0555
0098
FDCC
FF01
020C
FBE7
05BD
FBD1
033C
FF9F
FFD6
FADB
F2ED
F8AC
F800
FF5C
004B
03FB
0138
113B
032B
FBFA
FDCF
0007
0146
FB50
FDF1
FE53
01F6
04E0
FF6D
0490
F79B
FDFB
06A2
019C
0140
F790
F95E
07DF
FC25
033B
00E3
FD4A
FC80
FE57
030B
00AA
F12F
00EB
FA4F
0241
FFEF
028D
FF36
FC36
0023
FF77
0218
0162
FE18
F9B6
FD33
0463
FFDE
06FF
FEB6
FE45
01CD
017B
0695
04FD
FF61
FDF0
FAE5
F025
F775
FC36
0119
FF02
0248
00A4
077A
07D9
FDAE
0324
0116
03ED
FB0F
00E6
F630
0AFE
041A
FEE5
FF67
0575
0267
0235
FEBE
0082
01D1
004E
0321
F6A4
FD93
00AF
FC34
FFA2
0000
FED6
FDE3
0874
FDFF
0297
02AA
FF88
FEC1
FF3C
FE5E
0006
FED9
FFEF
FEAE
0303
FC68
033A
00E4
029B
0249
FEF4
FD8E
00C4
013E
0C59
000B
00D3
FD26
FF09
F583
F9F3
F91D
00BA
0D9A
0223
0212
00FB
015F
FE45
0000
FCF4
FCB6
0008
0145
016A
F958
001D
01C5
FE5B
FEAE
F63C
FE8C
FF37
FE06
FFEE
004A
053A
0016
FF10
0068
020A
FF96
FF4E
08E6
FEA9
0098
0524
0979
FEAE
010C
0332
FFDE
FCEB
02F7
0086
FA41
FDD1
01BB
0278
0EAB
FDA5
FDD9
0158
085A
02F7
00E7
08C3
02A3
FA58
027B
02CF
FF71
FE29
EAE9
F76B
0363
0522
06A2
FFD8
00B7
FEF4
FCE0
F575
0048
FD31
0049
FF61
004F
FE07
F690
F093
056C
0155
FCF9
FF36
FDD7
0231
014F
FEEA
0467
FF67
0036
FFEA
0146
033B
0284
0230
F464
03FF
021B
D35B
0EC8
00BE
003E
019F
053E
0707
04DE
021D
04B6
FC2B
015F
FEB9
03E9
F9A9
0363
01FB
074B
00A5
015A
04FA
0080
0DBA
FCF1
FBBD
0067
0412
0669
FBFA
E648
FDE8
05F9
FC9E
FDF7
01CD
00BD
06A8
006D
FE6F
00D3
00CB
0372
0025
FF39
0A55
FE24
0470
01EC
0625
FF03
FD89
0422
05C6
03BF
00A9
FEA0
00B9
01F6
FF27
FCC2
FFE4
F6F6
0260
FFE2
0B55
00FD
0175
FBE6
01CE
FEEB
054B
FF97
00BD
0498
0179
014E
000F
01D7
0271
0128
FEAE
F673
FFFF
05E2
E58B
0014
F6A9
FCCE
0225
FEDC
04A8
17A3
07EB
FA0C
FAAF
F700
FE5E
FD5B
0071
0241
03ED
00FF
0120
04A1
0189
FE54
0475
FFED
DF2A
FF04
0196
FFB4
03FA
0022
02A5
FAC8
001B
FF9A
0334
FD69
FF1B
FE19
0EF7
1740
00D2
E489
0816
07E1
0496
03FA
0454
0039
F80C
0B8A
04E9
F4F1
05B0
0515
037E
0402
00D6
00D4
0BCC
03A9
FE6F
FC50
F6F3
F77D
027B
0269
0822
F9DF
F8C7
007B
03E1
0330
056E
FA39
F9BC
18E6
F724
FC41
0102
F75C
0B9D
025F
1029
F465
FE34
0E3C
00F5
F949
00A8
EBBA
FE8D
0079
0745
0239
E50C
00F3
FEF4
0383
FED2
0694
FE1A
1244
FCAA
FE72
013F
FE35
FEA5
FC22
F1A1
054E
00AF
005B
FE8A
0415
01F7
0563
FC05
FBBC
FFA1
FF21
046E
004B
FEF4
FD76
0085
04D2
0100
FF98
0BBF
00AE
01FC
FEA8
038C
FF60
FF71
FDDF
0133
03FA
FD1D
0C55
FECF
03B4
0090
00D8
FF89
FF75
FEB1
FE3E
FE3A
FDCD
FFE4
FFDE
FEA9
0227
FF0D
004A
0098
FC83
01D2
FE27
006C
008A
FAE2
0005
FFAC
FFC9
004C
FF6E
FE1E
FB2F
023B
00A4
FF25
EA3B
FDFB
FDE1
004E
01C8
FECF
FE61
FF59
FBFF
FDCC
04E4
0171
12C7
FFCB
FC88
0225
0506
04C2
033B
122E
01BE
0E26
0287
0303
019D
FF7D
0343
0191
FEE7
FFCC
0A3A
FF61
019C
00C3
FF50
FA09
0297
FCED
03A2
FF85
FF80
FF90
F8D1
03EB
0095
FF8B
FC23
FB32
FFD2
0267
0171
FA59
0401
0114
0177
FDC8
FAF1
0FE0
0E3C
FD51
F704
093C
F8D1
01C2
051D
001D
EC2D
F1A0
01C1
037A
F9AB
FF1F
05C8
058A
04E6
FDF9
0050
EFD1
FCAB
FC07
0E50
055B
0418
0380
0172
FE4B
F0BE
03EA
01C6
02DE
06C9
F328
F4D3
F095
0BD1
00A7
F8F3
038B
2270
116C
050F
20F3
F9B4
0ED3
F5FB
FD87
041A
01E3
E9DB
1849
0115
FC4A
FF22
05A9
006F
F97D
0726
FF99
EE85
F80D
DCC9
FF89
FBD8
F65D
F5C5
0225
FDBE
0311
FAAF
03BC
FD1A
FDF3
05A7
F400
E76A
FCA4
F2C8
02D8
FC81
003F
0180
FE25
0638
03CB
F517
070B
FF52
FD97
044B
012F
F9FB
01E9
FB9B
0946
FC26
074A
03DA
F5C5
FE09
020A
FF8F
110A
0817
0229
FDD2
0149
0109
00FA
03FE
FE2D
F7F6
FBAB
FC62
FE95
00B7
0015
FB81
0183
0273
04B2
F7DB
0632
F85B
F52A
FE8A
0E30
F80D
0413
EA0E
FE5F
014D
0808
04D9
F519
E734
FB22
063F
0321
0C0E
0582
FF85
0037
0699
02B5
02A2
FBC4
FD9B
FDF4
F99B
04C6
0567
03B5
0344
0187
0FC5
FB21
0318
069C
026B
F453
140C
FB2E
FB59
FE9F
FB45
FDAC
F381
0C5A
FFCE
F289
077F
1243
F062
0629
FDA5
06CA
10ED
FD1E
ECE3
FEB0
0081
F9D6
02B4
03C6
0462
01A9
FB30
075E
23F0
FFF5
01FC
FEF2
0A27
007E
009E
F643
FE87
FF3B
0126
FEA6
021D
FF0B
FEE0
FF17
0262
0294
0006
FF00
018B
02CD
FC70
FF67
0807
01E2
021A
046E
FD5A
FC3A
F87F
060B
009D
FF25
F4C0
0273
0213
FC1D
02D6
0070
0050
FF4E
FBEF
FEC0
FFA6
0020
FE9E
FD3E
FF59
00DC
0153
0A4C
0128
023E
00BA
0599
FF22
FFFD
FC70
015E
FE04
021E
00E4
FDFB
FFCD
FAB9
0409
0158
F2B3
0144
04DB
FEB3
0060
071F
F950
020B
FF4F
0030
02C7
0476
FCF5
FFD1
0484
02DE
F3E2
F75A
0118
FE50
02B4
FDE6
0203
003B
0161
FE28
003F
FD9F
012A
0789
00F7
0771
F1E0
FF01
FD6F
F7B5
013D
FF77
0EDF
FF68
FFA2
034A
068D
00EC
0090
01DC
0336
FF25
F5C6
FAA9
0079
018F
FE59
026C
040B
FD85
0667
0008
0380
07F8
F6CC
F7A2
0030
F3C1
0876
FB0A
03CD
069F
FDB9
03F8
066B
08AA
F03E
FEB8
F45A
055B
00E8
0710
0218
F6D1
0017
07A9
F862
FE11
F642
0185
073A
02EC
0481
02E9
F172
FC90
028C
FE57
04F6
0D07
F423
E78E
F040
0449
F79F
03F1
F35F
0401
05EB
0893
00BC
F9A8
00D0
0AB6
F8F9
098A
F3F6
F992
F810
08D5
FFDD
FD12
F73E
067C
033C
FB9C
07C5
FD0B
F597
FD6B
03B8
0148
07F6
FE70
FC99
0210
FB5D
03F1
05B7
FCA2
005D
0050
04EC
FEDE
0225
FEA5
FE55
0133
FF49
10E9
02BA
0002
FF79
FEAA
06AB
F984
019B
0011
F141
FC1C
FDAD
FD79
FE60
0AB6
F3B6
006F
EA5F
0228
FF42
FEC6
F90E
FD36
0314
0259
0337
FA2D
F559
0237
F8FD
003F
F5F9
FDAB
02F8
04A8
FFAB
FC11
048F
0059
FF63
0A67
08A3
0074
FE81
00CD
FCA3
FA8B
FC98
FF08
0308
0727
F9AB
FEDE
FF70
0298
FFC5
FE2E
FC30
02A1
FC18
FDF8
00DD
01FA
02DE
FE2A
FC6D
01F9
0B5D
0257
0126
EBEC
01A5
E0BD
04BB
04F5
FE98
FFF0
FF82
044E
0D10
0007
1C53
0009
012A
009B
0017
FA3C
01A7
003B
019F
0125
025F
0337
F204
0889
FFE7
FDC6
FF27
0991
FE13
0306
FEA1
FB79
04C8
0222
04A8
0017
FE4C
01B7
FB7A
FCEC
FB22
FFFB
FFC5
FB86
FD7C
0222
FEED
0076
FD06
FDA4
FFFC
FF57
FF82
0047
0009
01AB
FFB3
015A
FD1D
FF6A
0695
0358
04EE
FC88
0094
F948
FD27
FFC2
0053
FD75
021B
0091
003E
FF3A
FA59
010A
01D3
008E
FE76
0153
FF4F
FBF4
0065
FE27
FEB0
FCAB
FDEF
F22E
04E1
0030
FE06
0820
FE89
0275
FE7C
FE54
012A
0091
01A8
FF85
032D
E1F0
FF99
0108
F689
0F82
F3E8
08E0
FE3A
0988
F671
00FD
02FB
0833
05F0
14B8
FEB0
0663
00D3
0FF8
0143
FF17
FB2B
FB81
F47D
007B
F6BA
FFDB
028D
05DA
03B9
099C
FEA6
0A1A
0140
FFAA
0D5D
F70A
F230
FF6A
12E8
0188
0C2B
0EEA
FD75
07EB
0A65
021B
EF85
0272
FD14
01D8
EB45
E41F
1E21
03A3
FFA1
022F
FB9A
03EB
FE26
F193
F28D
F579
1315
029B
FDBB
FECD
0779
FFE1
00BA
FD1E
062E
0077
FF63
0227
FFB8
FE15
FCDE
008B
FF8C
0087
FF20
0261
140B
03C0
FBA8
0266
00C9
0320
017D
EAEB
0124
F9FD
FCE9
0144
FDEA
FF03
0F4C
07FF
02F1
FB35
08F5
FFF9
FD3F
FEF8
01BA
0163
0380
014B
01E6
FDAE
00D2
0074
F641
DCF4
FE12
FD70
FE62
FB00
FC7C
01CF
FD3F
FDAE
00C4
0329
FF9D
FD18
FE87
FE39
00FF
0315
F222
0399
0573
09E2
089F
0255
0642
FA91
0A1A
0EBD
06EA
FE29
0F02
0117
FEBE
FE1B
F7EB
082B
0616
FD76
F0BD
F9B7
FC1B
060D
FEDB
07CB
FF30
0317
FD30
0328
0892
F864
EB79
042E
FD15
F6A8
FF13
0262
0209
FECB
00A0
0487
FCF6
FE53
044C
FEF3
FD14
FFB6
FC0E
06DD
012F
012A
07C0
F764
024B
0283
FE12
FA05
0506
00A8
F7A1
02E7
FEC5
0015
FA5A
026B
027B
F528
FA4F
FE7F
FDCC
FF46
0096
FD9C
01F9
00FF
FDE9
FD99
004C
017D
16FC
0107
006F
01D5
02BA
FE11
FF9D
0818
021E
0C73
F96F
FF93
FFFC
FDC0
F8C9
FE17
0887
047A
00E0
FCF1
FD9D
FEBE
03F8
07E8
FF80
FE0D
FEA5
00F2
036C
02D8
FD71
0422
0076
FF62
FE41
0478
FDEE
FE5D
00EB
029E
0102
02AE
0083
0088
01F2
0116
FD91
012C
0308
FF7F
0130
F19B
F6FF
0263
02E5
FF48
FA7A
0300
0197
FF6B
00F6
021F
00FE
022B
F771
0633
FE78
00E9
FE7F
0110
02DE
0746
00C6
14AE
FC42
FF5F
FEE0
00EA
16B4
FEE7
04FD
FBD4
0E09
021C
FE99
0030
01D8
022E
00E1
FEBB
0167
01B8
FFB1
FFD0
FF21
EACF
022A
FF71
FE3F
F9CB
009A
01AC
FEFB
0242
00E3
0572
0064
FC6D
FB54
002B
F7EC
FAC9
FF0F
FDB2
03AD
02BB
ED92
0263
0148
0A53
FFA1
033C
FC7F
FF55
0129
0133
0279
049D
F6F8
FF2B
FB4B
FDFA
FE14
0476
0A8D
FC85
0346
EBEA
FB93
028C
0008
FF1F
E4A9
0F03
D71E
F971
1C64
FF14
03C2
00DB
FDF4
FFDE
0326
0001
0795
FEE7
0026
005D
F746
ED3A
0565
FEF2
FC68
F151
0104
0ACC
FBA8
FEE8
010D
03B3
0209
FAD7
FE33
006E
FE6A
01B6
FB8D
FF73
00B2
FA06
FC16
FDE4
0333
FFBD
FE66
000F
00E1
FFB4
0007
FD24
0141
0276
06C3
02F9
0296
00B7
FABA
FC78
013F
F5E3
00FF
099B
FCCB
FD38
0204
00CB
0856
04AC
017C
0145
02CC
0102
FE64
022D
FE60
FB81
02E3
015F
0275
0026
0039
FFCA
FBE5
FA92
039A
0011
FE82
F6D0
01A7
00A9
FE71
002E
0176
F94B
0071
00EA
FC31
FD29
02C7
0998
F75C
FD1E
FC4F
F2E0
FBE1
050A
023C
01F1
0222
0406
014C
FDA0
0AA5
025E
FFB8
00F9
0432
0526
06CC
015F
F1B9
FC73
FCE8
0A9B
FDB4
0C29
F01F
FE67
FBA9
0620
F244
0E3E
F967
FDBB
FE02
FD49
FF8A
FCA5
0110
0220
FF10
0391
089E
FBE7
0355
05A1
01BC
F9A1
F775
FEDA
02A1
FCFA
0198
01E5
FE5C
03B0
F8EF
0077
FC8C
FABF
F8D5
01A8
006B
FF01
F47D
FF15
FF82
0505
FBE9
0202
FEE2
01B2
028E
FE0E
01DE
0223
FDB5
FBAF
0165
005E
02AF
FFBE
0059
03BD
024D
0278
FC71
FE18
017B
EE50
FB1A
FF38
FEE0
0156
1431
F7CA
FF40
0203
0781
0074
0225
0111
0348
009D
FFC9
FDA5
FFEF
FFB6
0193
0319
FD4C
E768
FF99
0093
006C
09F5
00B2
02A1
02A4
0050
03E0
0076
FFD0
FF7A
0141
0107
0071
FBEB
0F50
FDC4
FECB
00D0
0510
FCDB
FEF6
FC95
FE6F
FC02
FE99
FF32
F7EA
FF0E
0158
0136
FBBC
024B
F9C3
0304
0A4E
0289
FFF1
1D40
0216
FE57
036C
0145
FE1B
FB32
04B3
01B5
093F
014B
0C42
FCDC
01FD
FF48
FFEC
F7A5
00FD
029C
FFCB
FD96
0011
FB54
F7AE
0836
FC67
FAE6
FE9E
011C
FD5B
02CC
03E7
FB38
0328
0546
FC47
FED9
F9DC
F48D
FFB4
0553
FC7B
F77B
02F3
FCCB
F6F0
FE25
FFD6
0283
0A59
0642
0D86
F88A
FC15
FEF0
F384
09D8
F0DA
FBDD
FDA1
FFEE
FE9E
FE1C
FAAE
F65F
F93F
00FB
1009
1434
FF04
ED8A
02C5
025C
0027
08FC
1166
FBA6
FAF5
FEA1
F988
025A
0A32
FB6F
FDD6
04FE
F81C
0031
F8D0
FC52
193E
03D7
0773
FD2A
F783
FB0A
F8CE
F5B4
0181
FE88
01B2
0104
08B0
F093
0691
FBF0
E747
FD83
12A8
F685
FCBD
F64D
F832
FE42
F3AC
0248
FADA
0AB7
0582
0494
0080
00A0
FE36
FF9B
F5FB
FEC5
0106
06B7
02F8
038B
0A7D
F8BC
F4BA
027F
FEDB
0667
00E1
02E1
09D2
F673
E8F7
050A
0117
01B6
EE75
03E2
FC29
075A
EC30
1121
EA8F
07E0
FF18
FCBF
1788
114F
0AE2
F1F4
0215
FD35
F7AD
0192
FCFD
0D39
FF1D
FFA4
136D
0075
FBC8
F958
FD46
0218
057A
00C8
14EC
00DE
FCDD
02E4
FB41
00F9
FB0C
0233
FC87
0026
0382
0295
F66E
00F9
FA39
FFAE
FF2A
0224
08B7
E665
0342
11F2
0778
0404
FF29
FE98
E9F5
09D5
04EE
FBEC
086A
0195
FFB0
01C6
FFEC
058E
0337
02B1
0469
0072
FDCC
02DC
F420
FF80
FF4B
FD7A
FDF8
0070
FF0A
01BD
FE10
FC58
06CC
0614
0358
FF5E
FBCF
0329
0001
FC88
0889
019D
02E1
FD1A
1A06
FC3C
FE75
FF51
FE92
011D
0173
0182
001D
FEDF
FF9F
FE6A
ED8B
0188
0059
0254
FC5D
FF72
0265
03A9
FF5C
FC02
FDAA
FED6
00A0
FDC7
F9BB
FCBA
0970
01DF
065E
043B
FF3A
0131
FDFB
FC4F
005B
00A4
FFCF
010C
FD2E
FF59
0271
0627
FDD6
017A
FE34
0E90
FFC1
0017
FF8D
0125
0320
054B
0314
F9AD
0108
FD79
FD93
FEFA
07E7
00BC
038F
F7EE
02C0
FC13
FFBD
000C
0013
0043
FEC1
FE40
019A
0040
022E
0369
F758
076B
FD39
FF11
FB90
00A6
0114
194D
0083
0559
061D
0173
FF0C
FFE0
F82E
0A7D
0375
FCF8
00CA
FBD8
01D3
0038
FD73
FFD7
00CB
F881
047B
01C5
FE4C
0231
F70C
ECF7
0575
02CC
FD63
021C
FFDA
00EC
FE4D
FE95
FDF7
00CB
02D5
FF65
FC38
18F2
FDD1
FD96
FEDC
0F69
02FB
FE8E
0008
F3EF
0057
07EF
F6E2
0289
FDC9
08C9
0368
06B0
004A
09D9
06FB
E9CA
04B0
FD8C
045C
FC8B
11B2
082A
0150
0726
0FFE
FBBD
0301
03D6
FFA1
F9D9
0A53
F9C4
09B2
030E
01EC
FF9F
0087
FFA4
0205
FB94
FDFF
F76A
11DD
03BC
07A8
014B
FBCD
0329
F569
0001
0088
FD74
F940
0778
0373
F518
DFDC
08E7
0D36
01F9
F843
FDA1
FB0E
034F
FCD9
06CC
FB84
F82E
04D8
00A6
0908
FB49
F1B7
F6CC
FF43
FD24
10D2
FB51
F592
0002
0A73
03D7
0140
0040
FF39
FD9F
0F14
FB4E
0CD2
0237
FC59
1854
0229
FC4D
FF43
FD9C
13D0
00A9
0DB5
02B6
04B2
FEF1
F7EB
F982
0635
FCF9
0709
00F7
F7F3
00C5
FE32
FE95
FE33
FDCD
FD3F
FFA2
01FB
043B
F8FC
044A
0268
F79F
FD58
027D
FDE4
FC13
08D3
02CF
FA7B
064B
FC98
014E
FF78
019B
0059
00D3
FCB4
01AB
FEDA
FF88
0071
FFC2
E845
03EF
0080
0186
FF9D
0162
FF8C
FAD9
0185
FF7A
F9AE
008D
FF33
0196
00B2
FE15
062C
FD44
F4CA
0277
02AF
02E5
037C
FE38
0127
0597
020B
FE76
0124
FE01
F5FA
FD46
FBCE
FE9B
FC8F
FDF4
FE4C
02EB
FF11
03B5
0307
01C3
034F
0121
F933
FFB6
FBD9
FF2D
FCEC
00B5
01F0
F0B3
068E
FDFD
023D
0117
0037
0205
014A
FEE5
FFE2
004F
0153
FE7D
0F67
FF70
009A
004A
FD6E
FF4F
02E7
005A
01C8
F07B
07D6
FFCD
01A4
FDF0
FB03
0987
0956
043F
05E0
01D4
FD0F
FF0E
FF2F
0010
00C6
FF0A
0275
FE3B
FFF0
00A8
FCC0
0410
FD66
0293
0175
FA77
003E
0133
FCA8
008C
FF6C
FFAA
00D6
01E9
006F
000B
005D
FCDE
FEFE
FF19
FDD9
F23E
FDAA
FF6A
FDFA
0074
004C
FB9A
FB54
FF2C
FE79
045D
FECE
0034
FC72
02C6
FBD8
FE1B
050C
00E6
0244
FB3F
FFAE
0F2D
FA29
FEF9
010A
FD41
0530
0260
0A6D
F9FE
0802
02ED
FFF3
000E
FCDF
FC0C
0065
01E5
FEA1
FD94
FF0E
FEB9
0159
0A4F
FE93
FE6B
FEB2
F886
FF54
0333
FEF7
FE5E
FF44
0375
002A
FF66
004E
0076
FC49
FD81
12E2
03CB
FFEA
FD6B
0CF7
FE9A
02AD
005F
0030
FF46
0082
003B
0054
0028
017F
006A
09AF
055F
FFE4
028A
0334
03DD
01F2
0147
005E
F028
023C
0300
008B
FE60
08B4
0381
0498
FE0B
F7F1
00D4
FFB1
FF0B
F85E
FCB4
01E0
FD8C
FFDC
FB95
0208
0153
F75F
F61D
060B
FC04
FAE2
FF48
FE91
01DA
FDF2
FF69
0211
FF3F
FF71
01E3
FF72
0BB6
FE97
0200
0702
FD83
0831
FF78
F824
FD85
0333
F6DD
F34D
017C
00D8
FC70
04E1
0160
0065
FB80
FEF6
FB4A
06AC
01DF
F5FB
F844
FFA3
FE3F
FF54
FC12
FCE6
F984
FBEE
FD7A
0030
11AC
F3D4
03EC
EB99
021D
F9F5
FB66
F248
FA0D
01E6
FC1F
0C22
F989
0162
01F5
FA17
FFEC
FBFA
FB1E
EDFD
FDAE
01A5
FD37
015B
FDBC
FC35
FCE4
0871
0054
FF41
FB0A
F828
F75B
012A
FBCC
0102
0EE5
0041
0260
FE5B
08FE
05A7
0216
F518
FFCF
FA7A
0324
081A
09CE
0059
057A
F964
FE73
F0AB
FE84
F80A
0D3D
0C73
121F
0524
0059
FE3C
02C1
0426
188E
1992
EDCD
0B1B
0379
F9B4
059E
04D0
17D3
0620
FBD5
04F7
FF59
0678
268E
D7D3
01D1
FC69
FF4B
097A
0229
012E
0452
E0C8
02A0
095E
FEF1
0678
FF3D
03DF
FBB2
0132
0007
0374
FF76
FF37
01D1
F5D5
00F3
FF52
01EB
012F
0004
0162
00DD
00C2
0234
007C
0471
0569
FAF1
0318
019C
FEE0
0142
FD52
F338
005A
FF60
FEAC
01AC
FDFB
FF6D
014C
FC3F
F924
FCB0
F367
0151
FF6A
FF20
0102
0261
02C3
FC86
0133
FEDF
FEB7
FE2C
FC1E
076D
063F
FD68
FF2D
FB18
0101
FDAB
FE1B
0155
FF0B
FF7B
FEFA
FFC4
FEB6
048D
F691
03BC
EF93
FB72
FD24
05DA
FE25
028F
0C90
FFED
F515
138B
044A
09A5
0DAE
FD00
F085
FB21
FD80
01E1
FE7B
0787
F8C5
F949
FB82
04A9
F769
FF51
0B00
EA26
04A5
F8CC
FDA9
03D0
FDDE
0ABE
1922
1062
F794
00B7
FF2A
070B
0978
F164
07D1
FD30
0810
FD3D
FBF5
0186
F5FF
054F
0570
FEBB
025C
02AF
06E3
115F
00F8
0982
0143
F9FB
0637
FE63
01ED
FBCB
FDA1
FE44
001F
00EF
13CE
FF0F
018A
00F0
F873
FD07
F85B
009F
FD4F
FF99
00E9
0218
F1B4
0405
FF8F
0041
FBB8
FE7D
FFCC
FDE2
0110
FCC4
F85B
0313
002F
007E
FF02
03EE
036F
FA8A
F573
04D0
0113
0430
FF7C
02C6
02FF
0420
0128
FE81
00F2
FFDD
00C1
F8AA
FDA3
FD29
FE0C
0B5E
FE8C
0221
FAF1
FF1A
0353
FF29
0229
FCD7
01A7
FEA6
04C1
FDEF
FA0C
FF86
021B
CD1F
0B23
FE91
FB2D
FE93
01D9
FFBE
FED9
0107
FFC0
00DB
FFA2
FD49
FFFF
FD0E
F944
FFAB
FC35
0242
FFFC
FC1D
FF70
0EE4
06EF
01A9
0273
FF43
13E9
02A4
FC8B
FFCE
10DF
000F
019D
FFE8
FF73
FDE8
015D
010D
02BD
0278
0011
FF15
F72C
0D45
00A8
FEEE
027F
069D
047E
0270
02F7
FCF7
FF04
0398
00BB
FE91
FE5B
01E1
FF48
FEFE
04EF
FDE1
FE04
03C9
0177
FF96
FF51
FDA8
FDE7
FDAF
FEF3
014F
FFCA
0130
FE29
FF30
E909
04D6
043D
FF36
F97F
FCF4
FF07
F373
FE46
F29C
0099
FEBF
FF12
FE44
F5F8
0A13
0C53
0306
ED3C
014A
FD55
FEE1
FECD
029C
FC28
F9CA
00DD
FE5B
FF4B
0379
01FD
11E9
007F
FE83
FC71
0917
FF23
018D
FDD2
FFB9
FF14
FC92
FF89
FEF7
FD57
FB3C
FB04
FBD4
0B61
00F2
01B3
FDFE
F4B6
FF33
FEF6
02A2
0109
00AB
FDA6
0055
0007
04E3
0085
054C
03D2
03C1
FDF2
FE71
FCD8
012D
05A1
06A3
01B6
E1A7
00EB
02CE
015B
FDCF
079E
0DED
0489
FEDF
07E0
FF37
FFCB
00FD
FD01
FC2D
05CB
FD7F
04F9
FFC4
FED7
0238
FA88
1194
02B9
FBEB
024C
0B0B
00C1
011C
FA65
FD73
0064
FC1B
0183
FAA5
008A
043E
0010
0A8B
01CA
0135
078C
03E1
03D9
0FF0
FD7F
08CD
0C2A
FBB3
1B67
F3E5
E4F7
EBBA
F40B
F951
01BA
04B2
1899
F7A5
FE29
F75E
02C0
0034
F9ED
0416
ED52
D4D5
0DEC
FB39
0012
0372
F96E
F389
EB99
2A5B
0B32
F1B8
013D
F019
EEC3
FC6B
FF6C
FF84
0472
0721
F714
028B
0878
024B
0A0E
0715
EBFC
FAF4
FD94
2500
E7EB
FF6B
FB5F
0B4F
FB97
FF4F
FE34
096A
FB8B
F63C
FFE2
FDF3
F970
FE7B
0211
0106
04E5
160E
E97F
02EC
FD2D
0268
0589
F3EC
F972
F99B
0AA6
FAC8
0DDF
F0A2
FCE5
FDAE
EBA5
FC2A
0076
FC26
0559
159A
FEF9
F591
F85C
D685
03C7
FDB7
127A
F542
06A0
FEB7
F8E0
009B
FF4F
F8AD
05D8
FE83
01EB
02DF
0775
0178
F64D
F9D7
1332
0A3D
0074
09D1
F814
00C3
0ACD
0826
F3E7
FD38
0926
0453
133E
0905
F54D
FE88
08BD
F2A3
03D6
FAEA
0EAC
FBFB
0058
03CE
F9EC
FA8D
03B1
03B9
0647
0495
0CDF
0033
0A6C
F8C3
F733
05C2
FA7F
084E
097F
09E0
06B1
FD77
FC73
02EE
0A8A
076A
3026
0213
FF98
00F4
FD39
FB22
021E
FE92
027A
02E2
F7C5
0060
FDED
FAA3
F6FE
03A4
000A
FD53
0240
ED08
0349
F8C6
00AD
FF8F
062B
1A11
0294
FDA9
FC0B
F93D
F9BD
0513
00D4
052E
077E
FF50
F63B
02BA
0BA7
0C9A
098E
F78E
F99F
F9DE
FB50
F922
0CD7
F3D3
000C
FDBA
E54B
F727
FD14
088B
FDB5
054D
FF00
0235
FD34
F5A5
FC7E
F889
0730
F5BE
F069
FD71
03AE
FC53
0CCF
F606
01DE
0672
FF3C
FA78
017D
0318
0676
00FB
F52C
FD08
FB12
FF53
F801
04E0
FFF7
03D3
0992
F9E9
0F2B
F9D8
EDF0
F644
FEC5
0708
1B32
FFC5
FFE4
FCD0
02F1
0180
00D6
0494
F0E2
F2CF
FBE6
FC1A
FF26
04FF
FB46
00D4
FC7B
0527
F673
FAE1
0B36
0C18
0B16
0083
001F
FCD5
F907
02DA
0024
F8E5
FBD2
0CFE
FE14
02D9
F12C
01B6
089E
02E9
FC57
F968
FF53
0332
FAB0
FE06
F8C1
F4E6
081B
F6B0
FE37
FFB6
FBDE
FB59
012B
FD83
082A
FD8F
FDDC
00EB
FFFF
FC9A
057A
025B
FFFF
FF6A
071A
FF58
FFCD
F3D4
F3A8
FE06
FF66
FC91
01BE
FEBC
FEA3
FC3D
027E
0256
036B
FAAD
EBCC
04E4
0436
FED5
FE24
FDEA
01B6
F5A7
FFE1
05A0
F974
05E0
FED3
0070
0954
0C2B
FC93
FF2D
F339
F9AA
FD29
003D
FD62
FF33
FFD5
FE90
0005
FF67
FDC2
02A7
068F
0F3F
FE6F
FF9A
FBE1
071E
FFDE
0177
F8DD
FB3E
FD8F
FC4D
00A6
FF27
F7CF
FF53
0009
FE83
FF53
01F1
0021
FFDB
0B9D
0265
FFF0
0109
03E4
FF2A
FD81
0275
FE90
00C1
026F
034C
05C3
000D
FE5A
0028
FF9E
0134
01E5
ED46
00A6
0CCF
0275
FFBC
00BF
0069
F3F4
0581
FC16
FBFA
0957
FED5
01CF
00D0
0283
05F6
0140
0049
0103
0014
00D3
0005
FA5E
0EF0
FF80
FE9C
021C
FC43
FFC6
00A5
0100
0108
031D
03A2
008F
00CD
0031
02FE
FD3D
0106
024F
F8F4
FCA5
019C
05B7
0347
008B
FC46
0655
0305
FBB6
F6DF
05B0
02E7
FCE9
0138
0695
FF39
0227
FE57
F59E
F9CD
F635
F280
FC3A
F71F
098A
022A
FBD4
FE61
FE25
03CD
E4EE
FCAB
EC18
F718
FB2E
FF9C
0479
0FFE
00B5
F937
FFEC
FDF4
01EC
06F0
00FC
F9FF
FFDB
FE84
02D6
0564
0194
F972
F86D
016D
F8B9
F8A2
FC68
FC9D
FF0B
