017F0032
FFC000ED
FF60FFEF
00C2EAFA
FF79FE40
FFD40069
01C0075F
FFFB0225
F4A303A9
FD5903FC
FD2A0144
ECF1FF11
FF0001B1
02CCFFDB
0419FE70
0024FFA1
FED9FFF0
FFE6FFD6
FE71FF01
013B0738
FFBAFD76
FFF70114
0570F6EC
FF5D099B
FFAD0095
0012FF8E
055105FD
02210597
00E2FCFF
FFD6FFD1
00CB0820
002D0288
013BFF75
003DFFCF
F945062A
01F1EB47
008FFF1F
FEFFFFF4
FFCCF1A2
0181FE89
0107FC4E
F96DF2D4
031F0023
FCA2FC69
FA1805AA
FCC5FE57
FBDDFED8
FCE8FF44
F0381864
000C0041
00830290
FAF0FF07
F8CFFD22
E8280C32
FEA9FEA0
0A9A01C9
FFFCE9C0
CBC601C9
0024FE42
024BFF66
1A06FE38
0CAAFC46
FCC00003
0ACE0118
0213079A
16DA02CA
FFEEFF05
00AE000B
C2DBFF71
F0740466
FBC2FFA1
EC880009
0129FF89
004C0180
FB630257
006A05C8
0080FFE3
FEF900E2
00960A8E
004A00E2
FFB8000D
FFFB002A
FD36FE1B
00E10062
FB0FFF6A
FBC402BF
EFF9FE23
FE94038A
00DE00CF
00BF0118
AD9C0277
00840899
009FFFF5
007C003B
004C16E0
FFFC01B1
0034FFC1
FF6B00F2
007BFE93
0104EFC8
FF35FD6B
FFB400ED
0456093F
FF8C0703
0488FF7E
FE7EFF77
010B0196
EBD4FFDB
FF170946
0528FCE3
0147FFC8
0108FF5B
FDF109CA
FD51FE71
0187F232
F8BA0291
FF09FB80
080AFF48
0096FE5E
F8E7FDFC
002AFFD5
FF75FFBA
0006FFE3
018908F6
FF6DFE6E
003E00C1
043BF42D
FFBB0742
0091FFF9
000D017E
FA3C0113
000E06C3
FFEC0014
FF370076
01F9FE9B
003A01A0
00BB00AF
00E5002E
084906DB
02D4097A
018AFCCB
0027005C
00890CAE
01020209
020C08A5
F9DE008B
FEF1FD3E
04F603B7
F863FDE6
05B403B5
F893FD4D
0971FC56
FD60EF2B
FF320256
040F0CDB
FA850267
FE25EEC1
F0C4FF79
0342FF4D
0E05FD9C
F19AF91D
F8E00544
04000049
FD67FD55
F80DF0A0
FC38D38D
FBF7FF27
F90EFEB7
0071FFB0
FFF5FEA4
E57808AF
031CFAAA
0032FE03
FF12007C
004FF46E
01E200C1
FF280283
FDC2060A
0453FE3D
FBE4FEF2
FE6B04B2
0301011A
00B7FE47
FD64FE01
0098FF99
FEEEFF3B
03EBFDF3
01B4F9A9
FF5DFE8D
00B70156
0584FCF0
FF760996
FFDC0573
F16805C1
012AFCED
086C038C
E7B1FCA1
08A3041D
F1B8020A
048FFE84
00880682
024DE112
FBD8FF7E
023E0144
02231EE6
FE64F1CB
022900E0
03180143
F13AFD6B
FC87FE50
021DFE51
0001003D
FEF90078
FEFAFB56
F192FF37
0035030C
FFDE032E
FF680084
0378FC8B
02B2FF10
FE45FE02
018B00F5
0202FBC1
024D06BD
F43EEFA6
FA25E204
001FFFC0
0307FEE0
FC7F236B
0B4EFF72
F9650108
F3E9FE4C
02DE2AFD
02F3FF6F
00000046
FCA10008
0090020E
D98D0149
020AFF6F
1F5DFC72
01660067
013400A0
FA450529
0255ED53
0111FF66
FFBE0063
FF35F3F1
016DFD4D
FDBDF7A9
05F1FF32
0011FE9F
010AFEC8
0344F9CF
F906FE8D
FBB5FF9D
F687FE52
