F90CFA8C
FF07F813
04CAFD07
128CF3F5
F4CAFA60
F15C0365
F78EF942
01750010
EF42F3F1
F919F359
2C89014D
FF85FBA3
F630F3F0
023400D8
F2F4F5C8
E8E9EDFB
12B3FEB0
0E191A12
17F4F3FC
FDB60385
F4BBF1BB
FEC300B9
076FFA43
FE7AFB51
F9B4E91B
F984FAEB
0073F3C1
F3EDF9AA
F75F088F
F767FDB7
172AF275
00DCED9B
E5A1031B
FEEB0809
F943043F
018A1A5B
02B3FF10
F91E055B
0028FF7C
03AAFE3C
F660FF42
FD820EEA
F8BCFE7E
022902A5
05A9F8FF
011C01D3
F9000141
F9490CBA
CA9C0556
FC6BECDF
F0D9FA1B
E51BF79D
FF45FD79
FB310791
FC68FD11
FA800354
02850039
FF1BFDE8
FCCB0197
FCA31A31
FA2906AE
007AEAA8
F2A0FE45
00F8FE09
FFCAFC87
065E0A02
029ED2BC
FBA1F55E
007C04CB
0529FAA9
0DF40579
F94FF769
FC15F94B
FB2516C7
0166F715
031C0191
FA12FDA3
040FFC02
0B8F0466
FD8C04FE
FBA7F9D3
ED8D000D
FF5AFA2D
FF020668
0203FB6D
E76AFB39
FF32FFEB
D0FBFF46
019AFFFC
01810F9F
F2720429
FF6C00AC
0A99FF0C
09E8FC72
F775FEEC
FCC4FF56
FC47011A
0A6E0A39
FE77EDC3
0A76FD18
09CE09A7
0622FE82
053BFDD1
F761EE38
FD5501E1
FE1B19F8
FA29F733
02F2FEA7
F464FD39
15742E0E
10CE008A
FF1B0A68
FA35FAD7
F87BFE2C
018DF616
FE88D62B
0355F76C
BAD1F891
003FF9C1
C543006C
0150FEC2
F937FD4B
F7DD0149
FC75FEDD
0E4EFCA3
0775FAD9
FC00FE71
DAC908B2
F63C0989
ECD8EBD2
F4A7E517
D4741C74
FFA8FE66
F0AD0EB9
021F2BD0
03A6FE23
168019B0
10A2F529
039D19B5
01A10770
23DDE157
116707AA
FEB819E6
F18C1882
E18BFAF4
F7D608C9
FE0CFF3E
F98126EB
0F9E0C21
1348DF35
FC210D6C
08721672
064D0CE1
0BC20A27
067A0BB6
FA74EE6D
0A8FFAC9
F7F7FB5E
F87BFF3A
009506FD
028A0136
F7A5F2A2
FFC606B9
F08D0350
FC60F9A1
F81D0A7B
F1D4FAC8
FB16FF80
05FC03F4
FEDCF929
0C2C0CE7
FD6206C5
FF591690
F5370412
F8C302A9
FF86015E
FA6BF671
0248FD66
0376FF56
FE6CE652
FDC601A8
FE75FEFF
01D6FC5F
0E1E0704
FB14F89C
DF5009B3
F7DDFD07
F8A7FC4B
FC7103D7
01A4FD1E
FA1CF917
11D2FFBC
F7820224
F682F977
FED3FE39
03FD0A8C
F9B6F320
05FFF86C
FEDC0525
00B20AB9
03A0FB97
085FFDC9
F6550272
FFB60462
0E910794
F818FF97
FC1C0970
FE54027A
EA19F966
144605B0
FF0C106C
FAF509F3
06BD0B09
FF22F44D
FE5607D3
DD43F97F
039D0982
0681E03F
E3630CDE
054AF6F0
02C6FEF3
00530014
FDCE051E
022C02A4
4444F717
F99A08B6
DBF8FC4E
FD5D0290
F8C4088D
0491F9FF
02670057
09030381
F71D0110
FE1AFE06
0249F996
E8F8F1F5
F149FF3F
FD27E7E8
FE30FBB3
234FFBC4
50E80796
098FEE8C
01A4FBC5
20E10320
F8D1EBB4
F6C6FFB1
0138FA9C
F7F3F6DA
F5CFF350
00EDFCB2
02F0FBFC
FBF53B09
FD21FDB6
05B83569
000AF8FC
FC59F64D
FD49001B
08420A19
02D3EA5B
029BF3C3
019006C2
0B48FB1D
02C600C3
FFE0F347
FED500F1
005B1B37
FD32FADC
004E0137
008EF3A5
E7B40670
0A2B04D3
0176FE1A
FF97FC2A
F816FF8E
002EFE78
024AF367
02E7FCF4
3B7BF6C3
FEA80061
E84F009F
011AFE3D
000FFB05
29030B0F
0287069C
0336FC48
07E1FA59
FE4900E7
E7400274
FC0AF667
FDC9FB00
015C0433
DF0DF1B4
F917EEA3
F4AE058F
03ED02AB
FE02F930
0C96F946
FFC2F847
263304F1
FEF4F9A8
FC9D0DD8
F73BF9DF
F8BBF791
F8F4EEF4
FA02FA7C
0D600333
FA2C024A
FE6E43C4
FA17F85D
E6260B9E
FB46FD72
E724F4DA
F88FFF93
274FF5FC
FC39F91E
FE2CF866
049F020B
F8AD002B
DB54F908
F278F9D7
F569099E
F48A0F91
082901FA
F89D1966
085816C7
F409E4C0
0AB419F9
FFF60D20
F90813E5
F6E10B79
02ADF7C5
0C36FE12
F40BD9AE
FCE9FF07
07640EAA
FF4913F5
09410424
10FC06A7
F3C80105
0592F329
0AEE0159
100103BB
017D0FD3
FD721F5E
04E2F97F
FA8CFA1E
FE7F1987
15C119C1
0A04E8AB
FAD00FBB
F6220199
018D028F
F884001F
F8BAF98E
FF16FC50
F241FC9E
FAAAF8F8
02CC0402
F353FDAC
FC3BFD0B
FDD0F75B
FB67E130
0B9E04A3
FCA90392
FBD310BC
F6C102CA
FAC2FCCF
FC0BF93C
05BBF8BD
EAA0FA8C
FFC8FDB7
FED51EA8
F6090643
06500BFD
FE7500DA
FDA0FFEA
F0C7FB62
FD930374
0E68FBDC
FCC7FAFE
FF89FAF5
ECFBFF53
F3CEFCD1
2CB5FCE2
EF78001B
02B1FE0B
EA90037E
F7090701
041BF79C
F9DA0B42
01C4FF5B
FBA6F7F9
0553FFB7
007703FB
FDB50093
00ADFFAD
04140145
0139FF64
01F7FF3A
00800176
DAD7FC9B
FB5C1CAD
DE54FFB5
EB3DFDD9
FF2F072A
F8E6FE06
004BFE84
FDEFFF61
FEB90372
FDEDFE28
FDBBFFCF
FDD0E3D6
FF0902D1
F536F7A1
B72400E3
0179FDDF
DD7A033D
FD2704D9
162400B0
F575068E
FCEF04B9
02DDFDDC
051C025D
04EBFE94
FBAD02F9
01C60192
F3D7FF5B
F6230310
09D4FFFA
FF90297A
FBF203AC
FE711036
9EDD0845
01C8F882
FC73FA35
0D81FC10
019EFBD4
FCF0FBC9
F3B90015
FC1302EF
0291FDAF
02840136
FE060698
00620BAF
FDF704D0
0A6BB057
0659029F
001F04F1
F6A4FC77
0036F834
0379E4E6
00B3EEBE
FDD8F599
F45A0334
EE96FD87
00EB023F
051D0B66
09800A7D
25700A33
FDAD002C
0028CEA0
F821FCBA
FB09FB80
00DEF3A1
14110243
11E30B24
F73307D3
006AFB09
042402C7
DA8F0383
F91002DC
13CE0715
0B11FC3C
00F315E8
F9F4FF24
035105A6
01900034
F64405A2
EFEBFB1D
F6B00879
FF8F0296
FC92FDA5
FEF006F0
04CB083E
022D00FC
FA9E0134
F3C8FEFB
FB48FE84
FCED0454
FC3312A8
FF770490
01B004BD
F93A0CD0
FB540130
073EFFDE
FF9804D9
FC17F69E
0B9FFFCE
0173FAFA
FD8EDEAE
FDD9FE21
FBC9FBB8
013BFBE6
FF09021F
FE78F7A5
F37E0071
F1B4FDF3
F97FFEBC
025F0033
07ECFD9D
FDB4FC63
E63C0681
080BFDCF
017CF119
FA0EF9E5
003FDDB4
0238E5D3
FAAB065B
F062FC9F
FDC0F61D
0C4DFF5D
FAD3F66C
112D00E1
10D7F47E
F20E0CF8
01660075
102CF2A3
0131E7F9
0E20EF1D
FC3B0986
09F8013F
03E401A9
F1560B9F
FCAF08C5
120FFECB
00CEFFD3
0014FA08
FE8B0234
FE0FF0DE
F858015F
0CF6FD4F
E73403D0
3B49F59A
FD10F890
F6EF01D8
024FFE3B
FE8802BD
FE200C15
0287F98B
F841FE52
F7B80369
0086034E
071B0CA7
04D9066F
F0710573
02CE07A7
02BDFFE2
F9BEF7E1
04A6060B
FD4B0BD9
CF49F549
1AEC04F1
FF370CAF
F661DFED
098B08DE
F93BEFD9
FEF701FD
00D2FD2B
03CD04A9
D100008E
D8200DAB
0196F223
FB4F0243
12C7FFEE
FCD80561
F494086C
00D808A4
A764E8C4
001E05F3
FD39FAF0
DCD0FFC0
FE77FDA9
017DFF75
18D03481
2288FE1D
0176FEC2
0A70FF4A
FFD009B7
50CD0314
FF3D0887
B74704C5
0360EAA2
06AF20DB
FBAA0030
026E1DE7
007FFB96
04881875
FDAA021A
0258065C
015401FA
1D390664
FDDFFF78
01484FED
1C0C0502
EE82003B
F0AAFD0F
059C1EAA
FFFA003B
F874FD8E
04EBFCBE
EBDCFD17
FA8AF52F
05ACF6EE
005604F2
FBFDFA1F
FA37F6EE
0ADDFE5A
FDDF0201
FF3300A2
198DFC2F
01340208
FEA2FFF2
08C4FCFA
F95CFAED
F28FFB1A
FE26F4D3
055508CE
F483FDEF
017406DA
F52EFECB
E1D7FF44
FED4F9F7
FD990777
0217023D
FE0F004B
FEC6E972
01270340
FAA3FF75
F4C5FE1A
FD8C00B4
F5D4021D
03040177
F19705A2
FB8802DA
0520FE01
FDFA0164
FC580469
F5B9FE65
0994FF73
01EAFB35
FDE6036A
04170633
06DD0054
0004F9E1
02C2007F
068D0553
E487F9B2
03011CA7
EC550719
F704FCF3
082B0C07
F88BFD07
0A0A0679
FDA2F854
FE2A095A
F95DFB72
FA030916
00AA0502
FE6FFAFA
FDBF0161
BD7D09E7
03AA09E5
FCA0BFC5
3881FF63
FEE4FFB2
F5FB056F
2471D5A0
2A55021E
EF2DDA2E
CC9BD542
2F4F014D
053F04D4
0688C6D4
008B0385
DB70F59C
009A045B
28BBDC8D
FFC4B2A5
FFF7E2F0
FCB9FEED
007352BC
001F00AA
1AA0EF91
FF90FE77
FF74FA75
0232C0A7
C8D62C4D
0063004D
01161182
0D03FFD8
EA690007
E108FFD7
FE7DCC5E
00770E6D
FD30FEBE
FA920206
000BDCE4
05E708D8
FA90F8C1
04DBF59F
023100A4
FD1A04B6
0017F7B9
01C00F79
F9F6FB0C
009AFF88
00EB107C
F954020E
02750489
FE0E02C7
F0F4F987
10380037
008605E7
FD3106B7
030101AE
FB6DF5C1
FFC60246
E05EF742
011A044E
02A0F939
E60109D0
03E0FC86
0805FECB
0450FE8C
FCB30337
00530155
E00EF8A7
056FF5E7
FD6CEB69
3775FE2C
031EEFD8
F2BCF7B6
D66D01A9
F7A4F4C6
D89FF0EE
F0BCEB86
0993FB23
0C15FDAD
F7C00EF5
1C281B85
FD28F152
19ACDFF0
012DE9B1
ED4C19B2
F753F2AF
F8B21745
EE69EE3F
42E4242A
FECFF3C0
043DF74F
0110F768
00B4FBEF
0FEEE587
E49002E8
ED8613D4
FDA00C64
1C92E3C8
044EE3FA
F6D20504
023CFACF
00A0215C
FA1400DC
FBF4FA43
0377FF62
F4310305
FBAA060F
04D1F472
FFD5F087
FC5A0646
FFAF05E5
067C0316
F45CFFC7
F8F0034B
FD3F02EB
EC68F9CC
061F058D
FC460476
FC52F9C6
05E60D1E
FF53FD76
FCFD0857
03FFFD93
FA31029A
0667E3E3
F38F06C3
02E9F9BC
FA96FC44
F1B100DA
E80108A1
045604C5
E5140192
FF0E0705
0DBD0019
F0BC0AA8
FD660B08
FDA0FDE6
09B30408
0678FFE3
F66404C7
FF7E092A
FA5BFB76
FCBE0096
02ADF4D8
017B02F6
FB83025B
0CE41127
DAD70870
0037DB2A
0978F942
EB4AF89F
0205F5C5
FA7204BF
F52CFCE9
F96F0342
FF89FB09
FFCBFEFB
FE860640
0118E207
FED10141
0807E34C
1820FF44
FE270175
FDFE0F73
2F9A12CD
FF3B0103
F2AA020A
CA5509B7
238F268A
D606DFD7
052C1538
D7B6E19F
F68001A8
081835BF
00490842
BE58FF3B
0037049A
2768F619
00CBBF14
FF0303EF
01D6FF4D
00FCB432
005BFE87
9E30205E
FE2AFCA7
002CEC56
0072D68F
2655A51B
FF9FFFFF
0025E576
E947018F
015AFD13
FB68FEEF
FDDC45D4
0006F2B3
F3490425
00FBFCA2
F1E50920
FCAB0444
FFCDFE10
00160157
FE4C03BE
F7EB01AD
05A5002D
0394FCFA
F83F060C
04560727
07490360
FC16F211
FC9903FB
F5DB0801
DC66FB82
00A3F2F7
023606D0
F7B7FCB3
04940C83
F94AFA87
E56D06E9
FCF2FAF6
FED806ED
F8A3F788
EEA40692
054CFA07
FCA7000A
FD8002B4
061F0A3C
04B807AB
F539FFEE
FF68FF48
1283FEF5
EC3C04B0
F41C0D86
FA1C0580
119D079D
06AB02D0
FB17FFC9
0533FD7F
0E860051
E71F02A1
06E7F717
030B01E8
F5D005B2
16820BBE
F35E0B25
04AA086E
FA90F698
F6B6FE9A
0066F576
F720F5BD
18E4FD36
F8F901FB
FBD4F2F3
FAD3FCDD
FF8502E1
FE9FF347
FF830003
08C9E63F
DC990098
FF14FE36
F2FC00DE
01FD073B
FA82F7D5
FE290658
0C52FCAB
0564F6CE
F5FA087C
FB43F5E5
010408B2
FA900F39
EED8FF2E
0B5DFC01
FBD2F653
0106028A
12990038
E3BA044E
EA64F8CC
FCEF06A2
00A70551
FA81FE85
03240009
FEFB028B
EBEC04BF
FC33FF19
FE140DCC
073B04AC
FF24FF6E
FF58FBF1
07BAFEE8
01EE00C1
E454FA35
FAA5072F
00350125
017B00BD
01830243
04FBFF14
061E05CB
049DFF41
FF65FF50
FB95F90C
FDC50444
FCA21A90
0001FD41
03B0054A
FEF703F0
051FFBA5
0A18038E
FEB50265
FF82FCE8
F36B01A3
FECAFA3B
FE91C0F0
039CFBC6
EAE1F917
FE7FFD16
F90508A8
02C0FEE1
0AA4FDF2
EE9206B4
FE290144
07AD0032
06E4FC31
FBD9FE8D
D9C50919
06D5F1E6
F026F7BA
FEDA13E2
E1AFF9A9
F595FA12
F4B2F7D9
0760FB6F
F78FFFB2
FB29F2B0
F195F9CE
0AB2F99F
025AF6D8
FD173515
FE8E0BB2
F520F3B9
FA08E6D8
EFC9F165
0823FD37
00DCF578
00CF0BD9
F068EC30
13AE07CA
0298F508
4445F35F
EDC2FB7E
F5CE2182
03B8FA12
F592FB60
06C50F00
F87600A6
F02FEF71
F5EBE675
0002CB3B
FF0822C1
FF7DFF75
FC9FFDFF
E695E625
38710D08
1EE1ECE5
18FE110C
0730A583
C3B90062
0622EEDD
0023ECD8
E7510502
FFA9015A
15EA2251
FFFABC66
04E512A2
00470087
FFA211FD
FFD6FDE5
C96A260D
FCA30100
0043F1D8
004ED793
C64534C8
FFF0021D
FFF5F6D2
18A4FEE5
27CDFDF3
098B0053
00D33A78
FF8BC60A
FDE9FA55
0340F3BF
FFE6FFDD
FB960245
1B2AEF11
0E3C2E91
C3AAE7CA
CBE2FCA6
FDA8084A
EDF0FE9F
FF74D1A2
FF95D19A
125A000C
FF1FFF28
0A2B0B5C
FF55CF7C
FC1B0C50
FFF00039
FFE90B92
FF950158
D05BD1A0
010FFBD8
FFC2158E
00E2FF6E
0AF69E9D
FF1CFFF2
003D1E5E
499FFEDC
1E5F0032
F96FFFD4
00590C40
00E1D9A9
FE79C89F
009E3D16
FFBA0037
0292FEC8
01AAF672
FDC6199B
1A0538BB
013303CD
EF02FD24
3DDA00F0
006E02A7
0122CA0F
FCFE021B
0087FDF1
0CEE2923
FF83D4D8
0001E643
FE7BFFE6
001E0003
FF93FF31
A8491DE9
FD3C010B
FFF0166B
025E3BB1
23AE1E4E
FF120064
FEE306DF
E7ACFEC5
0919FE7F
4F43FF4C
FE0AF228
FF9BCDB5
FDA32125
FB42E5D5
FF980160
F98A00CF
E9E91838
5AE205B1
FA210E57
B7000F79
518301B3
E892FF1B
FF4DDC95
00FE1224
E93CFDEA
FFB7FEE1
DBEF00FC
FEE3E915
FF72EBFD
FEE4015E
FEBFFA92
FF2D0037
E513DA85
FABBFC98
FF420C48
FE3110EC
088BF531
FF29FF14
0096FB22
002FFEA4
F87F0052
ECF601F7
FF9809F1
00B2D4C1
FFFB0A7B
1194E3FE
01440047
02BEFE3E
10280A84
333106F3
2D2BF45E
DEF21301
0B244155
2DA702A0
FF0FEF6F
011BEBBA
F039011B
01210237
2E48FE55
025DAD8A
FE80CE8F
0245FE15
0170FC63
005803F7
FDABB71C
01C5FC25
FF6C9253
02B105F1
DDF00AD9
01EAFFEF
FEC3F840
FFC4004F
F110023D
069DFE22
FFE502DB
010CC355
FF79FB4C
F5B2FB57
00C30170
FB95033F
DDB5A05B
EC7BE08B
E9E9AB15
E01920E9
1A8FF4D2
26FA010D
034B062F
FEEB124C
C9C0FB1A
0050035A
13EF09B4
0080F091
FED7CE6C
FAE6FF59
FFDE2928
00710180
FF502F50
0259FFBB
FFE205A5
FFDE0270
E6A1FC8C
000E004E
017813B5
05F00376
B337FF0E
F5D300E7
FF931779
0176E68F
F80EFD37
F83BEB18
F863F953
FDE5FE6D
0338F092
FE09008E
EDE008A4
F52CFB76
03AF0638
F269F970
2E5D0A9E
F70AFBA1
E6D9FCE0
FCACFA36
0365EA49
10B5E541
F43600E2
FD57F9F6
FFB000A8
FC5D03EB
E93FF95A
1FC40574
F993EA8F
EDCDFCA2
FA7EFB9B
F77EF32D
FD77FB59
E5282496
F513FE64
F68408F7
F869FC2A
F86EF3A0
FFCCE0BF
07B902E0
00E6FFA1
FD840425
1FA623DC
09BC20ED
187935F6
D0640FDD
F6A0E861
FA8D01C0
01E6FD56
004C13A0
0229FDF6
FF57FEE8
1018A596
0199B9B8
FED4E179
022BFE8A
0123E62A
00720072
F9130386
FE1BFD28
00CA0E49
00D9B0A4
05B101E5
FFDBFFB3
FFDF0A0A
334E0302
B11A0173
F6ECFECA
FF8B056A
FFAEF3AB
01C0ECA4
F62B058C
FEC7FF90
FB82006C
1D0749BD
D91E1F04
FA78C3FC
F3220CCB
F020166B
2753020F
00E3AE13
00A4196E
C343086C
FF97FF24
2C3C00A5
009BC546
04080EF5
FFC2FEC3
00921C3F
006703E1
E260FC70
FFCFFFB2
FFA10212
0065B019
0D8F0268
00BB00EE
00731ECA
EBB40112
0DB4FF5A
D6D0FEDD
FD740438
0074140F
FF269C4B
0F8CE433
FE920092
0055FB3B
F253E5A8
1E6E2240
E9630EA1
3EF919DA
3EC926E2
1D080119
00290410
0196069D
DB32FDFB
FECAFE53
20A4DEA7
FDCCA803
FC77EE84
002A0048
FF53C48E
FF0E01A9
F173BB86
FAA00165
FF793827
02451736
FEAEFD7A
006C00A4
FE620991
0271FAF6
D8C90003
0E42FF95
00872117
00441C09
FC18F640
F0842D8C
FD1BFE5A
FADA0023
E22B4499
193DD8A3
22ACBA14
41E51BA6
EC8B0116
094AFE59
F80AEBD1
00D8EDD1
1D2A08C9
FFA1FA28
DB20EF94
FC68302E
FA060D38
FF9B050C
FD41EC0A
FD48FA26
148BB671
FD08FD15
FE2AEFF1
FBE2D8BA
EB9AE63D
FD56FECA
00100C25
F3FAF627
049C05D7
60000128
032DF51D
FF7506B2
FEB30661
F81BF2B9
0113FFB3
FCF2FFA0
1388DD7D
FB692447
431EF22C
12C10A12
30F6E189
FD3A029F
FFA91CD9
01442175
E28AFD33
00B9FE2E
1D76CFA9
00A1C1CC
F94F45F0
00E60142
FFCF27DC
00960208
8E34074E
0454FE74
FEB1EDD0
002F0C83
E8A0C686
0010FFA9
006B1CA4
F1430285
0F08FF9C
F50A0033
0016DEB4
01382A34
09880EB3
053BF2A6
FE90FEAE
FBCE01CA
0256F9F0
05ED074B
FD3305FF
EBD20954
FA25FF88
073FF8FE
F31E0073
FCC40A13
F55E7651
FF69F0A3
05EA03A2
FFFB06D7
F758036B
E90DF730
00E10CB7
0341E65C
F815120E
09670659
008E09F2
F7FA0C32
FF9B03B8
F96001EF
04C4F624
0DE60421
FB0D0303
F4710054
F9C511BC
084F0BC3
FF2C1C69
04066731
FEAF0100
F69DFD61
F740D2B8
2B3CFFC5
FA2BF5FF
32DB1343
09FF2184
074BFCD0
015A0519
010ABE46
DC73FFDF
FFA1FF7D
0EE8EA0F
FFF0B6AA
FDFCCB2A
01980112
00B0DCA1
FF40FE88
B6BBD2DC
0293FD0F
FF66F18A
FE5DE9D7
185D0935
FE93FFDB
FF9B022D
5601FDC6
FC3202B0
9F1AFCD5
00CCFAE7
FFCD18E5
F1D401CB
081B1080
07860064
299BFFC3
0E66FB5D
05ED0B10
FA75E93C
0E5F0FB2
05180738
FC380274
FD3F009D
FEB8E840
F93F15F6
03B50407
0480F870
02BFFD99
E5D6FE3B
E7CEF82E
006A143B
FC13106D
0006096E
04A1F1EB
FE1FFC18
0CCCE9FA
0B62F819
041003AB
FF8EFD97
022CFE9B
FFA3EFE1
0EB001C4
FEFFF773
057D0992
021EE6E1
E7F41608
FED50075
FD07FEA9
F10D00B4
774A1EFC
FA72F3A2
C369160C
C2FA1533
183BFF62
04FA2615
0048EBC5
F6110110
00960328
0671148D
01BDD255
0460FEE6
FE1DFE54
01511D04
FFB0FEE0
0342C563
FFC2017F
00DB353C
0207F4A6
F05EB83D
00EE01D6
FFCC0DFF
B376FF89
EBFB0070
D2BBFDC5
011AF31D
FFFC12D9
03001480
F6CAE0EC
FE380143
F9A8FDC0
2A3314DE
26DA15CC
ACF922DF
21DE1DBC
F1010D79
FE54FE20
040B0D45
FF6DB034
DB43FEF3
FF1A0112
09F21EC7
00BEC34E
07153CDB
0371FF84
00E7F273
0018020B
E12221BD
0249010C
FFB6B4AF
00D0CB2F
F951FF2E
00970065
00B614A0
E9C9FE9D
B083FF1E
2AA4FE80
00EE067A
003E1A14
FF6305AB
0CEF1DF7
001800D7
FD7101F4
ACD533C5
125E0C57
D91E041D
2EA2E0FC
F70DEB58
DC650115
01EAE3EA
FF58CA50
F791040E
FF33FE59
356DE62A
0007D30B
F9390B32
FF57FEB4
004D1C18
002D00E3
0B9DEF44
FD1FFFCA
0012EA72
01870F29
FF03FD3D
008D0044
00112283
D3FDFFD2
E36FFCE3
E2D50148
FEC8E3C2
012D014A
067910AF
EDA2100B
02000283
FDD1029A
E50C215A
FAF2FA25
2DF1F839
28401898
FF1102BB
0729FE85
09DCF2C7
F5BB014F
237BFE5E
FF580B23
E943FE93
03901908
07032093
FD51F805
048ED41A
004A07CA
0D1AD681
08350DEB
00C9FAE2
0A5CFE9A
1269C4E1
011B0233
0392142F
1A380B34
F2BFF692
2048FE06
005A0D56
029FF821
00C7F3DD
E147E376
006F0098
FA28027D
13A6F47D
D396161B
35C603F2
2452302B
0C1E05CA
D41300B5
FE87107F
0130D8FA
B1390207
FFA300C9
4F69F146
0165F5A0
0257EEAE
02B5FEF1
0194FFAA
0003FEC1
30970DAB
05BEFD03
FED8FA37
FF51309E
13E2EB08
FF28FEC6
00C30F68
FEA9012B
16DA00D4
FCFDFCBF
021ABD38
012BF3AB
0682FA01
079A03CB
03F3FC2F
F80BFCBD
1A3814C6
0BCCE3E9
0D420A9F
0629FAC5
0B2924E3
FDC9FFB4
F98CFF3F
F4F1FF9B
ECCBF47D
045705B6
0FB3095D
F80116E0
0A170B9B
F3F5FD14
F7C7188A
0A20F828
13EA0125
F0430EB0
FC5CFA0B
FE11F491
0311040B
FFC401A0
0186F667
1E790C31
1309FC4D
02091C2E
E6FFEF57
FC7807CD
01810857
F1DE2C01
FE900294
FC8B0017
ED9AD91D
0DCD00B0
CF1E3DCA
CCE529AD
F6A1EFF6
1851FEF0
021B0427
FF8F3B0F
D267FD95
001F015D
24B608CC
FF10E187
FF40E071
FDF1FEA0
FFC9E954
00DCFFD0
F0D2C32E
FD69FE0F
FF7AACED
01E7B890
0860FBCB
FF6AFFF2
015F2202
186BFF48
2ABD0056
1DEA007C
FF5FF499
00D21ADA
FFB6471E
03440873
005BFEBD
FFB0FE26
14F8E167
0F333910
05450274
1A9EF453
D468125F
FC4EFEA1
00361301
00410ED9
C48DFF64
0094001D
0BFBC081
FFC8C1AC
02EB1403
01AA0040
FFD31D36
FF91FEFF
E06EE910
FEF6FDE9
FF9C01A2
0139E090
0D2C22ED
FF4B014A
FF8D230A
FF02FF58
ED30FC41
3680009E
FF16241E
FE6BB36E
0458177F
12D7EB86
02320216
FE7002F7
2037E4AD
EB712BCE
D1A0BC5E
1A6BFCF4
213DFB19
005A0100
02602D76
FDBEEF37
4BEA0915
01D9043E
F2EAEE99
013CFFC3
06A1AA39
F810FD37
0004EEEF
0421FE66
FA5206A6
FCE80586
00790FFE
FDD1EAA3
03C846BB
FFA7FF6C
0075F3DE
C5E909CA
2D97FABE
1EBA0596
F8E7EB46
01200CEF
F93AEF5C
F050E710
F5E40034
DD161D31
02D7F96E
FEAAEB7B
106CF07E
053AE78C
FD5606E9
FBAB02B7
0228F5F0
00FFF9C1
FE7D0DF5
FE3CFD89
F25CE2A0
F909DB70
FAB61868
F628063E
FD41E327
FC0DF95D
012EDA40
EEC9ED0D
FB28DADB
F984FDBD
EFB2E0AF
FADDFB64
0118E1A2
F6E7F1A0
E137E005
E8E6FA2D
FE50EE6A
0291DEF6
FD7BE74F
E3B7F37E
FA12016F
0C6603DB
DDCDF139
09731142
EEB2FBEA
F2F9F500
FDFDF3F7
F863FD3E
1F9DDDE4
F209E453
D449E950
FA90F4C5
09AFE11C
05569C8B
F105F3FD
EE28F259
00BEF14E
024FF9C8
E114D962
0E501023
FA62DE69
FBD5DFF9
E968D544
F7EAF80E
0338F838
F2241D5A
E98B0DC1
FDB81231
F182E098
02ADF6AB
009822E4
1647D2ED
000FFF8D
FE0600A9
ECC4E562
1B7E2E09
FBB40429
2B5A38C5
E0DB9E2E
33DB02C7
0734C1E1
023508DF
FB95F679
00EC041B
0DD40096
FFB299F3
0413F016
FF3A0094
0023162D
FF35FDDE
ED2822D7
FAD6FFD8
00BCF9FB
0203F313
1440DBD0
01220214
FE3BDF8D
3ADD00A9
07F6FEE5
1F74FE12
006EE415
FD762A34
FECDE262
20440EF8
FFDB011C
FAF9FD1C
F0A3E70D
E7CE2837
206A2814
3CE102FE
409BFDDD
48250005
00631C5F
0175D168
DE1B0759
00CD009E
17B8197B
01619EB8
FD1934A3
00DEFFDE
011907A9
FFBCFD58
3538FFDB
0179FD8A
FF9BF215
0005AAD1
126EB3A8
FEEE000B
FF20F0F7
FB54FF2F
19A10127
CA28FF3C
008FE2E2
0177D46A
FCA80B00
00BB20F2
FFCD00C3
FE14FFD9
F83520E4
C24E6221
D72B1794
061616AD
EC53F8CA
2E050169
FE07091C
005FF311
D529FF45
00210044
05AAFA62
FE99BA8E
F4DDFC81
FCCF01BC
FF1FF875
FF4501B1
05312696
FE27FF28
FDE41A50
FFA61425
9A2CFC29
FEC8FF11
00CC032B
3063FFDD
15E2FD9A
FCD0FFA7
FFBA1097
00731938
019DEB8B
11651617
0044005C
FB2EFC73
00C2FF6E
052D13D8
DFC60B22
F6B745A9
E9131B5C
0CBBFED4
01E6F396
FF9605DB
2041001F
FFEB00F7
E0D08D9C
00F2CE70
02B12B7D
FFFB0053
00C74EFF
FFCC0236
E6491394
0174FDD9
FFCDDE92
01A80AFF
FDE1FAFD
00C70071
FFA8E3C2
E97DFDD1
14C100D5
EF0CFE3B
03951A7C
00ACDA73
FFCF02FF
0E5FEFB5
00490074
FE44003D
BF25F70B
0D6F2CCD
387F1BA5
25792B74
FABB33FD
EB25FF3D
01AF0C1C
FFB4FCFC
0426FE88
FFEA016F
F7463C6D
014AABB2
FA9DDD88
0221FFD2
013D47B5
FF4501EF
DE30C720
0644FEAE
FF580AF6
00C3DB67
F77B232D
FEE1001D
0005F677
FAF8006B
CF2E025C
FA38FD37
0114179F
008F168A
FEE5D70F
148A49E5
0079FF3B
FC46FD1A
FF0BF933
013053AB
E5B8C8DD
BC32F73F
FBB11887
FA02017E
001000CC
00B4387C
EC530289
016F00A9
F70D04E2
FFFE875D
01622EC8
FD89FF05
01BCE473
FEF4FEF2
0C1BED0F
00CEFE77
0054D645
002F1FDC
1B4FEE1E
FF88010B
FFCC02DD
26360026
D3F80000
523CFE2B
FEADF78C
FE7F184A
