FB61
0803
FE60
FF6B
FEE9
08B7
FC82
FC97
051F
F9EE
023A
01E2
FA21
077B
FC1C
00F1
FBCE
FC9D
FF75
00C0
FCB0
F7EA
0B9A
FA2E
FED0
0865
FD61
012F
01F9
FC2F
FA43
FDDD
FF03
0404
FDA5
0B57
01CD
F79B
FA8D
FC4F
FCC2
FB63
099B
FBF2
0A64
F382
FE9B
FF35
F60C
F872
027F
FE2B
F9E0
014D
02B1
E57D
05CA
0398
05B4
0295
0365
F92D
038E
F6E4
00EC
F925
F89A
F62D
0A60
EDF8
0C00
001A
F630
FEC9
FFF4
FEDC
01B0
0809
FFA6
FA73
0C34
005B
0169
0111
F77D
F89A
FFC6
056A
F6F5
0073
0038
FE07
0071
EE18
FAEE
00C6
FB5C
0350
023A
016E
F67B
0191
FEE4
FF7E
F9EF
F660
F9B6
FCA9
F5D8
0653
0484
0A80
FC8A
0BF7
FF3A
FAEF
058E
FA76
FDED
FE9C
0B3C
0702
FC70
02A0
0351
021B
008D
FF94
FA1E
0C8B
0639
FB45
02D0
FB01
FBF2
F683
F338
09B9
FCED
F9BA
F61C
0164
0CD1
EAF0
00F1
0317
0184
0325
11E3
0A01
F8C1
2B5F
FADF
FD9F
FFA8
0944
FE6E
00D6
FE6C
FCF3
FDC1
0145
F542
F7B9
00A3
FC27
F33F
F58C
FB69
0150
0479
031F
0338
0A1A
FE5E
F06B
FC94
ECEB
02CA
0158
07BE
02E0
F413
FDC2
091E
F21B
FA24
FF30
F6D8
FDFA
05B8
FD8E
F7BF
F7F0
F776
F328
FDCA
01CD
EED4
FBB7
FC44
0E86
0001
FF81
FA3C
FF8C
F8B6
F65B
0025
F874
048E
F728
00E1
0590
EE7B
0000
FACB
FF18
FE69
07CD
03BC
F7EE
F4B2
FF88
F68B
F853
046C
FB22
1012
042B
F874
FEF1
F24E
FE69
02F6
FDB1
05E5
F9D8
F5DF
F833
039D
02CE
0573
01C6
F295
02EF
FB21
FFE1
0547
F0A2
F718
FA2A
F950
1C1B
02E7
F997
0773
0AD1
FE49
F84F
026B
FD9F
F922
FC92
00A1
013E
F9EA
0ED3
F68A
038D
0138
FB89
F832
F9A2
FE2F
0510
FDB8
F774
0683
FF68
0109
F396
FB09
F30C
FF9D
055B
FE37
0B55
FEF2
F83A
FC3E
FB62
FAE9
00B1
0930
F73B
FB42
0265
FFF9
FDDF
0415
04FD
FF48
F52F
FDE8
066A
06BD
0116
FCE5
006D
FF31
FD6A
0284
0970
E678
F5D7
FCCD
F601
0790
EFDD
F73F
E6D9
0922
0725
F32D
EFE7
FD59
FFF8
02E1
F897
029B
FB4B
0100
0611
FA9E
FD25
1591
0CC6
0404
0484
0549
0055
FAE3
05ED
03FC
0153
F948
FAC9
FD4D
F05D
07D6
08E1
03A8
0183
FA2B
F5CF
F4B6
E5AE
038A
0920
0603
F943
FDC3
0032
FAF2
025C
FE59
0618
06AD
0720
FD27
FF5D
0357
0205
07CB
FE05
0178
0346
042E
04A4
FD1F
036F
13A1
FD92
ED6E
FC02
00DD
1606
0104
066E
FE42
075C
FC7F
0564
FF7F
FF97
042A
F9DF
FD44
FEF6
0050
FB86
0381
FA0B
FD69
02BD
FEC7
F8B1
F880
FDB8
FCA2
F4DC
FFE5
0392
05E1
F894
00FD
FF30
0017
FF05
0ACF
FEF1
0823
FEA9
03C0
F5B8
FB79
0150
0135
FB7B
FCF0
0211
FE93
0612
0884
FA8C
FDE7
0642
01FC
E939
0363
0432
1169
0A17
011C
0D72
FE27
F5F9
015A
03AF
05B2
F851
1662
0931
0543
0541
FAFF
FEE7
FDA1
03AB
FC30
E0A0
FE10
FC69
05B1
05F6
F9AB
FF0C
FDED
FD59
02F7
03A9
FF11
0455
011E
023A
FA0D
F796
02B0
FF36
FA4D
028A
FFD1
F978
F942
FE62
F5F7
FEA9
FCF1
0080
FC25
03DA
011B
FA88
FE2A
0C72
0258
FB2C
FFD7
07E4
FD3F
0023
075E
FE65
FB53
FDE5
02E7
F785
0247
FB2A
001C
F932
0198
EBA4
035B
0E36
FAD8
00F5
0235
0AEF
F2DC
F657
F58F
0D6F
0549
F8A4
FFAC
FC21
EC31
FD9B
FE6B
FB00
0890
0577
FD44
E60C
F854
0849
F58B
F42D
FFF8
ED16
044D
019D
0309
F741
0C59
F4E5
F902
FB95
0A82
08FB
F776
F311
0326
0237
08E3
F2F7
F91D
F78F
F3A9
F0C5
EF96
00AB
091C
DD58
FAA8
0341
F2B5
091B
0D60
F9FE
FC9F
FEFD
F7A1
FF84
05CE
F78D
F19C
EEA1
FD9D
0265
00A4
F85F
008F
EFA6
0108
F7E2
FD3E
00CB
0839
F29A
0354
F0A1
F16C
EBFD
F204
FF15
0AAB
04C1
FC87
0035
FF55
F98C
094A
F96B
FF8A
0618
F9FE
EB30
FCCD
F3C9
F302
F022
E964
F619
03D8
0799
F93E
FB31
F579
FCBB
F694
FEC8
0304
F7DB
F7F7
017D
0E40
F953
F671
DB1D
0289
ECA0
F28A
FC9E
0333
0145
ECDA
0B73
EE95
F855
0328
F139
FBA7
F6A2
FEE6
04F1
FC69
FDD3
0117
FE88
0765
02B1
F859
F9DD
0D56
FBD2
008C
FC3D
009C
F022
F970
F9EB
F6EB
0D61
02A8
F658
F5BE
07D5
0034
027C
03E6
0627
F469
EEFA
05B1
FC2A
F564
0095
FDC5
F71C
FC8A
014F
FD62
0860
0898
F220
0480
12C9
F8CF
F7AD
09A5
089D
F667
FD60
08BB
F66B
F55D
0973
FA13
049E
0323
08A5
FDBE
F300
F986
F971
0775
FF57
EDEF
F5F6
0A3D
081A
0267
F661
05B5
EB83
F600
FCFB
E503
0DB0
0E72
FAF7
0407
FD4E
F942
0171
F891
0148
0154
015E
03B7
F666
036A
FE1C
04FC
083C
0C95
F339
F57E
FAAC
01E9
063F
F5C2
FBC4
FD57
FD37
F4BC
FD55
FC2B
F6F2
08D1
0D60
06AA
009A
FE17
EE42
FCCD
F6F0
0425
FF63
F937
FCE3
00A1
F359
00BD
F2B0
F86E
01E2
09A5
0124
03AA
FA5C
FB2B
1299
08C5
03D0
07DF
0171
02C5
FF1E
0FB0
0A4A
FED4
FF75
0AC4
0E3A
09F5
EBE8
F937
11A0
0810
ED71
0D91
13CA
FBB0
0B1F
1757
FF8B
FC79
043F
06E9
0BA5
093E
FE0B
0607
0670
0893
0772
FD7D
F23B
014A
FF81
12A8
1A32
022C
0768
1DD9
0855
F775
12AE
0F81
FA23
FD51
0FC5
09B2
0605
0405
FE4B
FD26
001D
0669
0005
0C27
FF48
F939
FA5B
F803
E1A3
01BA
0BF6
0B1A
0F93
0A77
F21D
0EAF
0B84
FAE3
0329
04C3
090C
FF25
F63C
0651
030A
15F8
0389
E78A
0CDE
0A91
0668
0C5E
FA98
0285
0600
1015
FE9F
F95F
122D
0CAB
0169
08AB
0474
F1F0
0F24
FEB8
08C3
0746
0FBD
028C
0BF9
0F48
E908
037D
0C8F
09D5
103A
0A3E
0F2A
064C
F6BB
EE7B
02B1
08A5
0551
FEB3
03A7
FE72
02B0
010A
FB6E
0562
026A
0290
0A9E
FF2B
FF8C
0038
0B3C
0315
04B2
FE00
0014
FC2F
07A3
0456
0E5A
0ACA
024F
0343
EF6D
FF1F
0389
03FA
00D4
2C2E
FFD8
0B77
056C
FEB6
FDDA
FD32
FCF6
0006
FED3
0356
0266
0470
032A
0139
08E7
0484
03E0
FC22
0723
FE1D
0210
03B8
00C8
0343
FD2B
0B90
FF14
0805
0C6C
085E
F91E
06B6
F800
019B
00CF
0057
093D
06FD
F9FA
FDE4
0AC0
0640
00DF
FCAD
066F
FEE7
F5A7
FCDF
01C3
FDCC
00E2
09DB
00BA
FD23
F7D1
03ED
06C0
00D8
06BF
0CA6
0ABA
0600
FD79
05DC
048A
0401
0333
FEF0
F65F
F970
010C
04EE
074B
FC78
0567
0234
02BB
0551
0833
0381
04C9
0686
0C05
039B
0193
FF5E
0117
FF63
10C4
FB9B
078D
FA8F
00C2
03C0
0B6B
076F
0710
0030
F39D
0030
FE65
F867
0368
03BA
F32B
F20E
13B5
FD33
FEAD
FB0D
00C1
FA52
017B
08C2
F237
0266
F797
FE62
FFE5
FE8A
FD00
F502
FC13
FD3E
EFCB
FD84
FE5C
FED2
01A9
0172
FA23
0A35
FE91
0338
FFA0
1693
F044
F267
F5B5
F82C
033A
F5D9
EBEA
F616
F4B1
FDF7
EEE0
E949
FA36
031E
10C6
FE54
0465
0119
FB9A
F175
EDC9
F79D
FFFE
06C6
0192
FE64
F036
F67A
0500
0274
FC16
FEB2
F32C
FC29
010D
011E
EDFE
0642
040F
F8B9
F22F
0092
E6BB
F8D2
F40C
FBB5
01EC
FB37
F7CA
0A3A
001C
00F0
12CC
08AB
0886
0127
08C3
0647
0CC5
0CB7
08A6
EDF0
F609
EFF5
0338
0A26
046B
05CA
06C3
FFB7
00C6
08E7
FC0A
FF27
0E7D
00CF
0325
FC25
FB66
E8A1
003F
0516
F06F
FE1A
F5AD
F5B2
FF2D
F29B
146A
FEDF
EB8C
FA3B
FD7D
FBA4
FFBA
00C7
FD2C
0308
00BF
F7B1
FC36
0AFB
FC9A
F81B
F2DD
FD39
06A9
05CC
01C1
F615
08B5
07DF
0F3D
FB7A
024D
0D57
EFEA
011A
EEFD
0142
F639
008B
07DD
051C
F73A
F02A
FB37
F042
FE6C
F5D1
ECAD
FAFE
0390
0DB4
F61D
FEA0
EAEC
006C
027D
01B3
E46B
0364
F5E6
FE64
FD9C
02AA
0130
0D93
F3B7
020A
0315
03A8
004C
04AD
F398
F522
0109
01BC
FE63
02B9
0043
FF36
F7B7
F83F
12EB
FAF8
021F
FF30
01E4
011F
FC92
01BB
116C
156F
0121
0F96
F8F4
00B0
027D
FFAB
058D
F357
0AF5
0221
FCE3
FDD6
F7CE
F911
05BE
EA95
FEEE
FDFE
0957
F369
F70A
FDC8
FD4B
0C22
FEF2
F53A
001F
F9BD
059F
13C1
FF86
015A
FD70
0776
F6D7
0FCA
0C49
FC90
F961
FFC2
E6FF
FFFD
FAF0
FF52
FCB0
FB96
EF0B
04FE
FCB8
05A8
F795
F84D
0563
FE8B
FA28
0623
FF29
F74F
F1B0
F53B
0D16
01CC
FDF9
0B8F
FFB7
F509
EFE2
FF8D
02E8
03AF
01EF
FEA8
0C5C
009A
0218
FFFF
FAA3
F819
0912
0B00
05A7
052B
FA51
0A92
F3E7
059F
FA97
0C19
F985
0991
125F
FE58
066E
F7D0
F4DE
046A
1DBF
F6FA
FDCA
FA36
0667
F9A2
FB61
1280
FF27
0108
01DF
F647
1984
08AF
FAE2
0364
FF42
F5C2
FBBE
0205
F4AB
0262
F04A
03B2
01B6
ECEC
F67D
02C1
F3F2
F32E
00C3
063C
0098
EE01
00C0
0042
02CE
0167
F2AA
F727
FBCA
008C
FB95
F164
0AD6
F3A4
03F9
1535
F911
FC25
04C9
F7DD
F586
FB74
0ACE
0BFF
FE21
FFA5
0028
FA95
F85A
FB4C
0586
F774
00BA
FC86
0279
FD38
FCB0
02B3
143C
0027
F5CA
F775
00F8
066E
0112
F77B
FA89
FA6B
019D
FE2B
082A
F6A5
069D
0290
FDB9
FA35
03D4
039E
F508
0AA5
FAFF
03A3
0A22
FF25
FDB7
0FC9
081E
F4E8
FB3A
F74B
FD54
0392
FEAB
FD95
F19F
0203
FBF8
F9F7
0505
10D6
FB50
F111
1B4C
F49B
0757
0176
052B
F430
EE90
061D
F906
FFF2
F17F
F68E
F6D4
0960
08C5
FE4E
002B
F2AB
F728
FCCD
F8B8
FBB4
FED5
F99B
0066
FD0D
F781
F743
0106
0349
0568
EF89
03C5
0202
0418
FAD0
1691
FB71
FE6F
F03F
FF21
FD9C
EE0E
0C0D
FADF
FC47
01B0
E3E2
F644
F786
FFB7
FC19
FF66
FF61
F831
0579
0500
FB8C
FDF0
0351
034F
0C1D
F936
0124
FF94
FA56
0BD4
01CA
024C
FEB6
FE92
12A3
FA8A
0056
FB1F
FB4D
021A
FF6D
F1BC
0784
005B
FC2A
0E3D
F833
ECD3
0361
D8DA
DE3C
F948
FDD5
FFB9
FB7A
FDF2
04AD
FB6D
FFA7
FAD5
F8AB
FCC4
0732
F53E
011E
0908
F4C2
103E
FE25
EF68
01F1
F8E7
F42C
0F73
F6A9
FF57
F00B
F7C1
FF66
1C27
003F
14F8
FFCD
01B4
0449
FA53
F84D
FAD8
0C42
1465
F6A7
EE1B
0568
F90B
FE54
0AE0
F878
059C
F5EC
FAAE
F821
041F
F99B
F968
053E
E7DB
0444
FD2A
FAC3
FB5F
F847
F083
F63C
FD28
FFEA
021A
043F
FF05
FF01
FCD6
FCF2
01BD
E2BE
066B
F86F
FEB4
F679
10B3
07C0
0157
F380
FEAD
04D8
F54F
E5A2
1AB0
0ADE
FC06
168D
E675
00A5
FD9A
0201
0B73
FAFE
F377
1184
FC2B
F231
FF76
EF3C
01D7
0295
0B13
F2BE
F99D
10E2
E6CB
06E9
091E
FBE0
FD0A
FE4A
FFE3
F881
F095
06C3
0113
0727
E966
0A68
064F
F817
EDB6
072A
0174
F4C2
016E
0618
06E3
FE2D
FA16
048E
04BD
03E2
FFE4
07D9
F3B9
F1F8
F8D4
FD05
F8E7
0607
01C8
F10E
080F
07F0
09CE
FFED
085C
F8BF
FF7B
EB81
F604
F56D
FB56
0890
FC29
04E1
FA03
032E
0A30
07DA
0D5D
0118
FF64
187F
F71E
05FE
FA43
0561
F78A
0335
03E2
F93D
F38A
F5A1
F235
0332
0DFE
F4C4
0C2E
01F8
0807
FC53
FE55
FF04
FB9A
04AD
1915
0579
049E
05DB
FD03
01F4
03FF
04D6
0950
FF5F
FEC4
F32E
051A
FD52
F8E7
FDF5
F667
055B
0298
F0B3
FF64
00E2
FF7E
F695
EFF2
00B0
FC09
0BBE
FD12
FB5B
FA40
00A9
FA77
06AE
F053
08F4
FEC0
F998
0A50
0B96
F6C1
FB88
03B6
F798
FF77
06E4
0BCA
065B
032B
FF3F
FD75
FA87
F85F
FF2D
13EF
F888
FEEA
F503
F546
F271
F429
E52A
FD8A
01AC
0D39
05B0
F401
0A74
F6FF
02EC
01AD
FB15
0926
FF94
028D
FD50
EF9A
E754
04FB
FFCF
055E
FCFD
0221
144A
076E
F6AB
090A
FB90
02A2
0C65
06A0
0AB2
F900
07DF
FE8F
0571
ED6A
F68B
019B
028A
FCF6
FBC3
FEFD
FFA8
FAE2
ECE0
F9E1
FEB5
FB28
01C8
F6CF
FDCD
00F4
EACD
E97E
FF32
07FB
1087
FEA4
091E
FF1F
F5FE
F9BF
0CEF
0104
0280
FF82
0710
EC74
0429
FFAE
0A3A
0404
0110
1112
1B1A
E86B
FC5C
023B
FE81
F9FE
FD20
07D0
03CF
0929
F90D
0048
0351
0A11
0265
F7BC
FC20
1559
FCD1
FB1B
F3E0
02FE
06E1
05FF
062B
FB69
0FB6
F09D
0401
0572
F7A0
008F
02D5
094A
EA81
EDDB
EFE6
FF90
0505
FAAB
015F
0B7F
F439
FB57
FD59
F206
F26D
08C7
FE64
00B1
09C3
F86C
F62D
F288
F9B5
04E1
F6D2
FED3
FA92
F71F
FAD4
06BD
FDED
F00B
08E6
FE3F
06EE
0AD3
FC01
EDAE
0290
F9F9
F691
F9B1
FB6E
04CB
089E
FA36
EBD7
003B
F616
FAB0
02AD
FADF
EE26
F4FB
EF03
09F8
FF08
F685
F681
F11C
FAEB
F5ED
0118
F965
F841
09B0
1858
FF53
F971
FECD
FF52
040D
FFD6
FC8B
F1BD
1375
F638
F9C5
02AA
F94C
05B3
045A
1078
0A39
EEB6
0DAA
028A
FE43
F0D6
F643
005E
F81A
F9F9
00E1
F06B
0A30
F6A0
F9E1
0E15
FCB9
039B
F6DE
F842
05CC
027D
EE02
FAC4
FB6F
1015
0178
025B
F81F
0CE4
0754
FF19
F90F
F535
01D5
0CBD
FBB0
0198
FD04
0562
F029
F4AA
0036
0A57
1F70
04A0
F5FA
094B
06E4
FFDD
FC9B
FB07
FF34
F99D
F93F
F2CA
0125
F6DC
076C
0583
0236
0162
00FE
0547
06AC
0481
03A3
F32D
07FE
0073
F4F7
FB0A
07E6
F81A
FDC3
0305
03BE
09A1
FCB9
FE57
FF74
FBD7
F170
F52C
FF41
FD12
FD0D
FDB5
0279
1FB1
01F5
EFB1
010E
0105
FFB8
0188
0247
FE92
F245
F57F
0A0E
F7A8
FB42
0B06
01F1
0225
0477
FFE4
0371
0038
0001
16A5
FCA4
13B7
FA70
00EC
1BEE
032F
02AA
FFB0
0281
FDA2
02E9
F775
0F3E
F404
008D
0038
09F2
F9D6
FF71
037E
FFD3
FDA7
10BE
FDBD
FF14
FA46
0474
FA5C
FEF4
FD9F
085B
FA08
0378
032F
0919
F37A
FE2A
014E
E96F
09CA
FF45
F5A8
FC33
0204
0235
03F2
FCDA
0301
F434
025F
076D
064B
FC85
013D
FE17
F416
0577
FEBB
FBEE
F641
FE01
FA68
08F8
F956
FCBC
EF4C
F9D5
F84C
F52E
0F9E
FF83
F47F
0134
EBC2
07B5
0C5E
FE4C
0FED
FF67
FDF9
08EB
10BA
F9CB
F8E9
045D
033B
0A87
0279
F30A
FC16
035D
FFD7
04C8
FE34
FFA0
0765
FFAA
F7F9
FEC9
0722
F5B8
0FE8
043E
0834
05FA
02F7
F83D
FF4F
0064
F8ED
FE67
FBDB
0970
01BA
FAAD
F615
0B86
08D6
F35A
0335
FF6E
028B
1224
0078
FAC8
F129
FA6C
11DE
F258
EF9C
0036
FF2C
FF45
F984
F634
02F2
06CE
06A4
FCB9
FE8C
0020
F71F
0143
0DE4
0113
F63B
012F
0842
F64B
F04C
FC9C
FEA5
02AF
00A3
FB6C
FE93
E7ED
FEE6
F40C
026A
F9F2
E876
F972
F1C5
F674
FD1E
FDA5
0223
035F
EE44
F9AA
FE82
FDDE
059D
FED6
F085
FCAC
0225
0199
FF5F
F906
FF27
F714
01D6
EC33
F984
01E5
F93B
FA95
FA25
04C3
1817
FE85
FAA9
082C
F828
FF05
FB84
0071
03CD
FE60
EEA6
04CB
EE4E
FA89
079B
035A
0B84
F377
FA75
FC80
0B17
F860
F471
FA86
FEAA
FEEE
00BE
F997
FE6A
056F
025B
F76E
034D
0326
048D
FF00
0307
00A2
F83F
FB48
F554
FBD0
0850
F68A
FD8F
04E6
FF7F
FE66
FEB6
02D5
05B7
09F9
F8A2
08BD
027C
F55F
FC01
FE61
FF3B
FBD2
FFF7
F65F
FB01
09F0
F866
1103
FD1A
017A
0455
1B11
FFD4
FFDA
0CE7
04C1
F987
E640
FF6C
E970
0857
0BD3
F56A
065B
0361
028D
F220
F9B7
005B
0133
08CA
00F2
F44F
FFB6
03D4
08D6
F5AE
072A
FE99
000C
0662
FD73
FB0A
ED5B
00C2
F48C
FD8C
FEAE
F984
FC59
FF7F
F422
1005
EA2A
FB43
001C
0527
00AB
FED2
FF09
FCAC
0354
0056
F9FA
F6E4
090C
F5A2
FD65
F835
F35B
FEF7
F4B5
FF88
05A7
0497
056C
08B3
11FC
F9DB
FD9B
F7F2
FCAD
FE77
F793
074C
FF15
F25A
004D
EDA1
0B8F
0E4F
01DB
11C8
F311
0018
F5BA
EE46
0590
FD83
F78E
FC5B
077E
FD49
02E2
F833
FC15
F31C
0146
FB86
F863
06CA
FD98
0A92
F64C
F7DE
05A1
01E6
FD63
FE54
F92C
F3CD
04B2
FE0C
08C9
07C4
0EA1
F808
F6A7
01F6
F3F2
FD40
035D
EFC9
00A2
FEC3
FF01
0D67
0AAF
F9A0
029D
014E
F89C
E14D
FB3D
F56D
F6BC
F777
2B91
FE97
03B4
F74F
FCC3
07A7
0530
FECF
F3A9
FE14
03A2
0F53
FF6A
FB0E
FD50
033C
0594
F91D
EB84
FF75
FE05
FDB3
FCBA
0231
FB8A
F8C7
F739
F5D1
FCCE
0DEA
019E
FECE
08F6
027A
FC63
F692
FCC4
F7CA
F989
FB49
033A
0326
0202
0002
003B
F55A
FB3F
FF44
0D06
FA37
03F4
1B7F
0362
00E6
F8C4
F899
0BEB
F2B1
FF27
014B
FF60
FDA5
0B4B
FD18
F9E7
028D
FF16
0F3E
0915
0693
0EAE
F69B
F177
F8CC
0A17
FF40
F42B
05F3
130F
FF18
000A
05AE
FC9B
FF48
0265
FCFD
030F
EE8F
0102
F67D
025F
F9E4
FF2E
03F7
FEE6
FC12
02EA
0460
FC1E
0C0C
06C1
F7B4
0F72
0BA3
0102
0294
0853
FCCE
FD20
0136
FB0C
FE78
01F2
06DF
FBA4
E987
094D
FE69
FA2C
F850
FEDD
01A0
FB70
0171
0EE5
027A
EF49
10D7
E7DD
EAE6
0AE8
081E
F745
FC0C
006F
049E
F364
FC7A
FFB0
F371
FE1E
0027
0177
070A
FE26
022A
FF33
FBD4
040D
10C5
F303
0127
0668
0481
032F
ED96
FDC4
039C
F690
0185
EF6D
05BB
07DE
F7E9
FFA4
F24A
F20A
FE1C
FFE4
FD52
FAA9
03F2
07D2
F89B
00BF
FD43
F679
098A
00EC
F5DA
F75B
160C
0071
0BD8
F48D
FCCA
FBC4
F8EF
01FA
F969
0054
071E
ED3A
038B
FD4F
00AC
161D
0880
FD27
F96A
FCBA
087B
0DA9
FF08
15CF
0553
FD0E
FDD6
FEF5
F765
FF82
FF47
FF21
F9B0
FBBC
1199
0423
F93E
0193
00DD
0413
0242
F8B3
074E
FF86
087D
0057
F6E1
FD20
F3A4
FEA4
0052
0FA8
00DB
09D0
FD6B
0308
0089
EF6E
016C
F455
FC25
0067
EE73
0364
1F2F
F18E
0144
FCE6
01E4
F67F
FE71
F859
0E29
1578
F50A
FDAB
F247
0191
085B
F95D
08F0
FF75
F381
F555
06E6
F575
FB08
FF4E
0384
FFD3
0172
EFE5
0A76
042C
F75A
FFBA
022A
FDBB
FFB3
F78E
0490
F90D
FC5B
0247
0797
FAB5
FC3A
FB3D
F150
07B4
F707
023D
08DE
EE8D
0439
009C
FB82
0702
FEFE
FBB8
04D9
F4EC
024E
F8AC
0376
FB46
1637
F84F
09D3
0087
03C0
FB01
FA51
F9EA
07BD
022A
1598
F932
FAC9
FFEA
FE90
068C
05C9
FD3E
FA36
01BA
0A49
E55E
FCF2
09BC
031F
F710
1184
F8D9
00D5
0C93
FBAB
F6F1
FFBD
0025
0090
FEC4
049E
0717
0009
F247
FC03
FE8C
F82B
FA9D
0573
FD27
FEF6
0249
EF76
FB7B
F536
FA81
002F
013A
0F95
F928
0A1F
FDD8
FFF2
F401
F982
FFB3
F8E4
0C55
E772
F6A9
FCF5
F37F
07CF
0528
FF41
0139
FC71
00C8
FD08
FAAE
0015
0DC2
F99B
FC2B
02A8
F883
1266
00D6
FB94
EE98
0D0C
01F0
F897
FD51
FBF0
0028
030D
F3F4
0188
0950
011D
FE67
F99E
FE1E
FAFE
EB09
0289
09CB
02CC
FE05
150F
F472
0045
FB4D
0E27
074E
052C
FA5D
0E8C
1480
045E
0255
FFF6
FF6A
F9C7
1AEE
FF82
055B
01EA
FEA0
0711
FC09
0B52
F348
0CA9
FC09
F83A
FFE8
0494
F6F9
03C7
F9C8
FF91
F974
F5DA
F797
F676
FFB8
1243
0002
13FF
06B6
FF8E
F7C4
FD73
0318
0036
0D6E
01F1
EB3E
FF3F
FDFB
0118
FF60
0086
FFD4
0536
09A5
0376
E9A0
F8A4
F6E3
0119
FD70
F8CF
FD83
0063
F804
FDBA
057B
076D
F6F0
01A9
0522
0262
FE45
F4F7
0D38
0001
F1C2
FE52
0B24
FE8B
02D7
042D
0D87
0336
FDB2
00F8
F7ED
F82A
F52E
FDFC
05E1
02AE
FF01
003F
FF99
0D06
FBD9
E786
05D8
049F
F820
FF31
FED5
005F
FF9B
FCFD
1F23
F267
016E
045F
FE7C
F74C
189A
F6D3
FE82
0040
FD81
F6AF
F698
FBB1
FD54
F7DA
F81B
04A0
0116
009A
FDD6
FCD6
F3D2
0154
1154
F21B
0A26
FF3B
FC56
01A3
FDFB
FBC5
0DE3
044C
0F2B
FEC2
FE50
FEC3
F15B
0867
F3B5
0102
128D
F631
05A1
FB1A
002E
F34C
F70C
F447
FD55
EFCE
F29D
046F
1FC9
FDE7
0223
FFB3
FB5A
FDAD
0350
05DF
FDF5
FB6B
06EE
0691
E909
0C06
F7EE
0B5F
FB8F
09E3
FBC6
FC8A
FF83
0767
0693
04A5
02A6
FBEB
FCC5
0993
FEB0
0254
01B5
F7BC
FF7A
FD7D
FDF2
FB24
F67E
FC41
003C
F8FC
020E
FCCF
F6B9
F79E
027E
068F
0586
03A5
F85D
0090
FE44
FD5D
079E
0E44
0020
0574
100C
F8D0
04B2
0B9B
F944
F5C3
00EB
F3E6
156F
F534
F835
02AD
F66F
0191
0044
FEB8
FD53
EE31
F496
FF77
030D
0604
FD25
FFDF
00E7
06BF
08FD
F024
FBED
EF40
F7AA
02D7
0016
0086
01E4
F70A
FB1E
057C
FD4F
0217
021E
F51A
F414
FC14
FC49
0822
F7A0
FDB7
011A
FB9E
F2C1
0AF8
FA54
05A6
0366
F66F
F1B6
FEF4
FB68
08CD
073C
0131
FC57
0538
FB4C
EBFA
0389
FBD9
0365
01F6
1611
FEFB
FFB7
FC40
FCA8
0938
F9D2
FDA7
0466
00C9
F389
FE9B
FA83
FECB
10B7
0489
0649
0284
FEEF
FD7B
FFB2
FDE9
0392
0231
0186
FEE7
F3DD
00D2
082C
F372
FA6B
F7E1
13C0
F967
F8B4
01CF
042D
02C0
0359
FF4E
0814
F887
FE3C
0686
0679
FF15
06C0
FDA9
043C
FC80
0093
0611
FBE3
D352
06AB
07C9
0856
0744
1727
FFFB
FE72
0282
F884
0E79
0A8D
FE48
F08E
0F67
F99D
EF38
F9E5
FBF2
00F0
0756
010C
F47F
06D8
083C
FE61
F290
00F5
EF2C
11BA
06D6
EC87
FC61
FF9D
EF4E
ECD5
FC10
FE21
0279
08FA
F605
004A
04BD
002D
FCDA
0CDF
EEEF
0B2F
0303
F813
DCD2
0E99
020E
03FB
068E
FB88
F24D
0A66
F613
FF3C
00F8
058C
FC91
0016
EF5A
E62D
06BA
0C64
FC69
02BC
001A
02EF
F652
FD6B
0527
F896
0797
07A9
0945
00D4
F65E
F69A
16E6
EA9F
0296
063F
02C2
07F4
FDE7
FC76
FBFF
049F
0838
F966
FC8B
FFB4
0036
FFF1
FB03
04F6
F2CE
FED4
01C4
F63A
03C2
0254
0C6C
1658
087E
0021
FA8F
019C
FDBD
FA14
03FB
FF50
EFA9
FE4A
F858
0307
02DD
FEFA
FF10
099A
F9FF
057A
02B2
04B4
0F48
F659
EE8A
07B6
0019
0D36
FE4D
0819
0913
FB7A
F762
E465
FC74
0888
F4B3
11B9
02A8
F4AF
1A9D
FE1E
FB52
FA8D
F8CC
F4D7
0868
FCBA
042F
FF4B
FD5D
045C
F9BE
F5B2
0974
0525
05A1
F8B4
FC47
E67B
FCFE
0E33
059D
FE57
FA8F
07FC
FBD1
FC98
05F1
FE09
01C2
0199
0A7F
EFAE
FACB
02D8
FECF
F85D
0C5B
0490
13C0
00F1
0095
137E
FEEC
F99F
F6AB
F593
F9F0
F9AC
FBCD
F688
FB47
0852
00AB
FE5E
1DF2
052F
EE36
10C3
F883
018E
FFD3
EC3B
FFEE
F260
FAF3
0BB9
FEAF
1065
FD67
18A4
F674
FC71
FCA9
FA52
1011
0DBA
0302
03C2
F93E
EA88
F29E
FC1E
0D1F
F92A
F4BB
0077
FC75
FCC2
F1A9
08C2
0205
05A6
F68D
F562
F7DD
FD12
0B09
0867
000A
E460
FAF6
214B
0237
F6E8
FEE1
FBB4
F831
0939
EB48
09F6
FEA0
002A
FF55
073C
FF44
04FE
FC72
EFA1
FA8C
FDFD
161D
EF56
0977
12E0
01AB
0539
FB7C
0037
FB16
FD50
0151
0911
FF23
FF46
F550
FEC3
FFE8
0809
0FE7
F73C
F36A
0094
F9D6
0082
FBF3
00C1
FF17
034E
011D
01C7
F79B
FD80
FD36
110F
FBC4
F229
021C
FB02
F392
FBC4
06B1
0211
066C
0342
FCA0
F6A7
0715
F8AC
FC88
F560
0A23
FBC0
F158
F565
1208
0518
0108
02C9
04DC
0194
FC36
FBB3
FC45
FDD3
FA21
F2AD
F5A9
FE67
FDA0
16BE
0184
05C3
07B5
089A
01FB
FFE8
FF73
FE4C
F5FB
F1DB
025D
F59C
01E8
0C59
0292
F665
FB21
07E9
F9B8
FDE6
013F
FEF4
FF43
0112
FEC2
F802
0193
FC01
009C
0047
FFCF
FB61
FDA3
F958
F636
FBD2
FBDE
FBE2
01AE
FA58
02F2
F8AA
FEF3
FC8B
FC8D
FBEA
1135
01AD
064D
FD4E
00E1
F069
0A04
04B5
F988
F91E
FFCB
FD6C
FEC1
060D
033E
003D
0613
0301
FE7A
0DED
0179
FC7E
1124
0BB0
0009
EC26
FC47
0F39
03D0
0EAD
0588
F85B
FB14
F0F0
FD8B
0352
004C
FD7B
FDA5
0913
FB55
1CE0
FFF4
FAF3
EC85
0243
0076
0568
FDE4
0D16
FEF9
00F5
FFA3
05E3
02CD
0321
FACD
FA43
FF02
01E4
FAF7
0165
FBC3
00D0
015A
FE99
F948
02CC
005A
024E
F979
FF3E
FE7A
FA23
F7DA
FC02
FC0E
FE8F
FDC1
F5F7
FF4B
060A
F95C
0606
F744
FEF0
03C6
F8B2
FD1D
FD3A
FE83
FA73
FC4A
01DE
F4AE
0224
F8F0
00F3
065C
F115
0077
08E2
FA3C
F601
F9CD
F961
053E
F722
0901
080B
FBFE
0420
F89E
FF1D
F780
0064
02EC
FEDD
FB83
F3CF
02AE
0CC0
0116
FCEF
FD36
07F5
0221
039A
05E8
0046
0472
F1F6
F2F0
F0B7
0385
041B
FF2A
EF8B
FC3A
035B
06F6
EF73
FBFF
06F8
FC46
0069
12FA
01E2
FE7B
0991
0292
FF54
0B15
0153
F8BA
FF5B
F86F
F08D
F59A
F553
FFCC
FE74
FAEA
FEF3
09FF
EBFD
F8EB
F48C
FF30
FF52
F5DA
0B91
02DD
FB3B
F3F1
0A22
F4E2
0046
02E5
00F3
05F8
03D6
040E
F011
F74F
0DA8
0671
FD7C
04D7
FB79
0051
0007
F619
EFD1
FC73
0C8E
FEDF
F776
11F6
F9D8
1475
056E
F559
00F0
039C
049E
0526
00D0
FE06
0466
0FF6
FF91
0254
FE9C
030C
0113
FE63
E820
FAA3
0211
FAF7
F4B7
028D
FDFE
0283
F8E3
0094
08B2
013B
F4B2
FDBC
02B2
008C
ECC9
06BC
074D
FE07
F3C3
08AC
02E7
F9CA
027D
F175
F5B1
FE24
0640
FFA6
08BD
F7F2
0862
FB43
03D7
E827
F5D2
FC45
FD25
FC5F
02D2
04C7
F78E
FC65
09EA
FEFD
0258
FB4A
0139
0625
050A
05D5
02E7
06D2
002B
FBE7
08D3
0117
F6FD
F313
0301
0BFE
F24E
FB22
FEE9
FFC3
FE79
F2A9
0F16
F619
FCD9
0043
0493
01FD
1AD4
0427
0499
034F
FB6A
0401
FCFD
F134
FDA6
FD01
01BD
0722
0174
F884
0705
0045
00BD
04AB
E6A3
1027
03EC
0432
FC57
03CA
FC0F
FF3C
F8C4
FEBD
FCED
FD29
0273
0687
0076
FFB3
F5F2
FFC6
03A2
00EA
FF91
FAEC
0580
FD15
0363
F95D
F35D
EB2A
0370
01ED
04C0
FCFE
FF2B
0089
04D5
FB27
00AA
0095
0338
F448
07C9
FF58
F217
050A
F810
FA65
FB54
006C
0243
F4B7
0831
F987
034D
FBB5
009A
FE83
F9FA
02FA
0911
FF11
F13E
0C35
FF30
0340
FF12
018C
F4E9
FFBD
0342
FA4B
0847
03C4
F6E7
FAD2
0446
04D9
FC59
001F
F65D
F573
F98A
FE48
FA16
0280
0316
029B
FA41
FFAD
0487
0419
097E
FE54
FB95
F976
FD01
0619
FFC7
F20A
F861
FA81
05C7
0828
1373
F94C
E90D
FECC
06CC
0C2A
04CC
EA3C
FB1C
0A7B
F7B2
01EC
FF66
01C7
EA5C
F17C
0101
EC1B
0DBB
0C23
039F
0323
0020
FCD4
FF1C
044D
0488
FB3C
FE2B
01B4
F366
FD1B
0B94
FF6B
09DB
FAC8
F9B2
FEC2
F418
007F
0DC0
0913
EF83
F858
0376
FB69
043F
F9BA
07B3
FD0D
05CA
FBA2
02B5
0213
FBFC
07A2
0FD3
021E
00F1
FCD0
F927
FB5A
008C
16BA
0707
0008
071D
02B1
03C1
FFF3
02A9
FE83
0C8E
0282
FB32
F57B
F4B0
F836
047C
FD80
FCD3
01C0
FDC3
FE60
F94E
F78E
06F3
F825
ED6A
05B6
0057
00E2
F8CE
00AD
F1B6
000C
059E
029D
FD8F
F7C4
0009
F7A7
F869
FF34
0321
03BC
FDB5
0011
02B3
F6B6
F20A
F822
06AA
07B4
FA81
1792
F876
F91D
F979
EBC0
0070
FBB2
F7FB
FEF9
ED72
0E75
058D
FA81
01FC
02C4
FADF
FB67
F7DE
02C6
0548
F8A8
0CE8
FD65
22BF
0154
FCF9
F8A7
06CF
EF19
02DC
01F2
02E3
F843
FEFB
02FD
FB82
F803
FECA
F7AA
FE25
FC94
F623
0192
F69B
FB99
FF29
0CF6
0212
F4D8
F65A
0831
0A18
FA72
F6A5
F8E7
FF20
FEC8
08FE
F184
0208
F496
F9DA
01F9
0A07
07FE
FEEC
0402
F9F5
01B7
05D9
0734
13DC
0741
FAEF
005E
FB50
FED0
07CC
FFEA
02E4
F3ED
00E5
0758
0076
0007
F54F
FF98
12D0
F109
0439
04CF
FDFE
ED65
071C
FD57
FD31
FE49
03EA
FF4C
FE15
0A19
E874
001C
F918
0682
ECC3
FEFE
FC58
0067
FB9E
06A5
FD5B
0721
FE04
01DA
FD6B
F3D2
02E2
FC28
05DA
FFBF
07F6
FC5D
0A01
0372
F8CC
FB27
F6FB
0734
F27F
0252
FE33
0B23
014C
FC7F
0F8C
FCEB
076B
FB6F
FBCC
FB06
0077
FEF7
EECE
FD4A
08FD
0379
00C6
0788
0224
05D1
FE1E
00DA
EEB0
F517
FFBA
EFDE
1095
FF25
0B3B
0215
0EEA
E970
FD2A
F032
FB59
FF66
FDB8
FDE4
F67D
E7DA
FDD9
0285
FCBE
FF1F
FD63
063F
FD92
00C0
F6B1
EA57
06AA
F228
0374
F4DC
FDED
F912
0195
0983
FF93
03D8
0121
FBCD
002D
FAC8
F432
FF68
0B21
FA99
01A5
061A
F9F7
F713
F628
FCBA
F6F8
0274
00DD
FB47
EF00
0234
FAEB
0902
F449
03B0
01EF
FF73
FAD1
0CDD
09ED
FEBE
00D7
07D5
F415
FBFF
0B29
086A
FDD1
0F6C
F617
0779
059F
069B
F6A9
0478
F682
FB3B
FFA8
FCEF
F305
059E
EBB6
E8EA
FDDD
E903
FA20
FB21
005E
08AC
0343
021F
F66C
0BA6
F59E
0908
F991
0F9C
FCDD
FC73
FB58
F6AE
F5A8
FA6B
FD88
029D
FC75
0E34
039F
FC14
0010
0741
100D
F060
0906
F86D
0766
06BC
FFA0
09D5
07A9
ED5E
E7F5
05D9
036B
FE49
ECEE
03A1
0771
F85F
0620
EF63
FC6A
F4C3
F7DF
FA76
0B8D
08ED
0B4F
00CC
02E5
F712
031E
00AF
F19A
FAE2
F987
06A8
FDA9
F4C4
F399
064D
0BB8
F754
FA57
060A
F5EC
F675
04F7
F772
08F2
E941
01F7
0CE6
0626
FF8D
0331
01D0
F5B6
F12E
05FF
0323
F4E7
1577
0629
00EE
0296
01E3
FDDF
0031
F749
F868
05D4
0AD0
06EC
FE02
FA69
0171
059B
0BDE
F146
E783
0708
FE40
019B
04E8
03D6
09D6
00AA
FDD0
EF40
ED1C
F865
0034
FC86
01AE
EFD7
0734
0716
057F
FA9F
14F8
FFFB
F716
0524
FF1A
1038
F4F5
FBF4
F7E7
031B
024D
F36E
F52C
EAAB
025C
1106
0241
F4B9
F53D
F816
F8A5
F1B8
FE32
FF64
F958
FE4A
084B
FB54
FFF8
F974
0551
0D30
04FC
FB39
1C2E
10B5
01FB
1733
04DD
FAE0
F3EB
FCAE
071D
05E9
FCB7
00CE
FD84
FDD8
0EA4
FDCD
0136
01E3
0458
FD8E
00B3
F942
F9BE
FE9D
FB84
052C
FCF4
0BCF
F060
FF46
F327
E819
04F5
FA4C
FECB
F91C
FDD4
F810
0075
FDAD
18C6
F8D5
0032
FF13
FB0D
FCF3
FF68
08DD
090D
FF99
0021
0D21
F5A6
FE7A
FE09
048A
F3F1
F9B2
FEDE
0758
FB9D
0CE8
06CC
02AD
FBDC
FF09
0620
FFDE
FF34
F497
FF86
FE3E
EB74
0467
0271
FD5A
00AD
FCB3
021C
FF74
F5D7
E95A
0769
008B
FD70
F8C5
01F1
09C9
FF6A
F0E4
02DA
065E
F80E
FB65
F268
F334
0A30
0730
F5CB
F906
030B
079D
00B8
F38D
F163
F5AC
FFBA
F430
00AD
F6DC
FAD7
0574
F6B7
066D
FB57
0664
0994
0032
FC40
FFFB
F6ED
FB0F
0A3D
F91C
F766
F6E6
F494
01DD
F80A
06C8
FEC2
0574
F72A
EAEE
0FA0
FE13
05FE
F6C8
FC41
0680
FD98
F984
F76B
0155
02F1
FDA8
F631
FBB2
00AB
01F0
0833
E902
FEFD
FE5B
FA9B
F8B7
FC90
F279
F29C
02CE
FE8A
F5C7
F4E4
041A
109E
F21B
EDD3
FFB8
F9EA
0AA3
08B5
FCB7
F293
FE61
F422
EEDB
EF41
EE9D
FDCC
0521
F41F
1A73
FE80
0B2D
FBBE
FD60
FEF2
0544
049F
089A
FA48
FFD7
FC84
0E90
EADB
0459
0488
FCF9
0154
FECE
F2DB
FE06
F765
0690
01FB
FF82
1B6E
F5D0
01E5
F0B0
F9D9
037E
F649
D847
0424
FF74
FD43
07E8
0266
F93A
F104
0285
00E4
07DD
0616
01F8
E903
03CA
0311
FA20
F432
F3F4
0A95
02D0
17C3
03C0
0445
05AD
0285
03BE
F68E
FAAF
F76F
F8A6
E755
0891
FEBB
FC4D
FEB1
FE96
035C
0492
F1C6
F3DF
F808
049B
1769
FFAF
FB71
0AA1
0885
01A0
F428
FD05
FE13
04E7
FC10
E657
F2E5
F235
F81E
0367
FBBE
F5F6
E8EF
FEE7
01C2
FA07
DBBF
EF42
FAC1
003A
F9E2
01B4
0457
EA46
040D
F976
06EC
F5E7
FE33
F6FC
FA5A
F83E
0239
FD6C
F92F
02CF
0754
EED4
EF62
FCF5
FC9A
FFA8
0A76
FDA9
FC2F
EC49
03E5
0637
FAFD
F327
0AB4
F97B
FF31
0DD4
FEB1
F304
F970
0021
FD5F
E913
F208
0517
01C1
FC2A
02D7
FA13
11D3
067F
F95A
FCFE
FB93
F936
0401
FEC7
0490
FE3A
F5D0
03D3
05BB
EB02
FA25
FAF8
055D
FD81
FEF1
F8C3
05DD
FB66
0842
F998
F1C8
FACE
EEEC
185F
FD42
03B8
0739
F38A
003A
FEF0
F704
0869
FA01
F01A
0162
FA83
FC09
0103
FF06
F7F2
39AA
F978
FB8A
00CE
ED40
0174
FE61
EA9C
1822
05A9
FDFE
FF04
FE56
0396
FEC6
FF2D
04AA
FC03
F900
FE7C
FE0A
FB4B
013B
073A
F48E
F537
FDA4
FEBB
10E6
F000
EF1E
00D3
05F7
0826
F543
F055
EE19
083B
F2BB
FBE4
EBCF
FF84
F1C0
0293
F63A
FEF2
1028
F486
FC89
096B
FB48
FD9D
07B5
FFDF
FEA4
03D4
F51B
FCD6
F3D6
FC03
FC08
F1E4
F4ED
FFBE
F269
FC90
FF16
F6C7
18B2
F64B
FFBD
FBED
F9D4
0210
082D
FB76
01CC
F48C
F9F1
FAEF
FBE7
F621
FB35
FF71
218D
F95D
FC50
076C
0453
FDE9
FC02
FE90
F976
0792
006C
FD3D
028E
F4B8
017C
06AD
0144
0B8C
0196
033A
06D9
05C8
0BB7
000E
06CB
F19D
0614
F98D
055C
F9FD
F930
06AE
FBC1
FAC0
FE70
02C3
F78B
F489
FD82
F38D
F99F
0021
FA66
0238
FF6E
F608
FD27
0434
FF3A
FE31
FF13
FABF
FA03
ED48
0562
FA32
05BB
FFEA
FA58
0273
0843
FE30
FCBB
01FC
F5A6
F395
03DD
1831
FABA
EF5D
F6C1
FE4C
08FA
F714
0673
FF11
FEA0
F5FD
0CED
0A6E
FB7F
01AF
FCFB
FDFC
F795
F8D0
FD34
FB0A
FE20
0091
1919
F61A
09BB
F9F8
F84B
FDCB
FA9C
FD86
0292
0518
01DD
0338
FC41
F1A6
FC73
F97E
FF15
055F
FCDC
0A97
0E3E
1A96
053F
00C1
FD59
F62F
F4E1
144B
FCD3
01CD
FE8F
EDB7
04C4
F97E
FB12
0580
FDCA
012D
FC70
F884
F16B
086E
FFD2
F995
074B
FC6E
F509
FCD4
10ED
FF1C
EFA3
DFBA
0394
0910
01E1
F7F7
FEFA
07CF
FB17
F2C5
F737
00EB
F5B8
02AC
F5CE
0A5B
0A01
FE38
0654
03AA
EF99
F9E3
F74E
033B
083B
0775
061C
FC1A
E9BB
026F
081B
0451
02A7
F78D
0289
009F
FCCC
02DA
020B
0AAE
E837
F61C
FE30
034C
05D4
F711
0523
F8A9
FC80
0D68
09AC
01D3
EC05
01EF
FF16
F818
04C7
0266
FEE2
0475
10F9
FAB0
00D1
0257
FF8F
F2D1
F653
187D
FE19
FFBB
06AC
100F
13DE
023F
FCDC
0515
F4A4
0C20
0391
F6AA
FE6C
06EE
096D
0449
070A
0A87
FB45
F330
0059
027B
08B4
FE58
FAF6
030E
026C
FCC0
F789
F634
FEC1
F259
00E8
0EE6
FB24
F27C
FC95
FBAA
022B
FDD8
FCB9
EB27
FE92
0C1B
F7C1
0712
0658
052F
FF63
FF2C
036B
0432
02E1
FA37
11BC
FD82
ED1B
F6D9
03E9
F718
06A0
F5A5
FA9C
08CE
FEFE
F72C
0227
F784
F162
01E3
0CBC
FABC
1E9E
0667
01EA
0FBC
FF93
005C
04AA
F0F1
0FFC
093E
FA2B
0382
F9EB
FFA1
FAE3
EE1E
0AEC
FEE5
0B39
F91D
EEA3
F5A7
FC0F
FDDB
0617
0282
FA4D
F89D
0BD0
F85C
FC98
FE2D
0059
F92C
F51D
FD8C
F3D3
06AB
05C2
FAB4
FEA6
032D
0250
0317
F2B3
0B2B
F147
0155
FC68
E68C
018C
FA62
01A5
F00D
FBBE
E934
FAD1
0B14
FB53
FEA2
FEB0
EEB0
F855
26B4
FFB7
F707
FE7B
086D
07CC
F75A
F977
FDDC
029C
0437
F8CC
E93E
F9E1
FEC5
0484
09EB
FDBF
F130
03E4
ED6A
FCC5
F98A
FB41
F814
018A
F2CF
FFDB
F936
013F
0342
0152
0042
FF86
1E6C
FD14
FB35
04D3
091F
0339
0370
0E3C
FAAD
F5EE
08C4
0198
02CB
F934
FEB9
FD8D
1190
F1FF
00C7
02FC
08B1
F8F5
FFE0
0049
0A98
FB19
072F
0BCF
FC05
14FC
030D
0043
FD63
F944
FCA4
0156
FBF5
F87F
024B
FEF7
F874
0125
F8E3
FD23
E720
01FE
0B4C
F9CC
FF59
FA67
0919
F378
FA37
05B3
F9AA
FE50
02AD
0411
FB1A
0477
0444
FAE3
0280
FC47
FBD0
FC5E
078B
0929
0171
F312
FFF7
FCFD
0340
01F0
FD90
F93A
F34F
FDA0
FCB7
01E6
056A
0355
0100
FEC3
F267
F025
F370
02D1
0703
FD32
0228
0B17
0363
0B86
022B
0352
FD5B
EF08
0137
F2C5
FD7E
0794
0111
0A7A
FA34
F08F
FE38
FD33
0465
FF1A
EF24
FBAE
0E40
F57D
0470
FEB8
FB8C
FA87
0943
F232
1D31
FF89
FAA9
0E27
F5EC
F94C
034F
FF70
FA17
EB6B
FB33
FAAE
039A
FB7F
05A3
F561
0C76
F4A4
FAE0
0556
03C4
E6CE
F6A5
EBD9
061A
039E
08D0
00B3
1C66
0118
F1BB
003F
0B61
0664
F5F6
FD32
0424
0A94
FE9B
F41D
FD0A
0DFE
F8E6
04DD
FF32
130F
EAEA
F210
F67B
0318
F493
EAF7
0EAD
FF98
F6B4
F302
0200
FC9E
07C0
0BD9
F933
ED40
015F
FA4C
02F3
EF80
07D9
E5A5
0BAA
069F
0120
F538
F894
FD9A
03DA
096A
00F1
0984
0239
F8AE
FB58
0371
02FF
FD5A
F77E
F9AE
F98C
02F1
007A
035C
FAB1
FE8E
F0C1
01C5
F6E5
FA8C
09B4
F99B
09C4
0567
0D1C
140C
FF83
FE7C
0580
14E2
F41A
06CB
01FA
FD97
FFB2
10D2
FE27
019F
116B
01AB
FFE3
F7A4
FC05
F3F3
02D5
F3A0
F0E2
F245
E886
FEB3
FFE7
EB50
F2BD
FD5C
007F
F704
F30A
052B
FE6B
0087
F579
F8DA
F1FE
F6BD
FA41
F80A
FFD3
137D
F8CC
F746
FF62
FDCB
014D
F08F
0004
F4D5
FB91
F40A
08A8
0504
EB1C
0520
000A
00B0
FE91
FD1F
0687
FC04
F876
0B70
FDF9
FF23
FC67
FE00
EB0A
FB5D
01FC
FBE1
EDAA
F960
FBCF
0685
018C
F4EE
FF80
FD74
F79C
0005
FC9D
02BC
FF8E
0348
F657
FE3C
FF9A
0540
FB70
FC6B
F63B
FC60
F0CA
0213
FA20
ED24
F9B9
FF23
001B
00D3
FD13
EFED
00C5
F547
FD43
FE25
13EA
FF5A
FBCD
FE01
F98E
FA5E
0169
FAE4
FECE
FFC6
0FD6
0AC5
F027
F529
02FD
0021
FC3B
035F
04B0
0C0C
E845
F4DD
0432
FB77
F8D5
FA53
F484
075E
F57D
F1B2
EBD5
08D7
01DD
F96E
FF35
0488
EB6D
EA9E
E76C
F507
F584
0199
F9E0
FB86
035C
F423
FE34
FCFD
095B
FBA8
F28C
FB0B
FB09
FB8C
E817
1379
F734
074D
0BDF
F109
02BF
0E18
125F
06FE
FDB0
007E
FD36
083D
FD1A
0458
01AF
FBDE
065F
FEDF
0613
0256
19AF
FD0D
F82C
FF85
F040
F588
FF62
0088
F627
FA6F
F55C
08C5
108D
01A9
FBFB
FE20
F5C0
EAC8
054F
E74E
EA32
F2CC
F17F
FDE5
FEF6
1608
FBD0
FBEC
F25F
FF1C
FA19
0BBE
FE0E
0732
FCE2
F489
FA36
0061
ED1F
F37B
00CE
0C4D
0761
FB3E
F1BE
0946
0919
EABE
FED1
0A99
FD6F
F9B3
0351
F7FA
F22B
0E9C
FE59
FC48
0814
FF29
FE0A
FCF7
012F
03A0
F646
0902
023F
04F9
046B
07B9
03A8
0348
0404
F30F
FDA6
012B
F641
0109
F677
FB81
FB56
0119
FB4A
FE0F
0A19
00D2
00CE
F6EB
FCE1
019F
ECBB
FAAB
18B7
FEE2
FD27
046E
1729
0174
07BF
FF9D
05CE
FA53
EC3B
00B2
0201
0777
134E
02B2
02F4
00EA
0958
F961
FF89
FC05
017E
FED7
0527
FF42
FCC6
0D33
0549
015A
0D45
0572
F70D
07B4
07EA
FFE9
F939
FFF7
F281
06DD
FA6E
FF19
FA61
E93D
EFD8
F49A
0069
2329
08C8
0066
FE54
FFA9
01A3
0758
F552
F033
0538
E598
0639
F598
FC59
08B7
FEFF
F446
F87E
FE26
0CDB
FFF5
01CF
07D1
FF26
0711
0319
FDAB
062F
FC26
0399
F61D
0794
FC5B
010A
04B1
03C2
F604
0190
03BC
FC95
FD1A
0450
02B3
FF05
FD12
FFD8
ED54
F0CA
0419
FC2C
0301
1970
ECED
004D
EF25
FE7F
F612
F5D0
F878
F6BD
0137
0EAF
056B
04CF
012F
FFA8
FA2C
054B
F307
014D
07E6
FD35
FD36
F86C
FDE7
FF4F
FFC7
05A5
F9A6
004F
0CD8
F707
0260
F19A
F9F3
1E3D
F4E3
FB5E
FF4C
FD4C
0441
F685
FA01
FAF8
FF6D
0B5E
FF30
0167
01D5
FFFE
0484
05A2
F273
F831
075A
FBC3
FD8A
FF86
F811
E8A8
020D
F41C
F783
05D1
FFCC
FECF
F4F4
0B6C
016C
FD98
0A19
092A
F8C5
F5A9
074C
FE15
FED6
FE4F
050B
FC57
006A
07D1
02A4
FBAE
F788
FCC6
FA5A
18D5
FB5A
055C
033B
0977
FD3A
FC18
0766
FA03
06FB
06D4
0023
FB7C
0AF5
0015
FF24
06F3
0309
FAAC
006C
FAC0
EF65
F545
0AEB
FDDA
0674
F9F0
FE54
F86A
ED8B
004F
0009
0549
0E24
038E
FEF5
03C1
FAE3
FA02
F94F
0381
07D4
00C6
046C
F075
044B
F68B
076F
0E56
08C2
FFD9
F586
FD2D
01AD
0692
FBBE
E70F
021D
FB58
F18F
FF52
F229
F6A9
09AB
06D4
07FA
F94C
01DF
EB72
02E9
0762
FCA9
F812
FBF5
FBD0
02BF
F0DE
0AFE
FAD4
FC34
F772
FEAE
004B
FA82
058D
FB3B
F6EB
F9AD
F85B
FFC4
F1FD
FFA4
015B
F3B8
0912
F660
FCD5
FE94
FB1E
F797
0B22
12B1
FB66
FEB1
0DFE
F717
E5DE
FA4D
089C
FE86
0016
0104
FB21
F903
FFF3
F9E0
FC0C
F39F
0063
0371
00C7
03D6
F95B
F0F8
F320
1566
EDE5
129A
EF9F
137D
FE20
0564
07CF
FC0A
0290
FF3C
01CE
F802
0A79
0F67
000E
F63D
0385
0303
1374
F8A1
F7C0
FA58
0356
03B7
01EF
07AA
F892
FAA2
FCB7
F82B
0289
FC91
FD67
FF33
F74E
F316
FF8A
F823
026A
FF2C
F651
FC19
FF24
FE16
0B36
02A1
0CFC
0471
02AA
0312
0C2F
FD4E
F85B
01E4
0229
F73B
FEDB
F893
FF62
0778
05EB
F2E2
0690
0F7F
FE56
F9DF
111D
04FE
FD89
FECA
0245
053A
FAAC
0A63
0E1B
F6B3
FFFE
047E
09F6
0C86
F4A0
01CD
F580
FC46
F272
F887
FE2F
FB4F
07A6
FA49
FAED
FB59
F883
FB02
019C
0F57
FAA1
01CB
FEFC
FBB1
FED3
F896
03A2
F74E
F381
FA5A
06D8
FC4F
0496
FC9C
01B5
004F
FC2F
0AD6
0806
FF3B
FF1E
FB62
F986
0275
F858
0931
0280
FDD1
FCFF
F748
FE3F
FA16
F341
0211
03CD
0B6F
0C82
EF20
0269
F25F
FC4A
FA96
F32D
FF2C
08AA
0445
FEA0
035F
034B
F653
06E0
0188
1917
FF9F
02C3
FCB6
04E5
0193
F909
01A5
FEBF
0369
00D7
F794
FFED
0012
17F5
F7EA
F7FF
F5EF
FE8A
E7F3
1AF6
03E0
FA0A
059B
F08B
F0CE
F631
F80B
FFE4
F7DB
1026
F9E4
F7AB
FB9D
F74B
F34C
0027
F356
FE93
048E
FB11
FF5C
FF09
FEBA
FC89
F569
FA17
0E1D
FEC9
F958
0BEA
F8C0
0682
05AE
0470
005E
FF1D
02AF
EF7A
F910
FA45
FE62
F59E
082B
F806
0508
02D6
FA77
FFA9
EADF
F2DA
05A8
F942
FC24
FD27
0487
0BF8
F897
004C
055A
0D23
06AB
FE3F
03CD
07E7
0070
EEED
F3F3
043C
FFA5
DB57
018A
02F0
01FE
0270
F5D3
FE9C
F397
02D8
0479
0A56
FED9
EE38
0275
0667
FA5C
FCE0
08DE
12F3
03EE
0A1A
0456
F6E8
02F3
FFEF
1127
027F
F5FB
028E
0302
06CF
FD4D
01C6
05E3
FFA3
FC35
1B25
F1DA
F64A
FB71
FF8C
0389
FDDE
0C1B
0062
019A
E5FF
0C1C
0315
F700
0BEE
007C
00A3
01D8
FEAD
FE73
FF17
0110
FB12
09C2
0211
0184
1227
FC17
E611
FBAA
F89A
FF26
088C
FBDF
025E
E1DB
0B98
0A5D
02CC
F664
FC2B
F0AD
03A2
F2CA
0039
06D2
F0A8
F977
F052
F1D0
04D6
09A4
F485
F449
ECC0
0634
012E
079B
F85E
FE30
FD36
EF8E
F11E
0188
F8B7
F4F7
0AFB
01FD
0043
FBEB
0667
FA88
0CD4
056B
048C
FBB7
06D2
EA25
09B0
FEDF
051E
034F
050E
14B2
FB01
0B2B
0979
FE2A
F51D
ECB5
F9ED
F942
FD31
03B4
FF70
FDA5
0C53
F6B8
0F56
F42C
FBD2
14C0
04DE
0539
F153
01D9
FFB8
0415
F8D3
FE3C
F0DF
FD66
FF6E
005F
05B2
0C0E
F06C
FA93
0027
05CA
01FD
ED23
09F9
02B8
021D
0B1C
0113
038C
EB26
073A
EF29
03BC
011B
EECD
07A8
FE22
FFE8
F626
F67D
0279
03BF
00E6
EC16
0143
FE34
FBB9
EDCB
FC80
01FC
F0EF
00B0
FAD0
FC8A
FCD0
FBDB
FC5B
F90F
FDBF
0771
0401
017C
0A8F
F980
0C40
E5BB
0317
F42F
00DB
040C
0561
07FD
00CA
01DD
FAED
F9B9
0357
F674
FB4C
0335
1378
0DCB
05D4
F669
FEC3
FAB9
FA77
F626
0321
E395
FE1A
0483
F852
02CC
0907
069B
03BB
FCB0
01B9
FC4A
058A
00F1
033D
F01E
035C
00CA
03C9
04BF
F0EA
FD76
07CA
F505
0CD8
F500
1215
0699
F8EF
08A0
EBCE
F7BF
03FB
0902
03BD
FF5F
082E
FCF7
0C4B
EFF0
0F57
F663
ECB7
0185
08C2
0E8A
0072
F714
0231
09C1
E99C
FA76
0D19
17A0
075F
FDC3
EF64
05A9
11F5
FFE7
034E
095C
FA3E
F749
08EA
013E
073C
03A9
FBB5
FD94
002D
04A2
FC3C
F9DE
0B49
024B
094F
FF3C
05D6
DB0E
FBB1
001C
F547
FDC5
05B4
FEBE
0AB8
03CB
07E1
FC72
F22C
FDD1
F4AA
F7BB
019E
F2F5
FC04
0509
02F8
08CA
FA0F
FDBE
F3AB
0271
0CE1
EB10
F515
02BD
F402
058E
FD8D
FC20
022F
FEA8
118B
FA13
0068
05A7
06B1
FEA8
FD0E
03FB
0D7A
FE7C
F672
F145
F67B
EEDB
FD7B
05C9
21CE
0458
0360
F25C
0A7A
FBE6
F166
0514
FBBE
FB53
F839
FEE2
FD73
021A
06DE
0600
077D
FDCC
EF8D
F942
041B
0502
F9E3
013E
01E2
1091
05CC
F791
F084
EB53
FC7F
0279
018D
022C
FF25
F527
0434
ED6E
F791
00D6
01F8
05F1
F483
024D
0195
047C
121B
EDE1
FDDF
03F1
F9AF
0626
0A78
EF2A
F936
EAE0
F42D
0155
FD3A
F9EC
E67E
FC1F
092A
FADF
FB22
FE83
F9D8
EFBA
EBB5
F50B
043A
058F
03CA
EE21
F949
01B0
009C
FA92
FB35
002A
FF8D
FF0B
FF4F
0A86
F2B7
0EB2
0AD7
00C0
FD25
0237
F64F
0381
02FC
FD1F
FCDC
F99F
06A2
F8DC
F7C0
0689
FF43
F65C
0A0B
0DE0
07B8
FE3D
0A1D
FAA1
00C6
0DDD
0433
002D
F93C
045E
01C2
FD1F
0A17
030E
F927
FFAC
06CC
079D
02AC
E7A5
FFFC
028C
F89F
049B
0067
06ED
FA46
0D72
FBD2
1138
0A12
03AC
FB4B
0A0F
0813
0375
F863
0823
F54F
0734
0546
07E8
FD4A
FC16
F114
032F
0710
0517
03E2
043A
037A
F60C
F9F5
04D6
FFFC
F661
FE2E
04BA
F32A
F5EF
FC77
F8B1
FB60
FBA0
00B2
F341
04E5
119F
F736
0079
0678
063F
FCE7
F970
FE07
FFDA
00E5
00AC
FDAE
0ECE
F053
0481
00C5
0762
EE13
00F6
FB2D
FD56
0440
030F
F05D
FB54
000A
0190
F8A8
F57C
FF61
07AC
FA35
FA82
03BC
FF11
EE6F
FC56
F517
EC48
FC4D
0795
066D
01FF
F7EE
0080
0B0A
0D9B
0890
F93E
FBB3
EEA6
FC5F
FECA
FFF7
0755
FCE1
FC31
F641
04E2
FCC8
06A8
1100
0A1B
0072
033B
FD67
0379
E60A
FE62
FF50
0012
0283
066C
F50A
072B
17CD
FD60
FB92
EAB5
0B22
055E
04A7
0A07
0C3C
FA6A
103E
07E4
0652
F738
FE53
01A6
FEEF
11A4
FEF9
F74E
043C
0AAB
F8C8
01CA
00C6
FF02
F6B6
0761
00CA
FE10
02CF
FF83
008F
07BB
05D0
F3B4
0795
01D9
FEC9
0AB1
FAB7
FF97
FBBA
F870
FE5F
034A
FA9E
E9DE
0429
FD38
FC42
003B
0421
09B3
11C1
03A8
FFD2
05BC
0027
F8F2
FE8B
02E0
FA1F
052A
FAEA
0403
FF58
E2D1
00CB
0223
01E2
0310
FE7E
0751
FB99
092A
0642
04CF
F927
0B76
FDEB
E93D
FAD4
FAAD
02C4
09F0
FAF4
037E
FAA2
FCB4
0235
FDE8
F473
015C
FE92
06A9
0288
F6AA
F858
F3D1
FF21
03FC
FCBA
02F1
008F
FA82
014F
FFE9
01B4
0673
FD49
F5A0
F0A8
FFDE
0660
04E2
FEAB
FB63
0829
030A
0000
FF67
0BE1
08C7
080C
FF8B
F439
0392
0575
0426
0384
0396
FCD8
0420
FAE4
FF18
F5F2
1022
0948
022B
0150
FA36
033B
F799
0199
FF67
0662
F504
0943
F873
FF8E
FBAA
0226
0281
0746
1138
02EB
FECA
04A9
FDAF
F418
04DA
0077
F696
0832
0158
018E
F77E
F8C0
05B4
FC35
0336
FC62
F5AC
F0E6
0888
F1EC
0428
05EF
FDB2
1945
F0F8
0118
FFDA
EBBD
F33F
F6DF
1B24
0FDC
EBF5
1A2D
0BDF
01AA
FAAB
097D
FFB2
FC42
F47E
ED3B
FC98
0535
FD87
FB9E
03AD
FCED
F71A
0329
F8FB
FA87
FF20
FA19
F86A
F759
FD99
0114
F9D7
04B8
FF97
EE5B
06B9
006E
0D32
EF9D
F381
FF85
0057
F7DC
F60D
FF28
03FA
030B
F82A
0C13
FC0A
03FF
F837
107D
F662
FE1E
F0E1
0479
F370
EFC4
FC97
F4DE
F8C5
0C77
0DD7
03CC
02B4
03E2
F5EB
FD9C
FC16
F1E8
0494
09A9
F94B
0996
0496
FF7C
0A23
07DA
FAAC
03D4
03CC
086B
F6CC
0341
F4F5
FEC3
03D3
009B
0096
FD91
010F
EEEF
0627
F898
FC1F
02F7
03E6
0207
F6AB
FA31
08EE
0381
FC83
F435
0340
FC40
0E6F
F3D7
0170
F73E
EF4D
FF91
F4FD
00A9
F3AC
FEE4
F924
02EC
107B
0A8F
0534
FE11
FCC0
FA69
EE21
0087
033E
0A03
052A
F553
063F
EFEE
F6DE
F8CD
037D
02DB
EC0A
020E
0115
FEB1
0494
FD8D
06EC
F8AC
0124
0917
FD86
07B6
1411
FBB7
0F00
043B
04AC
065D
0655
FE8A
F917
FC13
1094
03C1
02CE
F04F
0752
FD65
10CC
F42A
1683
0365
FC88
FA93
084B
069B
02FE
FE43
0294
086D
0299
FB18
0279
EBBF
F40A
0F27
01BA
0649
F7D6
F59F
0112
0CF3
0059
0950
006A
017C
FBCA
FAD1
F954
1936
EF29
FAA7
FFF4
F6B5
002E
E431
FF63
F6A1
FA21
F84E
EB62
0190
E2CD
0F2B
063A
FF7E
065F
0C56
FA8E
021B
00B5
013B
FE83
FDB6
FFD3
0069
FC0D
FBDC
FAA2
EE5A
095D
F808
07E8
F9B5
045C
0D2A
00ED
0227
F5B2
FA25
FF12
0270
04C0
0490
FFA4
01C2
F8A9
FDB0
F91D
F482
FE96
06CD
FA91
0001
0528
F3C9
01C2
FE4C
00EB
0D29
027B
F948
F32C
007D
FC59
F9D5
F072
F94D
ECCE
0875
FED0
00D2
F7D9
0339
06CD
0FF5
0183
0648
FEC4
F905
1216
EF03
15D9
002D
009A
024F
1288
FC8E
E88F
F2BD
04D3
FF45
0430
0DE1
FDDD
FE81
F84B
FD4F
FABF
05FA
F97B
03DB
F575
FA05
FE22
FBA7
FA23
05FE
F552
063D
F8C9
FBA5
09D9
0214
FCF0
F90F
0406
0D91
0D43
F7BB
F686
F8B9
0133
0329
FF1F
ECEA
F720
0005
F06D
0353
0087
06E6
F2F2
FBD4
EF75
F7F8
0A19
0113
1420
FAA0
0B9D
FB5D
041E
FECF
F019
FA26
0006
0043
FCDC
FCD8
015D
F2F0
F8B8
FDA0
FC91
F687
01BF
0EAB
06AC
EAC7
FEE9
FC7C
EDFA
F50B
FCA6
08B9
F67B
F998
0931
1140
E370
F4D1
F2DB
FD58
EFDF
00F2
0118
FE5F
F850
F932
F1FB
E3F5
0406
00E3
E9DF
0718
047E
F349
E18F
F12A
1811
FA58
E61F
ED89
FA98
FC8D
EE37
126F
FC6B
087C
150D
F614
EF56
FF91
FCF7
FDF3
FD16
0DBF
F81A
F559
F795
FCFD
01CB
04CC
07EC
FB94
F695
FB24
F288
F8F1
FE62
FBBF
FA28
FCA7
0004
09E3
FF19
0230
00E2
FD9F
015E
0044
006F
FBA5
0E84
F61A
ED5F
F723
F19E
0CD3
EDFC
00DE
FF04
F153
01D7
0D69
FAE8
FF5E
0782
0025
FB5C
F0FA
FEAC
0724
FA50
0A97
F722
FF7E
0182
1064
F184
EB96
EFC6
F306
F5D2
F5C0
02FB
0092
F4EC
F8B2
0D80
0024
0C38
021C
F8D5
03D2
FBCF
00BB
0DAE
F757
FE01
FF76
FB29
F8FD
042A
FF6A
0141
FA2E
FEF2
F8CD
0A4E
FA40
F0AF
01C7
FBF2
03FB
025B
FFF4
FDA8
01D3
FAFB
00FA
FC3F
05A9
00EE
0907
02E8
FA80
FE55
F904
F93F
0582
FF12
0C92
0401
FB5B
01AB
FF74
0A8A
FF45
F7C9
076B
071A
021D
FF39
0374
018F
F7F7
07B7
079B
085E
04D1
052B
FFEF
150F
06B1
FEB8
0239
FD1A
0426
ED72
F7A6
08D0
03D5
03CC
FBA0
FBFE
00E7
EF9A
F477
077E
DE39
FCC1
F8DC
FC21
F319
00A0
FD0A
F9D3
01FB
0368
0398
05FA
06A2
F115
0463
FE93
037C
0355
F921
F7F6
F2B5
FF9B
0198
01D5
04BE
F96A
F996
F760
F29E
0184
F74F
0172
FACF
FA33
F744
F81C
FE1C
FD3B
FF13
0E23
012E
0494
FC03
F8DE
0044
01D3
F9A3
F56F
0246
1015
ED0F
0555
015A
01F5
FF86
1287
FE7F
F9D4
04D2
F6AC
0041
040A
0E25
F3FC
08A6
068E
00C8
031C
FFF0
F7CF
F8B8
09A6
0524
FD35
F864
0371
01A5
13DC
FC98
FACB
011B
06E3
0848
F959
FDA7
08EF
EE50
0CF5
2128
F500
FC3C
020A
0159
F518
F781
FF9D
FDA6
0002
FF54
0389
024F
F721
083A
0194
FEE9
04A7
FC9A
FE65
FBD4
FAB2
008F
FFC3
FCCC
03C5
0948
00AB
FD15
00C9
00CE
FEFA
0063
F875
FCB1
FEFF
FE8B
FE7E
15B2
FB5E
00DE
F9C6
FBAE
FD80
0262
FA9A
F535
FCC2
0A38
0062
02CC
FBD5
EDCF
0780
FCDD
019B
F18D
E716
FD98
020C
F3E3
F582
0E14
FD58
FE05
07E3
EE6A
0B25
F7FD
FF1D
E8A8
FC3F
FD5B
E724
F73B
01E6
0907
EECF
0208
1F70
F495
1100
0433
FA4B
FC1B
F606
06B5
018F
0154
F4C7
096D
083F
036D
00BC
0123
FBB7
F677
077B
049E
0513
F74B
FD0A
00D2
F1DE
FA4A
F278
FF51
FE7B
0C95
0ABA
098A
07ED
03BA
FBDC
0B8A
17F3
045D
FEB0
0037
F845
FF87
FBCE
F40B
FF25
EA14
FB9C
F889
015C
0485
ED60
FC31
FC03
F76F
F4E2
F196
048F
2638
FCDD
010A
0BEF
FDBD
F3F5
EF1A
FF2B
F88B
F92B
0421
F394
FE34
FF7C
0B15
01A9
0452
F4F8
F2EB
00A6
0791
00C9
FC42
FB05
0396
F7D5
FFFD
0B00
FF9F
01E4
009A
0ED3
0327
F5F2
F889
FE35
F83C
01BD
0C41
072F
FD07
01FB
FC24
1351
F48A
F233
0737
FA62
F2AC
FB34
F938
0362
1B6B
0558
F06B
0208
FBC0
F3F9
F9F2
0633
FBD0
0018
F5E9
EBD0
FCD9
082B
F742
FE41
095C
F9C5
F2D8
F07A
FAAA
01C3
FF63
ECCE
F892
0AA5
F409
FBBC
FE79
00F1
01A9
0E5E
03C4
FAF0
0546
F5B7
FE99
007B
09E2
F883
F981
FB19
FE76
02CE
0738
FD4D
FA25
09A5
FD58
FE57
F8FC
EB6A
05A1
06FF
F6EE
FC83
FE1F
02B3
000B
FEFD
FF6A
F8C5
F900
FDEF
F9AC
FC15
EC1D
0DFE
FA52
0B96
00C1
0520
FDD6
3A93
056B
010D
FCD4
F85E
F9BD
07D7
F730
0068
FDE6
FBF9
FDF5
EF30
015B
136E
02BE
015E
FD49
FFEE
05C1
050E
FC0B
FCAE
0253
FED8
F3C8
FD41
05DE
037B
FE4E
0507
FB11
02D7
FBBA
08DC
01C8
FC80
05BE
F665
08A8
FB8D
0B55
FD7E
02E7
FEA8
FA06
06D6
08DB
0370
FEDB
FDDA
043E
0888
F1BF
FABF
F5A6
F59E
F313
FB3F
F9FC
1091
0AF1
0A1E
F798
FACB
DE4B
F94C
FF62
FDBB
F333
00F1
F92B
0937
FD62
F98E
FBF4
FABD
053F
0158
FEAE
F9C4
0234
0651
04FE
FB3C
FB8C
0238
0489
FD56
0645
EF06
F900
F097
073E
030B
FACC
06B4
004C
05CF
0AF5
08CD
013F
01C9
ED38
03A7
0131
07EF
151A
0251
F296
0FD0
F95E
0C8D
0063
F824
00C7
01B3
03C5
004E
F802
0180
F5CE
EE0A
F799
09FC
0121
0553
0BFA
07C7
112C
EEEA
08FC
FD59
FB3B
0A53
09C0
FDD5
FC27
F9C1
F799
0B9B
0E50
0643
FB40
FDC9
FE7B
00F0
F768
F2D7
E3CA
078F
FC75
01F7
FCE8
F960
053A
F8DE
07B7
0D4E
062D
009F
02F6
FC03
FFD6
F51A
F587
F9F0
0CC3
FFF1
065D
0408
024A
FE6C
050D
F6FD
E87B
0339
08F7
0449
F823
F072
070C
F7B8
05B7
EC39
0472
03A3
F9C9
F471
FF42
0242
0351
FD72
07BD
E43B
0927
F6C0
EF41
014D
01D1
0940
0170
0997
F74D
07A5
07A3
0764
03A3
FAB3
DCC0
0152
FEBE
F814
FA46
FED7
FC6C
0163
001A
06CC
07AB
13A5
FCC4
F8AB
FDAF
0425
F67D
056E
FFC3
FDC4
F853
0621
F342
07F0
FA4A
F750
0364
082F
0FEB
FAE4
FEFB
0704
FD71
F576
0037
0335
FB8B
F630
ECAF
FFC8
195B
0D6E
081E
FC0F
FC61
FFD0
0FE7
033B
031D
0737
FF14
EF9C
002E
150D
F344
FA8F
F35F
01F0
FF1B
FD3F
E8ED
FDF5
010E
FF56
0681
03C2
0AB6
F8B7
0600
0420
FCE6
0145
FD25
F9E9
FBC1
FCB8
0BC8
06A6
0346
FE50
F649
FD35
0018
0E32
0549
F391
FB3C
0120
FC42
0155
056E
FCC7
021C
FB75
EFF5
EF75
F7ED
0274
F34F
1710
07A7
F284
042F
F4C2
0A8C
00C9
F7A7
0009
023D
00FA
EC0E
FEF6
FD0D
0753
FB7C
FFEF
F773
FDC3
0116
F9B6
0B96
FFC5
019F
FDD9
02A0
F753
FC28
0C05
0A1F
0484
FFBD
01AD
FA78
E89D
003B
02B1
FF01
E619
0A50
00B3
0346
FC0E
0163
FDB1
FEE5
FA60
FB80
FBA0
003D
FE7E
F030
FFCA
1474
F012
F8F4
FD95
EDE5
FB41
FFF6
FB69
01D6
07BE
FB18
F027
0B33
00BD
EEFE
FA0E
0D2F
0882
F459
F73B
FE4E
FC53
EE0F
EDFD
EE3C
0269
F659
F648
FAAE
1954
EB70
FEA6
F5D9
040C
0C54
1682
F8E0
03FC
FB93
0488
0291
022F
F1F8
0367
EF2B
026E
FFC6
0053
FF5F
EE1A
001C
0596
003D
052C
FE41
03A8
FBBA
0D4F
02AD
F48E
089A
F56A
F8C7
05AA
00E6
1232
00BE
00BB
043D
FCAE
F659
F615
FDBB
F606
FD14
0820
F4B7
F6E1
03B0
F5B8
E9BE
FC99
FB0A
F5BB
00A1
0351
F20D
F852
F446
F67D
09B9
FCFE
0B47
FFF6
0779
FB05
0781
E4E8
09C2
0720
FAD7
F8C1
FDD9
F32E
F2F0
F1B1
0417
F898
022C
0034
FC3F
011E
01F5
0C75
FE14
FD1D
FF1B
FE8F
F8C6
FF7C
00EA
00C1
FA45
0015
FFF9
0619
E865
0298
FA56
0598
02BF
FB33
0BB9
1099
0189
143E
FEAF
03D5
039D
F70F
0F2D
08BA
0B4E
0A49
EEA9
09CA
F743
2679
FF84
FB74
05FB
1C71
0848
F957
0998
EDFC
032E
E80F
00EA
F803
F267
FFFA
F240
0789
064C
FAB9
FC5F
FBA4
02C3
FD1F
FA25
FC1E
101F
FB94
01E7
03A0
1C67
FEFE
0426
0546
0384
10C7
FC10
FD94
FC8F
FBC8
FC12
EF6D
F339
FB57
0BBF
FBA1
FBDD
F061
0254
FDCC
0103
F700
F6A8
12CA
EBEE
FB16
F3AF
FA04
FD8C
FD66
FE01
F49F
0C5F
FEE4
FCC3
0093
0276
FE69
F92E
0133
0A2D
11E6
EFD8
FF35
0019
FE5F
F6DD
15FD
F857
F948
F898
0159
FA8F
FC72
FC95
0980
FD07
EEE3
00D0
FC1F
02B1
00D8
06FB
020E
0388
0E85
FB51
FC6C
FB85
087A
FBE4
FFA5
0C09
0043
0935
F9DF
03BF
05EB
F2A6
FD7E
F590
087A
F705
0248
03FF
EAF7
0097
F386
FF34
F8D3
0219
00B6
009A
F81B
03EF
0123
F47F
FD35
051E
0102
FFD5
FEF1
F14A
F218
F2E6
E4B6
0A74
F734
EBF4
F453
0FA0
F0FA
E017
0016
05CE
008A
064F
002E
088A
FD86
06EC
04BE
065C
0098
FC89
E90B
FDD1
002B
FCB1
0297
00AE
FCAD
F9DC
FE0F
F96B
FE1C
F325
F981
0300
FFFD
FC3C
0ABD
F293
FF05
FD51
F70D
E9C1
FC8C
FFAA
F74F
125A
ED44
10B8
FE05
F00A
E871
0B14
FB0A
0267
F2BD
F702
06A4
02B7
F38E
F621
F789
05F2
025E
0411
F409
EB26
F7F8
F961
FF78
F72B
F8F5
F642
0D8A
EC09
FF12
027F
F5C6
0264
E48B
FFDF
E00C
0537
FC6D
0424
0B1F
07E9
FBDF
0443
F4F0
FB20
022B
0381
04ED
FC4D
FACD
ECE6
FCB2
F954
001F
F8BF
01B1
F686
0169
EF16
F97B
037E
0001
F593
F1F2
FCDE
132B
FECA
FCA9
01E0
03A2
FBCB
05B7
FCB7
03B4
EE0D
0179
FE88
0D3A
024C
FE3A
F60C
1945
0505
EEA6
0CA4
044F
04DA
065A
F745
07E0
02FC
FCED
FD88
F4E1
F90E
EFC6
FD02
FE28
FEED
FF18
FDD2
E7C7
FE03
EE68
FFE2
01B5
02C6
F5A2
0067
F3D7
0464
08E2
F520
0152
F540
075B
FB83
FD97
002C
F8A0
0065
F8EF
072E
04FF
0AC0
023A
02D2
FDA6
0369
0B61
FB73
021A
02CF
FF40
F40F
F587
F07E
FB04
1642
FD5C
F8E2
0A40
1321
0243
F04D
FFCF
E2E8
FF1E
FE3C
059B
0AB8
FF97
F120
1C17
EF67
FD9A
FC35
FCB3
FF95
F9C2
FD7F
F833
0BA9
0101
0539
0979
FA80
0692
FCA0
FC5F
FAD2
EDD6
FE41
FE6D
04B2
FB51
0222
010E
F50B
1836
F972
085B
0001
0183
F5EC
FFE3
0E16
03EF
0218
FA03
0719
1021
F8A8
0E72
FC8C
F9BD
FE87
FB57
F9D6
0721
F9DE
FA9D
0C91
FA81
F55F
FE3D
FB62
02DD
F81C
FC77
003F
00F4
FA58
E654
EF85
EFE5
0233
F35D
1741
FDD3
FD6C
0270
EE16
02CD
F4CE
F962
F981
04A4
F252
EED0
0247
0B70
0281
0123
0DEB
0307
FA4B
00DB
FE69
0025
0DC9
FD5B
F6F3
F9E1
00D1
F9C3
F652
0725
0C28
067C
F142
FFF9
04F8
00EB
04EE
F738
02A2
F2E6
FE4C
FDCD
EF6A
F3FE
FCAD
0AC7
0467
F480
008C
0103
F676
F6EF
0876
F973
0B36
040E
136C
FC97
FE97
0C74
F156
02B1
FC9B
FE17
0B98
F670
0F53
F907
F892
FEE9
0082
0D04
FD28
FC5D
F6FE
FF3B
0609
F870
FD91
0487
FFD4
FF05
FFEF
0123
0070
0536
F7FA
0227
FCEC
F483
0850
F539
0260
00FB
0ABF
F3AC
F3C4
F9AE
02DA
0266
F879
FC40
FC8C
0B1F
0243
FC79
0092
036C
FF53
F8AD
0ABB
FE28
0F6C
F848
FC2F
F19B
FF06
0921
FB82
0004
F95B
04EA
FC6B
03EB
F9E4
0ED3
FAE9
F6B4
F9C6
EEE2
FF3E
0728
F1AD
FA11
FCFC
FE8D
035E
0E55
FA01
FF6D
03F7
FE97
013B
F40D
0256
F393
0051
F1B3
0512
F9A3
03B4
F113
F554
FC8F
DCAF
05C4
07E7
0971
0B55
0721
0425
F82D
0997
0494
027A
F50B
F927
FE41
F8AB
FC43
06F9
0739
041D
022D
005E
F9A4
09D1
0301
006C
F4D3
0503
FC54
F140
0152
F2F4
F50F
0812
0B22
FC78
054C
F7E6
F8B6
0469
F81C
F181
F8BF
0433
0B5B
FCC3
FC49
00C5
01E5
02D9
01A0
FE78
087A
03E8
FE67
FF1E
F84A
F9D4
FEB7
01EE
0021
0014
010B
EFF0
FE96
FFFE
F807
FB1C
FDE4
FCE8
FBBD
FFCE
15EA
FD31
024D
F4DD
0CED
FB04
0115
0076
0935
FFDD
058F
0EFA
03ED
1568
FBFF
ECCA
F787
F9AC
F12C
04B2
FEB6
FD6D
E641
FDD6
00B6
FBE1
E553
F82C
04C3
01B2
F894
12C6
FDFF
FC82
0398
FF8A
F64F
0B64
FCF4
FA6A
00E6
F60A
FE6D
E56C
05C2
F91C
0113
F7E4
FB8C
FE05
010D
0301
0D3E
F631
FDE8
0508
0409
00F5
FD04
FFEA
F635
F894
FB66
FE8C
FFEC
0C7C
02AA
FAB0
FDBC
E3C4
EF07
ED17
00FC
FD0D
00C6
00A4
07CC
053E
FF00
F578
F915
FA51
FB46
0672
0721
F77A
FCBC
FC35
F566
06EF
0B1E
1259
0277
09E9
FE69
0A48
001A
01E1
024B
F58A
FF4A
027E
EE8B
EA68
F7EE
0CD6
FE56
08FF
FA94
04F9
0140
04B5
F58F
F818
FC9F
041D
0BAC
FEA6
FC24
01CA
F586
F823
FF13
FEE1
FFDB
0298
FD37
0A17
F369
FDC0
0CFB
FE85
FCE2
01BA
083E
FFF9
FF03
FA41
F232
FB34
F313
043F
F9CA
0101
06A4
FEDB
FBB4
0121
042C
FFFE
F6C4
F51A
0324
FEB3
F01A
F77A
03A0
ED6A
F8F6
F555
EF96
0103
0116
E839
FE30
003F
FB2A
02E0
EB3D
FDF2
FED2
FDF5
033A
EE52
E9BF
113C
0BCC
F229
06AE
FDD3
FDF3
0CDB
0031
0778
FE98
0C34
027B
FD1B
0115
FEA0
04E9
0085
002B
FFA3
FFCF
0003
FACB
FB19
F6AD
FB13
FD27
043B
FD72
F872
0B5B
FF77
04F1
0B33
086D
0199
F7FE
0559
FF39
F015
0183
0788
EEB6
F6DC
F953
035F
FB96
053A
0191
02BC
F4B9
06C1
FD0C
FD36
0556
FD70
FF95
FA89
FE2F
0D22
FCCD
FFC2
080D
0190
F61F
FE44
0F81
FF7B
FCAF
02CD
0389
FC73
0168
FD4D
FF01
F7E3
F822
FFBD
FC6D
FE43
FFDA
FA9B
FBA0
FA83
0B6A
0069
FB00
FBB0
FDC6
FD7B
F948
0517
FA53
FB64
FDAA
F757
F500
FA7B
FABD
FAFD
FA0D
00C2
FC9D
006B
F9B7
064B
FACF
FB5F
F986
024E
FE6D
056D
FBF7
FCCC
12EC
07A5
0115
041A
0F9B
005D
16CE
F77B
0522
FFB8
01F4
F8BB
F389
F650
FC03
F23F
EF2D
030A
02E6
FC80
04B6
FF95
E988
FAE4
F963
F988
F3A8
F675
FC3A
F9FD
0D54
F8F6
FFDB
FD8C
033D
F852
0428
0163
FF33
0419
FDEF
FA81
FC65
0664
F3E9
FB0B
025B
0A7A
03BA
FBF4
000D
FF6D
FEED
F9ED
FF80
FCAB
EDC5
FEC7
0595
FC3D
0467
FD78
FA68
F9DA
074B
0357
0158
FD8C
F8F8
F59B
FEB9
FC55
F1FC
FCCA
01BB
F5DE
0A7D
FED7
001F
098B
00DD
F2A2
03A1
0073
F807
0189
FE15
FA99
FF89
FD26
0300
05F1
F68F
0A1F
FA50
FC6A
0334
03D1
0A38
033E
E1AA
FD36
0912
0050
ED96
0349
F79D
FFA4
01A7
0742
03CA
E890
028E
06FF
F1C0
073C
061E
F93A
F920
1646
F6C6
FD65
0D1A
F53E
019D
FD51
090B
0290
01C3
FA45
F776
FD5E
1D88
0A76
FE98
0B57
FC56
0639
F4A2
107C
F4FF
0141
FF88
F82C
F671
FC8F
F976
0048
0569
1271
FB08
F33E
0334
01AC
F489
02FB
0275
FB8C
FD47
F368
19E1
ED44
039A
FB51
0582
1469
051F
FD62
F9DB
0765
F967
0112
FF2B
EA86
06BE
22E6
FCC2
0DC8
07A3
0E35
063C
054B
0361
0F7D
0FE1
FBB1
0865
EFA2
FD61
FC02
FC2F
F88F
FD22
0A7D
FB3E
F791
0485
FEF7
1082
F521
ECFA
FB44
F766
F8E1
F8F1
02EC
00A5
0562
FBDF
EA97
F320
0C54
FD67
F3E7
FB64
EF8D
125A
F693
F7B1
F97D
F723
04B5
FB58
012B
FACC
FF02
04E2
F2CE
EF7F
02DB
F6B3
F695
FBAE
072F
F47E
FBD5
FEF7
F527
FD01
EFB9
02DB
07FC
F98E
00A9
06F3
006D
E773
F063
FE18
EF2D
FB17
ECBA
09EB
0739
F718
FBB8
019E
F210
F7B3
FA5E
0CB8
F716
014A
F93D
F7B4
0A40
FAAC
1F75
E836
0325
FADA
0796
0767
F875
F0E7
00E1
0AA1
EA83
FC29
0280
F5F6
FC6F
FD07
F799
F570
03CA
0508
04F9
ED93
F6D4
0330
0444
F728
FE11
F9F3
FADE
FCAF
010F
FC31
F5ED
06CC
F780
F217
F242
0041
0010
FFAC
F1A5
0191
06C4
035C
ECBD
F14B
F902
EF50
F47B
FD7E
FCEE
FE15
F8ED
0E49
EFB8
0164
FF2C
0270
08D4
FB06
0910
0B84
FF8C
038C
004D
0365
06AC
FCA3
FDE8
EB61
F899
F4A7
FDE0
0237
0056
0269
F9FD
F3CA
0D6C
0390
0444
F880
0CE7
0E70
0044
1F86
025E
020B
F294
0323
01B2
F430
FDC8
04D6
0040
FAD8
FD41
F91B
08C9
0160
125B
F92D
0053
FBCD
058D
001C
0355
FA26
011C
01D5
F847
ECD9
FA9F
021A
0822
0673
EBB3
000D
02C9
FBA2
EBE0
EFA8
F57F
FD8A
0275
FFEA
0134
0EB5
EDDC
095A
053E
010C
0884
F0EF
0273
FA7A
0216
14CB
F78F
00A3
EF68
FDF3
0308
0843
057B
F30C
0AA2
0010
FD44
ED0B
FB3B
0301
FE72
F577
1307
0CB7
F1A8
0928
09FC
11BE
07EB
FB7B
F81C
F6FB
FBA7
01B1
0240
1314
FCC2
049C
FBEE
0315
12F1
07A0
F607
FB5D
FD54
01AD
FA20
FA6E
FCE5
FD89
FB81
F6A0
0C03
0540
FBA1
FE51
E6D3
0552
0293
012C
FDC5
004F
05A7
01DA
FB65
FDBE
EE27
0735
F939
0032
F87C
03E2
FE64
F967
11B0
03FC
04A6
00E8
0A64
014D
0094
10DF
F904
FE08
F6CC
0571
FF55
0A03
000C
F7D4
FE24
EC74
F477
FC46
01B2
FB97
F60A
074A
0436
FE4C
033C
FBA6
F713
E40A
F6ED
F1C3
06F2
F462
FB89
056D
FEFE
F9F5
0839
FF1C
FD51
F6CC
075C
F8B5
E948
FC89
FEAA
01CB
02A8
0154
08A5
FBBE
031E
05DA
F881
0216
FB82
FC24
FB68
15FF
F8CF
FF20
EE27
FBB1
00A0
07E1
04C8
F900
085C
FC1B
015B
F75A
0522
0184
02FF
FD5E
00CD
03E4
F9A0
0BA3
157E
0733
115F
09D6
1EA1
1225
F917
05B0
FA84
008C
04D2
FAF7
0304
FEEB
0852
EE47
08FB
FAD7
EFFC
FDE3
019E
EEA3
1445
ECF6
FF7E
061D
F85F
1579
FD72
06CE
FE4D
0744
EFEC
03DA
1068
FE85
06EE
FD83
039C
0697
FB65
03EC
F9E9
04CD
F9A6
FD41
F897
07FF
FC8C
106A
FDEA
00FE
FAA8
F354
F8C9
FCC0
FB11
05CB
F9EC
F7F2
0000
ED92
0196
03C7
FF00
FA8C
01D2
03C6
FEC8
FF2B
0322
FF2D
060A
0B68
014E
0734
07C6
FA88
F7AC
00D8
15A0
FDFD
F6F1
FCD6
F518
07CD
FE50
FDFB
F6B5
FBAC
EE43
0A2E
0709
FFB8
00AA
FDE7
0337
FD65
03AD
066C
0D70
012C
FA26
03F2
FC48
0A37
006B
06E3
0322
FC4A
0486
FDCF
F80F
00DD
FAB8
F1ED
FE91
FC67
0563
F450
FE1E
0215
FC07
FEF4
01C1
FA0A
05D5
FEB1
0376
F683
FDBA
0193
FC09
FC66
1255
0146
0A54
0B51
EE44
FE00
F385
FF59
F66B
F9B1
FEE7
F359
FD71
00A7
0D21
FB3B
F1C4
F546
0034
FB65
F954
FF60
00E5
0871
FF8D
00B1
0037
FBDE
FA2F
0FD0
FF63
FF46
03E0
F605
0218
FED3
F9CB
EF98
FE42
FB1B
F807
F607
02AF
FAC1
FE7A
F5DA
FC2D
05F5
FE0C
F5A0
230D
FC11
F4B6
0A4D
077F
EC37
FF74
F874
01F0
F2EC
FE5B
ED0A
F704
0B76
FCB8
FEF6
F4C2
F61F
FAFD
0501
F750
F889
F549
F0E9
FB19
EFF8
E51A
FAD4
05C4
F3F3
04AD
004D
F9CF
F57B
06DD
F616
FF84
025A
FFE3
020F
01D8
F891
17EC
F7AD
028C
FDCD
FA9E
F5C2
011D
F592
F9E2
F156
12C5
00D8
F8F4
0114
03F5
FFF3
EE75
01E3
00DF
FF93
F9B5
F736
007B
FEDD
00CE
06BC
0855
F7C0
0747
06E9
FDAC
0C33
FDE8
FAD8
FD95
FFF2
F8AF
00D5
FE92
05D1
0410
0CEF
FC64
01B8
FA43
FA35
087D
F954
031E
FE78
F432
FA41
0B21
F5F8
EF79
FB8D
FC9C
06ED
FDA7
F728
F8CD
147F
FDBC
FF4A
FDA7
F03E
0391
FF38
FDFD
FA65
0A48
FD0C
03DF
FD1B
0741
FFE3
F35A
0902
FC1D
FB39
FD46
FEF4
0DCF
F63D
F5FC
F767
03BD
0FCA
ECDC
0EAE
FF1E
00AE
FE06
F574
0566
FB2B
FA2B
02C4
F16D
0303
EFE4
0575
0352
FB80
0162
F8CF
0AA1
F628
0352
FAD7
0A37
F87B
0B1A
F936
F2B4
02A6
02AC
FF94
FA7D
04A0
FF53
0449
0BC3
0169
FAE8
FEB2
FE48
015C
FC60
1F52
FB14
FBC8
F988
F54C
02A3
EE41
F13A
F15D
0A65
000F
0A7E
F484
023F
FE57
0888
004F
03AB
0992
0C79
FEF4
F92C
0092
055D
0252
00C3
F41F
F800
0040
F362
F24A
022B
F7AB
F275
06AB
ED90
FB88
EC2B
F55F
062D
01D7
03EE
05D7
FF10
0113
FEF5
0CD4
FD15
FFBD
09D4
FF07
F33D
FC08
F660
F7A8
0125
FB8D
FCAB
EE7A
FB41
016E
004A
E385
FD72
FA8F
03C4
0066
018B
F776
05F8
ECDE
F565
FFEE
FF53
FCAE
F022
090A
0254
F532
FE70
0338
013E
FF72
10B6
0075
F3A0
0A9E
15F5
E9ED
01C9
F9CB
0219
F161
00CA
02BA
0425
F8C8
F525
0464
F4AD
F651
F432
0937
F727
FEC6
FA6A
15FA
F94E
F586
1CF5
E42D
FE4A
E49F
F667
F350
FF58
FB09
FEEB
F7E6
FCE2
EE0D
EF7D
0012
FC3D
00D7
FCF9
01F5
0C20
F5E7
F3A5
FD74
F1BF
FC6C
0553
F762
F41D
F424
009F
FE98
13D2
F0CB
01E2
F9D1
0F8C
EACF
FF92
FF68
01E8
E722
EF56
FFED
0499
000A
F8F8
0C3C
F17A
FAED
FE67
1BF5
058F
02A4
FA84
F9F8
F3F7
03C6
EE55
0BF5
0E1A
EDE1
EAFF
FE26
0682
FFD0
0033
F236
06B7
FDB1
01AD
051E
04ED
EBD1
0920
0203
027B
FCE9
0495
FFCE
FCAD
F8B4
0144
FD96
F6B0
FC31
009E
0329
0148
EF23
0466
F747
06C3
00D9
0006
FD6A
F762
F686
1192
F90F
FE3F
01F2
04A7
0530
01FF
09D8
EEF9
09D0
FC16
FF5F
07F2
F633
FD7C
0718
FDC7
FB26
F95F
FF6A
F7FE
06B6
F95A
08C7
FC42
FBF5
000F
F5DA
F1E5
EC5C
F688
1DD9
031B
06FF
FAFF
F9EE
FC91
0CC7
EF8B
01ED
019E
F30F
F881
00AC
01B6
0017
F0C3
02D7
FC90
025F
0370
0360
03C4
FF97
FD05
FBEA
FD7B
EF8B
FC18
05A5
1191
FFC8
077B
096E
FE71
0D19
0C01
038D
F2B9
0121
FB69
02C8
F56C
002C
01E5
FD85
02DE
F70E
EB96
0921
FFD6
F88F
0248
03AA
FDD2
F9BC
FD73
F3EE
F5DF
0129
035E
03EA
0BA6
FD33
F281
00F7
0459
FBEC
0443
FD72
EB3B
ECEC
EEA5
1FE5
FE91
0DC8
0984
F767
0AC7
1250
FD9D
0123
FE87
FB60
0430
FB1C
FAFC
023A
FBE6
073B
F21C
0460
FE72
FE33
07D8
01A3
FA57
1987
0CF3
FAD9
FCE6
FA61
0586
0FBC
0655
F04D
FA1C
0363
F952
FDE7
FF1A
FA1C
0121
FE8C
03B2
0512
F6C2
0BFA
EF53
FD22
00B8
F95E
01D9
014A
00F0
0318
FA95
F522
F768
FB8A
0427
0912
FDFA
04E7
04A7
04E0
1262
01E4
0DED
FED3
FC3B
F676
1049
0066
0776
0040
FB8D
00D5
F1FD
FAB3
F932
01F0
F725
10AF
F042
FF43
FFDF
EF3F
F6A3
0048
0065
0755
FFB8
0551
F060
049A
F6F4
FFF6
FDE1
FB14
F2CF
FDDD
FFA1
F6A8
0196
EBB3
F6D6
F7E7
F7B0
FD6B
FF11
0E3C
059F
0910
FB1C
F543
06C7
0238
0BA2
FE32
11C7
01F8
E6EC
0147
F442
07EA
F455
FE1D
F98B
F289
EE3E
F645
FE27
F5DD
F9A5
01BF
FE6F
EF84
F887
ED1F
0118
0AA4
0399
0788
FFC1
FFCB
FDD7
F8DF
F28C
FD19
0141
FE92
004B
05DE
0F10
F7A5
F383
0229
036E
0869
FAE4
FEAB
0962
FB40
0581
F7B0
EFBD
F4FC
FB40
0334
00E2
03FD
00A8
044E
02C8
F99F
1845
FF68
F6CE
F9A2
F75E
F35B
FD3C
FF67
064E
1146
0736
06FA
0838
DFEB
0311
0407
0228
F8B9
00E1
FC93
FCDB
FF0C
FDE6
FD2D
FA52
0384
10E1
FD5A
0045
F435
1282
F343
01F4
FE33
F7C7
FEF1
0A6F
F773
05E2
F5B0
F908
07CE
E6B7
0380
00F9
0214
038F
F778
09C1
044F
006B
17D2
FFE9
FF07
FFB5
FF25
F95E
FA88
F9A6
05A1
FD2D
EDA2
1816
06B0
0176
FF91
03F3
0B5D
E9B1
016C
FE75
0518
EAAB
F94A
FB4F
F4E4
0060
092F
01C2
05EA
FEE4
EF44
0988
FACD
081B
E12D
FFEA
F76B
F743
04C1
FA7D
FA6F
0841
FDB3
FFF2
F673
050C
F987
FFFE
FA40
FB99
FE4A
01C1
FE3B
F94A
0194
F84D
FDE0
07B7
0575
FED7
004C
0794
F587
F4D5
F2B3
0071
0584
FE4D
0C6F
043B
F74D
FB99
FCC3
0780
FF17
FBF7
05DF
F69D
03C5
0597
04DB
F573
0049
004C
0608
03A0
0233
F96B
F819
FBDB
F9D5
001F
05D7
F8AF
FFD3
F366
036D
0187
02FB
F8C0
066D
FC43
0F08
FB9B
EABC
FAE5
07D3
F830
FFC6
E2A6
04AB
F02C
E8C8
01D9
F8A4
FD24
02B9
00A3
F099
0C7E
FF5B
0B11
00C2
FF67
0D30
F3C7
0350
FFB1
FFA0
05F5
0252
0146
FACB
FE19
1448
0182
FACF
009A
0361
05F4
0490
09A5
F229
00B9
0139
FC35
0026
EABE
FFD4
FFE3
FF16
FC77
0F21
FD2F
FD19
02B0
FE08
FD72
FBA9
060A
F561
0213
0176
F9B3
014F
05C0
ECC7
F9AA
074A
EE81
FD4B
FD99
04E3
0734
FE2F
008F
046A
02E8
0481
FD39
FF6B
00D2
00FB
0029
00ED
F731
FFDA
011E
0220
FFE0
001B
072D
FB17
00B8
0BD5
FB95
011C
FC11
FE87
0EF7
FCED
FBAD
F6E4
FEA1
FE4F
FA32
06EB
00FC
FD6C
0123
02DD
FE7E
0237
FEAF
0454
FA77
0073
0310
0615
0091
0192
0412
FF85
090A
EEC8
F210
010C
1289
F7F5
F9F9
0875
0327
ED54
FC3B
09C8
00BC
FA0A
FC88
040C
F8BB
0819
F91F
F98B
0599
FCA7
FF4F
FA7C
F876
0372
03C2
FA1B
F5CE
F5EE
FFAF
2271
021B
0180
0639
FA6C
02AE
FBE8
0221
FFFD
04E5
FE72
FC88
FC2F
FA74
086A
F775
FA25
0E9B
0500
0205
028A
09E6
024E
FE7B
FAF5
0432
F2C5
FD8B
F5C6
F768
EDD3
05E5
06FA
FD92
02AB
FA24
0628
0182
0103
EA8D
0F36
FD95
FBE4
FDEC
0291
03B9
07CE
06AC
05A6
FFE6
F1E6
0B8E
F97B
FBC6
09CD
02ED
037C
025D
E842
FC17
FE1B
00B7
0047
0278
00C5
0478
09E7
F587
FCF3
EFDF
EC75
F8B0
E9F9
004F
0A5B
004F
F924
FC19
FEFB
09B1
041E
0956
09D1
004E
E239
FEB8
0A45
ECF1
0DD7
F9B2
EB12
F99D
F378
F8A9
FF9A
0282
FFC7
F86F
0456
EF0B
FBDB
FC62
F805
075C
00B5
EF6A
FD1B
021D
0E76
EB2F
09DD
00C0
FC6B
FDC6
02DC
FF1F
02D4
FDE8
0D3C
0B96
014F
FF17
037B
0076
F5BA
1358
F930
F507
00A8
0D44
FEA1
F5B9
FBF1
FC50
0230
F34D
F879
147B
04DD
FEE1
0FA0
1A55
FD08
005D
FC19
04CF
01B5
F0CC
F61A
F494
F7F0
05E4
FC06
01BF
0518
F1F7
FC1B
06F2
0295
F713
FA6D
E3C5
13C3
F55A
02D5
003C
0454
03C9
EF63
F8B1
F75F
FE8C
0285
0305
029F
0156
030A
FA5E
1042
EC83
0561
01B1
0148
02E3
FCD6
0C13
F834
FEAA
03E1
03C3
04AA
F15D
0ABE
09A2
F417
F8BE
03EE
0377
EB82
FCAB
026E
FF01
EF2C
F909
FE25
075E
0640
E90C
02E5
ECCD
0060
F417
0AAB
0340
0010
030D
E9F5
0466
FAC1
F526
0624
F799
0796
0821
FE4E
1BAF
02AC
05BA
FAC4
01EA
EFF1
FD1C
FCC0
0438
FF66
F711
F6D8
16E2
0BD9
FF30
0021
0291
0022
FC7E
041A
0283
FC5D
F8E6
FE09
0497
0175
00A2
F94E
F865
F5B4
EFCA
00A8
FBAD
FA1B
FBF0
067B
0016
FDF8
0045
10BE
0504
FF64
F9B4
F88A
021F
FCE4
07F9
FF32
FB61
0117
F8DC
06D1
F16F
0524
0BA4
012F
04D0
F9A1
02C8
0B6B
FBBD
02FE
05A3
FDAC
FB71
F6D3
0394
EEB5
0475
0AC8
039A
F6D9
0C7A
F7A6
058D
FD91
0CB8
EDD3
FC8E
FC5C
FD30
FB8E
FD0F
091F
0035
019C
F461
0002
FBB9
ED46
EBF5
FA30
F588
FB1B
F5BA
FA9A
F614
F916
FF63
015A
06D8
DED4
F63E
FC88
FF22
0935
FCA3
FCD1
FEC5
FE43
EC83
FEC8
06F6
F174
FA1C
FBA2
02E2
046F
F390
1713
FC77
F657
0562
0053
0D71
FF02
0401
F65F
10CC
F93E
FC8A
087D
E5E8
09DC
1110
FE31
FD21
FBA7
FBA7
0FCA
EBDD
FC2B
04E3
08D7
FC89
FC5C
085C
0055
F028
FD3A
0A59
FE46
0C26
0594
FBAB
000E
FF25
F3A3
F074
FFC6
FB23
FBBD
FB21
FF96
FA91
0520
0775
FD85
0420
FDA9
0051
F012
EC5F
0108
0E59
0A30
EE06
FB09
FA18
0799
FFA4
0279
FEC3
FE53
0B24
EB30
0919
03AB
0802
FC84
0217
F984
FEC1
E9AC
06DF
1A5D
0733
F296
025B
F7B2
EED0
F265
010D
0B2B
0A3E
03E6
FDD4
FD25
FCA6
FAE9
1295
FB65
F506
FA4A
FCED
01E2
170B
0524
13FA
F574
FF2A
FF10
0DA1
002C
0A06
E9E0
00D3
0A73
FF31
FBAF
02B7
0422
FC22
0860
FE80
FA5D
F744
FD7B
09C5
0133
F980
FB47
F08E
FA52
019F
FE84
F9A0
29DE
06A2
1E25
F7BA
EF0A
005D
FC23
02D8
F7E8
F3EE
FFE5
0F8B
04DF
0537
0AA4
F9D7
026B
073D
F9DA
050D
FC88
080D
F72A
FFD9
0157
116F
03E6
0869
0011
F5EC
00FF
FA84
FD9B
068B
01C5
FBAB
12C0
0718
F980
F0FE
FAA4
0E71
0293
04AC
00CF
FD30
F99E
ED1E
0838
F865
047C
F44D
008D
FB5F
FABC
F78D
021A
EF5C
FBB9
ED56
F79C
044D
0965
05C4
F67C
F910
FB12
FD93
FBE6
FCD0
FBC4
F20C
0AE2
039E
1028
EE5B
FD48
FDA0
EED0
0451
EA2E
FFD3
09CE
FDEF
F55E
060B
F185
F89B
026B
FFC4
0338
090D
F7AE
F9AE
FBA3
FB81
FA5D
FE79
0C0D
0018
FE2D
0184
0386
FD2F
0B3E
FF12
0FE0
FAD0
FF06
07DD
F796
FADB
F468
0454
0154
0045
FE39
0642
E93E
FF58
F5B0
08B6
0876
FB74
FDAD
FC3F
FBC7
EEFC
00CA
F0AB
0761
0F3F
FAC6
08B9
FFB1
0BCB
F73F
05DD
02A1
F81C
F9F0
F80B
0639
FEEB
01BF
FA72
03B0
FD29
069A
FC7F
03D4
00BD
FD50
0100
058C
FB7F
ECBB
FE59
F3F4
0A33
0380
0CE1
FC8C
039C
EF54
0BAF
F797
FDFD
04F6
0944
0C98
FA25
FEFE
FF45
F34D
F291
09D8
004F
FD65
069C
E388
0C7E
0082
FEDE
F88D
EFE3
FF35
F22B
0CC0
054B
F69E
194E
01FC
F902
01F3
E985
FBC2
030A
050F
0AC5
03D7
F814
EEF4
F33C
F13B
0461
02D4
FE30
13B7
14AB
030F
0134
FFF8
EFC8
014D
FB11
03DD
FD3E
F947
059D
0167
0573
FE04
FEF5
FFFE
FD04
FF16
0AB2
02FA
020D
FFA9
02C6
0888
0064
0642
FE4E
0256
025F
110E
FA9A
FD45
FE67
FCB1
013D
0109
FDDA
F6D5
F4AD
014F
0516
EEAF
F68B
EE6B
FE0A
03FC
F40F
0080
09DE
0DFD
FFF6
F836
F698
001C
039B
FB35
EE1C
00CB
F4E0
0650
0195
E7B4
FDAA
FE39
F840
01D3
FAFE
11BD
0158
FEF8
FC0F
029F
EC97
F4CC
0358
0750
F4A1
0323
F586
03A0
08DE
FB4D
0155
FEF8
032B
06FD
F5AA
FE90
F801
1399
FC3E
013A
01B8
02F9
E2ED
1E29
11EB
FD40
0053
FD2B
11B8
FEA8
091C
F0CA
FE47
09B6
FBEA
FC60
0637
FDC7
0447
FDB2
0490
0060
FC0A
F307
0B92
019F
FA3C
FE37
020D
F72D
05F4
114E
0050
F7C2
FF0B
EB48
F5F4
F81B
02A5
FF97
0720
F896
031E
01A0
FF99
13D3
FB73
F3B3
FB0D
FDB2
00E9
0127
FD98
F563
0F7E
FEE3
FD5D
0135
04ED
FF4B
F5C6
F35E
F64E
056F
0679
0384
03F4
FE4E
FFFE
EB88
0042
F555
FCD3
FB0F
FB3C
0599
F6D6
FA16
FFEF
0F22
FC0E
0207
00FA
046F
F25A
04C6
EE86
1032
FD02
0095
0B8F
FFF9
0E01
011D
FCDE
FADA
039E
F473
060A
FF39
0CD6
01F9
FF9C
0EC0
EFF3
EF67
FA77
0710
0CC4
F553
02A4
FF27
FE7D
0FF6
0579
FEC0
0230
FC7E
FBB2
FA86
FEA8
0AFB
F924
FDB6
F648
F344
001E
02FD
FDD1
0502
0937
FB04
F6FB
0BAA
010B
F79E
FF4F
06CC
1095
0D2F
01EE
059B
F53D
089C
02F4
0963
02AB
00A0
FCB2
E0B5
0067
F6D1
EE36
FE6D
05F6
041A
1429
0AC0
F6E5
F399
FBB2
0DE1
FDE1
FF00
F18A
F321
0060
0688
0D87
15C7
042A
FE9E
05AC
FC10
FEC7
FB10
FC0A
0C2D
0C80
FECB
FC23
0E75
06A7
FDE8
F91F
FD69
00E8
0408
0EB5
F772
06E8
F7B5
FB06
0D62
0810
F8FA
02DC
ED5C
FEFE
FFA7
01EA
04FE
11FB
F836
EA4A
0648
FD2B
FDBB
FB8E
0017
131A
0A53
FB73
00F1
04FC
F0B5
F96C
FD5F
0586
F740
017D
01DA
07F3
FA3E
FDC6
0108
0522
FD8D
F0D7
FF5D
FB0F
FC5A
F98E
F790
F986
FBF0
E6CC
F424
FBB9
F0A9
003B
00DD
0245
FFAD
FB4E
FDA6
014F
042A
F567
0795
077F
0293
0046
F3E7
FA95
FBEF
FD0D
F907
071A
FABA
0873
FD4C
FDF2
0074
0C91
0343
14F0
FE9E
FC63
0A1A
FB66
FFBE
0D17
FF79
FEA1
FD3D
FDF8
F267
042C
0038
F988
063B
FEC1
EF04
FC86
FD98
025F
F6A3
FAB3
ECEA
FA93
E82A
FD0B
FD3D
FD3F
EAE1
FD10
0368
01D2
FD3E
06EB
FD51
EF47
02D5
0222
FF5D
FFD2
FFF0
F5F3
FCFC
FB1A
FE2F
FD7B
FF95
04D3
0328
F91B
FF2B
FFDC
F897
111E
FED4
0159
10F2
FF99
0319
FF8C
FFE6
0FF9
0950
24EB
02D3
03C8
F1A9
FA61
F40E
FBB9
0645
F5B4
F205
F7ED
FB56
F607
0023
FC7D
135F
F91D
02F9
0DED
FD3D
08E5
02DC
FB8B
FD0B
07F5
02B1
0739
FBE6
0230
04A8
FFFD
FF1D
00A4
FF93
FE63
00BD
FACB
EE48
F70B
FC38
FDAE
005B
07B5
FC56
FC5E
015C
FE36
F48E
04BB
FCD8
0421
EB8D
FEFF
FC4D
0013
FE07
0091
F521
F84F
FE41
FA1E
0E80
02BA
0BCD
01F6
095C
F80D
FCB0
FA34
FEB4
0A69
F6F2
FCEF
FDF4
FEE1
F67F
F886
FCCB
06C2
FD36
FE28
0069
094E
FDB8
FE17
FA72
F8CD
EEF0
FC0A
F68B
FCA3
0098
FFEB
F562
F2A3
0450
0315
044A
FFCF
05F3
01D7
FC8C
0197
FFE2
FD23
FA2B
F714
F8EC
F78E
0367
F536
0147
06B9
F825
F713
F394
F667
05C7
FD3C
F114
0870
FAF6
0032
F972
058D
FCC0
0326
1976
F9B5
0415
ED23
F311
F9D1
F9BE
0647
FB00
FA1B
167D
F640
FE97
F81F
F9C8
FA20
0168
F7DE
F6E5
F7A6
041B
0517
FD41
0B6D
03B6
0378
FB60
001F
0358
F80E
024A
FB10
F23E
FABC
047C
05BC
13D8
FB5F
F0F7
F9D2
F7EC
F572
FB46
0D67
FE4E
01FD
F2CF
FF5B
1B8A
F96F
FE48
0DC7
031F
FE8A
FA32
0216
FD29
F57F
000B
F97F
FCFC
0042
0413
0692
0502
0432
F694
F7EC
02CC
FE32
0457
0A17
F9F1
F62F
FD93
F4E0
0AD7
04BD
FDE7
04A1
FF18
01DE
FE8B
0A56
FF73
0C42
F607
F3BD
FF0F
FCA8
0C00
F8F9
0733
FB2A
F5B6
FAF8
F9E8
FA17
0248
02E0
03E9
10D5
FE50
FC3E
FBF7
062F
FC48
F98D
08EF
0AC7
0510
FD5F
FD0D
040E
F861
FE65
F685
0209
01B0
15DB
F999
0009
05BF
0188
FDE3
03B0
F995
00FA
FC1C
F91E
FD44
F90C
0345
0411
027D
FE63
01AE
01A9
FFAF
F518
F43F
037E
00B9
07E6
FDF1
EFCD
FF0D
009F
008A
08A0
F827
FE8B
040B
FF5B
0298
FEF4
0834
FF64
0C91
FCF8
FC2B
0121
FEDB
F932
F9B4
04E2
FBBE
01E4
012B
022C
F706
01DC
0197
EFF7
FA55
FAFB
0628
FD06
00FF
05F3
FDCD
00E6
FDF6
0096
0C37
04D5
F68F
015B
FA2F
00C8
FFE0
003A
0506
0479
1C0A
EFCD
084E
F8CB
F5F9
EE00
09CC
F837
FF80
EFD0
F4BF
F5E1
02CC
046F
FEA5
057D
07B8
FDB4
F9C1
092D
048B
0186
FB56
008D
F50B
06C7
0031
021F
08F7
F236
FA13
00EA
FAA8
0007
F633
FFFF
FA30
FDE1
0172
0191
FBE7
F30E
19BD
F3D7
02ED
00B7
0271
F0DF
057F
FEBB
0242
FF88
FAEE
F843
FBF5
0880
F305
0226
F1D4
031A
088D
FFFD
FDDE
E90C
FE50
F31B
0492
07B0
0911
04DF
F8EF
FDF7
085D
1EBA
FCBD
0373
ED96
005E
F8B7
E6B2
0BDD
F137
FFEB
F1D2
EC27
FADB
0126
00BD
000F
FDF2
00AD
05BE
10A5
F195
07A9
FB1A
00C2
F3E2
014A
0653
024D
F885
FBF5
E7CB
0136
0A09
F618
02EE
FD2F
F394
1B19
F5CF
FECC
FB70
059E
FA84
005C
0305
14B2
F8B7
080A
0438
FDE5
06C6
1511
FCEA
1031
F313
FCEA
F0BE
0006
F268
053F
04AF
FF8C
EB17
FB19
0D31
001B
03BA
03B2
FB88
020B
06A2
F1F6
F872
F434
03B3
F2EB
099A
F61A
0887
0752
FD48
F8B5
023E
FB93
010B
FDE0
0107
006F
FA79
F9DD
0729
F53C
013C
F96E
F9A2
FF94
05DD
091D
FB2C
0079
F6F1
019A
F0F1
0439
0BD7
F81D
FA03
038B
F8A8
FD47
0027
EECF
FFF0
F13C
0160
F7EE
04C9
F20B
F956
FF43
F930
04E9
F813
0262
00F8
FB19
033B
2859
F7D2
F19B
0348
07A2
EB3A
0251
FCC2
FDF6
F5B0
FE29
011C
FBEC
091B
2790
0C0B
FE2A
FA19
FEF7
00BA
1A16
FCD9
042B
FEFC
03DF
0675
FE4B
F804
0210
0032
F4A2
F78C
FF7B
FAA3
F898
FBDE
F511
041C
05F3
0178
FF5B
FC0A
FCE6
0162
FE14
0353
F900
014B
0034
FC65
04E7
0686
FF3E
F8C2
037F
1C13
FC0B
F0E7
F9A9
0DF3
03C2
FF0D
FA2E
F600
00AE
F382
F8F2
F86B
0595
0E0E
FF6C
FF61
FCB6
09A6
13F4
FCF2
F1A5
FD02
0B05
FDE5
00CD
0685
0B3D
0086
F52B
F5F0
0C34
FDF4
FD00
021B
0AF4
FDAB
FE95
00D6
F91E
047B
0141
FADE
FED8
FBDD
F09D
FD62
02C5
F02E
F501
0128
ECC4
045F
0C58
FDDC
F838
F830
0A01
FFDE
EBDA
014C
0327
01EE
0533
DCE0
F0AF
E5A6
F509
E93C
F6B9
058F
FDD2
F165
E520
EDD6
12E4
F12E
0475
1198
F93A
026E
FF2E
0EE5
FDFF
01AD
148F
ECD5
F813
FF34
03C6
1513
0095
01E4
F62F
0059
F8F1
0954
FE3A
FC72
F7A4
F705
F7B4
FBAD
E97C
F43B
00CD
F1A7
EEFD
03DE
0612
F66A
FCB7
F75D
FD75
0AFD
FDFE
FF46
0055
FE76
01A0
01B3
E6EA
F59A
0054
EE55
ED18
02F2
FA58
EF46
0022
FDBF
FB49
0061
FB6F
135B
FF01
05D9
FF24
04D2
F570
F61E
FE2F
FF08
FF15
0708
11EA
0091
0B65
FA6A
EE99
F5AE
FE1E
FB41
FE86
FDBE
FF12
037E
19EA
F8D2
FDF4
04FF
FEF7
092A
FF0C
F761
013D
0081
0403
007A
FFE8
09F5
0D31
EFA7
07D7
FE58
FB0A
F594
FCE0
025B
04DA
FD83
03BF
F5C0
E7F2
F83F
FC53
FE34
0C87
FE4A
1291
03E3
FF36
160E
FFCE
FF51
0904
F9D1
F96D
FF28
FEAF
F3F5
0329
FF8A
FB30
FA16
E5FB
FA77
F60D
0174
14C4
FBF5
FEC5
0008
017B
ED26
F509
038B
012A
FE93
031E
FA51
F428
03E0
05BD
FED3
0173
03E2
F6E3
FD8D
FA28
FCF0
EF5A
F5D3
0178
04E5
1431
0410
0950
ED42
06B5
08C1
00D3
F4F1
04AA
FC8D
02F3
0249
0159
F6E8
FDA9
00DD
0110
F868
FF5A
FCA1
F76A
027E
FA34
F7B7
FC34
0570
FEEE
01C1
0877
082A
FD90
1282
F2DF
099A
F7C0
05B9
00B8
FA15
0102
FF05
0153
09A2
F787
FCCA
01D1
02EF
F64F
F54E
FD5A
01EC
F899
01B9
009F
0810
FB94
FE9D
0345
F4F6
F1AF
028A
FBDD
05BD
08F7
058A
017C
FA7D
FB2A
FD53
0766
006A
06A3
ECE8
F915
FD91
0446
EC1B
FB8A
07AC
F430
0081
FB23
00A9
F5A5
FFB9
00ED
F8F8
F5FC
08BC
05A2
07C1
0DA0
0314
FE23
F7D0
0AC3
F3B9
0B06
FDB4
F9CC
F622
0B6B
F6B1
EB60
06A5
FCF6
F6FC
0EDD
F8BA
F003
F4BF
FDA3
0186
FF7F
FF0C
F1C8
FA4C
05BE
FF8A
018A
0178
06AC
083D
F7B6
F77F
FBE1
02CB
FEB9
10A5
044B
00EE
0575
E25E
044D
FA76
FDD0
F2B3
0A70
045B
FED8
0185
FD95
0679
0419
F576
FEE2
034D
021F
0A37
01EF
FB07
00A4
FDD7
FB51
074A
00ED
FCA9
F7CE
060B
FE87
F956
1905
0658
EF54
ECA8
0204
00F7
011C
084F
0BE5
F569
0394
F8D7
E9E8
0165
FA8D
FB5A
0003
0090
FD1C
0568
F3E2
FB84
FD56
03A9
FA0D
08DD
FB93
F95D
0220
FAC9
FC71
F9A8
FE6E
FC88
F4C3
FE3A
F723
16C2
0802
08E0
0A4B
0575
F9BF
FC67
E26B
FFFA
EE58
0211
0B26
036C
F7A7
038A
F983
01A0
02AB
FA7F
F156
FABB
FA98
01E6
FFF5
FF58
F0BD
DE40
0422
FD43
EBD8
FA98
FEC5
0485
0448
EC1B
FCBD
FC4F
F5EC
FF68
FF64
00BE
014B
FE7B
FC73
F557
111F
F088
F8AD
01A2
00DB
F618
0138
009B
FD02
FAB4
0EFB
0327
0349
0D15
03A0
FC4A
FB66
003A
0D44
E912
0344
FCBF
F750
FCFC
FCE5
FE06
027E
FBDB
E9EF
046E
FA44
F8D6
01D3
0C5A
02A4
FC9D
F9EA
E5C3
0580
F4A2
0534
F881
F9E1
F7AC
FCD6
07AF
022A
FC74
148F
0075
0269
018B
0A45
0CD2
0105
0E5E
058A
FC0F
EEAF
FB3A
FA3A
01BD
FF33
040E
F3CC
FDC7
0ABE
0089
FF18
0494
FE91
F995
04BB
FCB2
161A
0681
0435
F79D
F44D
F6D8
0DE7
0390
064C
F222
FA6E
F9D7
0E9F
0EC2
06D5
0647
FC2A
09F7
F33D
0419
0D82
FB1C
0420
03F6
FCD5
EF69
03BF
01D3
0296
EF4E
DF62
03FF
00D3
0313
EE90
F975
F9C4
027E
01CA
F11C
FC82
FDCD
EEC0
F201
02D4
05DB
000F
FD77
03F8
F8C9
FD5E
02D4
FF4A
0711
EDEF
011A
F894
02A8
FFD2
127C
030F
F6AD
0D8E
0330
F239
064D
FFDC
F885
041C
00E5
001F
0BB5
F5FE
F295
FACA
0123
EBD1
FBBF
FC54
FD86
0424
FFCB
0577
F73C
F70F
04AB
1171
0B14
020A
FD7F
0A04
1A6A
F216
ECF0
FDEF
02D5
FB47
F822
FEC6
0D93
07BE
0CDB
054A
04A6
05A1
FAFD
FC15
F8B5
F63E
FD8D
EF2C
FBF8
FE7C
0737
F460
097A
01ED
00CC
F8D0
00AB
015A
0482
0299
FD84
F8BD
F4EA
FD57
FEB0
FBA9
FFD8
02C6
EBB6
ECE2
F94C
00A9
053A
FD77
F5BD
0C9B
0656
150C
FE99
0B5A
F6EA
ED02
FABA
EF7B
0278
F75B
FE54
FC0E
FE16
F49A
FAD2
F9FF
0DC9
FC89
F84C
FC4F
FE81
037A
EC14
ED93
EDA8
F763
000B
F181
F54B
F94E
0A3B
F48B
EB72
00FC
FF26
F75F
F907
ED4C
0117
FE61
FDF1
0319
FCD9
18AB
F18C
FACB
FE48
00CD
FC83
F6B1
0008
F63C
FD09
0637
05E2
FFD8
FA2A
FB2A
00B1
0385
01B3
FEFC
EBC3
FD32
F854
F297
FBD0
04EA
01D5
FD3C
FAFB
F9E1
0A2E
0362
FF38
F500
0CA8
11A2
FFEF
F0A4
EC8F
FC67
F91E
F9EA
F609
0122
F212
0112
05F6
F326
EFDB
F83E
EF97
FF86
FC90
0200
04E5
0985
F8B6
F29A
FA71
031A
003C
2912
F4AF
0016
F9AA
0832
041B
F4E3
0172
FB85
FBA1
0F9A
F6C3
0041
FE41
0748
F4FE
0458
FE9D
F6DB
01C3
F2BF
FD92
0ACF
004C
EDB5
0028
F6FF
03E1
F958
004A
F831
FEBD
030F
03ED
03F4
032A
FF24
08F2
FDA3
1077
FE40
0BB6
F933
0467
F71B
FD8D
09A6
F662
01E0
FBDF
06DA
043A
01C4
0194
0B2E
FCB8
FFC9
F8FE
FC36
00BC
0ACB
08A3
003D
0380
FB24
FFF9
DB97
0372
0675
07EF
042F
E861
0AB8
F51E
01B4
01C2
F917
0258
F450
0040
F1FE
F76C
0736
1F69
0665
0940
0C77
FFAB
029E
FD33
F743
0B1B
065A
03CB
F9A4
003A
EE49
0028
FC55
0649
0637
F93A
FB49
F6AB
FD1C
0D8B
0966
069B
F631
FC95
F69F
EE3E
029B
F17E
FBA4
07CB
01AC
F8C0
FAB9
FF3A
FA40
055B
089B
F9CA
006A
02D8
058F
00F2
0058
0043
0194
FF8B
00A3
F88F
003A
F8C7
FEF4
FDBA
01C4
FBF2
061C
FCD2
FEFE
FAFA
FE49
0EE0
16D1
047E
F509
FF62
F987
F3F4
071B
FAA0
FEE2
F968
049D
F9DB
057E
FFDB
0107
00B4
F7B1
003A
FAD2
FE26
0018
0128
FCFE
024C
0A77
FE54
F5F6
0751
FA53
0B10
F23A
FE62
F9C3
FEDB
FF83
0B05
EB7E
F7E4
F92E
FCF1
0193
FD95
FF11
05EF
0891
FE72
01B5
0755
FEB3
0286
03DF
FE33
F8BC
03E3
FF08
0380
F42D
03C1
01FA
034D
FB99
0032
012F
0373
F16B
00A1
0430
1093
0941
F787
04ED
0170
2428
0936
0144
003E
079C
16E0
0AE4
F1ED
FFE3
09C8
ED34
04E4
008F
FE37
06AE
FBFD
FA5E
FE93
F994
0148
0515
FF95
FDCA
05CC
E949
F995
0289
06A0
016E
FAC0
F817
F5D7
F1AA
FE49
F1FA
04EA
FDEC
04FF
02DE
ED0A
FDB9
FA13
FC8C
F8AC
FEE0
0407
FD3D
0177
03E9
FEAB
06B8
02E8
F426
03C4
00CB
0D9E
0657
FBE6
05C7
068E
F070
F7A2
0576
F711
F9F9
019B
116D
F4FD
0D21
0A95
F92B
FEAC
FBC5
FB9C
FA61
F8BD
F894
0FB6
FF7B
03C4
FC29
FA2E
EB9D
000C
FC93
02A4
EDF7
F1F9
F887
0429
06DC
EF6C
0019
F4CE
FD4A
E78A
0406
FE5A
F31C
0533
F68C
F891
077B
0158
FBDE
0217
0A83
F595
037B
F996
FC29
F418
0233
FBA6
FE33
03CD
F566
EE53
03B9
F59F
03ED
FE75
F6AD
11F1
FC64
0452
0476
0A58
FFE5
FC6E
04A4
011E
FBD5
F9B1
F541
FBD1
0667
03BB
FDC9
FB76
0445
FB22
E875
1794
FF71
FA80
0A7A
FBCD
F7FB
FC4E
FE3A
0A61
F6BC
FE2B
03DE
1251
FD93
0002
F640
10D6
ECC0
F15A
02F6
FEA9
095F
FEF0
0C98
F409
07BC
FB42
FF40
FE0F
FEC6
0089
011C
07B6
055E
FE6B
09F7
FF4E
F7FD
FA99
04FF
F52A
EF9A
FAB3
038E
0485
01B1
F5D2
0BFD
FEA9
0AF0
0146
0514
01DC
0A20
F74B
F2B2
FD40
FB14
01E6
FD8D
F709
0485
0D60
06AF
F70A
F88C
08EC
F8D3
FB54
04DE
0038
065E
F9D0
F704
F79B
FC2E
F400
FD97
0815
F57F
1059
01D9
0438
FF34
F4C4
00A0
FAD9
0372
FF0D
FCB9
FF99
EA2C
01D1
0A5F
FF1B
FDE8
F3D4
FA2B
FED8
FC85
FCF1
0B7B
F512
02E0
06C3
F5C8
00E5
0852
FA09
F683
0886
F9B4
1968
1359
0114
FDA4
FEB4
0696
F9CF
F77E
FCFC
05DC
0954
FA46
FBA6
FB9F
F623
F94B
FCA1
FA59
FABA
FDC8
02DE
F96D
0086
FD4E
0A53
F72C
F478
042E
FA9F
FF4D
08B6
022F
02D5
F856
0CC4
FD76
F9AF
F505
FE6F
FFF4
0355
FFD1
FFC3
F1B5
05C2
FAFF
05DF
FEA1
FF43
FC81
05BA
FC7E
0070
0890
0401
03DB
FD5D
F856
0652
0876
FD88
0153
0B1A
07C3
FE12
FDB9
050D
EFB9
FD16
F501
FE00
F24D
FED6
080B
FF8E
047F
F8CB
FAAA
049D
0242
F953
FBFC
F5E7
F948
FDA2
F806
F3E3
F503
112C
FE67
FA32
F7E3
02DC
0120
FEB0
FC93
FABE
FD9A
04AC
01DF
013D
1361
F72E
015A
0618
0188
FD52
E7C7
11F3
04B7
FD4C
FDEB
FDAE
07AE
03BB
F347
FAF9
F814
0320
FF5A
096C
04A5
0058
0D60
FF7D
FC74
E80E
0505
0418
F4F8
FBAC
FA7D
FFB7
12A1
FBD1
F798
FF37
045C
FBAF
0155
FFBF
07DA
F750
0BAB
FBC0
F350
EB96
01F3
017F
050B
1606
01EC
F237
F826
0C28
02C7
FDAE
00F6
FAFF
0010
0A76
1770
043E
FD2B
0152
ED99
FF61
063E
FA37
FF08
032B
08F6
00BD
FA46
00F8
0047
045B
F89C
0062
12E0
F808
0720
FFCF
01E0
FC1A
0066
EE9E
F4DB
FF78
FCBD
0D44
FD01
0784
1026
01B8
F76E
0E87
F18E
F8D9
FF22
FFDB
FFD9
0290
007C
FCF9
0340
F9F4
04A1
F983
F9D7
03B8
04F4
FC06
F5E2
1760
F245
F8D2
F5B6
0307
09EB
F2E3
06E0
0E0B
E0B9
13D3
0103
F6C5
0547
EFB3
FFB5
F713
002B
F90E
FF53
0070
F098
0235
FCD7
03C4
FBDD
FF9E
F24D
F704
FA75
F98F
E2F3
064A
FDC7
F4CA
0332
FF78
F6EE
071C
134E
FBCD
FC0D
F36F
07CE
00DF
FBC7
009B
F7CD
11CE
FD8E
06A2
0867
FA2A
F58F
F0F1
105F
0229
09B8
F34E
FF56
09F0
FAEF
0717
FD99
FAD2
01D5
02FC
070C
03DE
F995
F676
0184
0F86
F7DC
0E53
00D6
EF15
E9AB
FC12
F2AF
01B6
FF87
FA5B
0BFB
FB90
02E6
009C
E9A7
FE4B
FE83
080E
E0AE
FC1F
FF4E
FF4D
FF03
F7AE
053D
FD56
0038
0C1C
058A
FC47
00FF
FC24
0758
0BC8
F79E
FEAA
001E
EC97
F6F9
00AC
0C29
032F
020E
F8C8
F55A
F590
F954
00D0
F86D
F452
1638
F2D5
05D2
03B1
0537
0D0F
FB2E
F8CC
EE2D
0872
ECDC
E7EB
F95A
F927
0252
F5F6
FF68
009B
0172
FCE8
FC9B
EED5
029C
F3FE
FFFE
F3E8
FA29
EB69
F378
FD2F
FEC7
0652
FA3A
F7CE
0B85
02FC
FAAF
F9B0
0209
FB2F
F66B
028B
F9D0
FFAC
E716
F70E
FE13
EDEB
11BB
FEB3
03CA
07B7
F7DD
FD57
F99C
FE2C
0334
0154
E529
F8DE
FE80
FE54
FBD6
F8EE
02BB
0F7D
00B3
FED5
0546
0034
FBC3
0528
F273
F396
0025
EA2E
003F
FD26
FB71
038F
F41B
0194
F584
0765
131A
021B
EC4F
F34F
FC0B
FDA0
FEFD
FF14
F54A
FE75
0002
FCED
FF91
0374
FD92
F87C
0422
FFE5
017A
071A
0F1C
FDE0
05CD
FC41
F8F7
F7F4
0363
F9F2
F687
00B6
057D
122C
FD1C
03F0
F651
019D
EEA3
FCE1
FC77
030E
F3F5
F47F
FC85
FAC3
F3B7
008A
E97A
FEA4
0256
F3BF
FE51
F2F9
F57F
FCA9
0D2A
F26F
F4A1
1305
0275
0DF0
FFAA
FBB2
08AE
0C37
EE2E
F18B
FE1B
08EB
0206
0185
0234
08C3
FAEC
F146
0120
F0B2
FB01
FA72
094E
FECD
FFCB
F8F6
00D8
04D5
F923
02AB
FBB8
EE65
F08F
0A03
F6D1
F327
F324
FA0C
050D
FF8F
F1CD
F152
0480
0279
04CB
0A6C
FF81
FE06
0289
EC3A
0B33
0977
0687
0DD8
FEDD
ECA5
F7AE
05E9
FE38
FEC0
F6B8
FE0D
F62F
FCCF
FDBF
FED5
F534
F1A6
F296
FFE4
051C
016F
08FE
0218
0388
0732
F282
FF58
ED32
0133
11B2
F8F2
FF8A
FBD4
FB3D
FDDD
FE66
068D
0AC7
F9AB
FE50
0AA4
FE1A
F818
F873
0460
0528
EA30
FDD3
FAA3
0F5D
1149
F97E
FDFF
0C16
FEDB
0108
FECD
0B03
FDFC
F9BB
FE33
082D
14F3
FB34
E584
0CBF
F2DA
03C8
FF25
0391
F9AE
0488
FCDF
F007
0B9D
FC3B
EE75
FA4C
0664
02B3
E41D
FB64
F367
065A
F1E0
F9AF
E6D2
0403
088B
FDF8
0398
00B1
10AB
FB66
FD96
FFA2
0F82
0524
0585
F773
EC48
F9AC
FA8A
FFA8
0B58
F32B
FD72
03D4
01B0
03F8
FCC2
01A9
F88C
FDBD
F4DE
008E
FE57
FE82
FBFF
FD23
F69D
F836
0B69
F203
FE81
00BF
FA1D
EB82
ED5A
046F
FC18
0048
F65B
05A7
FBBD
FF7B
11C1
0C1F
0836
FEAC
F017
FB88
0C12
F815
0FBB
15E4
FB75
F4BF
FB44
FFAB
0508
04A4
0A9A
01E3
001A
F7B6
F3E2
004C
FCD4
0165
01C9
F631
027A
FF9D
F6A2
FDA0
FC9F
015D
0875
F0FD
FA0E
FCBD
FFBE
FB76
FD63
FC7B
FC9F
0094
FDCE
000C
FF78
F741
047E
05F7
00B3
F8B8
FC10
FADF
03C5
F9EE
2230
002F
F814
FDE2
FBAC
F93C
FE73
00A1
FEB6
FBC3
0138
1335
013A
FC99
029E
09AC
FC48
01DB
F92B
0072
FEA0
FB84
F766
EAF4
06C3
FF83
0093
FCE9
0647
F1CB
04EF
0076
078C
007F
FCAB
FD41
FE6E
013D
FFC8
0759
FB7B
FAF0
FDC0
F3C5
F7D0
0B10
0377
0A7C
0A0F
F5C4
0213
FBDC
0010
FFF1
F713
0507
FC76
0288
FBFF
07D6
09FC
07C3
0183
0020
F863
F7A4
F6C6
F99A
FFA2
07C8
FD40
04E2
1107
FCC5
F93E
FA11
FD3C
FFBE
03F9
FAA7
07F2
F9B6
05F0
FD5F
0879
060A
F46C
FF64
02ED
FAAF
0433
FAB6
0309
0769
FC59
014F
00B5
0630
053E
F687
EE57
02D1
F648
075E
F72F
03A9
14EC
FA7B
EC83
0032
03E0
F9B7
F670
01E6
07E3
F2CB
F4A7
0057
F670
F1A8
FF1B
01FA
FE9B
EEF5
FE21
F3FE
00B7
FBDF
1A28
01CC
FE00
FE9D
1229
F3F0
FEA4
0481
0F0F
EF85
FBF9
0016
F7A9
F8CC
FECA
F356
1481
00D1
FFA0
02F2
FA86
EE54
F08B
FBE3
003B
01F9
0615
0126
FDDA
E3BB
0095
021F
024D
049B
F488
F151
0955
F2CF
FAA0
F949
F995
005E
F124
F41E
00A4
F656
EBBF
0B21
099C
FC22
0A5E
FE42
08AF
042E
0150
047C
FB52
FE44
FB5D
06FB
F3EB
FC92
EBBE
015A
F0C8
0615
014F
FA59
0339
03FD
03CB
F7E7
F63F
03D4
0124
F2A2
FEE1
0A48
F58B
FF54
089C
F1E4
FE3B
F5E4
F560
024C
0444
F1EE
03A3
0178
FBF0
F70F
0583
F3FE
03C9
02BF
F7E5
F4F5
16F0
F346
003F
FA09
020C
F8B0
0499
F996
04C7
0AA1
F81F
FF2A
0DAE
0334
020D
061C
FE49
FAEB
FB2A
04D7
F972
0812
FC5A
FAB9
FB17
0759
0021
FA5A
FE12
FD45
15FA
FA5E
F2F2
FC04
FBF1
137D
07DD
058A
F7CC
F636
F6E9
FF09
FF7F
F655
FCE5
FA69
F915
F922
0C48
F70E
073F
FCAA
FB38
FB27
F588
03D0
FBB3
0085
00FF
05F8
F919
0721
015D
0671
0F24
0A57
F4EF
0A1A
005F
FB87
08FF
0584
0BF6
F1F4
FF04
13FF
1684
0579
070C
005E
FC7E
E9C7
06FF
FE7D
004B
F8E9
098C
FC38
F36A
045A
F02A
11AB
0E33
F475
0CB4
0042
FBEC
F7A1
EA17
FC82
F8B1
F7E4
FCBE
FEF4
F096
08CB
F517
07F4
F802
0423
E8C4
F8CE
095C
032E
F8E8
1139
0517
0206
F861
EBE8
F752
08CB
0568
F93B
F37A
F8B9
0464
000F
03EA
EE8C
0C0C
FDE1
FAF9
05D4
FBA3
FF50
FDAB
0C4D
F61B
FC51
0307
FD9F
04C1
004B
02DA
1A25
EFA3
06B7
005C
065D
FEF9
09D7
FD4D
00F7
0187
F828
F66A
FEF7
0429
FF9C
F722
F655
0127
FED1
FC96
F916
F27F
00EB
EC78
0A32
FC2E
EFE8
F6CB
03FA
0936
E53C
FE73
FCA6
F561
FAFC
F47F
FCB1
FDC3
FFF5
FC5E
0417
F3D7
017A
FA89
043A
08D3
0028
02CB
FD5E
12AB
F2C8
035C
0035
01BC
010A
0203
0041
0045
EEBB
F10D
0A80
F1EB
FAFE
021B
132C
F9F3
0101
FEC9
0566
0588
03EF
FC61
FFBD
0FF0
F8A9
091D
0058
FFAC
0109
0019
0368
0671
F697
0686
F317
F7EF
FD20
0428
FF27
F448
F980
01AA
FF79
F3EC
0008
FA8E
072D
FC34
0AA8
021D
F4F4
0822
F43F
F4F8
FB6F
008C
FFBC
04AF
075C
0029
F3E2
FDB5
F939
FAEE
FB9A
FF66
FBCB
F8CC
033B
00BA
017E
06C7
0334
FDBE
02D5
FEE0
F2F2
F97E
FF21
FA18
05EB
FCC6
FFBC
FD9D
FA94
022B
FD44
0059
FF53
F912
09F8
034F
FF91
FE93
FEA5
025E
04CE
FDA3
0024
0B6B
F471
02AE
02B5
FC2A
04F6
0805
017D
FBE4
02F7
00D1
0F21
0410
FCDE
FFAE
FF22
09B4
084A
FBCB
FD4A
0315
F443
FEC5
FFCD
DE54
041A
074F
F8A1
01AF
0C44
0056
0052
FD1B
FAC9
FD40
F693
031C
FE22
001D
FEC5
FEAD
0699
FC1D
FC93
0083
000B
01CD
FB44
FD01
006C
FC48
FC64
031D
056A
017B
F7BF
EFB3
F7A3
F9B7
FA70
FA48
F8CE
F861
FCB2
FDA3
FCB0
F3BE
06BA
042B
FF43
FF09
FB2A
017E
FF1C
035E
FBAB
00E7
0494
FEB6
FCFF
FFCF
077F
0B39
0268
0037
F63B
024D
00AC
FF84
000E
0550
FD94
0DA0
034C
00EE
054E
FF80
FE14
F99E
191F
FDAA
FC11
F86C
01A2
F722
097A
F65A
E9A5
FC60
FD99
110C
F5D4
01DE
0D12
00AB
0156
0165
F9AF
F528
0BFC
04BE
FCD1
F798
08FB
FFC1
0AA4
0313
0040
FB54
FE6D
F8B0
F15D
00DB
FD8B
010B
FF3C
F5E8
0B4A
F905
0147
1698
F4CC
0937
00FE
0588
00EA
03AF
00A6
029A
0441
EF34
FAC0
00D2
02F7
FFBA
08B8
F7CD
F81F
FFD3
0C3D
0A23
0120
0660
FAAA
0029
F3F9
E640
070A
F2EA
01FA
0E41
F990
F6A5
FA86
FDEC
0727
FC66
0DBC
FA71
F8BD
FFBE
0271
F8BB
FC99
F7EC
1F0E
FAEF
F707
FBA8
F1C8
0055
0077
F3B2
FFA6
F919
0AA3
FA7C
069D
0153
FD9D
F9C4
030A
FBF9
FAAB
FC44
0675
FBB8
FAFE
FD87
054B
FF73
FAC5
031C
F119
042C
0BCD
0C66
0348
0285
FB3B
0D52
063A
068D
FFBE
04BB
09B7
F257
F8F3
08CB
F93B
04A0
F9DF
F7CA
F754
0AEF
F0F9
FF66
FDE0
124A
0B48
F9FF
EAC6
0144
FEEE
FFC7
FF48
074E
FC8D
1AEB
F7E3
F6F7
FD34
FCA0
FD97
F910
FE05
FEA4
E22B
FAD9
063D
1D02
1109
F4CC
0315
0270
FBA7
03E7
FE50
FE0B
F9D3
E415
10D5
0E75
FF3E
0C28
01D0
09B3
06DA
0D0E
0494
FC6E
001A
FEED
FBF4
0192
F86E
F842
F769
0993
006B
04D0
04D6
FEBE
05F7
0743
FBA6
EEF5
FCAB
0161
ED14
F609
FEC6
FF87
FA26
097D
19E5
0D1E
0241
FE62
01D1
0757
0598
EDDA
0020
E084
05CC
F26F
F555
0229
F36E
0444
001E
03BB
F540
F0BE
0718
0C8A
023E
0043
0070
F2A9
0223
EB84
0877
019C
09F2
05E5
0B11
0AE2
F0FB
FDCE
F204
05B8
035D
0210
00F7
FB68
0DBD
EF6F
072D
0BB6
F742
003E
0397
E360
EAA9
F8CD
FBE1
0775
F85D
F5E4
02BE
FD8A
0BC3
FF45
FA96
0355
E89A
FAD4
01AA
0064
EF56
FF3C
F72A
FD96
068B
00A4
00FB
F454
0EC7
0242
F9F5
FEC0
F9A9
F474
FB7A
FC24
F883
FCD6
F2D1
FEB3
F19C
FACB
0413
0225
0000
0279
E769
0C97
0D00
F415
0610
FAB4
017F
0321
0B36
F674
EDC8
FEBD
009A
FF29
FF18
FD7C
FC8A
01F3
F1C7
FC6F
0562
074B
F7C6
0195
FD59
E640
0E74
FFDE
03C9
F528
FAFB
014B
0090
02EF
0512
F0F7
0D2B
F8A2
0224
FE27
F478
02F2
033A
01C2
0EC7
0836
06C4
0EBC
F4A7
FBBA
F610
F33A
FCEE
FE14
01E3
F070
F8DC
EB47
0051
0300
003B
F866
0B60
F8F7
F0FB
FB2F
F0B3
0145
0A20
0897
F668
FD35
1B94
F897
05FC
0292
0432
01CE
0D57
F9E7
FBDD
0C9B
0A7A
FCA0
02F7
EF9C
F1F2
051E
FE59
0210
01A6
1453
00E9
0087
FE3A
04A8
F8B0
FFF0
06E4
FA80
0C63
0058
0B32
FD0D
F8D1
F479
F94D
F2B6
0AAD
F913
F975
FA36
E6BF
0644
FAA1
F7D4
E1CD
113F
F43F
FC03
0819
F6E8
0022
FC08
F7F2
0F6C
00F8
F6DA
FD63
09CE
F3F3
0E31
0262
0A2E
0125
F89F
E943
F8B1
F232
F89F
0149
0217
0713
FA9B
F81F
03AA
03E0
FD54
0057
FD48
FB2F
007E
FB8C
F3AC
FA50
FD20
FE0F
FAF0
F9A4
F8A7
01B3
024D
FF3A
E40E
0DC3
046A
0271
008F
FE36
F9F4
0470
F841
FB48
F21B
FE1E
03DD
FF1A
0845
F4FB
F53E
FAFF
F4AC
FAA5
EE66
EB6D
FED4
005C
0138
08FB
EFF5
FFEA
F6FF
FDBA
F464
0604
0560
F8D3
FC77
FDC0
0E1A
F726
08D2
EF6A
FC46
F9ED
0077
0814
0507
02E3
006C
0046
087D
039D
FA08
FBC3
119F
FBC4
01A5
FC99
FD17
EB6D
F965
FB7D
F7A7
0BDF
FECB
F252
F805
08A8
FE9E
01E6
03A9
0619
F4C8
F0E9
04C5
FADF
00BD
00BE
FE1D
FA44
FB34
021E
0315
0A71
07A3
F5D5
0509
10A0
FCFC
FD14
06BE
057B
FE06
FDFD
0737
F87E
F47F
0B10
FC02
F613
0AD8
E4A2
F7BA
F374
FEBF
FB76
EBB0
F571
F3EB
F791
07B8
026A
062A
F9C5
032C
03C9
F1A5
FA9D
08AA
0FBB
0D3B
FDC2
083D
01AA
FF05
0300
F79B
00F4
0280
027E
00EA
F233
065E
FCE3
039E
0ACF
0EFE
FAA3
F79F
F67F
04B9
06CF
F6C6
F921
FF82
FE20
F323
FF70
FA2E
F86E
0712
0C80
01F7
F890
03A9
EFF5
FD38
F43D
02C7
FC72
FAB7
FA6E
02DA
F33A
0110
F7B8
04E7
F359
02EA
F85A
FFFF
F629
05FA
0E9F
FAD4
0553
031C
FCE2
F49A
F962
02C0
0280
06CD
035C
02E6
01E1
02BB
FEBA
FF98
F8E8
0D7B
05D0
0226
0157
FAF2
F2FE
026D
014C
FFFB
F2E0
F439
FD9D
EC29
FCA5
F906
10A0
0CCE
0113
F533
FFB8
064E
F5BC
F133
FB4E
00BE
19AC
08D0
0BE1
FE86
F861
0069
F7EC
F287
E3DE
F566
FEE4
03DB
FE4A
01B1
0013
10CE
F634
FDF1
0301
050E
FA7F
FBCC
0877
020B
060F
FFC7
0C3D
F2F6
0132
0311
0656
00CE
0F46
FA43
F7D1
01FE
014C
F0EB
FD98
FFF7
FB77
FE2F
F8E5
0326
FD84
0347
F1A8
02B8
122A
FEAB
F93E
E027
F1AF
03C2
FCED
03BD
EEBE
059C
032D
EC54
F584
F980
ED37
FD61
F7CF
F654
0455
F28C
0710
0806
FCA8
FE6B
0C4B
FAD6
FB62
01C9
0A48
F73C
0BAB
FE06
05CD
FB4F
F406
026B
0194
009E
08D5
0084
0758
FC54
FDBF
0668
0244
0725
03D9
0D86
F192
07A8
FE0C
F38A
FC4D
EBE8
0143
FDA7
04D2
0DCF
00E6
FF73
F172
FF95
F255
0240
F408
F686
F6B0
03AD
FA2B
02F1
00AC
FFAA
0887
03BB
FFB0
F91E
0DD7
EE3C
10C7
FAFD
01C0
0A00
FC06
02D8
031E
FFE5
FEEE
004B
F015
FC29
F844
FBC9
F9AF
07A4
033F
FE79
F530
FAA3
ED44
F9AE
016F
FA74
0117
071D
F946
FD87
02E2
F522
FA14
ECF1
0139
0107
FE07
F768
FCF3
0378
0171
F8A2
050E
F84B
0028
FFF4
F5E6
FFC1
0420
F14C
FCC1
0F59
F778
FEA6
01E0
FBE3
04FC
FF79
03E9
F647
FC2F
FF52
F6EE
F940
FEE9
0D95
F061
FE3D
1416
0577
0133
02DF
F8C0
0F54
F1B0
FB6F
0785
131F
08AE
FBE9
E970
FCCB
F24C
FC7F
05C6
FF04
051C
FA82
0013
02EF
F908
F8AC
FE8F
F104
F752
FF7F
0136
F0AB
0CD4
FF47
09B0
FE84
FC6B
2111
FF80
F0B9
FC6D
00E3
FFD0
F95D
F5E5
FCA1
FBD9
FEEB
F6E0
FCC0
0DED
002A
0D34
036A
F45D
F824
F9CA
0A26
0238
01A4
065E
0ABC
0C04
04B6
0CAA
0199
F3A0
FA2C
FB72
0029
021A
0776
04E6
FE41
F5BE
FCBE
FB14
012A
FBB1
F524
FBDB
F12D
0BD0
FD56
F78C
0A3C
FBD8
F1BA
FC2F
059A
ED90
FFA0
FDF2
FA55
FF25
F223
FAFA
00BB
1042
F8B9
FC15
080E
FF61
0A14
0DB4
FCB4
FF33
FEF8
FC59
021F
F8E1
0274
05DC
FF4D
0ED0
FDF9
F521
FB10
043C
FF13
03B5
EEE7
FF85
0420
F891
F7D9
00FF
FB8C
05B4
F964
F6BA
F678
0148
F362
F8EA
F406
E8C6
FF38
0181
0236
F18E
EF8D
0C43
001A
0555
0904
FA95
F60C
FC72
040F
FCD9
0011
1256
EE73
F0BA
F953
FF8B
068A
00E7
0BED
0483
0A40
F35F
038D
FE7B
F95E
02FD
055A
0376
F67C
0CC7
F206
F13D
F2B3
EAB4
FE39
FBB1
021C
0427
FFF5
08FE
ED75
F43F
0C00
F889
F420
ED24
FE11
FBC3
F23C
EA59
0C97
FB21
03B1
1CEE
FADD
F016
0388
F8B0
0AD6
00B8
F615
0235
EFC8
FD31
FA34
F8FA
F852
0157
FE0E
F2DF
FD60
04C9
05A1
FF62
F6A0
EB1B
0221
FDE0
FD93
0662
F025
FE77
EBE1
F462
FECF
0B26
F42C
F848
EB9D
0473
1458
FDE8
025B
016C
FFAE
F4A4
0065
FCFB
FE66
00CF
0485
F500
14EB
F2B7
0095
06DF
F92C
F4AC
0414
10C2
0384
FF34
15E6
FD85
F57C
0011
FA87
F9CA
FD4A
05D0
F3B3
0004
F066
0487
F898
FCE7
FCE0
FD1B
00F6
1093
14E9
F351
020F
0742
FE78
1612
FB48
0350
FDA8
075C
FB9C
F754
01A3
068C
FD48
FC28
0128
1089
FF53
FCBB
FB09
0095
F67D
047F
FD42
1269
FEB0
EF7F
1A83
0D21
00DA
E910
04B9
FCCE
FAFE
F33C
FD0E
01C7
FEFA
1047
153D
0622
0E96
0D51
F678
F5EE
F6DC
0E65
FFF8
0C3C
FE38
F325
07B1
0351
F97A
F189
FF1D
00C8
15DD
FB30
0801
FEAE
F345
FEBD
F100
0241
FF44
FB61
EDA6
0739
0071
FB43
021D
0472
F9F7
F42F
0270
FEBE
02CE
FEC7
029E
F8D5
FCF2
FA93
0656
FA3F
1478
073D
00E0
FB3A
0366
01AA
0A26
FDA2
06CD
01C0
FEAD
FB2A
FE77
FC97
FC7E
FE49
0367
01CD
F621
042B
0850
EEF6
0243
02C6
0286
FEBA
1E28
0781
0782
076E
029A
FDFC
FBFC
0E96
F039
FDA4
FB2A
0B78
0BAE
FBD6
003C
0E39
EF73
F424
01E8
0892
FD92
FB45
FBD4
FE2D
F22C
0DAE
0B8A
04C1
0775
F113
0A33
DF69
F16E
F3A0
F2EC
0451
02CA
FC7E
0C08
0244
02D0
E292
02DC
00B1
FA61
0A24
0912
FAE4
03F1
0B5B
098A
FA7C
EB71
0781
0A9C
08BF
1034
0395
0B76
E991
04A1
0AD2
FDF1
0445
0006
06A7
F59B
F5A7
F0FC
FF75
095B
FF6A
F72A
FEE6
06CB
FB67
0576
075C
FA3B
FDE7
0B97
021E
056A
035A
FA37
FD6C
F932
004B
F974
132B
F36C
F7C9
FC49
FAED
09FB
FD2F
E576
0865
0212
FB6D
00F8
FE6F
F9C4
FF0F
FBE9
06C2
F7EC
FDC3
FAC2
F822
F6EA
0B7C
0465
0B69
FC60
0422
033C
0312
1131
F6F2
0345
01F9
0687
F821
F9B0
00AE
06CE
FA08
F86D
0D28
F332
F795
0367
FDE5
F076
F6AC
0C06
F353
0271
F9F5
FEB5
01C3
025B
F753
00EC
0A8B
0258
EC67
09D4
F404
016B
040A
0B35
00F2
F8B6
01E2
F5A7
03C8
FF93
0B72
0D1B
F7AF
F8E8
F501
08E3
02FE
FD79
F577
FE03
0397
08CC
FCE3
E8F0
F80C
0072
EEF4
FC29
F860
FF2E
0D54
F963
F614
F490
F5FF
FAD2
FC1C
FE8C
FF32
FCBC
FF7A
080E
E204
045D
060B
03EE
0D90
F984
F8CF
F91D
FDC1
F689
0348
0202
FB04
07DC
009D
F3B0
0074
FB85
FADF
FABF
FC21
FB6E
078D
FF56
FA99
FE89
F95E
0293
F304
FFE2
0387
FE67
F9D5
F33E
0550
FBA5
01E1
F7A5
0819
001F
FA3A
04EC
0D0E
F6D3
F9FA
0977
04A9
00BA
0187
F4E2
F4D6
0418
F768
02F0
F2ED
E2AB
F28D
F920
0920
F62F
F9E5
F27A
F8AB
08FF
017E
FEE9
0642
FB65
FFA0
F454
FB45
F831
F91A
0275
0875
0121
F7E0
057C
F28C
0797
0CC8
05B1
F1F4
FF72
F841
0561
009A
F627
FE98
FC76
FD07
FE84
092B
0DCB
F959
F73B
FE55
038D
FA52
F021
FE30
010F
0015
FE74
0043
0377
F8FC
04E1
F9CF
0DB1
0161
06FF
043B
FD3E
021B
037D
0919
F539
0051
F79C
FF94
FFF3
FF21
FDDD
0563
F82A
FE9E
FF14
FE0C
0B9B
FC7C
0161
0216
10FC
F933
F03C
FD9D
F90A
FDAE
0215
FA49
F2C1
EDD6
FCF1
FD94
173F
FD45
085A
DD6B
EDB4
0392
FFAA
00A4
01BC
0454
03B0
F674
FFB5
ED38
0EDC
FEB6
01B7
EFE7
FA0F
0DAB
0191
0571
0598
047E
F669
1052
0072
FCF6
028F
0475
017B
F050
F683
0161
09EF
014F
F6E3
F646
F500
1A4E
F6AD
FB36
E33E
F74A
F68B
0B18
FB79
FA8F
08DE
FD66
0B5C
0D6E
FC12
0171
0461
FFFB
FFB2
FF01
0BE7
09C9
033B
F8DA
FC3A
0B02
0C86
F0FD
0456
FAB0
FAC4
EE26
01CD
0287
019D
FA02
17D4
070F
FF27
00CF
F96C
0754
E793
FAF3
FD9B
FD38
FEF0
FFC3
065A
04E1
0050
F7EA
F542
034C
F76D
F087
F716
0EE6
03E1
018A
012E
F4DB
0455
0386
0DC6
FC37
FC96
F5F7
F256
FCDE
FE5B
041D
0012
F9A2
F040
F3D2
E2E5
00BF
1088
04B7
FE02
066C
087E
014F
F598
FD7D
0780
04D1
F7DB
FE49
FBE2
FEB7
F6E5
00C3
FA16
073A
FFCB
003F
FC97
044F
FBA0
F070
00E1
001B
003F
FFE3
FE6E
09F7
FCDF
0650
FFC8
FCB0
04F0
FA24
1698
FD8F
FC03
FD0A
0316
F617
0BC0
0EC3
FA85
030B
FA9E
05BA
00B6
FE51
10E9
F9E5
0848
FE3A
0392
F6CD
FC9C
F772
02D3
FFCB
FA0E
0278
FF6A
1403
0729
0399
FFBE
05CA
ED6E
0565
FDE1
F9D7
0489
FBBC
009D
EBAC
EB89
03BC
FCF3
021B
FCE6
01BB
0047
022C
013A
FE69
F4CE
01A0
0CBC
0656
F6F7
FFC5
FDE0
F89E
FD7C
FF5D
FF3F
FD42
FBA2
F604
F729
0D6D
0155
FCE9
17A1
F8F4
F9B2
1314
FF76
09AE
FCDA
02AB
FFFF
F327
FC48
043C
FE43
04AA
FF41
07BD
01E9
00E2
05D8
FE29
F185
085A
147F
F4D5
FDE8
FD50
F3EF
ED87
013F
FF6D
0000
FF81
F3C6
E3E7
EAD0
0140
F423
0101
0608
06C1
F290
F3C2
FBC1
03D4
005D
FFE4
079F
FA27
093F
ED2B
039A
0394
F681
013B
0149
FB3F
F9D9
028D
F835
00CE
FCEB
EE1C
FCEA
FD84
FD41
0791
F5DC
03CA
F888
FB4E
F83C
0515
02CD
018E
01C7
F7A6
11C0
0D87
00F8
FE68
004F
F201
001D
FD8A
1D4E
F3C9
04AF
FC10
01D3
FF98
FE7B
083C
01E4
F864
0598
FCCE
F5DA
0566
F8E3
14F7
FE60
F4CA
01A7
F6A5
00BF
0159
0218
0A4D
FE00
1326
010B
F7AD
F7E8
FD20
08D1
FF9F
FF49
02A9
01EC
FA39
0063
FC46
FA49
0070
FC10
FB01
FC8D
0750
0874
F9C1
FF0E
FCDD
FD49
004B
03D5
FA4A
FD54
0353
FE74
F687
FB69
FFBF
031D
F9E9
02C0
F97E
0000
FEC7
009E
F9D4
FAE9
0182
052E
FC6D
0F94
F9A2
FAD4
ECB0
082B
F724
09AC
0B08
FDCC
FA9B
FA91
EB88
F755
00A4
F581
F127
FCC0
F6CD
E1D8
F175
0532
FF65
FEF3
04D3
FE90
0A04
F908
F854
0E4B
F920
FFCA
FFF3
F111
029B
F8C2
FCF4
0AC6
0071
00F5
0174
068C
01B3
FD35
04C3
013E
FB6C
FD86
FDC2
0FDE
0D3A
FD29
069F
006E
0033
F433
FF41
0284
002A
F98E
00DC
F5C8
0019
005C
FFF3
FF50
FA6F
F414
0DB4
0681
04B8
FA2E
F4FE
FE75
FA14
03D5
F4EB
FE63
FBB7
088B
047B
02D8
F59B
00B9
FC71
F912
04ED
FD83
06F4
FC05
015C
FD68
FC38
FD16
FDA7
F50F
FEFE
0240
F5AB
0772
F161
FF46
0944
0403
0786
036B
075B
FC9B
FD30
FA41
FAE6
F59C
F962
FD47
FCB7
FE78
0126
FBF9
FDBF
FC9A
0339
FCFB
0159
0389
0471
EFA0
00DD
FD73
09D1
0056
F9AC
034D
F958
FB55
0260
091C
14C0
07E0
07D2
F7F5
FE71
FDCF
FA03
F43D
00E3
0AA7
FB6B
FEC6
DEE2
F8B9
0532
FE2C
03D4
0308
08B0
053B
0768
01D8
FA8E
02B7
0924
05A7
012F
0618
FC8A
FC0B
FB75
10C8
10AA
0B5B
FBAB
F796
F53E
FE06
0BD3
02A9
0BC0
F21E
0693
075D
086B
FBA8
0332
FFA9
FFB8
FB99
0D9C
FD24
F7FF
FC42
FF05
ED4D
02D8
01D2
006A
F4E1
01FD
06C9
0994
F723
0ABA
00C9
121B
F561
0235
0269
E6AE
0081
0E95
FD2A
FB94
FD66
F16A
06C5
07C1
065D
0C76
04A2
001B
03C9
F7DB
EE18
F252
0500
F5AC
F485
FF9A
FC41
DAC3
0958
083F
EB4D
00E9
02DF
FFCA
FBEA
F9B1
FD42
FE10
FA77
E960
E9CB
02D9
0840
0413
04CE
0A16
04E9
0275
FB5B
F369
ED55
EF53
ED94
066C
EE18
0691
F977
0161
01C2
0012
F643
ECA1
FD17
0390
07DA
FC32
0750
FBCB
FBAB
0425
FBAD
0CE8
F7AD
045F
0D39
00A8
FFFA
098E
0780
036C
F04B
FF09
FE15
068D
F632
0301
0259
0965
E7D3
0135
F4D5
0C29
FC84
0307
F6AD
FE16
0418
FBDF
06A4
0465
FBFF
F680
F3B5
F304
07A7
FAF6
0A9E
0777
094A
0336
FE82
FA8D
F08C
FCCF
F20A
0994
0165
FF06
F264
024B
FD4D
FEFC
E9D0
F7A8
FC76
FC66
001E
F9D1
00FB
0470
07EE
FACB
0582
FFEA
0CC9
FE39
022D
0103
FDCF
06E1
FDDF
0BA9
048E
FAF0
FD9D
FDA7
F82D
036A
FFA8
FA6E
FF10
02B9
F335
091D
0772
0A27
09AA
04C3
0943
2B4B
0353
0416
FCB6
04A0
FF61
1282
04B1
0B40
EAA2
0B1C
E92F
F847
03B0
0B4E
F9DC
FFB1
02CD
0D9D
F930
F448
14B1
19BC
FA61
0063
0192
F7E4
F4BB
006A
0C6A
086A
F8DB
EDA6
F06D
03D6
04D3
F9A3
0101
EE08
04BC
ED59
0812
0179
FAD5
0E29
FFA1
FA7A
F83F
0052
F5BE
0329
02FF
0008
F68F
F493
F766
F067
0A27
0523
F689
106D
FEEA
0224
0225
F34B
0093
F697
F972
00B0
08D9
F038
FD7A
EF7A
F9EB
FEEB
FD70
00F7
039C
05F1
03A0
F0DC
06BD
0168
0620
FE8A
0023
08E6
02D7
FCEE
0B68
0A6D
FE7B
06B6
118E
FA96
FA21
100F
0567
F626
FB55
05B8
FF83
F62A
FA02
096C
F9C2
FB7F
FF05
1423
0879
06CE
FD4E
FE5F
FD60
FF39
0211
EE82
F07A
007C
FE26
0482
FDF5
F74F
FC42
0813
F1D1
02A6
FBFB
F9E5
FC68
040B
FFF2
0212
0719
F2B8
134F
F8A3
F09B
07A3
FC1F
FA46
F07D
042B
FEC4
FD77
12DD
0375
F343
FC75
00B2
DAF2
0840
0895
121B
034C
F1A2
FCCE
0034
FAE9
F523
F970
0496
0150
F6BC
03B8
07CC
FEA1
04AA
FD6F
0148
FE93
0775
F36C
FE20
008C
060F
F648
FB78
0430
02BA
02FF
045F
FE40
096B
F9AA
E8A3
FF63
FB94
168F
03F7
FBCF
007C
FF3C
EEAE
EFC2
03AB
060E
031C
F5AD
0BD8
021E
028E
F086
063C
F3C7
F22A
0AEE
F96F
F4B4
F70B
FECE
FFF7
05F9
F8AA
FC27
F851
023D
FA40
04A3
EE2B
FB30
FE21
F485
F588
EEE5
FCF1
FCC9
F843
F795
0652
016E
04E9
FAC3
0061
F89C
F46F
10B3
09D0
0509
F80B
FD61
0BF1
EC82
0B8D
0BA3
FC1B
FCC7
01B7
072F
11DA
01E1
F9EC
F68A
0249
F483
0000
0A3A
04C2
0529
FF1E
04A5
E3D0
FF33
FF53
F99E
0B24
00EE
F824
0998
0AB4
01FA
06FB
0A3D
0CEA
0B57
0BA6
151E
FEF4
0F9A
0A6F
01C4
FC5B
14BF
06C7
0148
0373
0471
1704
09B6
0599
0A4D
1019
09FE
0213
01DF
070A
0506
07D0
0542
0674
EA26
061F
00F4
0812
0C48
03CF
0E29
FB71
0DE6
0B72
0BC7
0C6C
0352
FF19
EBB4
06F0
06EA
0398
E3BA
01D6
0ACE
021B
09FC
03C6
FBC0
00EC
FF5A
0EAC
F3B0
FFD3
08DC
056C
FD36
0996
07A1
07C3
04BA
0D98
183F
FBB8
0971
0001
0126
0889
0927
F06C
0BDA
05AB
130A
FAEE
0179
0339
04AC
0E09
09C9
08DD
046C
FF49
F8E4
0510
FAEF
FA24
06C6
08BB
0320
E76C
FF36
04D9
F5B2
0A2E
FF1F
F997
FEBA
E46F
02FF
FB16
FEBF
1106
0464
0AEE
1DDE
FE61
FB63
043E
134A
FE6F
F72A
FB77
EF2F
FDF1
0590
FA85
053F
0670
0349
F624
FFAE
F913
0FDE
03B8
FEFB
0E19
F57B
F866
0E7B
F1CD
1469
0BF3
E552
F56B
035F
0877
0161
0601
0C96
F279
ED21
FFDB
FF96
F836
05A7
FFC3
F125
E7E3
023E
F99C
05A2
21FA
F4EC
1003
0536
F63D
EF13
0235
FE35
FF5C
FFAE
02B3
FD69
EDCF
022B
1743
0709
0E16
0388
070D
FF1F
0143
F7D1
03AC
FA6D
0401
0521
F815
EC79
FF14
F90F
0772
041A
F529
0B98
F4FF
FECC
F6CB
0387
0613
03CB
0894
021D
0792
F206
F757
FA8F
F99A
F5E9
EF67
FA08
F918
0A39
FD99
FB8F
01B9
F9CB
F457
F4AC
FDD0
F89C
FA73
FBF8
FCCB
FFBB
FFDC
FBF5
0911
0ED0
005C
FFB8
045C
FE04
12C9
FB21
006C
F7A2
FF4B
FBE0
FE57
0611
FD2D
EAFC
FDF1
06AB
19FE
FF46
FEB3
FDFE
0117
F26E
02F9
0125
F66D
F752
053F
FABF
045D
0641
FD0C
00FB
014F
FF30
F71D
FE22
08C5
F37C
F517
FB97
029B
06AC
FDA7
0067
01CF
01D1
04AA
1627
FC11
F1D5
FC9E
00A3
F3AC
FF8B
025A
E7C7
0AD1
00FE
FCF3
FE2E
F6C1
06B0
FD2D
F5DB
FE17
F905
EDD9
FFE0
01F5
0A13
00E8
0520
FCEB
FF19
F8B4
FCB3
1502
1370
F771
FA03
02DA
01B7
F484
FE50
FA21
FA6F
F943
0ABC
FEC2
F3D9
034E
ED0E
F1EC
08B1
F791
FE93
F6C3
FFD1
02A8
FE67
F46B
F937
FCA7
0554
F27C
0003
F384
FEBE
F916
F981
FDD2
FD71
0745
F572
0315
F860
0474
042B
FE77
F84C
031E
F922
FFB6
00E6
FC8A
05CF
F90A
00C6
FF37
0CED
09F9
0117
02E3
04AC
F4ED
FD47
01B2
F787
FBCF
0A3D
06C7
0992
F85C
03E3
097D
F416
FF1F
F7C3
FEDB
F8FA
FE1B
FEE1
0078
074F
0213
057C
FA5A
0153
F2B1
F69B
02F2
0330
FBB5
F412
0646
098A
0A35
F390
F7D9
1274
0032
0D9A
E957
FD10
FE0B
FA7E
F941
0370
FE17
FEE0
0959
025B
08BE
FF8B
0CB1
FD89
FA6D
0294
FCD3
06BC
01BD
050C
FBDD
F4A2
EE8B
FDA4
F9FA
FE95
02DE
04B9
1B7A
0A6A
013E
0575
F59D
F6AC
FBB9
FD92
FDE9
FB23
ECC7
FF64
FAF7
06A1
0937
0305
FFF5
0412
F7FC
F956
F737
02A2
F6EF
EF72
0246
FD12
F582
FDF8
FC55
ECAE
FC4C
15DB
FE43
FE79
FD0C
024A
0079
0337
010F
FD97
0079
F88D
FF85
F421
0490
F888
FF47
FE40
003C
ED50
FD85
021B
FB94
05A4
175C
F95D
08B8
0376
FF55
0772
F3BD
F178
F25C
00B5
0597
FBD1
F4AE
041A
F3B1
F833
FE1C
FFA2
EB26
085C
0148
E9F0
0222
0295
FEF3
03B1
0987
0599
F795
0783
0078
FC8E
0DCF
ED40
00C9
0169
F257
DA05
0961
FAEC
F2A6
F93E
F09F
F8D7
FB5B
055B
FE18
0004
F8BC
F949
08F7
032F
F85D
FFF5
0397
0332
FDBE
0395
FD5C
000D
0036
002B
03FB
FD99
FDF5
F046
F6FB
F5CF
FE53
FD76
F462
FCD9
00E9
F0C1
FE51
0076
F64C
FFBD
FA18
EFA2
FD09
FF6C
01DF
0283
F936
1902
058A
0A1C
FFD7
073E
014A
EE5E
EF4D
FC61
F8EA
004C
0482
EC79
FF62
FA5A
FD6D
FF1D
073A
F642
F708
02BF
04FB
FFF1
048A
05FC
F2A5
EB69
F733
0CE3
F52E
F1E7
00BD
1CC8
0033
03D9
FDC2
02BD
F4C7
F614
0266
0274
FD2D
0541
F795
FE7C
FDAC
FC5E
012C
026C
EC9F
210E
084E
FB1D
009D
FE83
F996
0609
EEC9
F571
FE3E
F8CB
EEC9
FF5E
FC36
FFCE
00AE
F369
FF37
FA28
FCB7
FC59
FD30
00FF
FA99
F9A3
F904
F860
02A6
FF0B
EB30
F8A1
FA90
FE28
FF08
E514
F5E5
06F2
052F
F988
EC91
0326
0967
F4D2
0EC1
FBFE
FDBD
011A
0733
FF06
F4C9
FFF1
0AAB
0337
FFB2
FE33
F649
FE4B
FC24
E9FF
FF6B
FA59
FA94
00E8
0447
F969
00F4
FEDE
0ECD
EE74
EE4F
FDDA
F2BA
F792
0151
007F
01DC
08B6
EA30
FCA9
EF37
FB77
F52E
F3A0
0232
FEB5
0A50
00E3
EE1A
035A
F7F9
F906
08AB
0013
FE9B
FD93
127A
F83E
EFF3
F9E1
FEB2
FFC5
FF47
F79C
FCE8
FEEA
F5D8
FDAD
F14D
FA47
02D6
E15F
021E
EE90
FB22
F284
06CD
EB95
0211
FD3C
025E
0B46
00B9
F16F
FE8F
143B
F8DE
F91C
0CD1
08C3
1414
FA5D
FF08
FEE6
F4ED
FA4D
F83B
FD78
F882
01E8
FCAB
0935
FA42
07BB
FDFE
05CD
006E
F4A9
FDAD
EEF6
D3D1
0BFE
FBBE
FE23
0B1B
0581
FC7C
03BF
F583
FF55
029F
04D7
FA4F
0890
00BD
0094
EF56
0EBC
E8F3
FBBC
01AF
065A
11F3
FE08
05FD
00E3
098C
F96D
FF31
F7EE
F690
F799
FA22
FC49
07B6
FCD5
001F
FCCE
024C
FE64
FE9A
012A
F0F4
0D43
F8D6
0093
F6BC
F5E4
ED47
F9B5
F3E2
FD1C
F432
0209
00D5
FA2B
072C
0206
0938
02BB
FF44
09E4
FAB1
F0FD
049E
00B9
0115
F609
013A
001E
FD43
FD16
010A
FD70
15BD
F6C3
F719
0466
ED11
FF5E
01BA
F223
1509
E9A7
0CBC
FD1D
FD3A
053A
FCFA
F009
FC0D
FA99
FD6F
05E5
04CF
0D3F
0799
03F7
0308
0D15
F93E
F532
F97B
FD32
FBBB
0176
0724
EDD3
F903
F725
0508
F969
FF48
FFEC
FEEA
0CB5
F100
0CB1
F832
1021
053B
ED32
FF07
F5F3
FBF3
F54F
FD38
0232
0BED
FBA8
FFE3
005E
086F
0AA4
00F9
FF5F
FCEA
EEF7
F649
F0AB
F932
EAB0
0530
FAC2
02A3
FA38
EA42
00AD
FD6E
FD63
FBAF
1343
006E
0043
FBBA
01A7
0B93
001B
F67D
F06C
04C4
021C
FFA1
FB8B
FC24
0318
FC65
0F39
FAF8
00C3
F316
0471
0181
F5C3
FB95
FF4A
0012
FF47
0265
F91E
FA5F
0700
04E4
FF01
029C
F61A
120B
0637
03A1
04AD
04EC
F8B4
F8D6
0379
FFFD
FAB0
FD7C
0128
F6B7
F8BE
F000
015F
04E1
F844
F3BC
0402
F6EE
FCF1
FC86
E9D7
F13D
0F3A
0428
F167
0C2E
06F8
00BB
017B
016E
FA5B
FD2B
04AC
0013
F50F
037E
FE11
014E
022D
0BFC
081A
FED5
FD72
02A1
FF7F
FF27
0359
F4F4
0336
FE9D
F816
F8EC
FFB2
0E57
F0BE
FD22
FC8F
F400
F4EF
01C3
F7A6
000B
FF07
0291
FF47
023D
FAA3
F43B
F791
0700
07CF
F661
05B5
0033
FC8B
029F
04D2
FB24
FD7A
FDC3
0189
0026
012F
02CE
F661
F5CF
FE0F
04C7
0C66
14CB
1C79
00F2
00C7
F94B
00D2
0847
00AF
F962
021B
FAD0
FDC6
F380
0976
F8AC
FD53
FACD
F629
FA25
0020
FE76
01BD
031E
0203
00D7
1174
0065
0071
09BC
01FD
0220
FA7C
04FE
FFDB
F6CB
0910
F8B1
F7CA
FFFB
0784
FC46
0696
01E5
FE00
F5F4
F8E3
FFE8
FF21
01A1
0448
FAFC
03A4
EFE1
01E6
FCC0
FACF
00BE
FEF3
F4FC
F9A0
FDCA
FD40
0D46
F2B1
FA37
F8C6
0414
0D36
002D
F668
01D0
1009
FCC8
00DF
FD17
0281
04C1
16C9
06A2
FE08
F569
F25B
FE8B
0089
FC17
012C
F85D
04A9
FEFE
FD2A
FBA6
01E2
F4BA
F54E
0622
FF38
085E
FDAA
0080
FC9A
FF70
011C
038C
0028
F76D
FF51
F781
FA63
0392
0841
0CBA
FCCF
0253
FE9B
F784
07FF
EFED
00C1
13D0
14D5
1C6E
FCA7
F4C7
F8F7
E3C6
FDAF
FBA2
F2FA
0FBD
EF5D
11EC
037F
FEC8
06C0
FD51
02DE
F5C6
FE15
FB5F
040B
FB73
0951
05C7
172E
03C9
F0D0
F818
0472
FABA
04B8
06E6
05C5
F88C
FE4F
FDBF
0081
F0A9
F1A2
FAC9
FE8A
FE7D
F716
ED8D
E625
F2F7
0411
0E60
07FE
F207
F1CD
EAA3
10B4
FB14
FA34
F3C0
FBA8
EE41
04E6
EC1C
00D5
F9CC
FA58
F8F3
F2D6
FD94
003A
096E
F729
F6F6
0DB7
FF44
14AF
FA7B
00CD
056A
FD7C
F848
FC43
01AC
FAC3
FED1
F330
FD40
01AC
FAB3
FF61
0C56
FC6F
FE6C
F669
024B
FCC9
08B1
FE3E
009B
02FD
FA7D
F7ED
FB0C
028F
08E9
E9DB
FDBA
F9A6
1B15
00CF
054D
0326
FE02
F62B
FFF6
F551
FCAE
0350
F272
FE02
F407
FD76
04FA
F94A
FD4A
FFB1
0C3B
FE97
F839
0133
0257
F758
019D
F500
F4AD
F8F5
EC91
00CE
0218
FF08
F55F
F8B5
FEC7
0233
FEE5
FF5F
01F4
FDF2
0325
FEB5
0890
FDB6
FD19
0040
0409
FDDF
045A
FE52
02E8
024F
FD94
03C4
0274
FD7D
FF5B
0D2C
FF40
FEC7
085D
05D7
0180
FC5A
0210
0DB2
FA3B
F9A1
F0E9
000A
F90C
FEDE
00E2
13E5
F37B
1FF5
F9DF
0BC8
F4D9
FF39
FF5D
094B
F430
0392
ED07
F42A
0531
02E1
0134
FEE1
06CA
FE06
09C5
F914
01FC
1384
FDEB
0071
FD33
00A3
1363
FA28
FE5F
F125
FDBC
FD0F
FD63
04D0
0204
FB99
FC21
06E3
FFE0
001E
FD3A
0097
FC93
E9B4
FCE0
FE6E
0376
FD75
E3D8
020A
00E6
1F00
0B72
FC4F
FBF8
117E
FB8E
0301
FEE1
0158
FD72
FB41
015F
F427
0066
0190
F968
0553
E76A
0477
FD8C
009E
FF86
FF78
0152
ECD4
EDA4
F0A5
05E3
0626
FC52
F676
E971
02D6
FE3C
FB7E
00AB
F9F3
060A
0206
FA67
003E
FEB6
1D49
FD8C
FE2D
028F
FFAB
07FD
F68F
FA51
F5D2
FFA1
00E6
FF53
0019
06D1
F928
FFB1
038B
058F
EEBC
EEB5
0844
07EE
E5F6
034D
00FA
00B7
04F3
0611
EF5A
0EED
058B
FC43
F2AF
0ADE
028D
04EA
04BC
F9B7
0B7F
FD92
0053
0B89
FFEC
FE7B
FC32
046F
F06D
F7AB
FE36
0450
FFB6
FA4C
FD4F
FCC3
F4DD
F9B6
EE77
F5BD
0B0E
FF9F
0114
F7E8
FAA0
01DC
F359
FF31
FF32
FD40
01F0
FFBE
F50F
FB60
0137
F6B0
0831
0011
FF00
07C6
FE7B
0892
FD97
0428
FB20
F308
FC1F
FE87
0E3C
FF55
04BE
0654
0CA6
F2E4
FB64
039C
1480
0027
0586
0588
F985
108D
F46E
F0A7
00A6
077A
EED9
FC75
FE0F
F84E
083D
1EAB
FBD1
0BB2
EDB0
E90A
F4AE
04BC
F70F
01DE
0198
FDD5
0A4B
E4FE
FBEE
F8CC
0078
0620
0150
FFA8
0F3F
ED4D
0AF1
0776
019B
059F
004A
FD2E
005A
F8D0
EDD2
FD5A
03FE
F083
FA76
0061
070D
F0F8
FD94
1776
F691
FD1A
FF18
FA36
FFC5
FE32
F509
EF6B
01DE
01E8
FDB1
FBCB
F78D
09B8
09EA
0B14
EF82
FDC3
FE8E
F55F
FC0D
FF95
F77F
0C63
01B7
1920
0ECF
F1B6
0167
F3E1
FF3F
024E
E439
01B0
F8F2
0A63
FB98
FC8F
059B
FFBB
E3CA
0D33
F4E1
FB35
02AC
02F5
FA53
017A
02CA
0376
F614
FB17
F80C
0473
F78B
FD16
FF00
0771
098D
0A19
02E4
0993
0390
EDAC
0615
0608
F827
FE13
067D
0272
F326
FB01
20BB
FFB6
0785
0520
0350
F05A
F948
E1E5
FEAC
0925
FEBA
F494
F2D8
FAA2
FE69
FD69
FFAE
F9AC
FD6C
0549
0516
F338
F558
FCD8
EB5A
07A3
02EE
015E
03B3
000F
03AE
FF33
0378
FCA9
00B7
FB66
FCD8
F626
F7CD
FC48
FCAA
0768
0030
05ED
0B9E
F895
0F8E
097E
01E1
07F0
0218
015C
FA7A
F49E
0963
0501
FE52
FBB6
027D
08F5
FE1B
041D
0D19
F68D
0F1C
F443
02A4
03AE
0DF6
F601
F6B6
F7CA
E6EC
06B3
FEE8
0506
01CC
F4BD
FF98
14BB
FDA7
0E8A
08D0
F953
F384
28AE
FD9E
03DC
F9EF
F765
FC52
0594
FF2B
02DA
F6A6
013D
F7D1
045F
0A4E
FBF4
0E04
FDC6
F7D1
043D
FF31
04FC
E0DE
0959
F4D3
03F7
09EB
FCC1
06F7
F61F
EFEB
F91C
0C86
FD3C
FA30
0267
FB72
F016
DFBF
EFE1
111A
F5A0
1BFE
FB8A
ECEC
FD6E
F738
FA8E
F02A
F580
F63C
0EB6
0138
0377
F815
FC6F
F080
FFBB
F6C5
FC58
F8BD
EABC
DC33
F127
ED1A
02B8
04F8
F027
0C76
F3BF
FEBC
047A
0C8B
027A
0064
0AA6
027D
F6CD
FF0C
F286
0D7D
F66B
F03E
F1B8
FD88
FEA1
F885
048C
F683
F470
037B
FBC1
0061
079F
EF77
01A2
EE11
ED8C
1484
00A8
0872
F82A
F863
042A
01B1
0D97
F524
FC14
FF78
FFD8
F79B
04E4
FABF
0D03
05D4
04CE
F4B0
EC8B
FDBA
FD47
0395
F64F
0EB3
F725
04C7
057F
FC73
001C
F1E4
12AF
01FF
025E
F582
E03F
EBE7
FA68
0370
F917
F8DA
FBC2
E0C0
FFE5
1065
0022
F701
F3AA
0496
FDE1
02DC
0409
02BE
ED87
FD2C
0110
0218
0660
FF7A
F5B7
EBCC
040D
FBEB
FEB9
0072
1D7F
0284
0A9C
155C
F9FB
013B
028B
0C3E
0222
0062
FE64
F0C9
