E8481120
F6A01421
F9FE0702
FAA611FB
091B04C2
FA4AEAEC
06B410E7
176B1161
03970D2B
03B1D935
FE78F562
05CDEDC0
F8D20CC4
0C9FE7EE
0492E016
DAC1F1ED
FFA7F278
03F0F2CA
FE74EDB3
FE6B0091
1699FD46
FBCC05EA
FED6F4D5
0122038C
F763E32F
FEE0F71C
E4AD022D
FA0FF76A
0248026D
F1D7077C
04050110
F1490AE5
1D1906F7
0B910D94
F13F0198
0C4F11C4
0F88F731
0C98F03B
F67CE9DC
167CE0F7
F9FFE64B
305FE31F
F4060FFC
F25BFFC1
0570EFB4
110CE5B0
0D1EDC29
E7CA089C
DCF7D6D6
148BE734
EC10DD59
1D800463
00FDEF38
2A5AF2F6
F928F4E7
D66E12B8
184EEB79
F541F5AC
FC630088
06CF07CE
11890EC8
F6F2F384
F689ED20
1707E8EB
04560F57
F09000D5
F84B07F2
FF3A0106
0225EB92
030FF53E
FBFAF58F
030AEEC6
F8471937
19710374
084FEB90
0404137F
18A62412
F90AE806
F413E754
01A617B5
F86DDFE7
E31AEEAA
3F920998
0CFE1D4C
F01605E1
FD320342
FC70F025
EA8A0D08
C6F6FCFC
DE1E1BE8
F28105DA
D838FD5F
01D10422
19A400B4
E095F4B0
02B91D0E
11F6F5B4
F63FF277
04BA0AAE
F685034B
E622F59A
00910412
541FF57E
0A4DF835
F721FA33
023F0F49
F65CF785
EB53ECEE
F0C2F712
ED9400D2
0A90DE64
19750566
EBCA071C
F4A113E8
F5200158
DF18013F
E52F19A7
0D19E78A
FB030F9F
FA09F9B9
FE9912E5
1526DBBA
0363027F
116FF0ED
0619FD29
FABBED09
F784F811
EF83F23D
06CF0AAA
F8850381
16180BF1
04890870
1979FF59
F2760212
F8D804AA
FEE8F8FD
06F10293
10D00947
EAAEF7AF
0457FEBF
039A18FC
F797F360
EA06F4EE
E7DFF669
F1DCDFA7
C84B0B5C
FF0EF788
000CF745
F8550952
EEDCF332
1328F0E5
F05CFBFB
0825F36A
FDA51F91
EDF3F961
EFD9FFC5
1D4D0324
0FBA156F
017EF76B
DB63FE42
FDA8F81A
071E047D
FF9DDE4E
0AA2FEC0
FE45F4E3
0045F977
01AEF820
EFD70635
0117FD43
F51FFB4D
0351FD3E
F86FF70E
F5C2F725
FC490B94
081703A4
F9A70E04
0A480D67
08EC04CE
D00AF133
014FE08A
0F09046A
04B0FF85
13B8E9E6
FB5FF54F
028EE83E
096FF469
0A8A12FC
18ACDF7D
E91826B7
1841D31D
0EAC25C0
F2E40639
E8FDE985
F047F225
0F21F216
0BC7FD11
FD95EADC
DF4A009A
05A609D7
05FB0573
E3DDF83C
DF840E2B
2AB4EC79
1155F242
F3CB043A
06440867
FFC1F3AC
07A90098
FE1CF597
E62CFEDE
F07C04C9
12C90591
0BEED9C3
0BBFF09D
E40306E6
F1CEF6C1
06A20B63
0ACD0680
E472E7C5
E687EE37
FF37FC9A
083FFAC7
0B9E256E
0D37E96D
0295E6BA
EAF2F0C4
A1C6035F
1DEF07EE
FF11E79D
DEBE1285
EF90FCD9
05E6FF4D
232016A3
EE720D2B
FA830F5D
0A520FBC
E8AFFC22
087A022B
FF92D923
0529F078
0054FBE3
E48417A4
E2C71316
FA15FCB6
ED7EEA17
EED90014
F7E41987
1833000E
05B9E0CE
044B0988
02370FF2
E6A7022D
0C01F78C
DCB8EEF4
06D11452
EB18DF26
07F3DC1A
F7FFFCE9
1F14F1E5
EAC606B0
FF4706B2
E5B927AA
E652E425
1F19FE3F
EA73E490
FB51FEEC
0DD7EFF6
FDD606AD
E4E5F56D
F1E4F74E
070EF05D
FA7AFE34
F85AFE4E
02C6DB7B
0182F306
F2620019
0A3DF578
F6E4F814
04D4039D
F398FCB0
F3BCF18B
FFFBF986
FA23FEB3
FCF0FAD4
F083FE10
FDFEF584
F5B4FC62
FBBDE744
176E0350
0985F60C
021BE9A5
01930342
04B5F825
EC3513BA
F513DF83
FAAF063B
DE20FEE1
EC230F36
EEB9F786
DDFFFF74
0E33F37A
0239044D
047B153C
00230A1D
E986EEA3
01DDE87E
0E42EF07
0C8CFE05
02E4FBA3
0824F08D
F0E8131D
FEA300B7
02980B6D
134FEE17
F51502C3
0D891055
EB1600D0
037B0574
028605C9
FD1C049D
005BFBA7
00B3F1A8
F076FF9B
0596FFA4
FB71F1CC
F6B702B2
E9F5ECFA
FFBA0007
F94F0C9B
EFBE03DD
F8941160
FA08FD18
FB4002F7
FD67048B
FEAA08A6
FA18F3C5
0012F1EF
0822003B
E3F6ED98
1B7BFE1D
F6E0FC3C
090F04B8
EA70FA03
FA07000A
F4660080
E353FD2D
1406FD00
F64D16E2
F38E0E27
EAF0104F
0A51FCD3
05EEF869
02DBFB57
02FFE544
ED83F7DA
F3BB06F0
CF6F13E4
FA9DF1B1
06080831
2624F763
FFA6F699
EACFF382
1266FDE5
E329EC78
ED951020
EBE2033F
FF7E0DAD
FD69E6F8
F02FF832
0515F60F
172A06FD
F7C8F247
E5E0051A
EA45045E
243C1681
24F2090E
19E71A0F
E05F06C2
EE5B0189
E738E174
F747F866
08D70CE0
F9000B71
0072F77F
E76EECE5
1480F0A2
09DAD68A
04A90804
00F3EB9A
FCB8F0F2
F3B2FF3E
F285F5C0
116EEE44
0334EC27
0321F72D
FE27FF81
1025FC7F
EE5F0C8D
001BEC51
EF5FFC03
2DA20905
EA80EE0A
FB5903C0
19690305
E48CEAFD
F37DFA99
F6F4D7BA
1459D647
084E01C5
1D600189
1A010518
F5FBFC50
FA24E0D0
0989F25B
FDFA0295
D71E0A60
F982F71B
056DF23F
FB86F1BC
1711EA1E
0989E721
FC28024E
EA15C994
F593109B
E7A41DE1
09BF127E
F77606EC
0DD8F0F3
174B05E9
FF74E879
07F2F678
01FE0FB4
F8720D4A
0278E9AF
0670F43D
E72605BF
EA90057E
F1452BB7
F6390776
210AF637
FCD2FB6E
0467F50C
03A90813
EE20FDBD
03B7046D
0E210D4E
085701D3
FE79F39D
FBC70604
0B4803D9
103DFA2E
F982FF8A
1414FCF7
F5F82C71
02DF0CE5
0E2BF814
F8360059
032DF72D
DF951087
04B1F9C9
FA4CF77F
0ADC14B9
FB11F9D4
0EFD04E1
187415A8
1505EB8A
F1A001DF
FC06013E
1AB40885
F41C0FD8
FFC8FC30
035D04D0
11BC048B
DFA1FD25
084E01BE
BEB3FD15
42B2FF42
023AECBD
F90B2312
0E33FBB4
086FFB8E
F21E0B07
F8D51171
1510F75A
1D65F0F6
D6071514
0B43F117
147708CC
03E5ECF3
0F371362
14D4FB00
F52D0919
FE49F913
28A80562
F90100F7
E80BFECE
EE14F418
056C1162
0CEBD2CA
2BE506AE
DF59ED30
FB5504D6
1627E679
0338F233
F7470DD4
0D2D0562
0CCB0834
EA1EF356
F2F40F44
FC14FCEE
E56014BB
F012FE74
