13E3F62A
F0D80922
F5640A7E
F437E025
FC81F01A
FEBCF4D4
EDD7FA03
FF8A032E
FE1B0B8B
E722F8D0
E0D5D8E8
E1A3F235
1EF50E23
0403F67C
F86BFD8C
FBBFFEC6
09B8FA17
F9EA127C
091D0215
F9BBFA32
F4F7FF8E
0EA00427
080C0A85
E5D5EF1D
03E11377
17810350
F63307AE
09CFF2F4
0C82F427
FDD1FE14
FA0F0AEB
E30805A3
15B0ED9A
1BBC002E
13552568
FBBC0621
0D89FE1C
014A0AFE
1362EE93
FE93031E
07700B77
F9C2EF6B
18A00A8C
DFD0FFAE
EDBE0B48
057501D0
F904FECA
F747FD50
0076F95E
0B1FF860
098DFCDD
09E7058A
11CB04E3
068C1437
02980271
0109F96A
FBF4F1C7
FCAFF63C
00FE0C5E
F3CCF2EB
F7ED0A13
0232F3B5
F09D0144
153F0535
FA4B0260
F2CD01F3
FD44EDA6
0420F608
11DF0E40
193D0290
0656168C
EF7F1469
00B6FA7D
0532F78B
F8770C5F
FCB1FC35
F043FBBA
141105C6
F99EFA64
0BEC0494
EEB4FC56
0E7CFFA4
10BEFDB5
FEBA0B1A
FE951154
EF220509
06540212
0921F5C4
0C66064B
FB2A026B
0CB30905
FA7CF969
12C609B8
FD65FB0B
0166F527
FD00FDFD
E94002B8
0A8AF5FE
0778FE68
F02FFA0A
0BE001AF
102B0005
0210FE85
FFECFC14
0F89005A
FEE8F73F
0AD40FE6
0342F68D
03420245
08E008DB
01780042
FA8B02C3
09C300A5
E667F3B6
FBAC0A3D
FDA1FE92
0B250152
0FA40593
08AD0CDF
009CF2B1
03370FA2
03B1FB62
FF55FF4E
166C053C
0AEAFD94
F1D5FFA2
F880FC69
F3240691
08560317
F742F5D4
FBC3F4E7
1145F874
FDD7FAE8
044302DA
01770289
FCC6FB45
FE18085F
FFB1FBB2
E3CCF2D6
0058F078
FAA4FA1E
FA38FF81
F7700525
04FFF9C6
F9520BB6
06D2112F
EF79F9D6
0B04FB8F
0DF5FCE0
FEF5008F
0C0D045F
FEA7FB18
043C0423
04D4F6DC
077A005B
EB0EF80A
F39B03B6
F849F17B
ECC5030C
138AFC58
F5C6EF13
F19C0337
FD84F99D
F3E80E6E
07C71102
0411F9B7
FF6BF086
F57401F9
F6CB0257
F19001DD
18821266
19260BBF
FFD60D61
06E50EAF
0967FB97
0619FCDD
F1750202
F7260669
0AEEF828
FB73FCF2
FC430CB0
07B3F79B
F20AFD77
FCE700BB
001AF8DD
16DC0B4A
FD23F12F
F7E41121
FCB4FFE9
FB55F95F
F17B110D
04A8FD45
FF54FD7F
088EFC35
FB49FE37
118EFF09
FA1CF978
0152F7F7
F10DF4F5
FB9AFA29
F2360251
0CCD035A
034DFA6E
F3B5061F
DE40EC3D
FC53DAFC
F8A1EC8F
01F30156
0101FD8F
08E319DE
0015F909
F53501E7
15F0F822
F29EFBD2
ED960168
0116E98B
F318F105
ED79F8E7
FB5EF431
009C07DD
013AF914
F79AFCD4
FB7CFC95
F68C09C8
0207FA07
13D702C6
F67507D1
F957F692
0ED41B8F
0252E9A2
0175FAC3
E43C1638
F41BFF4B
0BD6F175
FAB9F1D6
03D21381
218E1D5E
F95A0A81
FE87F7EF
016406F0
FE8FEF15
EBE3010D
084CF899
17371B0D
12F70E03
0F2B327F
EE270990
F3E8E8EB
FEB1F429
E209FACF
195DF305
FC96FCF6
F5CA04CF
F8ADF17F
F7D5F793
0A47FD35
01B90845
01CFFC98
0B750DA8
13ED0249
FDB2F24B
F8F607B6
0D3CE7E4
FF540DCB
EFCAF0A0
FB7BF183
09AC0E42
268D0213
F9340392
EE0F011B
FC940432
FCB0EFAA
0461EAF8
0647FDC5
02DD01C8
08BB0C52
ED310D23
008CFCD1
002F109F
DF45F7D5
EEA9EAB5
012CFEF5
3066127D
FF601E6D
FC75FE5E
08FBFF5E
FB8F03D8
FD01F3CD
11C70BC7
0F67FBF3
F5CC17F0
DF2AF0EA
015BE685
F4DDFAF9
08E60B85
18B6FF52
E53CEF2D
DA5804BE
F6380ACC
0A19F4EA
F8F0E69D
F83507E6
FA8AECB7
0493FCDC
08FB0316
003CFE31
F9000D8A
08C40481
01980D15
FD260660
F8E1065E
035E0446
0451023E
FB260445
0CC708C0
EF7B0E77
1530F30E
0ACBFC9F
07A803BC
047D0360
F478EA18
ED0F0621
09EDE77D
12BF1581
FCDE0321
120DFC27
0160FF52
FF8508AE
14D304D1
F330FDE0
F4CAFEA4
DF4900A4
F3E3C623
1123FFD3
FEF2110C
11C808E0
FCD5F41F
FF5AFE3D
FCCCEDCD
F9D80421
F9A4F07C
03B6FC41
013C0C77
0547F982
03C704F0
028E0B11
0BCBFF5F
052E023C
0BE30EFC
EDF0F86C
09BDF91C
F6DC012E
018FFAEB
08970AD4
DE96FB90
FA3AF289
FE98F1AA
F2C5FA33
027FF47A
01A2FA48
0D2AF91A
FAC8FB95
FE88040B
0585012B
037503D0
F323FF7B
F796FB17
F08AFC95
FACFF642
091CFAF9
FDB60EAA
11EB0FDF
F54FFBB8
0742E9D2
FFA716B9
FEA9F475
F672F846
0227FD93
08E2F8C2
DBD8F3BE
056BF594
063F16A0
FED3F885
008BF971
EBD705CC
0ECEF8E2
FF69FF82
F9C1F857
0A410566
0099FF34
F15F01F3
0094E086
02CF0A6B
154E126A
073003F8
FEA3FFCC
FA84FBAD
FFDAF1EB
FF88F705
FC6009FA
00290864
EF76EAA7
FC2503FD
F6EE15D1
FFA90AD7
02A7006F
F421FB1C
FA36E486
02640AE3
F85B0DBF
FB71F29F
F2A3FDB3
047E0058
055C03AF
061BF2A5
F354F67E
F6C10526
EE20F676
06F2F46C
F892FC46
1195073A
FFFFF20F
F6C104BA
F11F001C
FA46F58B
FB83F87F
D766F606
FBBDF32B
FA2FF921
0494FF49
F4F5F9AC
F89F019C
01A9FF1E
10240161
F6BB0A7B
0B44230B
FD980AB5
FCF4F794
107F0189
F31E04B1
FB59046B
00A3FE77
FE64F7FC
001AFA06
FEF8017F
F0DE00EF
FA9BEC2E
F0AAEFF0
0BF0F60E
05370862
FF73026A
0228F965
0C8D1246
FD14FC6D
FA1F02F4
F977F5F4
FBD001F7
F98B049E
F895EC71
009AFA63
E15DFF93
F5C915B8
01F4E3E0
FE031111
021BFF7B
1410099E
0D920918
003B11DA
0DD3FC5D
03460D11
0485EED4
FDD8F853
FEF0044F
08F3134E
170401CC
F35C031D
E9C0F11C
11A100AE
FF45FC90
F839040C
0834FB76
F9E9053B
FD09FC07
01310CD3
024100BE
04AE0384
01F90578
F4BFFC9B
04CAF4E4
FA1D003C
F44808A3
F1AFF969
F881E9EB
0984E85C
0A34FFC9
10B4FF5D
02F70D85
0907FEAE
F48CED02
F7C3F6C2
1AFCFAF4
ECBEFD97
F9C70955
F799F842
FF04077F
17C1FBFB
FDD80DA6
0EFE0415
F8090A09
F7E2EDBE
F79A0396
FB26F54D
030C05DF
F5AF057F
1BE7F463
085F0773
FAF3F9D3
02DA102B
00C20F40
FD21EB1E
FB69F674
F5E8FDC8
10A302D8
F0A40CEA
F106F595
0F34F780
EFEFF0F4
00AF0084
0B4FE545
030002A7
06EA0B84
F0C9F123
F3C7F6B7
F073FA7F
01150A5C
FEAEE747
F648FA1C
F9240CF5
0484FE76
F1A4F618
DC12F886
F815E35D
F46AF279
00F1FDB1
FB8CFAF1
08ECFEED
F69DFA6D
0049074E
F118E53F
CFB7F9EC
FE4BEEA1
FE2AEEC0
FF20F9FD
F3990F15
FE9BFB2F
F83DF6D8
02B2F7A5
08C0086B
FD07FF8C
0458F839
00E51061
FD00F924
E997F7FE
0398FED3
00C5F190
0626086C
0CDC0CF7
18110E7E
04B1F716
FC6EFAB9
F0910884
065903B2
0803F7CB
F6FE00C1
0799FD9A
088A1001
04CCF74B
F7B9055F
F381FF4E
18171C01
FE3D1530
F11303EB
0B2BFA69
0ED0EEF6
F90001D3
F7BCEF9D
0DE40321
FB8D0DFC
03E221F6
F465E2AC
F37F0544
F27FFB8E
02EC0439
F0B209E4
FFC90815
160705B8
05AA0D01
EE1D0955
EF58EDED
EBDF0780
F49FE9C1
E2B0F5DF
EA44E2AA
F5E212A7
19A1EE9D
F9EEEFF5
F1E00101
07B2FCAA
1A860D88
FA24EEF6
F20308AE
F9DFF5AB
F71FFE75
00AFFC53
0AE3F716
F2F4F4C3
026EFE24
FB5800A2
F735F9D5
1720027D
EC111A82
F78EF86C
F34FFD33
0FD1FBBC
F1DCFAAA
019AFCA1
FC5E059F
1C6E1926
05A90E09
0F1C0A71
F79BFE29
0A24F85F
FC580BED
08B80202
F44705D3
03F3F5D7
DBE70C1E
0D77DEA3
F68908FD
0E9800DD
0D7DFFEF
FD5211F8
DE27EC5A
F47CEBDB
0C0D00A1
27B5FCA5
0FA70029
F2C5119C
F7A8F228
EC740092
01D2E6F2
F755F41A
F2EA01FB
00DFFD33
F8F40931
10FDF4BA
04E00FE3
EE06F41C
00DC1453
14AFEA75
EE50053B
08A1F9DA
E9E40206
ED120283
0E58EA1B
02DA05A9
F6250417
01680261
FE1305F4
08E01059
FF5DFE4F
09E30451
FF4DFAAA
0E75FD0B
03B7FC84
011903C4
0505F478
F59705A3
FCD4FB9B
F549E686
07CFDFC5
F8D6161B
0B8303C9
0A4204C4
F808F9E2
FC0BF888
E7C2F365
002EF79E
FDDDF3E5
F5BCF122
10E6F420
F6F807BD
F252FA5C
EFF7F92B
065EED2E
079609D2
037600D1
F0E3049E
039CFC15
0616FCA6
FE47F236
EBBFF66F
025DFC5D
EF5701A1
0DB4FF5B
0091F55B
F326043C
0133F98B
FD86F37B
F9F00414
FD2902EE
0B43002B
FBF9FCBA
067BFDA8
05F6F96A
048500F5
00D71260
04380181
F5BD099F
0C000D3A
F2B6D6D6
68E5004F
C92BF2A4
15EF3403
F1BBEF0B
FB9CFBAA
0E7BEB98
F75E0655
FFA0FB85
FC1C016C
00F00545
08B70C35
ED72F722
0054E97F
FF270ADB
F6A801B0
1052F2FA
FECDF69A
F6570147
01540DFE
0D46004A
1239FBD7
012D0675
FD91FA3C
F871FE3A
F41EF8D9
0AA6099C
FA8D0DBE
E6B9F9BC
F147FE99
015FED6C
FFAEEF86
FDADFFD8
0674EEA5
F2AA000A
1064107C
18A2F060
FAD80C24
F49E177C
076E0952
0337F6D8
F6DFF55D
1CB6F558
ED150DCC
09E4FF2F
FFB40265
F79B0181
0575F4C2
F014FD21
FC62F7AC
F3C2F5FD
F0730C46
01F3ED7C
0DC10ABD
081503F2
FE4FF7CA
0E88F849
F435FBF3
F1D8F412
FF25068D
CD19E026
1B480422
F8EFEF38
F67F0926
FD78F9CD
F731F283
0E3C055C
E6050DA1
042721AA
0FEEFD84
0164FDA9
053EF487
F4651042
0C33F4E2
FA53FB7A
FB3C0894
0745013F
F8920111
EF5C0103
01ACF296
003CFEAF
F18F192B
1C17D6CF
ECEB0244
FAF509B7
FF1DDFB2
F0B0F1E1
E9B9FA28
F408E3A2
FB77FADB
F249E617
F448FE51
F8B7E0CE
F5BCF84B
DA2AEE1D
0075F28E
028BBD2D
D9B50FEB
0E9CF407
FF5CEF8A
FFF105F0
F86EF404
E39AF8F7
06A1FC5C
FE3E0337
0072FD4B
06A7FB37
007DE353
FD950E52
0CF8F1BD
0B2008A0
EED1F987
FD8FF5EC
01ED033F
F61AF79E
E186FA8E
F9A9F400
E9CD0681
1019D787
DE042181
0C220248
0138003A
F069F33F
25A3EF7F
F9200BB6
03B4FE61
043DF5CF
ED1502A2
0721085A
0BBAF3DB
155D014B
FBB418F6
0630F86D
F4D9F2FD
F6DBF62F
E5A903FB
FEF1F79E
0295EE9A
01BA16D0
F739F7DB
F391084B
156F0615
FB52FF2F
FE22F26A
FEFD03A7
F5D8FDEE
F647E9FD
EF72FDE5
FFDFFE55
FE8702CF
FF6AFF87
F7E306C3
06920397
E72BF99E
FE26045C
076BFDDD
FE810C7E
FC9BEB22
0252FDA1
FB9F06A3
0E06059B
084CFA20
07D40213
FDBAFF86
FB9FFE58
066CF9AB
F493FD37
F643EB55
0840F992
F9A4FD9B
00070A12
E98FFAA2
1697F65C
13210D76
027906A1
EBC60656
EE5EF352
02D1FA38
FFEEF04E
F1A8FC63
FAA8FEAD
FCFC02AE
070FFDA7
077BF5F1
05590883
0006F8AD
056FF2C7
FEA301D5
0FDF0616
092F0280
FFE70705
04D50A01
037DFB00
038701E6
FE5613A9
0F2B05B9
FE7E019E
F2D9FD53
F56701D0
FA5DF963
F75FF483
F26CF196
F71FF1B9
094AF984
EDB10285
0DF001B3
0033075A
FEC0FBF0
F83603A9
F0A3155E
0356F489
F8B7F701
073212C0
0FA1F9C7
FA0201CB
FDF90850
FAC0024F
FEA50275
03B2152E
FA3805DB
00B10616
004110A1
FD9302D9
F95F06D6
00720493
0DDE03A7
057100FE
FEE3FEEB
01F9012A
0A1EFC43
F5F80132
00F4F6EA
0875F566
FAF80199
01DC0102
F2C0EECB
0096F801
0A05EA19
FF8C0C05
03FF0A14
F9D6FC08
F87EFD35
FD4DF680
04A403BD
0554FB0D
05770A1B
08210917
07D20148
00BFF415
ED5B07C4
F4000036
FFDFE310
F650FA18
FBDBF97A
FD470BA4
F7E6F6A3
0C59F723
FEA80F86
F334003F
FF78EDFC
FA6E07A8
F2D6089A
01A80166
0ABE0B04
0AB2F37E
014BEE64
007BF8B1
F4A3F707
FD0AFE0F
00DDFDF9
08F0FAF5
FA07FC45
F70C0AB9
0AE701FB
F756FC06
FBF505F7
04850257
05D600A0
FA5DFD61
ECAD0192
FD96FD11
F59DFBEF
0185FFB8
04CD00F4
0850F5D9
EEB60422
08F70796
09D604CD
0AB8FBCD
EBB50821
F4ABF1B0
0B4EF5F3
FCB91397
006401B9
03EBF9BB
FBE9F358
F61E09ED
02A7FDAE
F9F2F944
FA09FFA4
FEA6F667
FE66FD44
FD05F99C
F672FE28
FEEFFD90
FA77002E
1373010E
00A30651
FF21FFE4
10B2F6C4
000DFD57
0352F28E
F50501FF
FD5C01DB
0213FF08
00DD0AE8
F4FBFBBA
07F8FE54
0C74EE8C
F8451190
F6B8F692
0E3A0BC3
03531083
0C34F2B1
1A3BFAC4
FE1704A5
00CE0657
FF00FECA
0750F920
0A0F0122
FF1C1012
F2FC1143
EE69E26A
0584FE15
FBFF066E
0413FAC9
07140E61
0A0D004E
08641624
11490FED
0C8E1161
0A230C58
035C023E
FC62F182
F22F0451
0030049C
FD2DF25A
04F315B1
064DEEAF
0373FFC2
13820389
FA82FC4A
0016FB09
FA2B0540
0462F73C
0542F264
0115EC1B
EC89F8A4
F016F3DD
07CBFF00
F84D0CCB
0E88039D
072FFF49
0551042B
050AFE9C
0EA0FD67
FD55055A
0A0B0829
0C00007E
E95C1103
1131FF92
084DF0D8
EC780A04
0C2CF628
0CCD1919
0AF40664
1DA40F6F
129709DE
07D2F5F8
03B4FF03
FE4AFC7E
1F5D0570
ED6509A0
F331EE37
F348FB22
FB70F8CD
01660271
03150431
089DF499
F99700AC
E189EBDB
FCCDFACB
037AFCC8
F69601ED
06D0F7B4
F295F95B
F819F55B
05ACFAA6
014C01B7
012C09AC
FFFD0291
049DFA22
069C0194
0706FFE9
02BD0318
0DA50AE5
FD7C0A8C
033FEA44
F97EFE7B
039E0AF6
FB2DFF6D
024401F3
0D91E9E0
EEFC019D
0D5DFF00
FDA3FEEB
F8620B10
04470217
FCD402A8
FE9BF264
F964FFAD
00AEFBFE
F9D3EFEE
DA9C14F0
025B033E
F1C3E020
E8A011D3
FC7FF8B6
0AE002C9
FE78FC36
FB760512
0F7809D5
0F4001BB
F7AFF524
F5B0F9E7
F124F126
F7970059
FAF4FFED
0A6CEB88
F727F698
E6430C6C
1E13ED1B
CF380EE5
0B53059B
E9D5E4F3
079DECE5
05E50712
FC0BF95D
EF7105AB
0A29F166
EFA9F332
FE24F718
0B491BA0
06E9FBE0
145CFA32
FD000370
01B20623
0A990826
F73BFCDD
EFE8F1B6
F97504BB
1304F538
FDC0FD5C
E959F15C
08440067
FA0DE55E
F915FF50
00BF03A0
1111F890
03CC025F
F6100FF8
F929FFD8
D3E4FE0A
011DFD86
1138033D
FAE003C4
F414E80C
F80A05D3
F841F621
0810028E
0534F5B8
0D9205BA
0A6F18AC
162F172E
F9C50393
129E036C
FBFAF9B4
FD7BF77C
EFDD020A
FD6104FF
EE48FD2A
F2A70024
13EF015B
0010FF42
F5A3FE54
FCF6FC3D
F80304CB
039AF6DF
FF40F6B4
043705F3
EC55FE7A
FFADFDB0
F1D6F4CC
0CAA05C7
10F20866
059109FE
F69AF60E
06EFFD3C
EABA0622
FA97F392
0731F069
09110758
F3020E77
0066FA0C
004E0A7B
FDDB09C8
FA7DFD81
FB7F0A2B
FA27ED9A
F7D10289
FFA70735
04EC016B
02520D71
F45B1025
15ACF4EF
0E2504DC
FACBE60B
FB3A02CF
07C701F4
FE0EF4EA
0C34FEEC
024600F0
FD2A0573
FDFC1054
02AE0517
F535034B
1182FF5B
118E03AA
16D71F2A
FDCAFD44
0334F955
FF2206E2
FFF9F969
FA2FFC45
EE7E0BE5
090ADF6A
170B1EB3
05FAEDA4
F8F3000D
F89204E0
00E5FA36
F387011C
08400866
06FFFD56
FE8506DB
F61A07AE
0EDAFD48
FADF028C
FE3F0524
FE970905
01E70186
F72DF780
048BFA2E
013D072F
093D03B6
02250776
FBED0549
0608F699
FC5B00C0
FFE1043E
ED65F1A2
FEE4FD45
06D7FCC1
F4D6FEF4
FEAB11F9
091E0609
0DBD1066
02C50110
FD51FFB9
FA430C91
03280544
046B06B1
FE39045A
0854FF8F
020DFFD7
E73FED76
FEF6FA19
EAF1F01D
042E0354
076D020F
03C80360
FEEEFF9D
F8A8FF02
FF6709BE
F291FB21
F8540AE5
114B140A
081CFDCD
04A7FACD
00C90123
0648FE63
FA4C03C8
0131F6B4
F67A0A0C
1686FB0F
1517F4D6
FC9DED70
16110EC7
02710E65
04E10984
13AB0783
07BF09AF
0FA2FD70
0682E7BD
EB1A0F89
FF1B070B
F94CFDDA
EC80FE64
FDAF09D3
0E0AF4CC
F67A0D7E
16301136
097D0784
FF7EFB0E
075CFF43
0913FDB2
01DCFE22
FD2C0771
0678FB6E
012E08EE
F388FB83
131E0218
1185E8D9
08B905E2
01510261
025BF7F7
EF08F5D5
EF6C0415
FA3802AB
068B1266
FA0CFB5A
FEDEEB18
FA8EF13B
D19B00E2
0F6D08B8
07BAF733
04CE004D
F439F7F1
F04AF4AA
F0A3F591
F9AC0802
0092F3ED
FCD5FFE2
FD2A06DC
FD6BF68A
FE420203
FB04FFEA
0A0AF5DB
F65BFDDA
F6C511DD
0260086D
0CFEFD0E
F636002F
F7D50495
F26BF894
FB1C01FA
F988ED82
E1C316EE
13CCF696
F858FC33
0CFBFC07
F78AFCEB
F6A6F13A
01CE0657
FEE700DA
FDFFFE26
071E0C26
21B21926
FE0119C6
F5E4E8CE
0AD3FF98
FB7DEADA
F8680086
F7C1F696
10AEFF74
115C0028
06EA02DF
FF03039A
F882038A
02F3F984
FD2AFABF
FFB2F915
F87AE8A0
16442055
1B880F06
EFBD0270
F5D20AE2
FAD7F54E
FAC5DDA1
E024F3F8
0C2CFA74
05D407C0
03880601
05170484
02D8FDBD
00AB04D1
2FFEF8D6
FAEA08A2
E60C1869
062FFFF9
FF35F5BA
037BF575
E8F00479
03A8F80E
13EF009A
044E025B
E6BE0AC4
FE1EFA30
FF6E0522
0F5A0416
1E9E10CD
02DFEC21
FE9B10D5
0230FAFE
FB65030C
08A2FDEF
F0FE088F
073EE710
E434FC68
F7BDF90F
FAF80B1F
F213F6AA
F5980729
F9F5E1F2
05540D89
FFADFF52
F8C2FA32
0702FE87
FA3EFDD3
FFB003C0
08AEF863
EB66FD91
FA150657
F850EA3E
FD5BFE15
134F02E8
0E210BBA
FCB105D5
0B4AF891
E888DEE9
01C4FBC2
FC20DFC3
FDC1ED3B
FD490903
057EF3F0
F2E9F670
0AF20331
FDE6019B
FBF60D54
0449FB03
0808FF7A
089CFEA8
E1CF10E6
FF4DEFEA
FD90FB67
F5310724
00B5FA63
02E1FD6B
ED27F883
0D75029A
F725FD61
E038F98F
0092E8EF
00FAF960
F81000DE
F9360481
0B7FF76C
0D9400C3
F6430105
FCA90AE7
0A8D0A1C
10D71486
FBC50EFF
05F507E6
F94FFA46
F87AE87F
ECB601D3
0604EFAD
DF3BED0B
D284FBB4
F44DEC82
F62DE1F8
FE090A13
0224FBE3
FF3BF5F3
F3230382
0F3BF816
F8550D88
0C07FB69
ED35EB75
F9A308C4
F6C3F1F9
F4330075
FCA3024F
FF44FC1D
F2BE064F
F16EE8A8
F44B05E0
FBEBEF98
E6E40329
FE35FD9E
FA300C16
F69AFAEB
F3D80716
FD4BEEEE
081F00D7
F93BFDB2
EF6AFD79
0B1E14EA
FDACFDA7
0A29FB6E
E9AC1274
1BDAFD79
FFD92249
002A0210
F79705B7
0242EA04
F56A06B7
FE9CFF79
FC4CFBB7
F570F084
FAD3018E
0A65F019
0CA5F94C
F9AA028C
05321048
FDDCFE35
0BED06E3
FC2E0607
0390FC9A
F68E0305
FB9902FF
FC7BF0CD
F33CFB52
FD15FB4E
056CFBA0
F9C10529
0458EF57
F602FDC1
08B80945
081F0C93
003A079B
FD5A0AE0
0AC2F3B4
F9720677
0802FBEC
026D06D3
042D0742
0DA8F998
FE8A06E1
056D0949
FC6D087A
0A3CFD6B
F72303DE
FC5D02C3
093CE1BE
103B05C3
FC1EF9E8
080DE35A
000CFEE8
FD8BFD4D
F962F981
EAFEEEAC
F2A9FC94
FE45F885
F4920280
FCCE06B0
FE8EEF22
0B440484
F7E7F86F
09D31AF3
18ACFFB7
00840C04
0FEAFA22
EB55FCF3
FD24FB58
FF960025
0308FA92
0A75FA76
048DF509
EEA70823
09B30D3C
F081FC24
E0EAFD99
FB6F0773
E904FAD1
FDBEFA51
F8A1FFE7
0258EFC7
F6BD020E
F394F661
02C0FC17
023F0104
FA8504E8
03BAFB96
FF810EBE
01F5033C
0FD4F718
F074F295
0EC8FB73
EE2802F3
004B0924
FF2D0B62
059D00D8
029202B0
FA6BFA41
FEE1103E
0625F800
FA41F6F4
FCE0FB6A
EB170528
F83FFBB1
10F6DEA1
FD530708
FFD30D40
F7D0EAB3
F65DF984
0795FFCA
07200BD3
FCCFFB51
0F43FD40
0751F4DF
03F5EF1C
E3C9FB9A
FA24F12F
FC01001C
0308FDF1
0B0CF9DC
EF7DF736
F1BDF52E
F77DFD96
03540B8C
FAD3F705
FED205F4
F92BF45F
F945FD01
EBF40F14
F21CCCE8
E89AFB09
FAD5F343
F4EFF63B
FD43FF61
0478E718
EFCA0A6D
F043E870
F4ABFA3A
0AEFF7FA
F1E6FCBE
04C60E9D
0B49F323
F307FCF7
FDA1080B
12D60915
F63BFA18
15AC0AD6
37061260
0EF41AAD
018E134B
F251F709
E878F74D
0098FF17
2B9D25A7
07B3F79A
044E1167
07C5FAEF
F74C0DC8
0522FBEA
0B0501A3
00A200C2
02A70414
0A2A1660
D65BE8DB
FC27F798
19E62932
06AB0C17
03071BFB
F47BF654
E02A015A
FE1AEFFA
0CA3068E
05C8133A
13E40296
F647FEB3
05DE09FB
14EDFA8B
05B217BE
07201C93
0896FC96
01BA000B
FD08FF46
FAA007FF
0263FFAD
F247FA10
02DAEDEC
03140745
F9B3003E
02B712E9
E52AF81F
002BFEC5
0566FDCF
FE1716BB
0DDD034F
FAE00687
014312FC
0D9AFA11
F3D1116E
18060208
0604DD41
DA582A94
2C88F8E0
FB6AFA02
FA30FD3C
F774F9D1
0EBA031B
F6B10010
F2F0F4AF
00A405F1
F795034D
F036FA2A
063BF6BB
0DDCED72
026A1156
036308D7
FE37F780
0883FF21
F4320DD6
0EDDFAB9
05E8F63F
FAC0F065
E8DFEF17
F05EE767
0D3002DA
03F7FC43
00E3126C
FFAD0211
0A24FD91
FA4BF5A9
F89CFB27
FDDCF29D
FB4B11E8
071DF768
FA23003E
FDECDE7D
FD3AF700
0005FD8E
049602CE
071EF9A3
0C0BFAD2
FA4F019D
F19DFB01
FCE6F09E
EB9801DF
FBA6001A
FAC80341
0C2BF19B
E66CF217
F285FD52
FF0B144F
F52AFBBE
0A9AFFED
096FF0C9
0AE30779
0BB3094C
151E04FB
E236E485
0BC1EBD8
EC0CFDBA
04960A27
059B03A1
0542FC92
FC2FFC59
FF0BFCF8
FF610B5E
FD2200A8
08BAFC41
14D70F25
FD960074
F95F103A
F780E907
06B3FBC6
F979FD56
FD05FDC1
FA43FFF2
F69D01F4
F3ECFBD7
102500B5
FA43F6F0
035AF9B0
06850C9E
D35A01C4
0650FAF1
0A92F5AB
0107113C
FCBB0241
0469037F
F041FA21
EE9CEEDA
F747010D
F752FE8A
1625E525
FC4609EB
0B9CF65C
0A1D09D1
0A7AF7BE
034D061E
021809AE
0EFF0787
09500455
0388FEDF
00360557
F88104B6
EE95DA8F
EAC4FD67
04D30118
016DFFAD
0A4E09EE
04F409F0
02DA0FF6
19E40AC0
025C0959
06D5057B
FC50FFE4
FF1D06A7
FF3CFD98
01C0F9BE
00EC0727
00E303E1
F85CF7C7
FA51F6BF
F9AAF22D
0024FC1C
F48909A8
F9B2F2C6
0172FE36
F7A9FAEF
FB85F977
21D20646
0694006B
0455095F
F78F05FF
02DC0B36
0594F22C
00480A8D
D56805F3
E0D4EA90
F9BA0705
EF5F1A20
01100578
059CFC79
F2340104
F7DDF0E8
FA49F5B6
0467009A
FA380AFB
F7C0FB93
F576F56E
F9DD0C66
08C6F9AE
FBBBF544
F57C0DC9
F57A0028
0AB00C1F
1166ED21
F4CF0A86
143C0CA7
12722450
0695F787
F0EFF4FD
F287ECF1
062F0EC7
FF7E0783
F80E15A3
0822E30E
F61FFD89
E866F94A
F337FC9F
F0ABFECB
E8DED93A
0938F51D
0205DBCF
FCCE0101
EEA5F4A8
EF590430
09DE0406
EAB60561
33880800
35553D69
F017F98A
06D30262
0960094C
04A403DB
0687FDBC
09DC0FCB
FCE4FC65
00CF0772
10EB0654
EDA7FE32
08AA11A7
00AD07DC
0832029D
F77909FE
FCB2EFB4
FDF8FC51
0E080E05
FC1F06FB
F335FB60
00BDFAE5
FD3AF632
FEFF0371
157703CB
FCFE076B
F59E0BB0
094C05B1
041DF9F4
01F303C1
011F032B
FC11F6DF
0B2D13C4
FC880957
FB4A0E28
0FD7021A
FB14018A
097C071B
00E6FFD4
F35B0C09
0A83ED96
F2AFED43
FE61FA98
0854F92E
0BDFF863
F72E08B6
F2F2FBC2
01A8E894
E28DF2A7
E924F60F
FA970D0C
09C106F9
0810F444
F2741C6B
0919EB48
FB88F771
073D0798
1DBED0B0
DF9E191E
F1160B91
FA77F6B3
081EFECA
EE44FADD
00F50602
04C404D7
F281F4D5
F804F1D9
F7D303D6
FE94F925
03B403D4
03510DF5
14E001D3
F476087E
DF4EEA06
00EAFA36
03A1E6EE
0DEE024F
FA42F296
F4641114
F7CEF8F0
FE8705FA
05D2F1D2
FDE90712
FF4A0707
05C20756
0340FD56
FAA2FB0A
05C906FA
098E204D
0AAB09A1
FE9F110C
FD5EEC1C
02C0E9AD
EF2A0311
FAF0F832
FC1EF44B
FED8F2E9
E9B5083E
01A7027E
FB4F0059
028E0148
FCB0F23A
FA67F17E
004F129E
F92304F9
FF35F632
FC3C0293
FC4D03B3
05D1F514
DFF405D5
FA1701B8
E735EEFE
0F64E1C1
E0CBEB89
FDE3020E
FE7708DE
FBE2F789
EE3DFFF5
F846ED3F
055EFFDC
FF0CF93E
FA790700
17FFF478
FD8BF246
023A005B
FC16F9C4
F15FF23E
EA8DE2EC
EF71F457
0101F8E3
F176F9D4
EA09FF3E
F997F797
F961F44E
FEFAFECC
0709FBBD
063EF640
F7A7FD00
E96300B3
F8B1067D
FC83F594
0CC8F53A
F7A7FB23
FCFDE6C1
E02EF6F6
08B5F799
05F8F9BD
FF4AF1C9
F86E0696
15F8F92F
09BFF3E1
F06DFB0C
F7C405A1
05B9F4FA
0621F71B
F79C0433
F7890606
E8F9F3F2
F131F68D
058CF029
FD02FEFE
F617FECE
07940BEE
FCC70701
FAFCF8F8
FB5C0557
FA16E633
1614018F
068AFC08
F5840213
F74D01A9
014BEC01
0191F463
EAE7FA64
FEF201FF
F55A0514
FE1701D6
F15DFEA8
F0B00064
01C5ED71
FCA5F1B2
0057FBB9
073B02D3
FDA20ED6
0941F443
FDFFFEC8
015EFC24
0282FA77
0F3400CB
FCB2F97D
0BC307B1
F9DF02D8
F638FE9B
073EFC99
FD510055
06F4FF21
03470317
010002C7
092DFC22
0CC7F625
02FE01F4
F2071249
F64C0091
FF79FFB4
0550DBCB
1052E910
E39EE1C1
EBB00124
0BE9E774
09650073
F9840503
015AFA2E
FBD7FA75
08A001A6
025AF99B
0646F9CD
01C6EC83
F155FFC2
E089FA55
F8CBFA52
00BEF130
00D301D9
04260304
09500154
021306FA
FD92124A
0466F759
0EAE0465
04E0044A
FF8DF58B
F250FCD1
FB3EF50A
F79DEB41
EAC1F780
01C9F3D0
F9E6EFAE
F9F10390
FF9F002E
FFC80B69
000CEF42
FCD6FC41
F722FA3B
0E360A6C
05CFFC90
FE0301F9
043B09CE
002304BB
F8A40399
F0D50496
0231F863
04C5FAEE
E981FA06
01C20BA8
090BFDCF
0B3607E9
FD200959
0C88FBBC
F0B9075B
F4DF07E4
EF130A0C
021101B0
EA52FCCA
F28600E8
03D60654
FDC7FBA4
FDE1F228
FBA7F401
FD3DFBC2
F9B7F530
F5AEF8C8
F87EF449
F66CF734
F494FABF
FAB2EEDB
F195F58F
04AFFD62
0259FE28
084AFED4
13E507EE
108D072A
0C3B0DDC
FBB8030D
062CEFE4
EEDCFF94
0152FEBA
FB69FCAF
0512F9ED
FD3FF544
02D1F588
F7F41A1B
0288F4AC
EB4A027E
F88AF706
FC7200F4
0745FD23
11CF0954
FE740251
08230317
0406F1D9
F9FB047A
04950C36
11440D38
FF8FF9A9
F13808C6
1751F9D6
F5A5DA09
E8FD0384
FEA3022D
EE4FF6DD
FB20FB80
F643E9F2
EE3A0567
095BF4C8
057405EF
0B3CF72A
089C0560
F421FA20
FBE7026F
045805E8
FDCBECD9
EC1E047D
F5EBF4B7
EF13F302
0814FCB2
F895FB02
FE2503F7
F62FF5B4
02DC1288
F03AE64C
F3AC0080
FC23043B
08270614
F98DF731
FDB7EBDC
FA5DF35E
114108D7
ED3E03A2
007EFDE1
E27E02B0
FF4DF27C
1404F802
F28E0616
FFA902F7
0588FBA7
0658FDBB
FFA4EC16
DDD8035F
EA5D039A
FDB2E586
0225FF09
0A6B0183
0A4EFB77
F16FFDCF
F9FAFBE6
F502FDD1
FA160A5E
F7C4F745
F97BFDEB
F21D021F
F82B0366
F5A9FC1A
ECB7F58B
FD71F2F5
F481F624
F7DD0650
03A2FF98
0FBFF3CA
03170292
FFC2030C
03B4DC67
EB1004D8
067EFEFD
095DF33C
FE0503EF
0A05F9B6
FC6BFF6E
F9EAF63C
0716F931
F441FB33
F80FEE02
E281020E
0996FE48
FFBDEDF8
DB49FEB5
02BDF7B3
E55B081D
F644F9F3
FF1AE8B6
089AFD41
F883F5CE
0C83EF9D
FEF40895
0757086E
FDB4F551
FDD80304
081002FC
F62303A1
FA4610A1
0220F894
F930F077
FE3CEBFF
1CDAF8A1
071F2482
05910AD4
F4ECFB70
F56513F0
FB22F20D
FF6809F8
0FEBFBD6
F7001A76
11451286
0A88F777
E9B717E6
08B1FE98
017DF45F
049A07C2
07200A01
F46C0092
FE30F3CB
F35DFBE9
164EFDA1
04A306BF
FD8B13E2
0E6BF9E8
FD10FF47
F8A5064B
026801AF
FF6BFEB8
FA670755
F238F775
F9E51699
F36DF793
027F0D64
02E5E947
FC9202E9
014AF6E4
FB7FFD76
08A0037F
F3C4F7D6
F592F8D0
FDDEF7BE
FAFB0178
0067F720
049DFDD4
FDD900DE
01D0F653
02C101F6
E07B02EF
0045FA38
E6CCEDAA
00490BD1
0064DC31
F5C305C2
03A7FE4F
FF11F67D
FAC90B4A
0D1F0268
F621F20C
F284F9CD
FD77FC1D
06F2EF52
0A0F014C
088C021B
F91C0695
F8E803F5
04720B40
FFAF10CF
F605FED3
FD9BF519
020A02E9
FA23F983
FAA507B5
FB33FE5E
0160FF4E
0767FA56
0F090424
0C490BEC
02B0FECB
FFE307C4
EC350477
14B8F7EE
F746F5C0
114DF07B
05570378
002F08B2
0400043F
FAD0F8B1
02E1FDF0
F63503CF
069BFAD1
F6CE03B5
140A0A2C
F7A9F904
1441F899
F59AEAB2
FA1B1519
0D010BE1
0A5606B2
0461FA75
FC3A0972
0C3F0957
10E9FF10
097A09C8
E81DF13F
03DBFDD1
088EF45C
E2D4F28B
FF8BFFD1
0144FA1B
12280801
0398FAF5
040006F1
01ADFD4E
F87B0629
FF4D00FA
16E5082B
0626FD61
F9E102CF
F6D4FFE6
045CFB81
F8470294
0342FEB5
FFD2FD5F
0056F309
091E0571
0648031E
FC3E0194
12C30DB5
FFACF858
0A230D72
095FFFDD
00C504B3
07E30171
0A730930
1E931D5D
FC14FE54
FBD0FE17
F83304FB
00C307B3
FC86019E
0A76FF11
F79D0C77
059BFD3B
FEE90E12
07B00827
FFB3F891
0B2C11F6
F1EF0EE7
03AB0389
2BE0F79B
FE301F13
0179F4A1
038BFCDD
FED00129
0A58FD25
F2920448
FF54F8D9
FC70F44F
F62E03EA
0CDAF9EF
EC01007B
108DFA9D
FE5BECF8
01870C28
10850818
032E11F4
0AF3059D
060DFEFA
0B42FAE9
18F205A8
FC75FF7F
FB3AFE0E
06CD0008
F42B03C3
0282FA8E
0394FE04
0C6A0890
FF4D0E7D
F92D077B
06C9FBFA
0227F626
09FEFE82
0B5AF9E3
063A169F
021A088C
FDF30C63
093D0151
F58E0AFA
075FFC91
F5820F3E
F8A9034C
FE91F8D1
09E6FFB9
017712A5
080E012B
1CA31B3F
FC2810CE
0CCDF84B
FF22F1F8
F82A07C0
EACD0049
0188F48B
0DF6052C
FD7CF6CD
00A00928
FA33061A
F43605D5
06A80893
0336FB95
094C0006
F8F2103C
033E0DA9
0018F88B
08F2FAA7
E91ADC8D
DB8511C7
2744F690
EDDDD3D1
ED9D088A
FB78EA9A
E96CDB3A
E250FF43
018DF0EE
0113F5E9
F102F0F7
058AF846
F997F7EA
FA7B0981
FA73DE9F
DEDA1824
0667F94A
E1A7E4B2
F79A091F
FFB9E821
EBA4E453
DF910786
021FF20A
0175FDC2
0305F75C
F3DCFEAA
F778F87F
05E605F2
0DA6F887
F1D00FA3
01440935
0226F633
FA7C0C70
0C63056E
FB58FC27
067D16BC
06B7007F
0660EE54
F65FFD47
20F40A1C
FC96EE9F
F9FDE47A
F5BF0B10
0710F8C4
E6BAE4A2
0AB20D0E
FF2B052B
FD5701F5
0AB40B33
0592FE8E
F71FFCD4
095D0706
FAF7FD17
0309E2F1
E849D922
D663F67B
0B99EEC8
C967C6EC
FBCB0778
F9B9045B
029701CA
F3E30319
082A0210
05AEF817
F2CD0751
FD60F201
FB78FC24
02E9F705
FAD20C69
FF88FBA3
F2D00009
13251DE0
0BCBFB25
FD00047B
0F9D1A0E
EA9914BC
F46C0F98
FB7FF298
01B90F18
F9EC0546
FE58149D
0B7104F7
F86D0BEA
00A20410
FB000569
ED16090A
F51801BE
F610DFBE
0AA6FFBD
005D01E9
1E1B0A3B
07C5F4AE
0C23FDCF
C85BF9CA
075C002A
FCA701EA
208FFB3A
F3D20526
06BD0797
EF4DF92E
ED640316
021CF941
F416F3DA
049B09B3
06C1EFAB
E0FA1186
0CB2FD39
F3F0F8BA
00CEFB58
FEC0FCF8
FAB502F8
F9E2EE2D
FD07E8C9
0A91072C
0C36FF76
FC0701FA
F1CFEB30
F2BC1578
0AD30B15
1175ECAB
01930820
0B031687
F4CAFF48
F4FB0D4D
F9BE0287
F6C3FF0A
02A5069E
055B01B3
097222DB
008C048C
0395FB86
F094F16F
043FF0F1
063910EC
098F108F
FE3AEFDF
F5EBF17D
FB3A0C35
0A1E0786
01C70CF1
F99700B3
F6FAFBCF
FA550A1E
EACAE895
0A50F970
0BD7F53D
06E70755
1387078B
0C5D0AF3
F80D115E
0790FD51
0F5DF762
025EF1C2
FA7DFB0C
DC1EF685
0EEBF5E8
1403FEAF
01D70661
00AA00EA
22C70276
F09102A4
F0AEDA8C
0B8BFD66
0922F0D1
18C60BB2
FEDDF000
0C24F7CC
FA0FFC3E
F8FA0AC3
F311FF98
05B0EF7C
FA5AFABE
038EFBF4
03E9FCE0
03B5088A
FDF8060B
F491FC50
078806DC
FA7513D6
FD80F9B8
F36202FB
0D54FE6C
0D3309E5
0C100126
FB2FFA1D
EEA2F9E6
03FA03F9
F698F4DA
F771FF8F
F1C104B4
065BFFBA
0A96FF6C
0DF90707
012A081D
FBF9ED94
FE56059A
0801FAE8
FF220D3C
E9C0F190
F6E1EE66
EF3DFA38
2A7E0DE0
EFC90BEC
FDFBFCF0
147803E5
F6A50B83
FC6C09F3
F82D0F8E
BD21151E
E486EA26
0146F86C
FEED1333
F922FF8A
F56E0456
FDACF918
F776FC4D
F7720748
FC06FCB4
FEA3F1D7
1260F019
DFE00BE3
EB99DB97
071F1242
1555FF8D
14F83F02
EA75FFCF
0098F683
FCE6F12E
F1D6F4DC
FC89FD43
FFC90784
F952F385
F2B9F526
F697F477
F96FDD32
FA62FCF9
0975E77B
F3BBF8B2
0A500973
024713FC
091F0EFF
02EA0EA1
051C0183
053B02D2
FC3911AB
F6B6FCAD
00500073
08C8F835
F87A1168
04FFFC53
054DFCB9
0AED1B78
00EC0601
148B043A
068FDC08
04BD1208
0E3A0B4F
0B8819AC
0605FE49
04E0FA3C
0360FC18
1621012C
EEB5F547
FC140B41
03FE00D4
F3FAF2EA
F3FCD857
156C2870
08A10160
0950F5BD
FB2101CF
FE70F3A4
045E011E
F425F27E
00F5FF24
F74FF1BD
0BCC0248
0099F82B
0168F3B5
0AD10F01
037AFBB3
0C9E10F4
F4B5EAE4
FD210168
02F70A1D
FFDB05D2
FFAAFD0D
07280155
FD200107
192713F1
0DF10655
FA3F050B
F6E7FC90
007A001B
1BC412D8
08C10553
F98D0945
CEE8EDF5
1509E816
FFD6064B
0142F467
FA170537
FE4EE80A
03D90D6E
0FEB061C
FE7FFFF9
F865FB45
0219024A
F930F39F
FB0D01E2
0D650470
0EE40128
0451063E
F63110D9
F390F4A7
FB5EEC7A
06D3F605
F9DBF987
0CAF10F1
FE3C0373
F0F405C5
148FF53E
FDD7F985
FAE8FC7A
0328DE41
0979E994
FBB2E8FA
22EA0862
F7341CDC
0C8AE881
F2BBEFC8
F42215E7
06031688
03C0F6E0
F952043F
0E6BFD30
0F34FDB6
FD310C22
05491353
E9A900F1
FB5FFCD0
F5D0E96E
0EC9F265
F4E7028D
0A6D08B1
073EF939
FC590533
112CF0F4
FF820101
FB280010
0F1B1003
FD55F5C4
F19003B6
0AE8FA3F
02C9086E
FBF70D97
08810640
005FF8C5
FAE60351
F68B0208
01F30022
0F3D1782
0540FDBA
FEA10AE2
F5DE0C96
FD0B0898
005DF420
F6D60A0C
F978FF72
03D6FF15
F85905E7
0554EC29
04210416
F6DC0D3D
063F04B4
F564FD39
F643FE0F
09DC0005
F942EB91
F9FC0648
00B9E48E
E2F9EFDE
0D2A0A65
FC210CD7
FD3F14EC
02B1EA3C
0015FD53
054900CF
03A6030C
021E0DB9
074FF5A4
FE110536
FC3303D7
01F01A1C
12BC09A1
FCCDF51E
03CDF58B
F77805A0
082802DC
FCC9FBC9
0AB8037A
F039F56E
EED5FD5E
FF7EF3F2
04F8060E
00BC0288
FD5EF66A
E09B0B8D
0CA301E4
F895F6C8
EAB7F3F4
113AF7CE
04AD092F
06230587
02C4FFDC
F127F5AD
EF3FF05D
28E3031D
0B2305FB
1453F52E
04B8F9C6
0AD00CBD
06DB012F
EEBAEE90
F84C07EA
04D30946
F690F528
011508C9
0D1CFF61
FE3E0D16
0F46F83F
00CF00E2
FCD9F9E3
0CD1EF31
ECE71365
FFD901A4
01D0FB9F
F678F690
FBC80190
FC9CEEB3
1F3AFBF5
FB4E09F9
0A8406E5
0EAD0C65
00C3F1BF
F794F1ED
00B502FD
F85EFD70
F450EDE3
03330262
F7370728
0636F922
FD550B82
18C0EEC5
FBA0EF1E
0B480194
FBEBFCEE
EE120C98
0742FC9A
EEB2FD58
FC88FDA3
EEBEEC58
EE2CFC93
FB0C061A
003FF044
1F26E5C2
F1AE1650
F3FF037A
0FFDF8C0
F166FF8C
F9D20DA6
02A0FC02
FE0F0334
FD0D05C4
FE21FF43
0023F6D3
F657F83C
FD3DE7DB
EF3607C6
057B037D
0D76F780
F9140036
0A3BFC45
072BF131
F94300B6
FF9D045A
FEB3F711
03B0F47D
FB970A17
1C7BFE70
FE66FD78
00BFF59B
F2050572
021AF37E
FFCBF86C
FF85F59F
F27B0840
FEB6FA8B
F8340FC9
FB8CEBA3
090F0B83
03CEF1A3
F2D31ABE
19500D63
FB99F709
FB9DF1EC
F89E138D
08FBFAF9
F3C2002D
FF48F33D
055DF6F4
08290E91
0D780462
F265009F
0CF5FAA7
016B055E
029E008D
FD3FFE01
FB110146
0007F7DA
FBA11145
170F174D
0156FF1F
F6BAF93A
050F0B55
F8ABFE2A
0006069B
FD74FE41
F177FEA2
FFFFF8AE
0D811278
FC1EFE8D
FABA0616
EDA20195
F275FBFF
0B0904E1
FD9704F7
0AAEFA98
01AB0325
FC2CF8A9
07A70288
00D9093D
030BFD85
01920222
02910533
02D3FEFB
FE3EFA88
F92AF9BC
FCE1EF8A
00F5073B
041FF6CA
FF0203AF
FB92F84C
FEB704D8
F6E40ADD
04E7FD62
E75DF331
EEB801C4
11DA034B
15DB0383
E777F4EF
EE0F0D5B
0586F21C
FF00FC54
1183F626
F3DBF121
FA0E0174
08D40477
038E0A06
04D3FEB5
FAEB0421
0757FFD7
F628F4EB
F7F400E0
FC88FBBA
0053F060
1506FF39
EE39015B
103F0FFD
16551315
FFC512D8
07E8FD25
1260EA3A
F7872482
1291095C
0D7DE4F0
EB140F17
0F8EF7A0
09000274
F928F7DA
ED500479
FD4F124B
0680F944
05A51536
02791225
EB00F746
1EBAF595
022FFB30
EBC204D3
0715F472
F54EF5F9
06E90999
16B40E4E
F5CB043C
0BCBF8B1
07A0FD83
F659FE6E
00E9FC5A
FD0D0E7A
F3D8FE1A
F720F03C
07C90A66
1B5CFAD8
FCA5FFAA
F0E4EE2C
FCCF13F6
FC67EF67
064D0CC0
F26904EC
0D97082D
11CD0621
0C59F92A
EEBA11B1
14B50532
0726FE8B
FF8503CE
0C7B0B78
0689FDEF
022EEB2B
DD89EEA4
FDEBF35B
0F9D0CE0
1D3F1E4F
F949001A
FA840314
0BE8150C
F908EF32
01B00B3C
0B7FEF53
0AFC03CF
10050BEC
0A4A16F6
0049FC08
FCB1024B
075CFF7A
11D7FE9D
F9A40153
F7A5FD67
1072169C
132FD1D3
EE4B23DB
16701A9C
FC8D0914
07570AEA
03830182
FA34FAC8
FD3C04EE
FA95F53A
113DF80E
F37EFB69
030614BA
05C6F6D5
077AF158
09380BF2
010C0A5E
FC990E9E
FED5024E
FE780121
02DBFB56
EB24E5E9
FC7FF5D4
F7DE000A
116AFDA0
FFE4F9EA
0B960289
0AC3F6B9
EF01FEB8
056D102E
E982E7A6
FE350522
07C6EA58
FB880898
1ABB09FB
FC104853
FE7801E3
FEBAF84E
022B02BA
01B4FC04
EEE30947
1539088C
15E903B9
0B0002FF
FD890D1B
082F0BF4
038AF99A
030A03AB
0277F85C
FB480FDE
EB51F666
0673F0F2
05ECECCD
F87000B5
10BE073E
02A207BE
0173FCF0
F4B6F673
0599023E
EDA5FACA
0625F32F
EFC2F903
FD120115
FCFDF660
0248F85B
06740A99
F91003A1
FB07028F
F155EE93
027AFD3F
FA9C05C1
FC590665
F670FE15
FC65F85C
0B08ECDD
FF3BFB1F
E7EE0C75
FBCCF2AD
FA1EEFD2
08D0154F
FE2817DE
FC21F9F8
07CDECBD
F72CF454
02281C34
FB481480
011EFDD7
00E20075
044D01C6
F968F10D
F17300CE
0117FA5A
FBB501A0
0FFD0E38
F81D18A9
FA950234
03E9FA53
057EF769
0FD3FA68
06300AF2
F187056E
07F4FCFB
FFF3F7A8
FF3F0815
EBB2FE23
023C08A9
F7A6DE01
107E11E1
08E1FFB9
08C80833
00E0FA1D
08A508FF
00C700EA
FC310510
0FB10AEA
0C9603B4
02BDFC9F
0708FA9D
034AFDC9
ED160969
EABB0547
FAB5F4DF
309D069E
E543F266
0F4815FB
03ACFE36
FAA9FF21
F0BC0776
05270AFF
0241ED3F
FE2D0915
FB6DFA7D
FEB0FAF2
08D7107E
0F8605FB
112009AF
0672181E
E5C720C2
FED1ECEB
FCB7EAC8
08320DE6
FA820014
06C1F72D
023A0278
FD97027E
F8F10972
090DF419
F912EAB7
07D40613
1231088D
FCD70B1B
0527F997
E994EA6A
0D28FCB6
FB370590
06C51423
0312F767
035F0AFB
FD71F141
061F0163
052907A0
015B18F6
FF14F67C
FAAA055D
126F05E5
F462F723
036204DE
FDEF0384
0DFE0086
F3160252
00400A3D
FD9F07DE
0155EE23
FFB017EF
075107EB
0E5E063F
FBC706F7
04AD0871
FC910441
F8DCFBAE
0089F9A9
F1E4F79C
FDFB02C5
F023ED85
07DDFBD8
0B9808D7
F42501C8
FFD0F782
053701C2
FC250026
FCE9F404
FEB6EA0B
0371FCF4
063900C7
0A2503E9
EEADF61A
F4B5F8DD
0EE5F301
07F800BF
0BFF0641
055A1FDB
05B7FCF1
1187EC8E
ECE4EBA9
EB2109AE
F3D9F92B
F241EB9A
F8CB0C22
009F069C
F227F45E
00DD0656
0A6EEBD4
03A905A6
08D0057D
F9FE02CA
017A03E5
06880EFE
002E0FC6
074912A7
F5670B94
F94B020A
FAAA005B
F9D8057F
0688188C
05A0FB4E
FA7CF655
07E00271
07A70CDF
02900FE8
EEFC120B
F833FF7F
F607ED26
ED82EF3B
F2C2FAAC
070BF114
F1F1F38A
F7690B84
EA2AEA65
059EF456
0A8C11E2
F4B901B3
F6E7EA43
D79CD812
0BBAFF9D
00F4072C
01E602FE
FEBF06C2
F909F644
13DE02C7
100705E4
00F1F876
01C709BC
ECD9F1D6
ECA4157A
01D40A79
FB49ECB6
05C21779
F6A10171
1BA702E3
F8BFEF56
F94A13DA
053F02C6
050F04C8
04A9E3B1
FF20FC6C
FE970C87
E7C0FA44
0C02FDBC
F9820089
FDE3029F
FA4FFC2B
ED64E97F
FF280EC3
F8C2F57B
0404F403
F5E3065F
171D0841
0A0411EF
FA4EF075
097EF5D6
08B9FC35
FC05FDD3
0A2602F7
FAD0F4DD
FEEA05D0
F249FEB4
0D2EF8E4
043908D4
1D46FE0A
FCEC1EBA
049D019D
056903DF
0390F6B8
0174034E
FBF10A96
FCE60809
0F1DFA0A
F3BF03D7
05A3FCE2
F6AFFC56
FD50FCD0
F541FBD7
EC86F4EC
EAD5F16F
F5B106E4
F9CB0545
E733006C
00C3F19A
F21ADE88
FC220BB1
F32CECCC
0BCAFE0E
F099F40F
034513DA
FD76FDC4
FDD20449
013DF402
F5BD04AF
08B3094E
FB1CFC19
F86EE5C8
02490A22
F656F081
FB7B1BB8
F9A90155
F9C4FC90
03D403AD
0B92FE3D
04DAFB66
00B10447
F752E9F4
F5DAF432
F892F127
06E30575
0181FFCD
FA5CFB63
FD94002A
0FD1F564
0CF80A6C
F6F4FDCB
0F840FFE
04ACF89C
F9810314
F7CC0138
F898FCE7
0265FB5B
ECF2F866
F39A009E
F44205CA
0258F943
035BF621
00660555
F800F429
F526FCAB
FCB7FC12
0AA6FD07
F93D0DA6
FE9AF800
E462F427
FECB092A
02F3F616
FBD30E9B
0BFB1337
0D6D06AA
07A40448
E3B8F7B6
EA8CF857
FE24E234
FE60035F
FBC7F56C
0DF4FF93
077DEBAA
0DD5FD28
00F2F8BD
FEB4FAD7
0A92F6A1
FF1FFB3E
008BF553
0C83FD01
F8A3FE1F
F3A0FF9F
F25EFA00
0B21F3E3
0FD00995
0572FEA7
080D008D
0A44023D
F60DFCD7
02CBF7D2
F826ED70
FA47001D
04DCFCF9
0730E6FC
13F21035
FB550F0E
FEEEFAFB
017B0267
FD96FA62
EFD2FE29
06C807F5
0451F7B2
1131127B
FBF4F475
F89813D6
02C40139
0245097E
0165F98C
F057F6B0
03AB074B
0201FBD9
F9330265
F9CB01F4
0974EF57
F5BCFFE5
01AE04B3
03FBFBE5
0024037E
02E0FABE
FA7AFF36
02240421
E42FF8D3
FA5AF6BA
FCEE0093
0080F952
13C40A97
0377017D
0068F50B
FFAE1317
08FCFED8
005B1172
0F2BF8CD
FCDB0EEF
0858F574
027A02B4
F477F901
F7D40564
EDA90628
FAA1FDB7
018AF2F0
E510FA93
F4D6E0DF
F90F099B
FE2C02FD
0C940A00
FAE9FF81
0483050B
FD780048
06270858
0E7FF8D1
F71EFA56
FDBDEDCF
F87FFE7E
F99AFA79
0840FC11
ED58FF75
F3C5EBC5
0FD9F341
04AF0615
046C09BB
0575FAF6
0938E585
F5540C3B
FE0DFF2C
0A0E0773
06BA0279
FED0E9D9
F390019A
FAB7F793
0DE0100B
F8D3F02A
F6560370
F84C0700
017AF55B
05B8FE8E
F307FFF3
FA8207AA
FDF8F2A7
F474FFF8
FC61FBCC
FA52E7C4
FEDFFE81
0E17F9C6
01A5028B
F67CF5A7
0C49109A
0D2201E3
0AF5FC82
D1FE0559
0456F177
FF63F07D
F5D50209
12170CF6
F1210870
FF031BAF
F9AAEE9B
0C3C1537
FDDAFE5C
F8B5E7AB
F46DF738
ECD6FCEF
06D102B1
F3D9F734
FC5503F5
04E8FB10
F1A7F771
EB14EDFC
F7FAEED6
F518F071
0B72FBCC
FF46FFDB
048F1018
08B0FB44
0A4C0DA4
1A470F2D
0759F558
F2C0FEDD
103E0CDD
FF6E1244
FB970FAA
FABAF3BE
03B5FE0A
F54AFFDC
FE64F42A
0502D9F1
FDBCF739
0540FDD1
03BA018E
07B904C7
03F5FE18
0574000B
F546FF62
FD49FF0A
F6F513F4
FE14FC00
0210F9DD
0281FF6B
0CE309FE
0079FD27
11CCF0DF
F7B60789
15AA0573
EB51E9F5
FE770B69
FECFF2E3
FC7DF716
03F000AF
F7A80586
F521D719
E22EEA4B
012C0C7A
0675FC38
EFA6F1EA
FC3BFB15
FDDBFE98
FFE30F9F
F918F315
F226F8C4
E7BAEE4C
E7171276
0BC60119
EFAAEDFF
EDF0F1AC
028AEBF2
FA310D70
F803FA9D
00DAFB1E
02C60245
0980F73E
ED850E39
063505E4
04C0F6D6
FE88F655
F2D0EB3F
EC2C0529
E875F21D
F16BE4B5
0DC604BB
DE932F18
F0D2EDFA
F32CFA63
F7D2DC5A
0EA404A8
0FE50939
056602B7
0C000FC0
F96D0279
0B7DFD55
F6B9E81D
EFBDFF92
FA1302A0
FF6907CC
08AB0CA0
001EFCA4
FA19F82C
EC780770
05E4FA5E
0056FBBC
F79D04B5
0A1DFCEC
FB160111
170A147A
FC0107C3
FCF100EF
FBE00926
0B040C09
0E680938
F07802D3
117104A9
FFB3FD59
073F177E
FE800CD7
F369F57C
05D1FA46
F580071E
045BFF37
FB9EEE74
FC6F0E0E
FBABFE92
FFAAF6F1
0BD7FB0F
00BB093C
FEA70915
120CF399
E8B40A47
03B0FED1
0389FF28
F21305C7
EDAAE4D7
F4D104CD
058FF55D
F41DF75A
0412FACC
01F403F1
EE7AF08E
FBAF0426
FB7E073C
05800648
FC2FFD85
034FFAFB
FDAF0099
0284F77C
FC74FE57
04A0FE85
07FE0303
052E05FD
FC3B0478
0300F9A8
FB2DFF69
FBBF0191
1456F9D1
EA8AFCB8
06AA01B9
F5C50195
F39AFCF3
01B40A05
0C80FA82
053EFCE8
0CF20C1A
143E0AE9
04FF2106
F507F09B
FE750DF7
FAE7FC05
0D3C0BBD
F568FAAA
FD1BFF4D
F2D2FBE9
F4ECF108
EE62E907
FDE7F992
11A7F98C
FD7100AA
06601475
0C92FCAF
F4C9FACE
077F04A0
17E3FB2B
059D1481
07F0FF81
11FD06A0
FEDD0550
FEAA0383
0AF40747
073E0014
041FFB69
0BB00B0B
0ACC09B4
072406B7
EFC301F2
0628035E
0175EEFF
F4F60EF4
088CFE59
F5C5F10E
EE201339
164FF7BC
FBB9FDCE
01960DD3
F7BAF6F9
08A0FA85
FEFF046A
0B3205BD
FB8904A2
0A68FC5C
084CFF68
07A60AA2
0B83F7BF
FC14FD40
03301EBB
1414ED38
F66802D4
08790982
DBC306C6
0E55F813
05FBEF95
FA5E1631
028B018C
0744F8E9
F1450007
06280069
093008F0
FBE70534
05AA0886
0696F825
039B0D97
0CA50178
F4ECFF8F
FF45F849
EAB9EEA1
F7D5F7BD
019C018E
0B88057C
F9F0FB6A
FC93F6E2
F6EC0DE2
0252F320
E8A7F22F
FF5DF7BD
03C305A0
0F121235
0E920A7D
018B0746
FF21FFD6
019C0907
01E5EDE8
F05E0F4E
0BE5F653
0F210886
FB23F01F
00F4FA11
04EA00E4
036D0228
FA800ED4
007A026B
0324F613
EE75F976
FAFB0175
0E090017
0DD4F5DC
F6CA0111
12AD04D9
05D5FFE0
FCEDFFF6
F43300E5
005DFA07
E78EFC2D
FC02EDDA
E635038D
090702DC
FAFFFAE3
0414E3A7
EB9822EB
13E10764
F6B80000
FE4CF684
E7430FB5
0AB20840
0E4EFB9F
16C1FDF5
FBDEF4A5
EB3BF7F4
08DEFBFC
FDB2FC75
00F5F184
FEE4F813
0030FCFB
F7DF0019
0E4B000B
F4CB0486
058F08FB
0468F5A4
FD04006D
12DC0A74
0CA3090F
079011DD
FA5B0C91
EC9B0203
0667F610
FF03E879
F87B1A6C
FA5E0906
FADEF641
E68AFD4E
0682FDDA
06480091
0175038E
02E4FAFC
191C0021
FA7D2818
1247FEEF
02AC069C
1DECECA9
E908FE5D
DD5AF3CB
01E20412
09FC0219
F5C1EDF2
F612F6B4
F1D608AF
FCA0F81F
FE6D09D5
FDD4F4AE
0155090E
FB3E013B
0B33F604
F3C6F0A4
E6900685
070FF662
FA42F96E
FEDCE93C
09F90568
EB5A175A
FBEBF316
FA4202AE
E90D12F6
06B6E93C
F51AF3F3
FC22F9CB
00520820
FEF3FD7B
00F70634
0BE80AC3
0ACCFE57
04AC14FB
FAADFDD5
043104F2
F5B7ED7F
029EFDA3
055516C5
0CFAFFB8
068909F4
080C0B70
05D4FEC1
FF7A0F8E
000F0108
02E60C9B
04E60FE2
112F08C6
F315EE35
04360533
0569FB17
F1C205B3
FDAEFF77
FC3CF5FA
0197F22E
FCDEFCD2
F325F03A
F2D7F808
FFEE1F0D
F723EFEA
0AEA03B4
F4D603D8
FF290B60
FFB0FD48
0048006D
023108A0
0EA2FFAB
FC14FDF5
053CFB80
F322EC4E
F903EBB4
F4A1FF56
EAC0FD66
0B47FB7A
11F00E1D
EF6803EA
06380BD6
050911D1
043C02E1
025C04CA
0789FB2E
FAACFF2A
06420043
FFFAFE69
F34E0148
F7A3F88A
FC58F958
1DBF0C3F
F23CFBD3
FB900E1D
052EFD1F
FDABFC47
0387185B
064F0457
FEBC03C5
067B033D
05E10AF9
0C6A03EA
FE8C1123
FD880750
FE0EFBC6
027FF176
F5FCFEB8
0561FE13
FD5B1A18
EEF9F350
FEC517A6
EB43F4B4
07460042
FE550C8D
06B7E2A5
0021F11B
FCEBFBE2
00A4021B
0249FD57
F2B10A1D
05D50713
0C5502A4
03DAF084
FC7808FB
0B4D07EC
049CFFC7
FEF3FA0D
05ACFAB7
0C2A0205
099518B6
09050163
FAF7F6E9
ED5A163E
F283F4E9
01CAF73C
FB44FB47
F570EF8A
F142F39D
F3F1058B
03F0FB9A
0299FF59
0037FB4F
F263F1FB
FBF5060D
FEF2FDD4
0D51022F
03E1FA7D
024401AD
1F8B0688
064EFF4C
ECB206CE
F8C5F615
F251E6C6
04550671
16F304A1
08640494
FDA9FCA8
035BF982
FF14F80F
F8A60D40
0CA9FC69
F3F8F855
00030B91
075E0D15
FAE0E7A8
041FFCFD
0BE60157
F40C0661
F5FFFA54
136803C6
FD7A0ED2
FA07080E
0010FA31
F51FFE20
F54FF4D1
FE9E0043
FCE6EDC4
F71E0DFB
FA4EEDEE
0194F434
F7D5FE46
08AD0350
01D2FC5C
F92A00A8
F7D50104
031BFD58
EF08063C
0CD70611
02A10AC8
1256026C
05C6FFD5
0A05009F
FEFA0273
0825FA1D
F194F63B
E82E0B46
F8C003A3
FC99DB3A
F5470056
0EA809BD
F722FC6F
E936FE5D
087D0999
FABD0A02
F3AEFF05
E46FFF11
E12BE8D6
F55EF980
12CCE9E7
ECBEF4F8
08730E56
15D40DB3
0F7803D4
03C60AB2
04310029
F857099B
FF3CFACB
01180616
04F7FC52
F55300FA
02A9FB48
016FFC9F
FD33020C
EFD4FF17
FA45FF24
FD89F656
FDBCFD83
054806A3
031305DE
F458FC90
0FCDF2E3
0CE4099F
FC2BFE50
F443FC7D
F54DFF2D
1A15126B
1B6CFCB6
0A6514AB
015D07B5
F671038C
04B6FA2B
F896FD60
FCFF00CF
07B8004B
04A4F565
F71A00EF
F483F42D
00D506DB
FF890739
0E74F29C
FC620038
111203DC
0ED80C91
0DD4D9F8
F093056B
F852FAAE
F193FDBA
FA23ED9D
E758E9E7
0EF80B24
0B840AB7
E474022E
0C1104BE
F589F97D
F0C40B0F
F19FF495
F826F2A4
F7C9ECE2
036F044B
FBE2F9FA
F94DFC4D
0436FCA9
04BA0010
08AF02A8
050200A7
016608F7
07C4197A
FF15FF6B
FDBFF246
E929FB49
F2BB040C
FF33E665
F4E6F227
0F0208E3
FA83F885
0E6E0C0C
0980F30B
EC4C0EFA
0EA403CA
0509084E
0C25F771
F964067D
FDB3FC59
0A7CFE51
094DFDC6
025A0CB7
FFE41353
0957FDFD
F37BFEE1
039B07EB
FB16EEAC
F565F6F0
F370FE48
FFA901DE
0DAF03BB
FE97FB02
08550559
F3010133
123DFBD3
FCF22774
B8D4FFB2
1047FCD7
F3F7F4DC
0DF9076D
F25B03D3
FF24F251
07870CC5
09A0F70C
0ECE08C8
F97EFC7D
FDF2FAFF
F0B609F4
09290177
F672F9AE
FA10D9A6
0AA20404
0BB40815
0567FD22
06C00C65
055B197C
05ADF76D
13730706
038B09F2
E551FB57
FA710276
0077FA49
FE1CFEF8
E86AFA57
1287F300
F39408AD
0BB6FAD2
0A120E95
026DFEC8
142606A7
013C07C1
12F61533
E911E70E
0640148B
26D3F681
F6F4143C
F841EF4E
F9E8F10B
04F706A8
0BCAEE33
04910B0A
0597F3CF
FCBAFB3A
086705C8
FD2F0667
F203FD51
0E3807E4
F4B8F6EC
F4C503A2
0151F869
F3700086
F6CDF69E
FC9B12DA
E542F9EB
033BF661
04E400B1
06EE0154
0046F5F8
02F00227
02E7E851
E9CAFB50
0509F428
FAE4F27B
152105D4
F5D0FB6D
F298E5BC
F518F858
0DC4001E
051DFE59
FD9B0CFE
019CF5DC
FDF4FFD6
00C6FE5B
FFCDF7E1
EF31FD62
09CCE7D3
F3DE085A
00110467
05DA016A
08E507C0
030F028F
18650531
08F2DE94
0D35068C
FB5AE93F
093D0825
072D0472
E968F62B
F590FA43
FA48FEF3
04CDF5FD
0BB3FCA7
E36FF70C
FE1FF9A0
09EFF715
FA2AF8D5
F709FDB8
00CFFCE4
FE4CFE01
F730F710
F68EF22C
FF36056A
FAF4FC81
F79CF800
0A2C0B3B
0FDA04D0
0319F56E
0891FED1
F9790226
0D87F4B1
E87909DB
FAD6FD78
F57AFC3E
FD5EF28B
F82CF97D
F880E05D
DE06F4EF
FF680074
01BF065D
07F0027C
0541FFA1
012C0C18
066AFBDC
FCAAFD0E
F62F07D3
0EAFFEA7
0829F315
F18BF867
0A31FDBA
F2D60709
022DEBB6
007DFB52
FE8DF55F
F5C80BAC
0AEEF9E3
F385FC89
07BEF3FA
F2C5F262
F88E1A24
08F208FB
FCD7082B
0962EFAD
060416DE
F03D030D
010BFF32
F5DCF828
07F40A4D
042FEF84
FC1002F8
02E9FDE9
0C1F0CB2
F6230011
09880E8E
00D7FD3F
F5DEFB11
F97008DE
FFE5EF7C
F8CCFEA3
01B1F9DB
F9B10155
0255FD4D
F00CF81D
FA70F905
0D210ECA
1292FF58
F6EB0525
05890327
067205BA
01BC0AF2
EECE1875
0111062B
0092EDF1
01F1FA6A
F7090907
0ACA07A8
FC42031F
069303FB
07C0FACA
FED2FFD4
0365FEB9
FE1DFC5F
EAAFF8D8
10E204EF
EA93E5B2
E754ECA6
13DA02DB
F9A7009C
0091F4E3
FE91FB97
FAA1F750
F703FBCE
FEEFF0D6
F42E0602
031C006F
F9DBEE91
F1BE0846
F3F3E55B
02C6F23C
00F9F97C
FE03040E
1B71FECD
04ED0E97
0E3808A6
EBE602E5
FBE31F13
F168E68D
FCC6FDD9
06A3F9AD
04B8FBC6
F09CFD4D
00A70AC1
EF75F502
099CE509
F1A1FB9D
F2FE1080
0497003E
04010206
F4C8F211
FCF9FFE5
FA66F6DB
FF9A056E
11A502E9
06C3FA29
06B1F6BC
F300FF7D
DCEAFB2C
FD6001DD
1C6AEB12
02D10D67
F3600203
E96CF951
0A6AF94F
E1A30E6F
02F2FE15
055FFDCA
0CC1F61E
0A7FF508
01D2ECFE
01D7F54A
0F980C16
11ED083B
FD710A31
0670FC10
FE5900DB
02C1F777
FEBA003A
067FFB05
FEA60418
06C9057D
FB6DE334
12D82B5B
02B5FCFC
00900A9B
FC14FF5C
FFE3149C
05A2F53A
089B081E
EA80F726
1472FAB7
E82F03F5
FF65F6DC
094E199D
02C70C29
F6FC0407
F3181089
0F18FF6C
D77BEC1A
FF930041
E24AD737
FA6EFDD7
0869F81A
FF18FE2F
09590138
FA9D0961
0C760DD8
F8790128
FBE4F0A6
E017F4FB
081C0901
09800A77
0806F010
00A90366
04BBFBC0
F424003E
DFAB0138
F9DEFCFF
FE0DF072
F4D5EDB1
FC73F289
05B61122
FBEFF692
FC1CFB9E
FE7311AE
F9FFF48C
EF51FE19
0D40F3E4
F73D0158
F3D1FE15
02970DA8
FD02F898
FC9AF306
F11A011A
0E8315A6
0BCA0FE1
0FA4F533
FE1F0107
FC9602CB
1CDEEC0F
FD2D0732
0358E8C5
FAE9FD37
FE580BC3
138DF703
FCE3FEDE
0AAF15E0
0E640E66
F903060F
F906133C
0910EE1D
066BFAC6
EDA91688
1838ED82
F835FD43
DE22F61A
FFE9DBB4
EC15F76F
F7DEEE04
FEBBF603
0ABD19C7
044601B6
FE0CEF0B
12370532
FC49F87B
F4850DB0
F3F901B1
0239FDAB
F2170039
F58BF252
EE060123
11A00822
12EEF94F
C22FFFE1
F7EDF58B
08B8FD73
03ABEBE1
0371F21C
FD090798
FFAE027E
FB9D0580
135915BD
1628FB5C
0B7F0818
F5CB0BC1
EAAAFA08
EDA2E6D1
F93BF80B
FD1FFCC5
042CF1DA
FA64FF6F
FD3808A4
FE38FB5D
054D007C
DB6CE253
FDDFE329
D702EB64
0637F50B
01900174
F6BF15CF
06A00AB5
070DDFA8
F8750860
049608E0
1393EA53
F9BCFFD1
137811BA
F73A00F8
F2A8F894
0E89FC05
0330E5DD
0ADBFF63
FB43FDE8
F8D3DFA0
0ABDEF98
FA13EEC2
FD1AED4A
FA741827
F999F582
E94EFA98
F858E875
064E1457
04230855
F7E2FDCA
FEF1036B
09E302AE
FF9FFDC9
00860F53
018D012C
FACFFE55
10110D96
FEEBD0F3
E90AE466
FDBA00B6
25B5F36A
E8310153
F224F875
04911214
F54FEC3E
017A03C9
02DDFB2F
F595FBD8
00611611
FB0303AF
02BFFCF7
330A0336
10E701DF
0505087B
0627016D
EE0F08E4
1649FA65
062D0DF5
05A70CEE
02F6FFCB
12F40A94
070EFF3A
FD3DF98D
FBD7EB7C
03F1FFD2
F68607A3
099A0D6B
07DFFD6A
FF5501B8
F77AF815
FE6CF284
FFD70160
04B0F418
F36108F3
0C4D09E9
FFA0F103
F233FF27
EFD2FDCE
F80B0497
18CEFD62
EB3C06AA
198F0976
F40BE0B4
DAC3F374
06860B25
F186FDD2
F080ED42
050B099A
017BEA52
063906D0
FEC40490
0C200900
FFF502FE
F95BFDE2
EF9204F2
03D3F539
08CAF0E2
017E1725
FB46FD46
022DFAF4
F9CF018A
006B08E0
0726156A
FFC7FC51
ED45F054
EBBE0279
FD92F9B3
EC4D01E9
0482091A
02890538
0305F335
0F8103FC
FFC3FEB6
FAB8F9CE
000504C3
FA4A02E0
FFF9FB93
03140257
0FD5FA2F
F6720E0B
033AF7F3
0B14FF0D
F9D205A2
07B416B7
FD39EF31
FA8BFECE
FBA2FB9F
086206C5
01D21BAF
F87CFC16
FCB3E50D
F479051A
F1C7F2BD
0C16F157
079901DE
0F2B0AE3
F0610E8A
01190C56
FA4FEC5F
01E2FF19
03C00793
F889041E
02760640
F27A0301
05980BAB
03820CA1
1460F67C
087B01C5
02BDFC34
E952FB47
E789024B
BD62F750
01C9F95F
360DFB95
E7E31F2D
15D427A0
F686F5D0
FABA03C7
152B022C
092C083E
0BD00195
F4040C4B
0D8FD96C
F450035E
083F08E4
13D305F0
05CDF2D6
0CA71380
0A88FB25
F7B603A0
FB59F530
0336029C
06D9FE99
FDFD019F
040C0923
FF4AF2A0
FC6C071E
F7C90F12
EF77FDA6
00D0FAF2
F1A00015
0ED5117F
04B1F5D2
00CF048D
292BFE04
EE360D84
F28A1502
0F63FC87
1681ED8F
FD122EB6
198D0BA9
1B0F1DDC
193B015A
0868E3F2
BC9B0616
ECF8F54A
10F6E997
F7C9FACB
E8FCFB7F
0AA60A79
FE172CF8
00EEFD59
0803F596
F5700993
FCF0F601
13A30219
F87F06B3
F57BFCE3
EF46FF18
0145FEDC
E5A80197
FD53FEC5
0323E5C6
FAB0FF3B
FF05F74B
01B50F65
02A503DE
0168F196
0366E9FB
FDA9F842
00EEF87B
F17600BF
ECD402F9
CE37F388
0752F4D9
1C17F9AE
FAE70371
FF8D0372
FF25F476
01F4F52B
0240FE15
EA62E94E
FBCDEE96
0826FF35
FF68FBE9
FA49005A
FC26EAE0
08390BB2
08450468
005A12B6
FDDEFAC4
00ABF7B3
F959FFC2
078A0497
F092FAA2
05E7FB76
F999F0F6
F497FBB6
0E1C06FE
0296FDFB
078DFD78
089B09F6
F1E40A4C
06A401DE
04D0F67E
FC0E038D
07510927
039DFF76
05D7074D
0E11037C
0EA81056
FC0207C2
0C5B0629
14E30642
12570ADA
04761520
03981526
FC8B0299
FAF30013
F89BF40C
FFA0F430
074D003D
007A1087
069AFF06
029DFFCC
07BC0ECF
0C460A07
FAB304BB
F685F812
069D0068
118E0E98
048FFA5B
0488FE5F
08300474
0A8609A7
0897068F
FE740728
F657FC82
FDD8F7DE
F3B8FFB2
F97A0330
FEE3FCE5
0CEAFA75
01FA0933
0D9407AA
FDD20878
0272005E
FB80011F
03A9FBE9
04D507AE
FB60FE37
059B023E
0986016A
FB73FFC2
09940182
FF28FF0A
FEAE1445
0D09F39A
F912F6DC
F96A0203
0069FF27
F6A7FE7E
FDCEFE6A
FDDFFCA2
012F0A50
0D2CF8D6
00C9F56D
0735FD61
D1E1DDB3
DB3FDFBD
DCB4D9BA
E3DFEBEA
0792F03A
F34F0BA6
042C004E
FDCCE85C
020DF7EB
FC060947
0AE9F95B
F6B9FDF5
05D700D1
006308D9
FDBFFDE4
055FFA99
009A0014
FE5D00D3
FFCD02D2
FF08FED1
FF98009A
04D302FA
0036FFB2
F71F0F29
066EEF95
FF50EF1C
03C3F891
F88704E0
F97607D3
FB06FDA6
026502B7
FF3400F2
071BF7E6
10F31751
07C9133A
FD62007A
0ED20AEF
061102B8
FFE1035F
FC26037E
F8C9004D
FD8CF79B
FCCE0368
FB6AFF80
FCC10046
FEA1FEAF
04C3F7BF
02F10C21
1331087C
FBAF08C5
02F90723
0CF500FB
03F80557
053703CE
FC1402F7
0268F81B
F975FE90
FFC0FEA3
101A0102
0CE807DF
FDADFFA6
04AAFC01
FD85011F
067A0361
0930067F
15DAFD61
FF78F974
F7E0FB1C
F658F6C2
01D50580
05AA03D2
00EA06A8
04B3FC06
017301C4
FEC7056E
F5A401EA
111D0108
0B7B12F2
0DA10B2F
05AD0AAE
0B09FE27
004509BF
0BA303A8
0FE00C37
07B201C5
04B0FFA6
0019049E
FF32F41E
FBC0F3CD
F335FE31
FBE8F93A
0463FAD1
F3ADFE9B
0722007B
FC920327
FBCEF3C0
0196FB84
FD64F8BE
FA4DFA7E
F623FBC1
FA5DEFDF
F84009A9
05B3FCFB
0114FFDB
0363F77A
EBB904E9
096E023A
02DA192F
094C02F8
FCC90120
036A0687
00E3045A
F580FFDC
F7BCF9C4
F941F27C
F715F759
FEB2EF78
F4F9FEDF
0AE0001C
007AFEDB
04A4028D
09A5FDC7
FA29021D
05A1053E
FFB3E40B
07470AA2
FE3B09E7
01490A04
0014F89B
074C02BC
F70606C1
024EF9E9
FCA2F75D
FC0E0692
FA4FFBA8
FFFFFE4F
F8E4FBC7
F871F64F
FC74FDFF
0300FE86
FD9FF789
0072069A
F9A603F6
F738F82A
03B7E0C8
DD7FF054
F832FE98
FB8AF295
0631FD49
06F90626
FF6D0629
02410199
051F0736
25CCF69F
E087FED0
D756F3A3
F205F885
09AA03DE
F5D0F9FF
0F16056D
04ACF7BB
F899FF6F
FD560657
0DBD06C6
08CF0697
F689F5DD
FC93009D
FAA500AF
F881F9CE
FD0901C2
0942F30B
FF8F0FB1
04B3084F
FC57FCE6
0A81052D
F831033D
FAF2FC79
039DF79A
F85EFB5A
EE8BF024
E6FB061B
10B3F714
0850FA27
E54FF87E
00A0F545
12B00373
0082E28B
00E60467
FE88FC37
13770CBD
06780A98
07D508C7
0301072E
10D1020B
FC5C0506
05000973
F5FD0214
FBB3FAAD
F5D1EF9F
F2520F55
05A2FB9B
07BDF874
00FBF5E6
06A90B89
FF22FCB5
020E0498
010F06A9
0CD5FE32
EFD815C5
F8B91100
0D06ED4A
FC10FD40
FDE40402
18F6F988
14D612AA
01A5FA09
F42EE9DA
F3732A28
3ECB061F
F7C304A6
F2352451
FC0EF6C6
EECEF2E4
FE12FE39
FB400190
FFD002C7
0CF20026
11BC03F3
F87EFA9D
EBDF006F
0DCF055A
FCD0EA24
EE0312E0
0A26ED03
F032F879
FA40004E
FD5ED103
FC1AF706
062CF684
FB13FF84
F83C0520
F0A41347
FFFCF9AD
FBF9FE2A
EE0E044F
1700FB14
06CFF626
10FB0AFE
F7D2F5AB
024CF203
F28A11AA
F868F4C6
0278FB8D
FD7101E1
F67D0376
03E308C4
F52100B7
FF0B061B
144B0EF9
16FAF86F
018A03C4
FD43FFBE
0A14F174
E0EA10B6
089B00F7
07D3F9C3
F006FFEB
15B10576
EA41009E
061B0365
0269F9C9
F524F945
15551899
FF99EE77
057E0594
01AB068B
0521008D
0B51EF5A
F8A10CDF
F59D07C3
EF370B34
0B0AF6B6
F284FB38
0974FCA2
1E030712
F15D02AF
0C86F4EE
F789FD43
0C1208A1
0217F955
F9AB09ED
097A09DC
038EF137
DB8B04A5
0820FFE7
FEE7D988
FF3F0526
0B8BF4E3
FC34F75F
092B0036
F03D1D67
00AAEB22
FF4D0535
04C3F2A9
04A4F9D0
FFFF1473
FBD30895
09EBFB67
F7C004F3
F7A101CB
08EEE8B9
E2D80117
03AD2224
0D80E71A
F88606AC
F9F7FBFD
035FFEB7
F8ED0658
F94002B4
07E3F5D6
0236F4F0
FAA6F7DE
FD081B94
063AF73F
FF0E102C
0FE8FECF
0173FCC1
F69E03DC
F8A50DE2
F5F2FCCE
0675026A
F7210558
00070224
03E2066F
08520774
057704F0
021C050F
01BC0C8B
06C8FB0F
00B50D03
0655F47E
034FFEB0
0189FE8D
F82EFF4A
067100DB
F1BBE38A
EB9AE5F7
0996F5D9
F9EDF76A
F476097F
FC3B0702
0E23F84C
1A2A0AED
02E31D95
087C0F19
0A09E679
046DFE87
F733FFC1
FD8F0767
0A54FC5A
09F104EE
F61DFAA0
0905F597
F9C304E7
FD960D80
0D19FE76
1249056F
EF0C0529
F5BDEAAB
FB18003C
0313FB75
FDE8F268
07DD05C4
0345FB57
08B5065C
04CD0471
0457FEFF
F456017A
01B2FCFA
E0930A2F
F4EA157A
1B390BC9
F93CFCB5
0612F84E
0891F81D
F8001A26
04E4007D
01FE06C5
FA6CFB1B
E2A3F328
F134F9D5
0B5BF540
02D6010A
E7B5F436
F05513F0
17B3F5F2
FE79E42D
E3EA03F8
090815B8
054DFE39
037B0C53
FA08FD91
FEFE0264
0818E5BE
F89408A3
FC16FAE9
000003DE
FE7EEF1D
FF0203ED
FC3E0749
D77FEE79
F790F09B
0AF3F9F1
FAB5FDD1
F99F0055
05F40607
0797FF17
0B610227
F8AEFCC4
101BE82F
EEDCE98F
FFEE1BE0
FEC6034C
07190855
09071354
010FFAA6
FA9E0073
F978F3DE
19410A50
03A1F952
F7A40C4F
0911FA92
F5FAEBE7
ED47EE7E
0789F8F9
0161F898
0EB61A82
1FCDF0C0
FE410FB2
FA031622
FA04F6AA
04D5EC34
1C94E8DF
E0951678
00220581
E5C7F026
EF6701DE
0DC4E55A
FD04062D
13CD0818
00AE01D4
F976D9E0
CC10E604
0AF8F208
01EB1C7F
05260034
F4AAFC27
F9DF07A6
F865F77E
F78606D9
F8A5E9A5
EE96FD53
020D0716
099E087B
F66DFBDA
029B08D0
0FE1F495
E344F692
E3A003B3
0789FBD4
0B3AE8B3
0B2D092C
F0FC1507
1231F8EC
F68FF25B
FC4C1528
092D0361
F799F886
0BD213E4
155FEC92
0198FC33
FBE806FB
17421822
08A9F33E
F536FD3B
F26DF285
08EAE482
DF641276
181D0F91
09C50268
FCADF7F7
01A4008E
12800B48
06E6F8E0
024F0969
0AABFBDE
0ED8EC67
00AEFF67
09E0F7FD
034315B5
F6EEFE44
06E7FB11
F026E806
E6F3FC3D
02DBFC73
024A1446
F8F1F385
099CF815
F99EE68F
00F3FCEA
FEE8FE21
F5E0FF68
0B3EFF24
05A3FF88
00CA0516
F5A7FE7A
0C3F1092
0E17FC07
FBEDFB3B
00D5F885
13EAFB62
F1031946
F32EFF59
FC12F8C0
0B2504E7
0F8E02C5
FE13FA2C
0F72FE6C
094EF698
07100CE8
09200AEC
0E63047A
EC29FDC3
000B09AD
F8F6FA9D
0070F600
0DBBFE82
05B61688
EFF00007
05F81297
FFCCF96C
03400809
00E6071A
032F0206
0A14F920
F7F5079A
09780CFB
1850FAB3
EFE81615
F833F844
0141EF1E
041505E1
FFF1FEDE
F2F91190
F2EBF953
E18CF2AC
0321F122
F5BDED8C
FD21FB27
0924119F
00CC0BDB
F4EA0972
FED6F556
FAB60D95
04A2FBB6
FEB5F6E8
F351F764
FBBA052F
0CA80B64
FC940185
011B0677
01C9F5CD
EF0804EE
17090A16
0C7BF9B6
03D0F9E7
FA9CF061
03DFE1B1
ED6AE59B
F6B6FA01
00E7FD75
FA76F10E
F3800177
0AD400F8
FC020A7C
06D90D13
FA1FFA9D
FA86FC34
1E23026D
FE99009B
0D5506BB
03EAF352
F3EB044A
0BFF013F
036905E2
043D04BF
FEB2FB87
F4140020
02BEF5D5
07E3F2AB
0EF1F37E
10B5075A
F74D0F2C
F81CFB9A
FF5705A0
0CB2F052
0563FC45
F1EA0311
EAAAEBB2
0910FA00
0C2C0527
0B2B0819
E5CDF73F
0420E6BB
007D04F9
02A20209
00870592
01F90203
058A0516
04A0FFDE
FC71FD17
023F05FA
0EA3F817
F1B41335
F75003CE
0084FA8B
0A8D084A
09D4FBCB
07FFFAAC
F93E0581
04AFF7D8
003B0320
F30D09AF
FECC079D
FFE80622
04FA0141
FC05012B
FF350C3B
05B102CE
F0EC0588
FE76F40D
EBCCE98D
FA890366
005301AA
FD8504D4
F996FEF3
051B0130
FF8E0B8C
00A8FA56
FF87067D
0817018E
0698FC1E
0392FE6A
EAFB02A9
EC121BBB
120FF6E7
F7C3FE17
094F1126
0B350265
F40D0042
00DAFF89
0046F825
03A30458
FE7EFC0A
FC3CFEC6
F4540073
06E9FE6E
FA75F967
EE88FB82
17BF0863
FA1BFB16
0448F95C
F670FA65
04A1FDD0
F1881148
FE33FC57
FE70F6A0
FEE2FF03
012606C2
FFDB0147
0645EBF1
00F30B17
0EA61790
137D165C
0955FAB1
F850FC8C
F40AF8AA
FF5DF9F1
F663FA2E
F4B8F31F
F4F9FDCC
EC3D0C08
0F8AF287
01C6FD90
0144FE27
11CEF960
01060227
0A54040A
1211F78D
F657FED9
068FFAB6
FB7F0F89
EF61FEBE
067DEF32
FAF1F11F
FAF6FB8B
0FB1FB2F
07160158
F45400AE
FE4BF12F
FF82103D
DEEFF95C
FFFAEE3A
F6D9FC54
F6E6F6D3
FBA804CE
FBEF0284
044F0286
F673F6F7
F47EF932
D146FA1D
E720E5FD
211C10AD
0BC7D5A4
F8F8F99A
024A05D6
FA3C149F
002DE99A
02D0FE48
FDECFEC5
F6E7E07F
FD1303A6
FBD1F109
0B9DFCEC
EDD60122
E662F97B
EDDEEAE3
F36CE623
054101F1
1887DD49
F70D086F
E1B7FDBF
F8A4FD7F
00FA007B
006BFAE4
FE51F3A1
F788E8E2
FBB205FD
04EBE32A
FB7BF7E5
FDC5FB82
FD0DF7E7
F6470205
04F90481
F696FA22
FE3BE944
400312BD
06CA21E2
F7890363
E695F6FE
FCB50C0C
DB26F6B4
1009FCED
FC09E3C6
E0F3EFC5
01FF01E9
07250698
FEFEF8F5
011C0509
FF81F912
FE781147
059C0C9E
FFAFF593
FBBBECD3
EC3EE600
FA04F82C
058FF88C
FB41F8F6
FA21EE9A
03F00873
0F5701B2
004801DA
FF1FFE66
00C5F655
0CCFF875
0370F4FE
0EC005E5
FEC80236
0D6205F9
F33601D5
03EE090F
1015EFDD
DD1FFE17
00800713
1D23F362
F1690A0B
00F9FD2B
F76B0184
FBAC01C5
FF68FEBA
FDE70282
0DEEF863
EE840BCE
10D6180B
0406F376
F4E90BDC
05C81863
FEBBFE0C
E9B7FA58
F37101A3
F6C50113
F81C0F94
FE66FE3B
0C2609BF
FB8FFBDB
14A1FE27
08C2FB47
F1120A96
F6A9EF0A
F3F0F259
0421F524
03630B8E
FBCAFEAC
004FFF01
F692FE13
02DBE40B
F29208B9
08A8F392
FE05FBDB
06DD0171
F99AF8CE
0284FF6D
FFEC077C
0651F7BE
EA17F9C6
00720077
FF7CF36A
F24E022C
03F300CD
0CD1FA62
F869000D
1014009C
1184F331
F6B40454
F915F0A8
09C01A6D
03D5FD12
F664032D
12E812C9
FC88FEE6
F8E10FCB
FE57FE0D
E61BFEBE
099CFE90
043B1544
F509FD8C
FA68FF3A
08F3F82A
00CC00A2
05C2FA24
0C791C15
F49C05F9
FFD5010F
0F610842
F033046E
0563FF55
0379E7D3
FF650A7B
00CBFE2F
07CBFA20
ED9DFC90
FDE50D25
F207F2D5
0B4509F2
0CD8FC9B
F54B0125
EC5802FF
03880E48
05670CEC
057AFF19
0B7507CB
F5EC0A69
09EEFD68
FC49FFEE
FBB0FE9F
E395FE15
FD00FE03
EA4FEC4B
F8C901BC
F5E0E562
F377FDE3
1131F7ED
F9380972
0EE4074A
0808F9F0
0767083E
EE7501F6
F083F977
FB890D3F
0210F759
ED6D019B
FC91FA74
01380CC3
0844F359
00F806FF
FD80FCC9
F992021A
FE8DF2D8
F1ADFCC4
0EAEF8FF
F7D209BC
0648FE4D
F68FFA78
035F02B0
FC88EF0C
00440245
FF21024A
08BEF998
00F1FCBF
F7C3066D
044BFB89
F842F198
FDEEF6F8
01AB1809
091700AD
083804E5
FC870AE6
FE990934
F33AFBCE
FD29F717
FF4D0E3F
0175FAB1
FA3400B0
0A54FFC5
00BCFAC1
0D3E1295
0377091C
05A40551
0227F593
042A06B2
F7D9F88E
116901CB
ED15F7C9
E7AD07A6
1337FE6C
0EE3FCE8
F6DEFC99
08C505BF
0291FD49
FBFB0081
F7A6E57E
F24E0551
0910F02D
F312FA42
FED0000D
F14BF7F4
E51DE76F
FD13FDEA
08EDF8F6
09120DED
FFE3046F
0640FEF9
071B0BB5
0072F90A
F89F05EF
1067F47E
F175FCBC
09F30F78
EEE8F917
0A400738
0089099F
11F813A6
0A94FC26
07CC00B9
043D0A81
0A3202A3
08870210
0A9F0320
E9D1155E
0F2209AB
FF5B0490
0C2D075F
FDBDFBB1
FF5012CB
FB28035E
E50F0CED
F3D50CC7
EBEFE969
F682F2AA
EC8BF9A3
F409FAFE
0252170B
12F1EF75
FF990AE0
FE560626
0700F8BF
E4E1F286
F8111076
FDCB0304
05E4FB28
FDC80AE9
06520B40
FD2AFD53
F877F782
0404F6E9
E920FE7B
036300A1
FB10FF4D
FED21A52
0B10EB86
DF56E081
159314AA
EFB415A5
E00EE2D7
E48605C4
03C1DC61
E6CEFD46
FE8BFDA9
017F020A
EF1CE2A9
FB5CF61D
0DE8FC0B
026F1087
16F20D25
064BF433
F9C91058
154B0CAA
F62AFBEA
F1BE0FF0
1C830621
017D08E8
0C3E078A
05CD086C
0E5C023D
063AFC6D
064B00E1
F8F5FF98
06E1F916
029CF655
F7D7FF54
FF0DFF6B
F976F93A
02C200BF
F4C005BC
01D3F868
F975FEAE
1AC71670
F9C5FE3C
05CA0205
06950CFD
0352FE99
047604CB
07E80789
FB81FA44
F5750048
F8FD0C02
FFEEFA76
F6D105D6
10030AF5
F433F8AB
0156066B
F2C3EDF4
20510162
03BA1AAA
193C287E
07270CED
FB0A08A0
071DEFB4
F1ADFF90
F9980321
F26F002E
FBB309A5
0F510372
0A67081C
1D4218CB
099529E2
01030765
F88E0764
F475F1DA
140909B8
0BC1EDB3
1C95F035
E5FC0AA5
F06B11BF
FD7FEAD8
05F90C9C
EF0F00EB
FCCA049D
F953F333
08FEF628
0193F7B5
08810701
0F9C10B6
06D10C03
0A0403BF
FB990733
0EA40348
08A30A5F
1B5209E7
06050072
000A05B9
E09EFC0F
F11209F6
E7E1EB17
FD36F840
FC0F0505
08DDEDB5
0791FAF6
FD790737
03F30259
14B8FC1E
0A01074C
066C0244
F9B8F402
E5BCFC51
0C62FA4E
0F7411C4
042B01D4
FD4AF7AC
FFC4FF3C
F4C00118
0155F302
EF2CF863
17080268
FC941B41
04600249
0C0000E5
0E7E0245
07E50AEE
F84F1122
0DE508F0
039D04EE
083DF803
D822EA53
F907FE89
F02EFEDC
E6B4F016
37BB0774
F92D0E6A
0B78F30B
0C80EFA9
0EC9189A
FB8D086C
F95AFDE1
019B00F9
034F015C
093105A5
0048FDC5
F98F07A8
0655F800
EFD1FA2B
FC4CFC59
FB69FB4A
089BFCF9
0F7CEF29
0195FD23
F69A0D3A
FA21FEEC
0D1C0A1C
0B92E174
E3210343
FD720E1E
1A490314
ECBDF65B
E783F27F
027F042F
0112FE3D
18F50027
E408084D
E4DADEF6
00E1FEC1
FC4A09C4
F3B4FE5C
0D0EFFAE
FF130087
10460F2F
FD1DFB6E
EEFD04AD
F191DFD8
0455084B
FF130B50
FA36F520
1178F576
FA030607
F0CCFE77
0052F311
FEE4EDF9
03840CEC
148903B4
FB000A71
FE58F679
EFD7F8ED
10E0F3DB
05880725
F7370C40
FB84041C
F760ECD0
00D70F0F
04400568
051E0C12
1EC11125
013E192F
0249F678
036301B1
049805E5
062F0266
F1000091
07A4F9B4
01BBFA58
026503A0
06450F37
05A108F8
F60BFA45
0B3DFB86
0D770737
03550C59
E2C7F9DA
D8AFE3B6
F80CFE02
028D1490
01EFF46C
FCA60352
0551FCF3
01CC03D5
0206FA9E
F8A5F669
FBEE0A0E
F533EE86
FDEEF8B3
F9A50C85
2187040E
FC0B033E
F987FB1B
113A0523
F7CDF9BB
F0F107F0
02BCFC10
F980FDC3
00F4FE94
EF33ED44
04C2F2D6
0C3B1493
F68FF928
190103E4
08FEFCEA
0E211A11
06190CFC
FA1E088F
F8F40243
0DB6FD15
0A610650
FB6D0C29
F9E4FC27
F64FFABB
0315FD9E
07BDF02E
FCC3FF78
EED0F587
02ABF5BD
048D0B1D
0119F7B9
0200FD93
0085215B
0532F923
F732FC95
F7B50995
089A03BF
F6E3FCE1
F468EA87
EE6C00C0
05C10FC9
020EFD3D
05DA0316
0CCFF128
F219F2FA
F706E643
D4240207
1057DCD0
0057F961
FD85FA5F
00BFEC89
30E913E1
01FB190F
FA8BFFD3
0A2BE451
EAEC1505
11D3FDFA
0C78032D
F6D1FC61
F6E902C8
E32CED6A
0C76EED4
0EB7FC85
F9E502E1
FE520872
03D0F8AC
2022F11B
EB861135
FBCCFF40
EC4801DF
EE5FE36D
F707EF11
F84904F6
156D00A6
0D610B31
05BCFE7B
0678F4AB
079C17D1
0747F785
FD460B6B
F1D3E5D8
F3AB0D81
10A0E617
FE6F0C4B
08B4FC43
0A8201DB
0EC607A0
D855F46D
0532EC55
0910037D
04DFF5EA
FD0B03C3
FE7C06F9
F7D2091C
F93A0B25
FF1BF4F7
0A38085D
FEC5066E
F4CBFFE6
0BE30005
FE68FF02
FC831391
1670FEE8
F4F414AF
0914F813
0197F6D6
0552F1A8
F076EE33
08601997
182D04F3
E9C5FFF1
02D80E21
08A808F0
01F1FF98
F2940563
00A3061C
FEF91050
0DC50257
FB830085
F78606B3
FE8DF6DE
04D90C5A
F42A0DA1
14CE0541
03ED0376
E8A7FD51
148FFA70
F35C007E
0395FC65
F524FDE2
F9B3EDCF
FC95FE3E
0B3CFC7C
03B7F73A
FB36082C
0137F7CD
06D7FC52
FCDBFEC5
FA65F217
12BE0231
F1D8EE92
EF9F0BD2
0560DEF0
FCDFFC75
F7F405A9
07F70239
0B3E01A7
FB6502FA
0DB20138
12EDF43A
01080256
049E08CC
FAE607E6
FA16071C
05D40B3B
033609F0
DDE10CD2
00420046
EDA3C68D
E0FE026D
088CFBFC
0953F964
07780E60
F96C1A2E
FF87FF61
0194FBED
EACA0FD4
1F0BED5B
FD66E7CA
03CB0E29
F4A3FB1A
E7F8E37C
EB6EFB0C
07F90CBC
04F4FCDA
F8DF0579
F7F20877
12220380
F370FCF9
FA59FB27
104104FE
085DF525
F41EFD8B
0F6611EE
0A640143
E6830371
080F0072
F6CEEBAA
04A9067F
FCEB040C
0E1BF927
F963F988
FF4100EB
0400FB83
F4C508C0
FE2B06B1
F6FEF050
0F1BF824
0621EC39
075813A8
00C4F8A9
0323F733
0859FD91
093C15CD
FB780138
FEAA0875
FFC7FE18
FB4AFC22
FB1606B9
0B77019D
05520063
002B0604
07D0105A
FFE1F964
037000F7
E47704C1
F6900A7D
FE0DD2F1
08E6FBF8
FBDCF493
D5F700B0
085CFCCC
039AFFCB
FD6902AE
F8FBFE76
FBD2FF04
0C34F869
000C0703
FD620896
010BFC14
E4D4150F
11C701A2
0F32E41A
0475FE22
E9C002C2
000D046B
153FFC71
F88EEDA2
FE7703C9
0BE1013B
F650F985
E1B2F321
F9F1F6E2
25D6F38B
05F6E96D
03FC0AE7
0A47F7E2
FD3FEFBD
FC750CF4
0305F6A3
F997F785
00DB06D4
10EBF56D
03DCF5FF
FE9D07E5
FAD8FFBF
F98E013C
F2E6FC19
FB43FE50
FBF4EF4F
F176FED6
0EDD0DB8
0217F6F1
F88D05C1
F4D8FC33
099DF99A
12A20076
F7FBF216
0D21FC7F
0D470408
E85B05AE
FE680579
09370779
FAB704CD
F7D8F4A3
E01DEFE3
E6A1DC2E
FD96E0F8
01BF03B4
FC45F645
03D2F973
F71AF76B
FB57F86F
F837FD13
FFAFFFA4
FC840229
0785FCF0
08DE0E1F
0CEE055F
F1DD1A81
F299E231
EC4D0DCB
0AE0EDA9
EA8DE7BD
0276FD0F
F32AF9C8
F64FFA3A
F6BBFFFE
00E1FF1B
0B3B0391
FDE90F2C
0516037A
08F11028
F71BE9BC
F72BF8D9
FEA50457
FE75F2A3
F8AD03F1
00B3FB63
038FF46C
0ED907D5
04731469
07B009D3
FD40FECB
EAD2EC0A
129005FD
0AFB0303
10C71B6C
0F47EAEA
E5BE0795
11890C28
0841FD9D
05F10026
0C9E0750
14D1106E
05B00F22
FFAB0E4A
061EFE6F
08E70272
EA24E471
0E3F035B
0D26F20D
0A32F607
0598EA30
F3C61BE8
1F6EEBE2
09BE0508
04CF0BD6
10B4FC67
F451F8E9
0415FC94
FC43F6E3
DB8EF9E2
0201014A
0299006F
FCB31C8D
0B06047F
0BECFD88
F6B2FF72
F8DF050A
09EE04F7
05A2F7D1
066B067F
06100416
041E04DC
F9F2FC9B
045301FF
092C06E6
0C2DFA40
037D0863
004C1A15
13CE1A2E
FDF4F41B
16C0FCDC
08C31918
113323DC
0320FCDF
0710F441
F65CF23C
136D0D6E
F7C918B3
187CFF15
09CB1081
1811F54A
D33F043F
EF120536
FA6BFCD7
0AACF699
10050C9D
016900CE
EF270F1C
EBE20609
FAE61216
022BEEEA
06100924
031D0230
01F707F0
15470206
074B02A0
FBCD08D8
0627F01C
EBDE0EAE
04D70267
F731FB08
07C70349
FA6B0CB0
09D60A35
0AC6EBED
EF75FB73
F4F30762
0BE8032E
FEFED0C2
097C0573
09AEFDDB
FB290632
EF8D0071
0EDAF4CC
FE10FD30
02860384
F92204A3
17BA00CC
EE9AF247
FECE1162
E95B08D2
0B66007C
FEFAF45B
090CF4E2
EF7A0666
03F0FC25
12F1E5B1
0E240037
FBD013A1
FB40FFE4
04BBF884
F4430CD3
FD27F5EE
0744F43F
04F40733
0068EB62
0A39063F
0226EF91
FD88F4FE
03090B6A
00B40659
F6330CC6
F06400A8
07CAF905
05D7144B
F448F23A
FDEEF02E
14B2FA18
FAC0FF59
0E60076B
1F771197
0880FA6A
FDCD0434
06AEF886
12E10623
05020EA7
00EA0836
FB12083A
0B0A0734
FEED0654
009E08C1
F8BC020B
F2470380
FC0DFCA9
F764016E
ECA0FD33
E56E2109
119EF441
0479F937
07C50C6B
07E7FCAE
FB35FC41
FF2EF6FE
0879F919
FA27F520
07540394
FBE40BDF
0115FE5D
07BB0536
FB240DA0
F6CD0372
FF3103D4
F8E00301
0265F29C
FB531367
FDB0EB89
08AAF3B9
F56BFAA3
02C6F8F2
F4C7F9C7
FBDAF836
F622FB80
11EDFB96
050806B3
FD7DF976
0884FB87
2EA40B53
FEE41F43
F769F08E
041DFF3D
02CFFD68
F78EFCAA
F6B20430
FC2E00D2
04B31266
FF5D0414
F70DF647
F9A50D54
0346FC1C
FC7A0395
04730155
FE830240
01D7F8B5
05D0F92F
084EFD74
FB0A0523
05D9009E
F4750003
FE85F7AD
02B600AE
08000159
F981026E
015DF651
034504CD
F9B206F2
08A4F6DA
FECC0277
FD4F0640
055AF44D
E9C705DF
108D14F7
1254255C
FAFBFC1C
0CA7FE0F
04210348
FDF40447
F71BFBE2
099DF507
0CA302AA
02E80D94
F8DAFDB1
0F8B006D
10680201
04960C95
036C07F5
FC7A024D
034DFA3F
0007FE32
058AF8FA
003304A0
037006CE
03D50858
06340063
0C5501F5
FC6B0685
FB08FE1C
EE9BF68C
F6DFF4DE
01F3FB95
F96D02D7
045CFB83
FE29089F
0FF7F517
FED6FC68
FBF102DE
0CDA04A0
F5D4F9C6
F4C60635
FAF2066C
F67C0BD7
19E8EC9F
093EF849
FCBF295D
FAF10226
0FE90AAE
F8F30504
F9E607DE
F547F7FC
F47CF48C
F6CA1380
F9BDF53F
057CF7ED
0A05F06C
F35907D4
1FE9110F
0EFC1DF8
F833FBDA
F3B00609
0B160263
F0A50961
00B0F99B
0329FF15
048F012E
FFE3FFC4
0299048F
05FF00A4
0D3AF8F4
EF4E01F8
07030286
032AFC94
FF3DFEC1
03D00219
01E0FDD2
037B0464
0799F063
11220D9C
F943F633
014DFD6A
FC140AD4
F32402CD
040FFAFF
0370F781
FE0604E6
FD750688
F37D090D
FD90FB24
0338EFDD
FDDFFF04
F969F6E1
CA51FF8C
05B901B1
0C980915
07980636
F7D9F5A6
FFA203B7
075604C1
1073E895
0471F9D9
FF0C0B7B
01960108
0216FACE
FCAA0182
FC2E094B
FF91F872
02250648
E2FCFB6D
050E0A8A
08B204B7
F506FD66
0867F965
088A028C
F98104CE
0646FEBA
FFEAF73B
0198F689
016AEE54
F993FEC0
FD99F805
FB8EFC49
11240C30
13CE083A
1AC9EEC6
07C31CC7
FDFBF39B
F41607E1
0450F638
F80BF86B
116A0BCE
04A6F813
07010E28
076212B4
F4E6045B
EE860219
059BF64A
0F31F2F0
0B27118F
FB460C1B
ECCEF0D5
04D30EFC
124BFB77
19BD0E9A
FF74078B
FE78FA93
0AC7EFFE
F8FB0E8E
0569053C
0CDE05D6
06842D05
13F6F850
01F3FD60
FE9500C2
0128F9BF
0553FABA
014BFA8C
F64E0030
FE73F3AC
041604B3
130DFB2F
1729F5AB
FC59EB36
F67CFF9C
0408F7B4
00010C24
0C33F868
012C087F
04151144
047EFBFB
FEA70AC8
F80603CC
F3ABF83E
FDAF0738
FF41FB89
F5E60525
0C810582
0A12042A
056EF856
070F02B8
053301F8
FAB7F6B0
FDAE03B4
FADFDEBF
0293063A
F713FDD5
1244F7AB
F6B322DA
04070567
FD310734
00EFFDD3
0AD0FBBA
057707F1
114B0E15
0DD51C02
0BB5EF9D
007D1E36
E9D509D7
083FF18E
F3440D28
01BFFDC4
EC9AFDCD
016DF600
FE05FFEA
FEFAFFBA
FEC70485
0AC4FF1F
04330D33
FF43F301
F7CD0838
0B72FC6C
FEC6133C
F8B3F6E1
F26DF96D
0A7EF06F
F5BA09BA
F9E6FC00
F725062C
F9CCEA21
020605C4
FC7BF4F5
FE20F8B2
EDF8FB47
F7560A16
056DFE80
FE56FDDB
0528F729
F5E61F6C
14E8FA94
0397FAA0
F73C1269
1BF6FA21
F89E08D9
02090972
FE860025
F661F7ED
EE72EF14
F987FE31
0770ED16
0D3F04EB
FE320616
07C8064D
003402D0
EF5DF945
0AA1138F
08DEF1B3
02150EA3
EC2B0338
F7A5F425
EB6A0258
F6B6E38F
11A50800
00FEF99B
066705C2
FA0FF4E8
FA6601A9
0057F91C
00C9F4C8
FF5E0946
0B1DFB6F
05C0FA1C
068A103A
F616F0DB
04A30DF8
F89DF720
FB2EFDD4
F969073E
03D5F7E0
0A35FA3B
F96907FB
F5FBFBB4
2010F924
E6F5FDAA
03F91175
10D603DE
EC0FEA35
0F3FFDC1
0751E0F0
F819F291
04E00D69
FB8CFAFA
071DF815
02FEFBAB
F15BFC84
0542F405
FBB1143E
08540684
0107025F
1D66F60E
F91C1C18
08F7F2A8
0BF909D4
00BB0D0B
FE0EF737
F90C0B0D
1800F60D
F807F0FB
037E1365
F3DF1500
0021FF47
FBE1ED84
F74AF52E
02D5F3AF
00C106FE
F9BA046D
FF8408A1
083EF84E
FF81064E
0663044C
036701C5
0140FB09
F1AE05B7
0EDF03E9
FC69F193
FFC90945
059B01CF
01C7F5C7
0549FC3A
0163041B
068600A1
073E0182
040401CC
0A170057
08120834
029F1165
0932FEA4
F71CEE59
07FE10A4
0186FCE7
FF5AED49
ED680934
012BFDD3
F99FFA6B
0364F6A8
069202DE
F85CFD9B
F5FA0353
FACCFEFB
03A80AD4
04290B6C
066A0051
04240211
0E1108FB
F85AE7AD
F032145C
00D0FD9B
12CCF8FC
066CF775
F3BCFE8C
100C088A
0BD8FF0B
002703DD
007F0B05
00FA06D0
0BB9036F
03AC046E
F452FA65
F2FEF809
EDDBEAED
E940074E
0674FD96
010602FB
138E0470
056FFF25
FAAD11E6
03A20468
F308F364
E81BF999
FB4CFCEB
F73408CD
0B29FE4E
E988ED4A
E956FD19
07E5FAC3
06A40BC6
10E9F9ED
048608AE
005902B7
EFA8FC04
FBE8FA54
0C4001DB
027F0A96
FD06ED39
01BAFC2D
061909DE
FA9BFF3B
046D02CB
244EF501
FBADF4B7
0CCB1F3A
F636EFBE
0C260B8F
017BEFEC
EBA60A31
1436F3DD
F67F0134
EAEC05A0
F77B02C1
0B75DF67
F3BEED9D
FFFBFDD8
0C980908
FF1201D1
0A3E0940
0066057A
03CD0F98
013BFBAC
00C804B5
FC19F9CB
FBA1FAD2
F211E960
E678F354
06EB038D
E5F0F9F5
E423F416
07A8F587
EDED0101
0351F36D
FE7DF89F
1C451EEA
1112EE44
F6DA080D
F62AFAD5
D41B003A
04CFFBEE
F741F424
02E20025
E363FFC4
EEBEE860
FA3FEACE
DEFEE847
F4AAF678
02AEF789
FAD1F8AC
105406F9
F8E20784
FDB40081
0B960A85
F8290DE7
014502C0
0675F82D
024C0354
0146F989
F86305A1
0A750D0F
F890F6BB
065017D5
EA51D1EB
0C0E02DF
E7A2EC3F
F4B007FE
FC6EF710
EAE5FAF9
FF430297
01F2F91B
07920CCF
FF4FF3B0
04E10CEB
FC40F550
EC110EBA
050EEDE5
F751FC98
FDB00BDC
069401C3
F256D737
EEA2FA9F
FCF0F48F
F2DAEADB
00ABF83B
F1BEEFC6
FE6E0272
0477E727
09000726
25C2F3B2
0BB0FF6E
027D1B2A
D934E91A
00E9DB40
FDBB048F
0181F34A
04A30BE9
0ED90222
E412FB58
F1D82749
1E75FEDE
156C0F2E
009E1945
05751527
03ABFBB2
F9A001E0
FBE9FD14
197406FC
FE5C0E61
F760E678
059400F6
0413FF9B
1ED9233C
E6B4F7CD
FA530719
EC96D85B
F81F054B
FCAB066E
00820418
186FF84C
FDE5FE39
07F2F168
F4C306B9
09A804C3
FF52F9D4
00D3F62D
F641FD6E
FEE2FF68
02E0033B
FF1CFE02
FB81D9EC
0DD4F385
DEF70174
0443FF70
0191FD8A
01C70BA5
0FCEFFCC
FE1C06DE
F817FFF1
086F1533
F8680211
015BFB07
F987F01F
F5E3F678
FE01F84C
0676002E
FF860360
FA830196
0E9EF379
0B8B06D9
F345FB72
166DFE33
0518FE41
FEAA0141
FF750733
F025F754
0384FA2D
04F9F193
032805B9
02100554
0ACFF704
DAB5063F
F9A8F438
FEDF18F4
F765FB5D
F252FD28
07F707F6
0177F53B
0F04FC2E
076F113F
F44AFADB
FE760A46
0255FED7
14D30591
0292FCAE
EFBE0E84
0515013A
04E8F960
02C0FD5C
0626F32A
F2CCEB45
06FC0932
005FF4DC
FE3C0CF2
03791164
FD22F7B9
05ADF095
F887EC95
F89B0745
0C66F06C
0BEF0922
E60DFA62
FA74D237
F41AEAED
FEBDFE68
0AE80548
05641DDC
06E0EF2B
F540FF55
FF610301
F58BFCE4
06C4FC31
F327E433
FBE5FCDE
FDAEF275
F88FFFD1
EBA60A7F
023FFE84
04A5FC63
F8BD0578
00170134
F48DFDF4
070CFCCA
FC86FFEC
005D02DC
01B90086
040902FA
08B808E8
0A3B03F3
FB46FE61
07D1FADD
FF4500E9
0638FC35
FCB7076B
03E7015C
FB720514
F769F165
F9030428
042304FF
012406A5
FB2EFE64
F79811BA
FDD4F967
F6EEE8D6
CD2FE7EC
BEF5DE2B
1D4EFD4E
FF6B0B04
FA9608EB
FDC208EB
FDF5FF57
F627E7CC
FE23F92D
01F50214
0304FDCE
03BC0317
F503FF63
FC3D1C61
F9E60542
FF99EB5B
FBC9FF80
FB190AB7
05F1FCBE
FB42FA08
048E084D
F8B5013E
FBC80044
FBD8FBEC
0A0CFE2F
01920DBF
F67AFE1C
F554F748
FE7A0162
FE91E631
006F02D9
034B06AC
026AFAFB
03BE02BA
FAD9F8F5
0EE8097B
FF570463
0D09F444
FB11038F
045E01C9
F553EE1B
EFD802B2
FCCE055D
F8F006C0
14C4E903
FCD4FBDD
F7CD0B9E
F27F071A
02F70771
F1D4EF4D
E684FE92
F78CF88F
FCC200B7
0E500A35
FF83EA15
F808038E
E927FC6D
F3F61802
FA61F036
F959F6D7
1062FF24
01232183
16420C5C
FCCF0EEE
0229FD8D
F925FDB1
0A26FE7B
07F3D5D7
F6D2006B
02B51023
F8CA0C75
20FA1639
FFB1FF1C
087B0080
FCFB0557
FDDF0A2E
0B990B06
023BFC0E
FB940182
0120FDBB
F52003DA
F9D1E0B2
0B561B6C
2484E3B0
0A2C1B7D
03E1FFDC
078916C5
F339F92F
E1DBDB65
075BFB74
FEB70731
F4FA062D
1290111A
10411025
E135EFF9
0D8C13DE
F3B3F2F6
0127039F
12081564
0960FC2B
F143FF49
FBDEF7D2
F5D711F7
FA33FDB1
0ECF06EA
0A79FDE2
E6CD032F
F7D7F8D7
FF1EF402
064BFE28
F9EE0062
F9670CC5
FF1A0B45
FE330B33
0C91034D
0F0A05CA
F212F9C6
FC40F52D
F9611CC6
10FC01ED
FA29FA0A
0CAD0DFF
F326F811
F20B1027
F68DF6D7
FDE908AB
0272022E
FAC0FD2B
10D9FD6C
015A0540
09CA25C1
FEF7FD08
010CFD1E
0B0B048B
02C10584
09660339
02E2FD05
D939EFB2
06EB0634
1C0C15A1
02240435
05B2FDBD
FCFDFC3A
F45004B3
0F6EFBB0
09490F98
1D8C0BB4
F997113E
01E9FE94
01AAFAC0
FEE2074F
0A4908DA
099AF6E7
13D5F481
FDC803F3
FF380433
0A25ED5A
03B000AB
051C051B
F93E0F1A
FFE11536
F57DFB39
0123FAB7
FDAAF691
FB63FCBB
117AF785
09AE0F94
F7CFF9CE
FC0BF99A
EBBEFBAB
01F9027B
07091697
172B0A07
123D075D
01120669
1021F676
ED8902B4
021606A2
090706B9
10BB00CD
FC85FA0C
F9DF02EB
0CD8FCC9
FC25F152
0BD7E9E6
FF6CEC3A
0D7404CB
FD1918D1
FBF7FCEC
FEFC05AE
0672F076
FCB8F997
039E0175
F7890432
FDBB0901
FB19F4A3
FF29E8BB
FF950086
F9620174
00F202FC
0EA3069E
FA170E98
05C6F14E
FFFF01BB
F0BEFC8E
F86A0747
FAF40074
015C0818
08EBF673
27E713FD
0C852204
0932FFBE
0B89FDC8
FEDBFFBC
08D1FC5D
0659FE16
00CC001D
F97F027F
FF670446
04F7FDDF
04B30092
07A7093D
F68E0A74
051D0837
FD57F3DC
FEB7F308
F81EEE3E
F7F2FB60
FF0DF469
FE6DFD07
F9C6FB35
FED7FF4D
01E2F6A2
FD9F0762
FC4AF008
007FF8CE
FB83F560
031F08DD
FDEAFB25
092BFBED
FA3BFAEB
ECF8E353
F420FC11
FBCBF5E5
05C30C40
05AC067B
07FC22FC
01A3FC3C
EBB6FFB9
053E133C
0ACF06D1
E93E079E
FB6AF447
E66BE43F
E6F5010C
0744F6D5
E6E3E387
F9E0F1AA
F8ACF230
F6B80233
F4D5FE47
F6C0FF71
F6FFE86C
F3ECFCBE
08DFF76D
FD1C06D5
0362013F
0902FF0E
051603C0
0176080D
FA28016C
FA63EBF7
F8DB0265
039D02A6
FCC203CA
04C40247
FAB6F8D6
F4B2F266
FD6700EB
FA89FEC7
F595F0E7
1E04F09E
056FEF6F
042F0332
F3A5041D
041D0B18
F93F090E
F03C0026
0EDAF75E
F25AEBD3
07221B98
05150989
FCA50382
02AF00D0
FABC00F8
FDE4FE76
F3F6F9CE
FEDC0345
0C0CFD12
FB71FFBC
FD36FFFD
FAA0077B
047806F9
FD82FF4A
FF150301
F80A04F3
FF43F681
0710FC6A
ECDFF5C0
FBE6FC49
0201F703
06FDFEEC
03FF0753
049F0DA4
0378F4A6
1041F558
ECAAF7B1
E9E9F632
0424EE8C
F7CDF8EA
F1E0F7B4
F905F8C6
E220FE2F
0426050D
FE3EFA87
FA27FD95
F511FB18
F4B9FFBD
0699FABC
F8890149
F1250677
F4A5EC19
07770775
FFABF79C
F834056E
FE03FB66
0554F70F
FF3A0281
FC40FAFF
04A4FF3E
0426083A
FD64F863
03F0054D
F9F70B3E
FD43FC48
1EB3ED26
00E7FD81
202405A5
F033F76C
FD14F387
10A7F572
F5D300C4
0188013F
E817EDB9
FC93EE64
FFD8F0D7
F86A09DA
FC56FE54
FD8CF502
EEB30725
0202FB0E
04750203
00BA077C
FF34F788
02A90A25
F6BC0291
FA540453
F9AA0897
FE0AF227
FF0E09C2
0A48FA5B
0C800AF3
09130426
134C0314
05171021
04BEFDD2
FE15F9C4
25FE0B65
FCF20245
EB8EF3EC
D0BBF4BD
FA44EC66
00B4FB92
07BDF396
FA54F963
F867068E
FE50E64B
FA900445
0E8BFC25
153FFEB7
08D9F60F
09DEFE61
FC3B02A7
F1A40473
1D7513B0
032F09F4
0CE1FCB2
003306E5
08BFF814
F98B0631
FFBE092F
F7DCF4F6
03A8EFCD
F367F5CF
F11DF9B3
0532F781
1029FE60
0B3FF9C1
FF8801DB
FCFCFDF2
055EFE77
FE4A09B1
FF8C0082
FEA3099B
07E7FE30
001B06BE
0262FBEF
0D00F7C0
031F07D2
0732FAEC
FDE7066B
0BC7000F
0FDD0C1F
06DDEE1E
F7971382
024BFF7C
F6B5F9BF
15C9F58E
FD84FE2E
FF3E047E
F5D2F94A
01B8FAD4
F848F4DF
FCD30C83
0AAFFDC7
F9D3061A
032A08CD
03F2027B
0D9DF507
F9FCEE40
F1C710EF
06A6DA7F
0ECFFECD
0BEB01A5
FA4112EF
006F08AC
FA32012B
F8EC0183
0DC6021B
0718FC68
F60AFC32
FF5C0705
FC55F9F5
FDB2FEB7
F413D882
DC89F362
F633EC6F
ECB7E35B
F9DEF859
002BFA69
04BE05BA
10CF0CDC
0364021D
07201EF6
0D3004F6
01FDF8E3
020CF39D
0370FA0B
0599F895
000701CF
043604B2
FA47FC0E
FF130A1A
06B2D9E4
EDBEEA79
F9920BFC
115403ED
027905F6
0CCD1082
0D0F01CE
F94313A4
FC9F0979
FDBC01D6
07D5F5E9
FE3C0F3F
EAD7F6D4
FBCFF91E
02FA0063
1565F739
06000702
06AFF58D
F65F075B
08E3039B
E7B10DDA
03AA02B7
04F20E7C
031B0994
EE5EFD71
04080393
F07009E8
F9250020
FB8DF597
018101C4
EB8E01AA
098B02D0
052C01E8
016BFA09
0281FA81
ED5BE249
EA48057E
05D0F417
FC3B058D
F64D033B
05BCFD5C
02AAFCD1
FDD50C6E
084A0C0A
FEC3F82F
EA0604D1
FC8103C2
FCD7FDFB
FF740256
010CFA4F
FD54FB8B
E61101FA
FBA3F7C5
FE3B08D9
F73801E3
058000D9
FB3DF329
065BF9F1
FD8B0820
F11DF038
01CF0864
F91823CD
036803A3
0DF60A03
0A9002EC
E9DCEB1B
004706A8
F99EFDFF
01180579
2666FD6B
099F1088
01D009AC
027B0A42
038AF317
FE66F943
EA97F98A
F98DFC29
05D00ADA
07B50603
00440390
FF94000A
02510480
0AF7FAD5
02690D33
016DFB95
F4D0F95D
FD990644
FE21F45E
03E40194
01CE1DD0
0E91FB89
F1B8091A
FBB1F55C
0B3EFAE9
03FFFE77
03191521
F8D0F4C9
0542F998
F9730367
013A012B
F46401AE
F7E3F45F
FA1805C4
1D67FFAC
02000886
E918FE3F
0406F157
03820BAC
FD5D0139
00540131
05630A69
FE7E0178
FF65053F
0541FAB9
F6A90319
F6FEFCCB
FC061898
FCD4F2AC
12DDFCD5
13C80A07
0708F93F
011901E3
0482032C
0BDDF486
FE410042
0171F747
FFF00273
F6A800ED
FC3BFF86
059F057B
EDCBFACF
FC9DF572
FF62F551
0535F757
0F76075F
0F6306C3
F70507C7
FAA20034
02D501C4
050AF868
FF60F41A
F092FAE1
F4F7FB35
FDEBE7CE
01B8F946
0102FAC6
07F51226
F8B9FC56
FE4EFDEC
01540561
F99500CC
0396FAD3
060B18F1
13F5F29F
F92A08CD
07251189
00C1FF88
FF080CF4
0E74FFD6
0E4DFE16
05EC06A5
11E604F8
057305FC
123408CA
03C0F11E
F4C50207
FC50FF7E
FE43FCCF
FDC5EEBE
0CE7FAF8
05B3E5C9
F89E16EE
0551F363
042E1008
000DFF90
07140388
06BAF1FB
06870E55
01C0068C
F561F7F6
F37E0637
F186F05A
EE2FEE89
F4770AD0
031903FF
09C20B3A
F1440C80
0D0B0008
0F1C15CF
FDB2F0D5
FDD0F202
0106FEFE
E52DFEF7
04ABF8F9
FE94EC10
05F2FC42
0980081D
F9F30F93
1E27FF8E
EAA00299
EEDEEEE2
F467FFE6
FDECF9D6
09C5EA97
FE8A0E54
06E0FD5A
028C06C0
F5A3F3AD
FAE1F0CA
01B10E4E
0231039F
02D5079B
02DC08B7
FB60F53A
0247FB28
01B505C6
FF8AFDE3
FBE70005
FDC40847
D3AC0407
01C2E366
02D83374
3AE30154
F4100D4F
FFB7FE20
FDD8F8B2
032FF16E
F9330591
FEF2F981
0450FACC
030A0B9B
085DFDCE
07B7FBA6
FF1B0950
1B490FBF
040A03D8
02360A21
ED8305DB
0878FDD9
FD340533
0EAB0944
01AD0C67
EE9805E3
FEA90839
021D0740
FDCEF9EE
E9E1FF34
130807AF
E9A3F982
0360F85F
01C5F06A
014B00BE
0C3B0855
F40E0484
120923FB
0D8E0667
F46B042F
0EF41AD7
04AE0690
FD7008FB
F6C00184
08A6F657
FD5F0252
03B7FEE3
F5D70160
FFD7FBEC
0043F1AF
046F082B
00FC0174
F9EFED06
F10D0876
1B77FA72
FCD4F6F8
F73AFFB4
FC15F6F8
F3111725
EDB6FEFB
FB5C01E3
FE1F1165
0FF5F2C5
FEFCF9FC
F656FC2E
EF01F4BF
F4ABF742
F97902F9
0215FA93
EA0BFDEB
FD16FD5D
DBA6E9EE
FFAAEA1F
F638FD0A
FF43FC47
0A66FEA9
FBFD0B20
0C0A0571
F4CAFAEC
FA9BFCA9
F5F9ECB1
FC77043D
FE5BF1DD
FC6B023E
03D30ABC
0FE9F413
FCFD019C
FEF701D7
06BA0820
07C200FB
06630CD7
FA2AF0FD
FCECFB61
FDC80653
037FF12E
053C0551
FE31F8CB
FDB4FD27
FB5CFAF1
01C9FFEA
FF2A0149
0573F101
07C6049C
FCC3016A
0BF40353
FC7F013C
0037018C
0B3800DA
04F9FC97
FB62EC61
01BAF4E1
F9E9FE21
055AFDEC
F62F02BC
FF76F930
061C0195
F3EC0233
FF4C000C
F982FBBF
F0F2FC1F
007BFDB6
FB00EA54
FC1CE57F
0230FD5C
FE96FA5A
07C201DC
F407FFAF
026CFD70
FADE074F
0A46FF4A
F64C09E7
165A0233
07F9F7BC
0E532009
1ECDF581
F5760E31
0216E976
F916FB97
02F7013E
FF5BF6AB
019C048E
FE59F804
053DF5BF
EED400D2
06C50BBC
F8740746
FDCD0193
056900E5
0417FE18
01A00522
FBDDF9EF
00D707A3
03A6FCB4
00FFFDEB
00140693
F43A068C
019D04D6
0197EE28
FB9C01F4
097FF7B6
F3040472
04420A64
0430FF8E
F9C10058
01EC01B9
0035FAAC
00E7042C
0F8A0889
F91000D1
05270852
017BF1EC
FEB710AE
0A4CF439
F527ECC5
0D3606AA
09390C6D
FD320A34
FEACFD01
060907DC
FEA6FC75
FE520664
FF8805BD
0814082D
06340896
038CFFAD
08440405
05B606C2
F8D8F7A9
F8AF01C2
0010F3E3
FC200459
0640F40F
F2B3F978
FF760A7C
00BBF2FF
F8B50061
028008FF
0725F991
FED70491
03FCFAE9
F84DEC33
F3D001CC
FF45DBF8
FB8B0BF2
07D8F274
FA7E049F
0EB40B01
02B7FD33
F651FD00
0D90087D
EC6D02E1
F98DFBE6
F9760165
FB1501E0
01B70C4E
08CAF263
F7E9075E
10F8FCC2
F3B91F35
1EA5FBB3
F9A91473
FBEAFA4A
F93BFC7D
0177F6DE
02DDF74B
FC4901B7
0A0B04D3
05F9FE4D
05E30A6D
0B57F993
FF98001C
16E1FCD3
09CEFCB5
162B1BC5
DC000342
06430832
FCF1FCD4
FA1AFC2C
FD91F461
F697F762
F9860260
060700DD
0194F52C
FA1BEEB6
FD460A68
04B426D7
08530C78
081C01B4
09EAF1C0
081F1342
FCA301A9
FF5808C8
FBE6F96F
04CCFC48
06BEE904
F4BD0BC5
10EB132B
EE61E4D6
F6B3FBCC
09F2FDF3
F56F007B
02D109C2
0A490167
00A30DA7
F6DC0D3E
10660D0C
F819EF4F
E840035B
00D0F54C
F1A315FB
1215FD38
EF62F359
E89FF48F
F807017D
E9FCEFF5
E9DFF341
0DE4F7AE
0EF30FA6
0A48F90B
EDA816F5
0D150350
F7D207BF
0726F4B1
F7DEFE8E
099506C5
02220775
FB99016F
0D7504F1
FD090660
072605A2
F5740C73
F2AAF00F
F923F781
F74506AA
F3EBF957
F321E663
EDD2FEF1
036E05AD
01ED0870
0B95005A
FDAB0082
0A770CFD
009D01A8
F7110CD8
FCECF966
0C99F742
03530B07
0285F923
FD05EB9B
0D0BFB13
FEA10C96
FBF0FE58
FC4E07D0
F839F14B
FCA6087D
FF36002F
092C016C
FFA2FE38
FB0D0DAE
0BEAF10F
FB43EEBE
015DFACF
FFF60335
FC630224
0939F95C
F91A0276
03190EDB
01D5F840
FE46F294
FF4417E9
03A1FFA9
FDFEF099
0A1D0E90
FF620707
0E0B1623
0BDAFDD2
03F5039C
035FFD21
F7040590
F8BBFA1F
FD7910FA
0DB8FA79
EA76F827
E972F658
F958F2FE
F718F819
F982F5C2
F609FBB5
FFB6FC0D
F5DC05D7
F2490129
FFB5F288
FD0DF441
012CFF66
09120460
006DF82A
F97E03CB
0248FFA6
02B0013A
F2B309F1
DB330312
FF0BEFCB
021702CE
048003B1
049A06FC
FD4200C8
03E60113
F407FCB8
05020716
FBD9FB07
FD3D03E8
F03701E8
FAE80B94
0A42FD6A
F967F8BD
077A0104
065B03B2
08AAECC5
FBD00411
050BFE70
0A5B07D0
0CE00EC3
18DD1837
0419FFEC
0506079D
F5ED037C
FFCAFF8D
F8B2FD39
FAC4F203
FB17FCA9
FD8300FA
025A10E6
098B041E
051B0427
0B021775
12B80E31
0B5C1060
1CFF177B
0376058C
F940127D
FE85FCFE
0296FB99
FB7CF70E
FBA90A76
FE09FC05
0497FF2A
FE900163
FADDF52F
F8E80A0F
02EAFE86
FFD70E25
05D7FD2E
FF32FF13
0F120A35
FF690AF3
FE63F280
FED3F7B3
F9D31195
0535FEFB
15DD05A0
0045EB68
09D0047C
21C7FA0A
FCD8FF94
099E1DCF
11F50CE4
01480920
FC861152
0043FD95
FF400014
0BE81F2C
FE2CE77B
F65BEA9A
03A20B92
F99AF8E5
099AFE5E
FF21F782
ECFF0180
0703FA78
04AD0959
0B320305
07870874
03B700F5
026BFD64
02A90005
06DA0C27
FB58F913
FD86F9ED
04030593
04BC03B8
01220737
01FEFA03
FF67FE0D
FC900226
0017F8AE
F0220C7A
F539107F
FC94F001
0A53F949
03C10492
0E810C50
E810EEDB
0CFEEEB5
0E2A0A8D
FEF1E753
F4C1F506
FA84F2A5
0515FBF3
FB6A01C0
F57AF163
055C0250
04680819
0ACD078F
102F05B6
F6B407E4
F530FA87
FE50F9F7
040CEC87
DEB7D72C
0B3D0061
FE730A92
05A0FC6A
F79001BC
0A140342
02F3048C
FF4FFB98
F2490696
FA8D00EB
024AF5AE
F5370804
09100B0D
FFA2F50B
083E0C80
022CFE7F
01CF07F8
0167F99D
F698046B
056A020D
008DFB47
02220C22
FEDCFEC1
FB02013E
FE5E05FF
0DB300BB
E9EFF9A6
E126D8AF
FC3F0500
0CC4017B
0648FFD2
037F0C2F
08930AAF
107B0670
0558045C
0668046B
10A90C9B
F65CFEE8
05420DBE
0BE4F00E
046F0578
E9AA03B6
168AEBBB
D3320B11
1037F7E8
0E63F57C
FB2E0033
00BB05B7
0575FDCC
FCD6FCA4
08F50105
EF3AEA1B
003B078F
08DC0F38
053BE9F5
03BA013B
F15E0738
0311FA89
0FE90C6F
009A02D7
FF7CFFE6
00DDFA45
F35904A2
05AA030A
F76B0C7D
02C1FDAD
02B912F2
08D20A3B
F6910F6A
06EB02FB
0BFCF540
0739072A
091AF937
F1DDF8B7
0739EA0A
0085F0D7
066303F6
FA1008E3
08910694
F5E7FD85
0106FA3E
F2BCF3C0
E7D6045A
EB2FFB35
071006CD
19B10A97
FE081121
03A000B6
F595FC5B
0A77FBFA
E5070AD0
16BB0C98
04160D3B
FFB30181
F0A600C7
FB67FD4D
005EF675
FACD0251
084A0369
106D10CC
FBFFF694
F5B80B60
04E30E4D
09230474
112C05CA
EE0BFC56
FF9BF2D0
079DE36F
00E50CF8
F976FAFA
FD56F75C
007306C6
F58BF2A1
07C1FAB9
08C0F2AB
F645043A
FA0800A5
FC4CF29C
0831F2F5
05CC03FA
FB641828
0876FC1D
FC54F7C8
F4B8035C
FD50FC57
099A0141
1696013D
0C71053E
04710206
05710618
0CDD049D
FEA006B0
F8F7FCF9
FE78F7C2
02BA03A2
F891E9A8
FCFDF734
F7390790
FC4AF378
ECD6F955
09D4EC83
FF5003F6
04880305
F82CFCB9
FCFD03EB
05CC044A
0A6BFB97
050A063A
059B053A
0BB8F79F
FE700D45
02BB0C1E
FB22FE6A
0CCD0B92
04180954
061FF98A
F710F4B9
076AFA0F
0C260B28
0663FB4F
F03A0464
1560FD49
FE4F0A50
0EEF0855
0001F441
0BF707FF
0198F85B
FFB506C6
04F0F8AA
17B7FB20
03A80731
00461978
FBF7FC5C
011D02EF
0696039B
FFE20374
F449FB77
F5D3FB94
078B0AE9
FE7DFDF1
F291FBEB
0DB4FE8D
FBB80B7D
0A62027C
080B01EA
F5C40ACA
0E01013C
0616FC59
058BF587
F6010156
F9040229
13B6F50F
F8D40811
0A6F0DEC
0CB20C50
F7DEFFE6
07A20500
F6C60C02
F79FFA3D
07A00F8F
05D10BA9
02B2FEAE
FB0504F3
F72D014E
EC49F5FC
035FFE43
0058FF1B
065EF92D
00EBEF1F
EB42F3B6
FE69110F
FA60EEAE
FE1AF38B
04E70AEE
048700DE
02230D4E
01F30286
0DD80095
024CFFF7
F79107C6
078C0EA2
FDA0ED7D
FDC60034
F917FA3F
FC1907D6
0A16F8CC
FA6502E3
0469F5F4
0D5FEF8D
07CEFE5B
035F1614
F8F2F918
FA12F5A5
063EF916
13991084
F7A0FBB7
F6D7F95F
F73CFA63
F38DFD9D
FDD8F43B
0A50E98D
F2060961
02EA09B7
FB4CF2DE
F09BFD10
F2E9EED6
EC2DF9A1
02A507AC
FF0C0018
09EB01D0
FDAAFB36
FE2F1105
0930FCA8
077CFC96
023D0F05
04F0F963
FFE6FFEC
014E016A
00CFF8CE
0ACD028B
04B102E1
0A2F08D1
01B3019B
FA6DFCDB
FE1A02FC
FD8FF7AE
F1CCFE02
EE14F57E
F3110076
FAC3EF9D
010500D7
F5C2031F
1B600D69
2174050E
FDCE1538
02B60465
026DFAF7
00740185
0AF501A0
FF820208
FBF0F827
F0ED031E
03F2F95D
0AB9FE03
18A50D84
020D0FE0
0951F838
11130710
066D12D3
FA270357
03A2112E
FED3F086
EDA9FB9F
02D5F6E4
F854F639
F7AA015E
FC48FA77
027F00B7
F09CFA91
09C2FF21
EFEBFE7E
0244019E
000BFA20
10FD0DE8
0FEA04A9
FB041ACE
0F7E08E3
FF8AFFB9
FDC30036
FEF9EFE4
FADF03F7
F998FAFF
063202C0
FF6700ED
13000788
15211AF5
08FCF8A3
F3B9FF35
F83804E7
0990063C
FAE70328
EE87EC73
F87FF8EF
04D4ED53
F4D0FB2B
FE920044
032EE7FE
D87516E3
FDDBFA73
F59CE88B
0A6C068E
FAD1E8F4
FA7E1CBD
0E15FDAA
124C0417
01CAFBB9
00D4097E
FF23FF76
F71E07C8
13B8F2BB
F5C00639
FA4E00C7
F35E0111
049A1062
0EF200D2
01D20057
FB37FE80
03170CD9
0A52122E
086C041F
F822157B
FB28F03B
FFA9FCE3
FE77F4A7
0BF3F740
0BF30671
05340335
08880C35
095813E9
0479064C
FC77FEB5
F8C008A2
08D7FC89
053206F5
FE360536
FB480BE7
ECACE990
1D17149B
081D0F01
046FFA77
088AFBB9
2DA4DE4E
D6EC030B
F24DFEF5
F718FAD6
FA60F4B8
039C09E1
0400FC2C
0150114F
F1E1F489
FBC7FEF0
12810C3B
F8ACFD3F
0339F000
F8E004EF
01560287
FB6C01B7
078FFFDD
20AE0F5E
F3820BAD
0F83E2E2
F78AFBA8
01E0FD85
EC7A101A
0BFFFA94
F86806E6
FA20FF33
085114CB
107B075A
08DB07C4
FEF0006F
062D008C
01841350
F72F0885
FFB5ED98
F979F835
F8CBF3E6
FCD80341
0827F577
01890353
01F2F49E
14580FC2
ECB3FDC0
FCA3014F
FD300147
0DD40922
F3910805
FCADF147
01F80478
04C6053E
002D02CF
F43D05B1
01C4F4F6
129E060A
10E3F4DC
F37DFC52
13A9FFD3
FDE20623
00BB065B
0E5509AD
FCDF03F2
F0830032
02BD04D9
E9E1FCEC
00DFF9CB
031EFAB4
F94503B0
0AE3FF62
0487104F
F8500481
FBB9FB3D
F14BF77E
F4E0F681
FE83FD36
F8230B94
15A710AF
EF4CFBD5
F1B0E33F
056E01DC
FAAB0610
0D6D0B56
059FF9BA
051602AB
0D3D069B
F609F48B
0929F675
0701F1F7
15EDFC55
0B8AF7D8
03FEF3C1
F40EFBB3
FF4E00EC
FD5AF895
02ECFD52
E87BF885
FA200330
FB76FF60
FBBC0C42
04ECF7E1
FBE3082E
044A09EB
FEBCF554
F832F53B
FE90FC10
068F0178
0B94FFFA
FDA8F4FF
EA230450
FC710791
01B10187
F574FF18
F6CB0793
142F02DD
DFD8F3FE
026509B5
F23BF885
FD59FAA5
0B71083D
0774078B
FC91F8FF
061E0494
FE4F0404
020F022D
E93E010D
0F43FE2E
0488FB2C
099C0508
F7F4000B
01DEF47B
F718FE0A
0D70064F
F332FB9F
FC85045C
04771800
109C0A60
FFA8EDFA
0153F9B2
FAFF1618
0899FBE9
FEA40D69
FF20FA15
0969FD6E
F5FCFB19
F564F5C7
0AD6FE93
FA01104B
0862EDD1
EB5CF904
02810555
F185FC47
F52A0AF4
FCBBF707
08C2F3AE
FF67F83D
EEE809CE
F8D7EEEC
FB58FA91
FA96FB23
09290582
0CECF871
057BFA21
FBBE011C
186F02FB
03E70769
0B35F6D5
F6FBFA81
F88FFA3D
FE480397
0AF000F0
ED6F0201
FBA5F8F0
044C02D7
FD2403EE
F0A0FF08
E795FC9C
08A6F146
1A6B1060
0111FA8D
F22100EE
F726ED5D
038F0353
F299118F
FFE8FEBC
3CA0195D
0B061424
F9F606F5
F0E5F918
01C3F843
FED204D8
0D69F2F3
FD50F32D
B5B30EA4
10C21BBC
F8F1D492
FF7C038E
1FC4F8A9
02BD0658
0A3E1B36
02BE00B2
F77008C7
0F91030F
FF26F9BC
FBBA030C
FDBE0634
EF4AFF30
124DF4EC
18BA0111
FAA2FB9D
F61DFE71
F40AF9AA
06DC054C
03C2FBF1
FF16077C
0433F94E
F560F743
E9C0FB14
03B4F34A
0AB10E00
FB2CFE42
0CC0FF5E
014F02F1
0F8C0DCE
0C5AFE35
F44B1ACE
0F3AF359
E7B805CB
0F3FFB3C
FDACF8D9
03D30766
02740AF4
044310C3
008803ED
F5EF04E4
0037FA26
0AE8E550
F7100555
07650B2B
FFF205DC
F877FE46
0FD81926
0617FAB0
FE02FA2F
07F01267
F4E1FE40
025A08F1
1011013F
05D8F768
FE37015A
F6F9E9C0
F258FB81
0411FE49
FA0C0168
0057F874
0217FFA2
EFBB00DE
0063FCE6
0253F70B
F904ED0A
07CD0E43
0669F98D
003C03A2
1F5A04DD
03F30539
03650999
EF45000A
0E800DAC
040B0F77
FAC20480
085CFF42
0A1B0A9B
14D607E2
FC3F1938
1296DBD4
E76606D9
08A2F4EC
FEEFFC88
11BD11B7
F44707C4
03C7058F
00AEF222
130600FA
06470973
F8760BA2
F758016D
EE47F72E
038BE103
F76DF561
06710316
0A430CF6
0BA0E797
F8FFFE09
00C2F397
ED530E8B
033EF72F
112EFD9F
FB6FF2BB
1396034C
F0A1F911
08F2F1A0
0A2A0C60
084504B2
FF8302A5
FBC0034E
13DE09A0
0D260EE1
14F50DE3
EC0A0B7A
15D2EADE
FD0CF6A4
FBF309AE
EEE5FE47
1340F890
E688FB06
FD74135E
0985F638
0657FCE5
FC05060C
0E350C8B
F732F8B0
182EFD77
08180607
F0FDF100
04FAF534
FE4DF7D1
F8E4F936
08A801C8
FB40FC28
FC230838
054AF128
F2C91BF3
05A9FA15
01E1F61B
01730A0E
ECDDDBAE
EE31071D
1C63FE06
1B6C06AA
FC800E93
FFB00352
03E501F3
0229FE57
04450A97
0E3215A7
FDDAFFB4
F8DBFE1F
06FEF732
F76801DC
09A30281
F850F4BB
FF34FC9D
FD6A097A
00A9FC88
FA1BFDEF
0076FDC5
EF1EEEEB
03A4F1E5
05791621
035CFC79
FF0AF9A2
E886E49D
FAD9F7CA
ED360F8B
0726E515
00000141
0C9D0C9D
F05EF789
F881F441
FEF5F777
05B10A6B
FEECEBA2
E6E0FE1E
063E0A16
05A7FEFA
E1CF0622
0CC2FD13
195CF605
148A0923
0D370DA9
04FB029C
037AF623
0112028D
0435FAD6
0713087F
059DFF3E
058E091F
FBEBFAF2
081C0972
F5B3FA55
F5BC0385
FCD0F9F1
F9EDF77D
F59EFFB6
FDB9052F
EC69F0B7
F9940BC4
072D0CB0
FC9EF58E
04040AD9
096EFCB4
0554F36D
EBFB1C9C
FACCF8D5
FBEFFE3F
0386FD3B
FCBCFC37
00880670
FDB60194
F714FB40
F718F375
FE2402CD
01D4005D
ED35E98F
FF69096E
FC62F2D4
0847088C
1AC1FC63
FE92098E
FD82019C
02A60622
060A0B9E
0C03F4C5
01F0150C
FBDDFB8C
F56B01E1
1789FD32
FB02FC6B
059E08F7
FE9FFC9B
0201FB98
0267060E
02D9FC93
F91F01EC
014CF219
F11F0877
F606FF46
FD890D73
FFB318FA
16A30A0E
E0D0F4E3
093AF46E
F80DFD01
04B7FE0D
F82A02D6
003AF789
FDB4FB37
F0C00394
084500D3
016800CC
FC99FCBE
01D6F7A8
FA11F047
EF64094A
F958F998
0357FD28
065702F9
FEB606D7
F0D8019D
FBDFFEBE
01DF01C6
02C10655
FC46FB89
009507F2
01A40099
F3620A7B
055FFBBD
01C8F678
FC731016
0FBF0800
FB87FC09
009A0494
00E4064D
F838F360
013EFC6E
0C6B133A
034500BD
0A50025C
F8A909CF
0A290C4C
1749F8B0
FCFF0A94
04B924FE
0002EB2E
FEEAFA9A
028C05B2
0401F27D
F22007CA
FD760141
F646FCC9
FA84148C
F686F6E8
034EFC68
0652073B
FFE0FB7C
FD7CFED6
FCACF7DE
0D2D0796
F63AFEAF
F8E10445
F4EDFFB5
0107F969
FE4BF7AE
F532FED8
0162F539
04CF0484
FED70194
21AE04A9
0F81F094
E90F01DC
F5BCF51E
F55AF4C3
FD5AF6F3
FF6D0259
FB3601EE
0951FF21
FC26FDCB
EE1CFB7E
08E7041A
FDEA07FF
FB36FC34
EBE70BA4
FD99EE59
F7E30570
00720458
F774FABB
0275F459
FE6AFCEF
01D90284
0D31FEDC
F2410389
09AF0BA8
FA520715
FEE007FB
FA45F8D8
0340188A
0AE00854
0CE303BF
FBB8DF22
02390026
EB011064
EB4FE278
FD4A09E0
04CA0645
F599E9E7
FC31FDF3
FF3A012E
FA0EEF46
FD6BEBE9
F3A90650
F47EE9C4
FF5801AD
006CFC3D
EF9BEEDD
044706C9
FD01F8EC
F98CFBC9
F3C3F765
F6E70275
0732FE2E
075D16E6
1341133D
0CB4F0FE
12650F88
EF450E10
087C096A
EE34E879
F6B01390
0512008C
28370B12
DCC3FB1A
0924ECE0
FF71F9A9
F45D0710
07E6ECDB
E12DDF4B
F8C2FE39
F5D4F3F0
10D90C67
0791FE34
22A603EE
FE2EF9C8
01000B00
023F00E1
FAC00882
F75CF102
F9E5F7AD
02A2013F
0490000F
F7E106D3
03E3F7C5
FC2DFF92
0505F92E
01B9F148
FF9CFE5F
0208023A
039DFD54
03E0FC75
EAFDED43
F5B80476
0293F77A
FB7F031A
038604CE
FA35057F
06C20A85
068001E6
F1120E53
0105036B
FB31F885
FB540E85
06D1004D
F8A3F244
F7E803A6
03B2038A
1DE502C7
F8780A1F
0339183B
04D1FA1A
024003B2
F86B043D
EF19F303
FF1AF885
FB500DB4
077AF595
0228F46C
0745FDF6
056D016A
009DFFF4
FD3E05E9
03A90484
0F16FBD8
EC46F13C
181F0CC2
099419C0
0AD1093F
F1CE1201
FB6FE577
FBC9F5B2
F5FCFE17
FDD5FE40
FE7C019F
FCB9FFB4
F334FF6B
E9FDFB27
F082F389
F9CDF771
FDF9EE90
EDFCF975
F6FEF6C0
022E078F
01D7FFF6
12E7F88E
04D02333
1DA7043D
1302F79D
1696228D
F6CB06A0
0F510898
097A1A28
FD97FD9B
F882FDFA
FF60FDD7
FB850104
F65C01C5
044FFAD3
12C003E1
E73308A8
04C6FD72
FDD3FE88
03A9FB60
023CFA0B
1801050E
FFBC04DC
FD3E09AF
016A0D64
0689FEF7
FBF012D2
077EF851
018CFB0E
F0F3FECE
FBBC04B8
FFAFFF18
050C1128
EF7310B2
F66CF922
015206A1
F26713E4
156E08A0
0960F3E8
FBE9FD05
0A300103
F3BE0093
FB98119F
FFCAFAAE
0319FFC2
EE1FF81C
054C00A1
FE0802C0
FB9C0066
FF9DFDC5
F9EAFA0D
06F10242
FF73033D
FC76F886
0426F32C
037AFABC
06D00B5C
12260B0D
F6920E96
F03BF2B2
F0F1FAB5
FE07047C
F9C9F986
08140045
FE860232
067AF95A
0B15FFA8
FB28FE1F
FE2BF9C5
07940080
0980FCD9
FF6B0363
F58100AE
FF7BF877
FD661374
F943010A
037EE2D0
01090682
D655069E
038B0206
FADDEF79
F56CF709
F95CFEBD
0441FFE4
F396FC33
0BAF0280
F53AFFB8
ED81F6BA
FFB8F8A7
0DCA1405
0889F584
F7DAF8CE
FF040293
F5A9FCDB
FAF9FFA9
F63E0134
F740FC1C
EEC0F9BC
F170E149
0018F629
05C2F568
036C0854
0BFE016C
F6D904A1
FE19FC95
FF36F981
FB77F963
F63CF0A5
08A200DB
F6170518
F67B0266
FEEAF8B0
0341FA18
0373FE8B
FC41FC88
0198FB1F
FDB718DA
F92DFDF8
05E3FE38
FDF3F7F3
07070A61
01750520
0058F070
F4BFFB59
FCFFFA6F
F9E10420
EBAEF698
FA71FE7F
FF08F868
F5FAF9B5
FCFAF61D
F85EFF93
02920139
03250D97
0C72053D
1016044B
000C06CC
01CC00EB
0860039C
091E05D8
07DB0772
FF2EF67D
FFC404F7
F9C4E85D
FB96031D
F1B0EF67
00970519
07FE0401
EBE2FC5B
EE97F7DC
11D3FE11
F5BCFEC8
FC9201BC
099EFD86
FBF6015D
01CAF871
FE890382
019FFCC3
016DEE7F
11DF12EB
02D10972
063FEE0E
FD23FA9D
FB9B0491
F902F0E9
0ABB03A4
FECD03CF
FC11EA51
E7E0FE07
0722FFA7
FB8AFE36
062F01DD
FE510544
08F90EDF
FBD80049
EE45FCE6
135700F2
FAAEF22F
FBA914D0
0AC3F79C
00B6F771
0C04FA5B
0C7605FA
07C9092A
101F044B
EDFCF127
F349F860
F9F5F715
0A2000B1
F93D15FB
1036FA42
FCC7ED2C
F2600789
FB6AF87C
FACBFFE2
02AC014B
0225FD8F
FDD8FFAC
EE79F3F5
FA93F5C3
F1B9C90E
F4210105
00FDF37C
0A2C086A
053706EC
02D50B92
FEF6F828
FD3AF4FA
F5F6F64E
F0D0FF51
EC71FD8C
0B27F2C5
ED61FF0A
EC97EE26
F839FF46
FF98EB33
F843110C
095C09F1
1A0D0879
073DF4DE
FD530711
02010023
054B02F0
0377020C
F429F4E1
0B22F9A7
FD66015C
FA42ED15
FBD105D0
0279058E
0678FB74
FF830153
001AFBE9
FE660D35
3757E8AF
D51E1A42
0918E8D7
DFE4FDAD
0F010BBF
E87D0FA8
FC170221
FC65E46D
F2CAFAC6
06ABF8F9
FE08F53F
FF1A0E97
03A1F8E1
F22CF9CA
F212EAA1
13F8F9BA
FCF4FF7E
05DF0885
0891F9B3
01E4F839
F302FFF6
FBC902E8
FF5A05CC
09BD0E60
F2A9F20E
FC1CFD2F
053D05FC
08200383
0E66FDF9
F7051229
016B06DA
FFF3F3B0
0751095B
0E92FF5C
ECF0FFCD
F5BE0DDD
126B185F
06C8079C
F626D739
E7ABF1C7
024102A7
FE8C04C0
000B0781
04BDFAE4
036B0DA6
032904EC
F6DFFC98
0AAC05BE
098100B9
01BA05CC
0AE91217
01EEF152
F5ECF8C8
022A0450
092FF4EB
F5A401FD
085908C6
01CEF92D
070E0118
EFC600BB
04952677
103FFA32
FF6A04C9
04910A89
0D58FC1C
FA03FA31
01C50709
FA41F804
0241F7D7
08DFE272
FE60FF54
0E280544
0400079E
01D20783
0142F2D5
02B70947
F511FD4C
008BF74A
EC66F053
ED90F9E5
F0D0F084
04E3FE84
0634FB58
06F70A44
FFF5F379
04FA00BE
0482024D
039D0757
EE15FC04
03A8F243
F7A7F548
0EEEFFC5
F348FFBC
189926CC
0A3A0478
FD400A4B
F407FA72
0001FB4E
FD69F44A
FCC50075
047506F5
01B50704
09A900B5
03190775
EC77032C
0B301076
F9E6EFAE
FDD2067C
FD48087A
0B88FF0A
FED10A6F
0D49034A
05F9042F
FEEF13E7
06A4135F
F038F85A
FF9DEF0A
00871056
EE890F0B
0872FFCC
12C6CB59
00C10041
001E01C6
041D01B8
E3D3FDEA
09E9EFEE
EBCDFA82
048D0517
FDC302B5
F3C600F0
07EBE449
0418030B
F03CF270
F384FF64
0F0A06C0
02930A7B
0F89FB9E
F2FBFCAB
0C5A088A
0142F59C
030003AB
F148E43F
039FEE7E
FB5EF42E
F4160590
02CB038D
070C01EA
FA1FFEF6
F25CFF83
08D2FE18
026CF84B
FF3D09F6
12A30888
F76DFD57
08FD0814
FBD7FC2B
04400DF5
06D8FBAC
FA1A0213
FD4DFEF0
03DE005D
0296F8F2
FB2601A2
FB38FA10
087FFF35
E6C1F70B
004804BA
076D0B0B
FC0D0B2D
FF8A0954
0015FD18
0E4908A9
0FB40A71
F084F2EB
FF680EC0
FEA5FBE0
FE3AFBBD
F9D0FAC6
F5970094
FCFDFA7F
F8B2FD15
0B20F8E1
F62306B3
021EFE8B
12FD0804
F86811DB
FD64FC84
FB22F67B
F9D8F7AE
F9BF0816
09B2FF4E
F97F02AB
0619FF82
0D45FAC7
0225035C
FC080542
0B05FE92
00E805D9
F8A901FA
1235043F
FB530E3F
FD4A0338
F50B0E52
09B206CF
F27AEAC2
F6EA092B
111C002E
FB040337
F70AF4EE
0350F581
0308081C
FF29FF17
0265F98F
004CFB44
111BF9CA
F7571AB7
F58BF664
0F04FAF2
0778F885
F2121180
FBA0F669
F99800CB
01EAFBBB
F8DFF838
00ACF555
F23DFB79
FD2902F6
0EA001A6
F8E20224
07E3FA91
F81C0564
EFD8021B
05AEEB6D
0F8C0FFC
F3A2F7F1
1933F885
F7FBFEF4
FF4012D2
E7EAFDB5
FE4EF783
19A4E1A0
0802FCCB
04B821D7
F95BF7E1
0097FA2F
FF620822
F9C6F714
001C0123
050C01C4
0C7E0055
01E80424
FE990682
FE39FA7D
F973060C
0114064E
023EDD30
F8FA12A7
EFCDF934
0C7A0FC5
F5CCF05D
F89F0069
1435F883
F5850071
FC49FE33
F3BFFFEF
0C6AFB59
02A5F1BC
EDFC0DCF
16B3EF8E
E901F2BC
04720626
FDF2F079
04CAF8D5
ED59E743
FF1AFCE4
FA09FF4F
FD19F66D
F1FCFB78
F2AAF1FF
17850D11
04190957
016202E0
0C0011C7
0662FED1
FC78FA4D
10E306F5
E5B902D9
0AB5F83B
FEBCF128
EB36FFC4
19E6074B
F207D86C
F6600175
E616ED0A
F8CE05BB
E72CF983
003FEE41
FB4406C2
FD0FF9FE
083F02F9
0023012D
01D909D3
F8120259
FFDC2397
0E29F5FF
F7CF015C
0724F946
F0890102
FA6905DC
EA62CC0F
FAD6F908
E2FFFC8D
0478031B
FC9FFC7B
067607BE
FF64F084
00A6F9AE
EF6E0D47
0A1D148F
FA4801D4
000FFE78
00E8FEC3
00DEFC43
F51F021B
DB8DE096
D3511652
1A53E16D
F2770286
FB2EE72B
03E90F91
067EFD85
FDF2FD2C
F275FB9A
0D070481
06390CE8
08C00F3D
06D0FB73
029BFA19
030A0626
E2B70BC0
108AF961
04010D9B
F26A03BC
FAADF025
EE9DF97D
F87E0187
0D72F903
11810C73
F7C50422
F2140BB4
FEB7E246
045903C7
F6B9FC78
FF480CB2
016DF353
056EFF29
04C4FD65
1403044D
0A8E039A
F7701F33
0044F945
FC390378
0406FADB
FFA2F826
FCDB0267
FCEEF7C4
F271FEC2
020A0FA4
07140473
02C0018E
F6AB007D
FE40FA8B
F82FFB71
F46EFF52
0C56F9B8
FB4C0783
0A5BFA39
F1D80A26
FD28012F
FD340C11
040C0665
FF1AFE08
04410137
ED430715
F397FE45
FCE6DC1A
02F80099
F95409CC
FD8802FD
FA9CF97C
0914001F
001AF8B8
0137F364
F1F5072F
0CA2F991
08050F89
F71607EB
047E0768
F2FCE7C3
FEF40297
FECD021D
03490AAF
FA43FE93
05A00596
0B6CFFE0
0406FB78
05ADFFCD
028E0590
0681FBE4
FFE80A22
02A8FD85
1164FC7B
FD81FB62
0438F54F
F2500317
041BF98A
FF17062A
0686017F
F7A201FE
E7A2EE50
F42BF9FA
027AF270
0A5E0ADD
FA490909
FD4B03F7
034EFF65
0916FDF3
0997005B
0C0C0415
F429FC20
FB4000C1
04510542
F627F96E
FE43FDA0
F66D0E1D
0003FDFA
F850FC5D
F576FB5C
FF21FB85
F926FD55
FEF6FF90
FEF60145
FDC4FC93
F81BFCE8
F693021C
F168F64A
F369E631
0C20F9F3
0025039C
00BC0387
FD17FD8C
F87B018C
F2160554
FB0604B3
047FFE1C
0C8D014A
F383FF95
01940D1C
0441F913
F53EF609
02C2F55F
FF2DFBD3
07E90946
FCF4FD04
FB280563
FFAA0002
F5FCFE19
FB41FCC3
F94DFE87
FF9A0018
FDF7FB57
00C302F5
FADBF972
FC24FFC7
E147F582
FFC3F713
FC5FF93E
F8880579
FD5101F3
08E201CD
0450F92E
FFFA0014
FF70FB5C
09D40611
FC9DFF65
016F03B5
00AD05B7
0988121D
0DD0EC64
F1D90535
FE5DF799
FDC1FB91
F179F73E
FD64F76F
FAF50980
018DFEDF
FB8CFD54
037B0ECA
0CDDFD79
F938F9F2
FC0B0009
1F9B103A
05EB19E9
17521793
0A8DFF1E
FA38F859
F5970561
FDC1FD0E
F8A7FB8B
F9D3EA61
D7BAF91D
032CFFAB
0A21F90B
FCA3FE56
FB8AF83F
FE87FE29
0233044F
FC630436
F85AF784
EF84F222
05920628
04DDFE2F
0408FCFA
F582F9AF
F0CAED0A
F7ABFF46
FE8FFA17
07D50979
F1250241
F78EFB1D
FACFFDF1
FF24F9B1
F6C204B1
F674F902
FC97FE7E
000CFA83
0B2F0403
02FB0383
F52EFD2F
ED03F2AB
F11FEB4D
0517F45D
DDDCF149
0B6A07CB
FAA2FE90
03DE0561
F635F840
04E2FFB0
FE3203FD
FA580271
07FF057C
02E8F994
0D290D17
0E3510A3
02AF088F
04E40CA1
05DFFDF8
0060F36A
005A074F
0FD1E629
DB7B06E7
FA8DFA05
05F3011B
05D60440
0353FCE7
FB7A09DD
07440B73
193CF8BB
FD15F9AA
F1E70462
FB7DFE2B
FED9FDD0
FE92030F
030404EF
07E2F3A2
FC4D096C
0F3F05FC
FA64EC0E
ED2D4FD8
F79FEF70
FB32EA8B
F1100307
FB69FE9F
038BEA70
05CC0627
0C78FE4C
075AFDC1
FCDC0C0D
0E8C02F8
F7910267
01F108FF
F1A2ED84
F221F65B
F6A1F353
0D8A07F2
FD5E0B90
FB86FAE4
019AF60E
FCE4F456
FE4DFF61
FB32F72B
FE96FD73
003EFB27
1557EEAA
EAB9001B
F86808CE
F932F13C
FE1EE2D1
FA53FD81
F8E60580
F0AF014F
F2CAF655
FF8A1209
1554F151
E74EF3BD
0112FB60
10051248
FAEBF39D
E8AC0355
1C6001AA
FDB91837
0C010204
FCCE01F5
FA3F126E
F48D01BB
F6A1013A
FB63E8EF
030004B5
FAEE026D
FC5AF365
01B4F012
00A10130
EDC6F601
2602E6B6
ED4F0624
0342F088
1274EA6E
EE82FA39
E9BDFB48
FCDF128A
F8FBFF81
05D7251E
03F601C4
DC1007BE
FB810C3F
E9630B17
597E04C3
0BB30107
FF1AFA5F
037BF855
FDDE0414
F9A20EBC
05FEFD65
F8470DEF
FF8C0EFC
06F9FFA6
EEE6F00B
09A1FD62
0AF1F9D0
EED00299
08690869
06BBF67A
09360F03
D200D9DC
FE820A61
1640ED29
0C68FEBA
020CFE30
FA22025F
E3C6F817
0A64F89A
FE1607DD
1B031285
0EADFB7B
03770436
F326F47D
0115FE3C
0080FB02
F675F4F4
F752F9BB
01F4F997
F17BF59A
0398FDB2
F3E10279
0847FE68
F310FE08
02AAF116
0293F2CE
02A60645
13B305A0
F768F33B
07A91167
0456FF31
0458F371
228503AF
F22607EE
19E4F58D
FDFAFD57
FC7CFBFD
09D40008
F358F572
038C145A
03D6076F
F8C20F03
EF6AFA16
0CA6031F
0E15E38F
F5C1F0D4
ED3FE6BD
F0B803EF
F1B00C9B
FA38F36C
F2B60476
0078EFC1
F78F0421
0153FB54
FC500A7E
0671055C
0335F083
021DF165
FC000800
FF41FDC2
FB6AFB44
FE90070E
0103F924
FE45FA8A
FBE4F2A6
FDB9035B
01B7058B
06C7F3AB
06210497
00C702F8
FB5C17DE
033AFDDA
04201049
0936F76B
0499FC39
0056EE19
0B0E07FB
F88E0924
FAFA10F1
03B50535
0ABDF6A1
EF27FEB0
F841FE14
FC5BFD1E
F797F198
F3C6EF2A
ED49F6C4
1ABD0758
FE4DEA35
FC1DFB6C
0403FAD1
FC8AF4BD
022601E8
00D6FCEB
F6E40333
162BF9C2
F95BF7F3
03C3063A
FC8F0C4C
0CA708C7
FB3C01D0
FE91035F
023DFF28
0BE0FEB8
FAAC032C
01950F20
0DC20284
0645F57C
0623FBDE
FAE90111
FE32FDBD
F9770CA4
FA75FB7E
1B6300F8
044BEEE7
F4C90B3F
FDE40840
F942EE3E
F98A0093
0A3D05BF
F6A0F82D
06DE04BE
FA9BEE21
F92822FC
05E4002B
094D068F
090DF45C
FAC1046D
06FAFC6E
FD591454
F0870165
2B5D0482
0741DFD7
F276FA4A
043304C8
07B30E82
0F4D1093
0B6D0BE8
0237FE6D
F693FFAC
064F115F
080505C4
FA64FB26
DC1A0D5D
0A84D03F
DB52FACA
F0FB0FB9
FFB90879
010BFE7B
F110122F
03FCF8D9
0E560318
EFB4F653
0262FD29
0618012E
079000AA
0608049F
EDD2173E
F149FC99
0D6EFB19
FE70F8EF
F2DD0F34
FEEFFF61
F7C6F6B6
03ADFC94
FDA3045E
F295FB2A
EA8C0851
0B09106B
085DD7A2
04C5F96E
FD620C0A
F3C3EACB
EE000DA1
081A070D
EE89F7A0
E6E0FB4B
F9BDE9CD
F7B9FCED
1735F4E6
12711B73
F31C10D6
03F40F31
0D550180
FD560A67
FFACF1CB
F08EE78E
0136E9B0
FF15FD5C
01D808D9
03D5FA97
0731ED76
EDC0F828
FBECF9A4
03E0FA77
F975FB71
F90B0312
00670421
02450078
F82EFF9A
0B45F198
FE25011A
EB0200C0
1ACBEB7D
F3211BC6
F13309C2
0980FC26
EE8013F5
0BF8F615
FF42F08A
F82E0F04
02A7FAA4
05CFFBA6
F73514CF
0656FBBF
0014FA31
0ADFFECB
F94DFE30
F9AF06D8
0DE50D3B
FABA01E7
FB5CFF53
FD23F21D
119E0AB1
09320A14
03B80978
03BCFD2E
FD210AC2
08A80101
0E32F003
E49BF00E
0C8713BC
FFE000E7
FABAFBE9
FC1FFA3D
07ABFB94
0A61FA00
0A5EFB07
0B6EE83E
052A00FF
EE480A7E
EC5C0587
FB65F2B2
F77F0038
FE36F281
02A708CE
045BFBE2
00920523
FAF7FD35
0434F564
06A0097B
F01D0659
F33BEA51
FC8E0EFA
FE7CFBFD
EF7CF662
09DAFA26
0FA4FCED
02B501BC
011CFF38
0B27036C
FFE805F2
10EE0E8A
F6C2FD69
090CFF6F
F7F3E058
FE6A01F2
0AF0091D
0288FF60
E2F5058C
FEB8F7FE
0E90F8D6
11DBFE16
084601E8
00F103D3
FD6DF623
F879FA7D
FA02F722
F1AC0382
0937031B
F4B9FD87
0564F206
FCA9FA0C
0976F250
10580030
EFCB0C09
01B0FED3
F8D1EA08
00D606CC
08360D68
06AE014A
0531E686
FFC5FFB3
F36AFE5E
0441FF37
F2CDE2B1
E3BE01A8
FCF8E3DF
EBC6EA14
F4D1004D
0B13FD31
F61FE132
0ECC00F7
FA0D0E27
0432FBE1
0092F6CF
F308F427
F59BEC08
FCCC014C
0005F655
0BAEFAEB
EE060871
06B402FF
0A62F5D8
F5FCFF63
FD5CED9A
EE6EE18C
0026F0A6
0B0BFF17
EFE60132
EF4CFC5B
FE44F9C0
F0E4F3BC
04B304E2
FFF604C6
0654FEFC
0F6BFD62
F9EE0319
FB78EFC9
F37D0E5B
F6431374
09CBF7A1
E3BDD894
09F5FBB0
024C040A
0CC0FDBB
07780985
EFB5FEFC
FEB8FC65
05D4F643
F68EF981
E5240347
0C36DF9D
F10CF924
FA0EF8DD
01D0F903
F75EEA5F
FCD7035C
0F730AAB
05EB083B
EF500D9C
FFADF9B5
10A9FA96
FAB10725
0B6F07EB
F71404CC
ED92FBAA
034E078E
0F1CF5F9
1B140D2F
01EBFD10
FFDAFAC0
FD920669
026607E7
0250038A
F105012E
0C030A1A
F962FE5A
FFB50918
FA5FF656
F8E50FB4
0A0CFB79
EC940873
FC3C0A50
0CA50316
FBAA1221
0A3EFEDF
0309F844
0B6E0615
F64BF5C1
064B0F05
FFD7F76C
059EFFFE
F69A03F7
147FFAFC
FF9AFE22
FC6108C1
FA62FF59
F9B1E9D9
FBC80909
F84DFE28
F4CF0B0E
EDB8FDC7
F4D4F9AB
F47A01D6
F632FDC4
05350200
F88F03A6
03F80546
FD310370
FC25F702
0038EEF8
076D1200
F905E9E9
FCA30DAF
027AFDC2
FA4F1AF0
F574F920
0B01FA1D
0010F3AC
F1F4FD0D
F289F79C
F5330128
FAB8F4D2
FFF2F8D7
F2411DE7
0227F574
FFE3F98F
F500035B
1225FC7B
02E5FCB4
FD2DF976
F4E3063A
FFB7F0BE
FD25F47B
FDC9FA56
FE70FA6C
07AA06DA
0F1A0E6F
FEF0ED50
F6F2F9FB
05EB036A
0C3A1271
077F1059
FD900B8C
1114DC9C
F02AFD8A
00A7F4C5
08671244
0BCEF6EA
DEC8FFB1
EF64F8F0
FACAF2F5
FF12FB26
144CF4BC
EED70FD4
FA360577
FD66013F
FE20019F
06F40095
F7EE0AB1
F9DAFCAC
0290FE83
F3DFF582
12C6EBCD
035220B7
051915BF
F5270585
028C0FC2
FA4FFC15
FAB6E61C
FAE81A97
FD48FAEF
F4ABF55B
F33C04AC
0905064E
064FF343
1A06097E
05ECEA61
FB11FC04
E131F8B4
1005FDBA
0D350A6B
062D0740
FA7D03B1
0DF00A88
0AA8FA07
0C4D0B99
F8760B47
0659055D
EE210805
F613ED1D
05C810D5
0126F5D6
FE200562
FCC20347
019AFF82
049EF6AD
11D40C4F
0091FD78
05CA1012
0183FB73
E270F8D4
F7BF0483
0072E9DA
FED2FCDB
EBAE043C
FD6610C8
023DED8F
F781F5D8
0451FEA7
0329F1BC
0B600411
26DCFF76
00A60FBF
06FCFE0F
EAC40F76
102FFFDC
03F5FD26
FE140A9E
FEFD0F7E
FEF2028F
009FFE3F
F0520323
FA4AF30A
FBB0F083
07E7FB94
03BCF00B
F4250562
F50E129E
0CAEF327
FC79E862
FBB9FC76
E9A504AA
F891EB79
F4EEF1A8
0276FE7C
F35806D4
FC95EE6D
0141FCE1
02A7FC3C
03BDFB1E
E9D4F64D
F8CCFC11
FCEE0800
FD05FF7D
02E9FCB7
06E30D35
FF5FFECD
027EFDDE
FFCC0A14
ED13F14E
F686FB29
EE10EFB4
FF3DF2A1
052CFC9E
0BF8F518
F5C00F37
FE1404C8
F791F32E
E5F9ED8C
FC40E9DB
FA63068A
05E20785
F77D06F5
00070E8C
02E7F74B
05C0FB4A
FEE4FC9C
E59FE8C8
FB44F935
EB410E3E
F5BEF558
F3C7FACE
FC00F841
02600222
F862FE94
EFFFF135
F982F38A
FDEBF898
FE9DFFF7
F851FA38
F1A6F037
F71BF5D0
FD0EF328
133BFEBF
1244289E
E6B6ED4E
0F0A1C4C
F96D092F
FCD3FD97
F031008C
F171F131
EDEC04C2
0217F1F5
F8FC0C07
04AEEC44
02B6FC18
FEE4FA4C
FED8087D
F1F4FE23
FC94FC42
F3F3FD3F
FF49FD81
EBA3EF6D
D31EF257
FFAADC1D
F6ACFFD7
0D680411
105501E8
0693F6ED
E980069C
09240894
FA3CFF9B
FA480759
004FF8B1
F699F8E4
070A079F
150F05D1
EFA7F9A1
ED22F97D
FA050227
FD79F4A0
FC1BEF14
FA37F6F3
02A60855
0FF1F659
FA50FD6D
F7B5EAA3
09D0FFC6
0B7D1139
04941BE6
E6280B81
035F16A0
1551FFDB
F406FE26
F74405D5
FD92EE45
FD33004F
FCC5000E
0A780A5C
F586F72E
0597EF30
F883FB57
058F0576
F7C40495
FDD00462
0B9BFE5B
F93F02E2
FB59FBC2
E2B7F9B2
0336FDF8
04160056
EB40F79D
F616F5C7
FD6D0564
01B7FD5D
084A0487
048D089E
FC0105CF
FBE5F9A1
F399FCE0
F8BA002E
FB670620
F870ECF9
FF7AFC96
0434EDD2
FCD5FBB7
0D87FD37
FD87FDA3
F527FB02
06EA064B
0EFB0735
0E71F482
E074E196
0795DC2E
011DFA71
F8410072
059EFDEB
FD560936
FBCCF60A
F772F682
018AF929
E9A0018C
F8A103D8
E716FA1F
DD9DE96A
F1D0E086
F304F338
077FFC03
05DCF420
02F80161
051FF8E4
FE17FDE5
