005C017D
F733FD90
F8EAF9DA
FE930179
FDDA02C2
FF0FFAD9
FFF8FFB7
FE47FEF4
FFA7FDFE
0689FF29
F7D90217
0A8C0195
07B9FEC6
FF7B01C2
0070FE77
05990067
006301D5
06B4FE84
FE10FEB8
F957FF62
01A4FD70
F8DCFE7D
0285032A
01B408B4
FE45F987
FC4802E7
FFF0F7DD
007DFE75
FE23007F
01A5FF29
FAF60052
FDF1FF59
FA45022C
FFF3041D
04DCF46D
0365057C
FDA9FEFE
012C00CC
0637F96E
021AFEB1
FE970073
FCA6FE8D
FC21FDE1
F9E1FCB1
004A03D5
0C8A064D
0678087C
0C54FC4E
0142018F
FE2904E6
046CFDE8
F6B9FC56
03A0FD48
03B30419
0151FED8
FEFEF4F7
F04B0196
063CFDF2
FFC4F1C7
FE6DFFC5
FE460238
0215FD81
02A2065B
01AD03FD
0096FE96
F62DFBAF
0B8B0275
0320FCCA
03F5FE75
FA600627
034B04D1
0348FF9A
036AFBF7
FC480241
0131FE1B
FAF7004A
FE8903BC
035EF6B0
F3B1012D
03F4FA3C
FAF2FC77
008602D5
0354FF10
FDE2FB72
FF400123
023802AF
F7B7F97A
FEC3013F
01B5F070
F5DF048E
01600085
00AAFFE2
FAB1F739
0B78FAF1
FF7A0508
0289FDE7
00ACFD02
000FF8A4
0210013A
FD0101C5
FBB300F6
07650564
09F4062D
016B07C5
046DFED3
0964FEA8
040407D3
FCC202A3
0266FD2C
F9FFFD43
FDC211FF
04F5028E
02B6FD09
FF54FD0F
FD0601EC
FC5CFC01
FA2CF447
FB70FFCB
028DFDED
0049F850
054102FD
FBDD0204
02B10148
FF74FA96
FC8E036F
FA9AFFC1
0023FC27
F9C6002D
077F01E5
FF9BFCDC
04A102A3
FE90FD47
03AB08A6
0248F127
FD1EFEEC
FE3EFC9A
FB5E0107
048504BD
FC11FC64
021FFF1C
016902EF
FDF1FE7F
FF2B03DB
FF68FF21
025CFF56
02440076
FF03FFFF
0245FDBD
0035FE58
0268FC04
EDBD01D8
03090187
F6C4FCF6
FD9BFF5B
0395FC1F
FEA2029E
02990022
026A00F5
FAA8FB70
F5CA0923
054EFBCE
00CAFED9
007DFF8F
00DFFF76
01CF0AF2
0504000F
FEDDFED3
FF170147
FFB40109
FCE700FB
00560250
01DF030D
010803C7
0407FC47
FD800067
FD6EFC97
FF00FD04
0CDA0243
009001D9
FE66FECF
FD31FFB0
FF0EFD56
FAF4F7DD
0455003B
FC8E03CA
001B0267
FFA2FAB7
04A500C4
FEBC0337
00F40071
F77A00AC
00550769
04FCFF59
0433FF16
0254054D
FC640534
02C0074C
FD9CFF24
010500C2
FCE90378
ED34081D
09F7FD68
0001F0B3
0526FB04
06F6FBFE
FF18FFCD
FE1BFEF0
007B0004
FBCC002E
033905C9
0F88FBEA
013301B6
FF0D0846
FDFBFE94
FFCAFD81
FD19062D
0246FB79
EF7F0040
F83AF0ED
00A4FF8C
02D70146
01A10469
FE64004A
0083FEBC
FED4FB71
01B3016B
0485FFA7
FCE80CFC
0030026F
027D0395
F9D000AB
F5C6FFED
04990236
FEEE056E
03320221
FE81FE78
F1350603
F7DBFF1B
FD9FFFF4
FC7BF981
FFD1009A
FA880B34
0747028B
FBF5FE85
FE45FFF4
FAD201A3
015DFA4B
00C3006F
0283FD47
FF4D0033
FF4C03B5
013400F6
FE17016E
050D0239
04A1090D
FEC003F8
026C021A
FF8F01AB
FE43020F
FF32F94D
FAA9FBFB
FEAB0246
FD13FDA5
0115FF20
0152FCCF
00D30010
0354FC21
F706026E
025C0CA9
05D2FF6C
FEF4FE53
FF7CFC81
F3310678
FD9D0193
0384FB1E
038CFCB7
F955FECB
0182034A
0106099A
01E60238
0080FFB1
063B0030
00B900CD
FE4002D0
FC9C0346
014BFCB9
00700176
00D2FEDC
F5D001FF
0F9A05D9
0CFDFDFA
F8F2F8DA
00B9FB38
FF87FC6E
FC53FE87
02EF02D9
01F20146
FC33F484
01E205DC
1311FFDF
FFC30804
FD88FA61
03C10153
00990535
FE86FBB4
02D6FB98
02670108
0323FDDC
022E0365
FF260089
00B2FE85
0000F93D
FE31FA70
FCC6FDE7
F971FDEE
0338FE09
FE92FE94
FEA9005C
052FFF86
02F8FFCA
FDE400B0
098B01D4
FE1CFE0A
FE650696
FE2B00EC
017D05F3
FC3BF7E3
FFC0FCA7
FE7100B9
FAAFFE02
E8F40B70
FF87F0EA
01BAF064
09940600
FECD0369
FA24FFC8
021BFF50
FCC202CE
0018FD0F
002205BB
017FFFCD
FE3CFE49
0214006B
02A5FA65
0503FEF7
00FF0223
015800AA
01CE02B5
08A4FF68
FE6EFBDA
FDC00905
05E70346
FDD2FF6F
0006FDD8
00380105
FDEFFD01
011B028E
00D50156
0302FFC9
FD540A85
02F8FF4A
01BD002A
FBE60700
0362FE06
FD9001F5
033305C7
0441FDAB
FF3201DA
FDA8F58E
0124024F
02A7022C
09BEF55C
FDAC00F9
FBE0FE66
03D2FE31
F3940047
FDC005DC
01F1FD22
05B5FCA3
FCB60473
FCCCFAA4
F8CAFFB0
FF57FC50
FD9CFF60
FECC0389
FEF80324
0584FCA4
F823FF30
FA7400CA
FCB3FA7C
FF370230
053B064D
FCF90202
07DCFC8F
003A076F
EFA4FC87
FD85FC35
107100DB
11DF0122
F8970019
FDD00924
FD70FF4D
FEC0FDBC
0647FD00
050D0560
FA2D0019
FD6400F8
078103E0
FB7E017C
00E80269
FED7FDCA
012D00B2
014A008B
002E0339
057A0189
013F0185
FF9DFB5E
FEFB0433
00D4FB6F
00440427
01E80208
F98201C6
0C6C01D7
FFDC013E
FF39FF65
FC08FF80
FFB40377
FE330160
FF13F6CC
00EA02D9
00D3FFB1
01AC05A6
FBC2FFC4
FAD2FBD5
039CFCB7
0220FD10
01D80385
01DF055B
07CEFC54
FF7704C3
006FF8C2
0389FFA2
FB31FDC5
07D500FD
FFDBFD7F
FA6003A6
FCA3F944
F7DC0813
01FBF704
FF51006F
FE530164
FA8DFBC2
02BDFDC9
02390239
041B024F
038901E7
0997FB1A
FD6CFF1A
FCBFF9F1
FD2E02ED
019DFAB7
FE9EF54E
FE6A0310
02A503A1
057CFC40
045C01D5
00BF0481
0054004B
017402FC
FC7600FB
FEDB00E6
0560FEBE
05A7FE81
FC0E0103
006B028B
073AFF55
F867FFFA
01B6FF59
00E4FFEE
046D01B6
02250165
FEA3FC3C
FBCFF54E
F80BFE8D
FC78F9ED
FD490256
0010FC9D
FBBEFD6B
F6240510
F79801B0
05BDFF1D
FD7DF9BA
02CF021D
FC23064B
FE7405BB
031AF657
FFFBFEF2
FBE60291
0A7C005E
FE4CFE0F
011B0B62
007FFCD6
FD85F6DA
FB970124
FC36FEFB
FDB20159
FA87037B
FF80015E
FFF4FF4D
02010160
FDFA0008
0167053F
029C054F
F0990474
FB1CF9AF
0A330C68
09BFFE9F
FDF7F506
FF22FE9F
F238FF2F
FC92FD65
FC2D00C3
FD4AFBFD
004400F9
F94FFC7B
FE400458
02950353
FD76FE46
06810191
0336FE47
0278007B
10C5FE59
01000384
FF9FF523
EAC2FBD4
FE40F814
FFD7FFE6
02FB07F7
014EF967
F9170200
028802FC
08B9014A
0520FAFE
F7280070
00B30249
FCD9041C
02FBFF1D
FC550331
FB36033C
0D47FDD8
0083FBFC
F976FEAC
0042FED1
0320FCB1
FD9FFE38
F5E5F7E8
FD1C0119
076F040C
FDF70170
FE2DFF24
FE6CF998
F6BAFD96
05B2FF24
0096FC89
FB7E011A
FD2FFE66
FEE0FD37
FF32FD99
FC7801B5
011D0714
FDCD0192
FF4EFDEB
01FE00B1
01A5FE6D
FF7BFC59
007BFF3C
02D40E45
F9ED0DB8
F932F7B1
02CC00CA
FF80FFDF
001F0231
FD4FFD78
FE65FD3E
FF2CFB2B
FFB7FD7E
FF88038B
05B9FF74
0399FC1C
02190718
02480138
02FB01EF
0195F74F
F89302A2
FE8F00C3
FD1C0313
02B5FDDA
FEB5029C
FD7C0121
00B4FD24
0279FF79
F834F7B8
FE44FBD7
04420299
00B201C1
FE99FB17
FCC3FF14
04AF0070
F94500B4
04D60882
0965E8A7
F8070147
FD87FFEA
03C90394
02ED00B1
FF83FD2A
F9ABFFFC
0164FEED
FDE508FF
00E6FBD6
FC980216
020A00A6
0212FEDB
01E30653
011B02A8
FE2402F7
FC6C03FE
FAECFA8E
FB7DF855
F844FB5F
026000E6
05B2FAC1
F79104D2
FF42053C
FA1EF3E7
F9DC0307
F453F864
001BF8A3
FEA4FDBE
F64EFD23
FD16FB17
FEFAF912
041A0639
FF0AFC7B
003702AF
F920FE6A
FFF2FF51
00B9FAA3
05C5FFDE
FB6DFE06
FBFCFC49
FE24009D
FFEA024A
04500300
FD22FECD
05530969
060E02F5
060F0250
01A203C4
09DD0A48
01340279
FD3FFDAB
FD6E0021
FB71008F
FFA5EBA9
0409F9BB
FC11FAEA
FC5FFA26
FC11FA0E
0E820342
021E05A9
043D01A9
F7E4FC47
0319025C
FD7D0103
04A5FAE8
FD7EFA23
F4140B20
FB3EF7F1
01DAF343
FE6100B7
04E9FBA5
FD58FAA9
FD9B045D
FF37FF8C
ED8DF852
F319023C
FC910198
03B804CC
0048030E
01560621
FC720472
FB39F156
FB0CFFDA
036EFF26
0317F28A
FCC8FF9E
0133058E
0117FEA1
0434FE3E
FC58034A
0172FFA8
058001CD
FFEA00D2
F893043D
0363FED6
FF16FD95
FF300406
04EA0149
02B7F9F1
FFE90715
FEA1FFB4
FC05FEC6
FE120014
FE9DFEEF
FEE501DF
FF3A02A7
FE95FC73
00E200FA
00EE00AD
FD8E017D
00E5000E
FA13FCF2
FB9EFD80
0674FF01
FF8701DB
F7EA0569
002FFE33
05A50084
0181017F
0AEEFA77
F735049A
068D0336
F9230339
FE9EFD7B
F08FFC1C
03E5F61B
F5C6F933
00D801C5
052CFE4A
FC2BFF61
FE3702E4
0211FF62
03170137
058503F6
00BF0107
FE16FFD8
079705AE
00A0F799
FFD600D3
06470301
FEA50218
0090FD52
0BCA048A
01DF09AF
0374FCD9
F55A0075
009AFAF5
002C0399
FF21FB4A
00FBFD82
0171FF9F
026400B4
FE14FFA9
04E4008D
028EFC3F
F13D01E1
09A20544
00FEFFA6
04B40112
04F10277
03FA08DA
051A024F
05F403D9
0111006C
0004FEFA
05A0FF36
FE75FC33
00430372
04D902CB
02440389
04870107
FF970358
052D017B
FC1B0243
F9EC070D
00DF01C7
06CB0312
00BCFDE8
FE69FEE3
FC34FBB7
00F701CB
038BFD7D
F7A4FC64
F33E0546
0261F777
FF24F7C6
FD7CFCC9
04DD06AD
FF3BFFF9
FE25FF33
018B04DD
FEA8FDD4
07650074
FE1EFA46
FF3702FD
FCA60184
FDDBFE26
FE04FD06
05390596
FCDFFDE4
FBCCFA85
0972F9EA
0E160450
FBD6FCA5
FF3DFC7E
F86AFD43
0197F950
015D062E
08180044
01CAFF84
FCC8FB6B
00E0F76D
FF16F8F9
014F0276
00A70019
0295FEAC
00BE020C
FAA6FD59
FD88FB97
0094F922
FA85FABE
0193F92C
03F303EB
F455FD5F
FFC0FE4B
01A201E8
FE5CF9D0
FF560027
01F308E4
075001C0
053BF8D7
023EFDC4
02530BBC
F635F9D6
062A067F
00CF013C
02B0FD84
FFC603C6
010000D6
02F50103
FF1BFD12
05E1FB69
FACF00B8
037C00C4
FD660018
FB730320
05F9FEA4
FF2DFF4F
014E037B
0017FD26
005E0049
FF910038
FE8E01DC
038A0644
FA270282
FBC80490
FEE8FF79
FF03030F
01E70163
0042FFEB
002DFDC3
00A0FE6D
FF58F3D6
0A410143
FA90029E
04E00115
FA910C41
FEC2FC2D
00CDF3B5
FC960CE7
0715FFD0
FAFFFA9F
FC7800C8
FD3CFF0E
029AFE2A
FC90FF7B
FB7AFB66
FF32FAC4
02DBF7B3
FAD0FFC4
005206DF
04CA0290
00EFFF16
FE03FC0E
0072FD97
FFF7FF33
F55B0201
0206FF8A
FDF6FF05
FE90FE5D
0393F94F
08530926
04730264
FCFA0529
FE3B098F
F46FFC9F
049FFA71
F99EFC3F
FC8EFE5D
FE8500CF
F9DE007A
FEB201FE
FA1CFF8F
01AFFD41
FE35FBC0
FF2703D4
01790034
087CFB71
FB15FB9F
02BD0405
FF1C0054
010DFBD4
FE3FFCFE
FD760221
FA2D024E
FF91FCBE
FA6403A3
F6C9FE88
FDE2F968
07E4FAF7
07C7F7E2
FB9AFFAB
0598FCD4
FBFF00B9
03E8FD92
FE64FBC4
FFA500B2
FCF0028A
0172FF04
0421FFEF
02080437
080BFF76
FED10555
036DF53F
FF98FC76
FA960648
05CC062A
FE130294
03980218
03E8015A
FFC0FC43
FEF9FD31
02A5FE05
FE9805F3
0714FC9A
FBC5073E
0326FF6B
FFCDF98B
FE30014F
FAD4FCEC
07EA007E
FC9502A9
F951F8F1
F663F7EB
FD0FFC01
F739FE09
FFBAF862
FE0EFFBD
0251009C
FFAFF7C1
024CFE00
F96A004F
F337FAD3
F647F97A
F7EAF5FE
00ED08A8
FB3C02FF
FBA7FA38
FB4D0746
02B8F7F2
032DFCE2
00F700A1
0297003B
07A802E4
FE5F0925
FF8704B8
067AFDE2
055302DF
FCB20228
FEB605AE
04AA0241
F45302AD
FE54FE1B
06ABFABF
02870447
08C5FFA7
FFF0FE66
F292FAAA
FCFAFF41
00F8FFE6
0272FF21
01670164
FEB5FF99
FEDF02D0
FF14FF0F
00B501F1
FE8BFF7B
FD1AFC68
FDB3FBE5
0323FB7E
0488FC6D
02C8023B
03E8FE3A
FCF20661
03C10454
01110597
000FFA8A
FAA600FA
FE0D00D5
047EFA32
031EFB4C
FA8A02AA
0843F290
FEC104D7
FB11EDDD
FEA80499
FD8C008C
FE36FEC2
0082FEDD
FAF804B6
00F2031D
FA360078
FF87FF15
FAE9FF7E
0267FFDB
FB19FBD3
FD91F3BF
F6880323
0075021A
0060FE50
04E3056C
FF5DFB8D
0081056D
F8FE0156
0331FE41
FFCA0309
FC7CFC7F
0381FDDE
0129FA55
F967049F
03E0F9F1
00030521
FE7001D8
02F5FE95
F639FE73
FE36FEEF
F8FBFAC1
07C90230
FA48068D
067A040A
FD5AFEBA
F83E02C6
0AFFFF2B
05530F7C
FFD2FD7E
044BE749
000B061C
F979F745
FD83F956
FC580289
FE5A00C8
0C570770
FB9403E1
044203B2
F99707B7
FD4EF999
0580007A
FE7F07CE
00DFFD2D
FFAFF939
FB3D05D0
FDC8F8E4
FBE0016E
FF54F835
069D0214
FEC30354
0203015D
F96DFF5A
F9EE0275
00D7FDC3
FD400348
FBE8FE52
04220C4F
022C09DE
076103E5
FA0FF9BA
F1D2F22D
FE7E004C
FF5000BF
0381F1ED
FF840171
05D204C8
FD62FEF7
12760287
FB06FCE6
04C2050C
FF62045B
00E60164
FBF4FF5E
F4D5FA2E
000DF40F
FE6AFEC3
FCFAFB48
00670024
FAAB00B1
06930604
0B0FFE39
FDF0061E
02DB0683
0570F4AE
005800FB
0788FF0C
FEFD0335
FEA3FDEE
054F01FA
FBC4FD78
FA19FB3A
FE57FE57
F9FE028D
07DCFDB8
057DF387
FF0F06E7
FDB5FD40
023C009B
FF63FC66
011F0CFF
003FFA4B
F1E1008C
040BF260
0A89F9B3
FB36034D
FE6705AC
0013FCA2
051D01C8
FFB80415
03640019
F9D1FC6D
0162FC1F
F997FCC7
FF1DFBD8
FEE6FF70
EF880491
FBA10525
FDA9F785
FB1CF9A6
FCF6FB19
FEBCFF11
022DFE03
FC36FD15
FC0CFE38
FA1AFA96
FA7B0977
11C501AF
F8E2018C
FF8D00E0
FE20FC37
FC83FE3F
FE310002
FD61FF8D
FF0200B0
FDD30615
0634FF9D
0047FFE5
02BA0465
0525F8C9
FA79067C
0528FBCD
04E0023B
0356FEBC
FD55019E
FFAFFF5E
FD69FDA0
FAB8006B
05690372
0231FBAA
00AD0833
FB820368
FEFBF87B
F66C0240
FF6F07A9
03D8FCB0
01BB03DC
FFEF00DE
11BAF704
062DF52F
FD16FBD3
FC400112
02B9F96A
0301F5FF
F459FB5C
FB4B04FF
FE49F97A
FE62FE34
006B01B8
01BB0AB2
06AB02ED
00B6ECBF
E2BBFECB
FE6605CD
05E2E98A
02C101A8
F870FCAA
FF77FA6B
0233032F
FC50FBDA
F4C8FE87
F5E8FE23
0ED90026
04420467
FF320716
FEC1FBCE
FB2EFE2F
FF9F013C
FCD5FD79
FF40F954
FD090388
0066FE62
FBC4FE21
FDC9F8D1
02B401BD
FEB0FF49
00AE0ADA
FFA2018F
FABB024B
F9AA013B
FFFE017E
002700F0
FD3E005C
024D0276
FFE1F622
050CFA94
FE10017A
FBA4FE91
FED70377
F0BBFD54
FCD6FD76
FFB2F8B9
06E8FF31
F63AFDF7
FA3BF445
FF24FDC4
00FAFC92
FFA203FA
FD5F0848
021BFBD5
FD50FC79
FDA0FC53
01FD0578
FE440829
021101B9
EF24FC41
EFC1F5A7
078EFAC0
FDEEFF26
FF660146
FCDFFB8C
04D5FD17
02C90F6E
FE6F00E7
0718034B
020F0036
FB940154
F9EE0175
005D0600
05C0F8CC
FF1C00A8
FE79004B
0095FE22
FD29FFEE
02EA01F9
FA38FEA9
04A1FD74
FC70FAC0
FFB50D22
FE4B0036
0228F7BE
0284FF7A
FE5501A6
FEB602B6
04B50107
03A6FFFE
017E09CC
FE02FB92
FD7EF9E9
FE64FE70
023BFFFF
019E0169
FA9601DC
FDC200B3
FE710227
FBA4FF5F
05210184
02E1F9F7
00B90922
FE78FCE4
00950027
FA6DF8D7
F6F802C5
0461FC31
003907D9
00D4FA42
068DF9E0
03C40560
FAEB0371
FEF50025
FCA8FB4B
FCDF0118
FE4FFF9C
024CFD94
FF3EFE34
FE13FD87
02690615
0297FCAE
073500CC
FC570CE6
F7CAFAF3
007E038F
FFACFDE8
0257060D
FED305EC
017807E8
1684095E
F9360665
F68A0148
FE12F771
0858FB46
F7F8FA02
FF830DEE
0A9CF85E
F623FB1E
F91600FC
0922005C
0265FEF4
F6FF001A
031200C8
06EAFDBB
066F0571
0671046E
06910A9B
FF190050
FF77FE30
EBBA0B39
FA8BFC28
043C00B1
03290159
00D906B5
014D0229
014AFBD3
FEC9F989
FBC5FE1C
01DB02A6
FC1CF63A
FBBFFBA1
FBFAFD54
0CE7FBB6
00BFFE7C
FABE04BB
FA74FD7E
FB98FB6B
F9ADF592
FF95FD78
0362FEA0
FEF7013C
004B004F
017EFF14
020F0118
FFE601CA
FE6B01E0
FC98FE4B
FCAE02DC
00910023
FE6001E3
0ADB03BA
FE39FA9C
FC97F840
02BEFFAC
002AFB34
03B9034C
FF4DF84F
FDB0050E
03EF0008
F822FFB1
020F058F
FC5BFE37
04E0009C
FB520480
FD4BF915
FF8BFF31
FD76FD10
01E3FB73
021FF95A
FB8F0CE6
055FF75D
F5B20008
047B001B
0437F976
F8B6021F
FFDEFF2E
016AFE23
000CFB33
FF3AF730
FDD3FB08
FA94FFC3
FD23FD91
041EF89B
00BEFEC5
FB570552
FCEAF86D
09A40A62
0833FFAE
FA4AF39F
FD45063C
07A202FD
07590325
052C0697
FB54032C
FC61FA3A
03940650
05060019
FC51001A
002404E6
0033FF4C
0162FFE7
FDFAFF38
00930062
03DF010C
FAD2FD61
FF14082C
04EB0058
FE7E0063
FF54034C
FE55F3A4
007E0215
FFE20193
FF190127
02DA021E
00BC0153
FE4AFE37
034C05E5
E4A1F9B8
15000005
FF730A78
0089006D
FF29FDC2
04C00037
FE6CF9CE
01EEFE90
FC1C020C
0248FEDA
0481018D
FF75FC35
0825FF90
01F9FB18
0160010F
FEDCFA20
FF26027A
000BFBBE
FFAC008A
02DA0053
01BFFE32
FEAB01F9
FF8E010C
08EF0572
F7070031
FC6CFEC2
01790119
F6D6FF3E
066EFFA5
04DAFE30
FFBDFF80
072507BB
05ED0B1A
05CE042A
FDE0070A
FB670592
F8CE02BA
F3F2F8B7
FC95028B
FD6C00D1
00C50297
01D8FECB
FEF401DD
00C4FE1D
FD880071
0029F598
FD93026E
01380055
FE33F812
FF230228
02850422
FF4A07FD
FE2000F5
F8C50238
0D6FFFCE
FF810024
F892FE91
FEB700E9
FFF9F81B
F8A7048B
00AC05D9
02CCF9F2
0388FFAA
000DFFB5
FB7BFCF9
FF0AFCC3
02C401D9
FE5B00B8
02840288
0289012C
FB4EFBA1
FFF0FCCC
FC9FF9A8
F868F255
FB2EFB3E
0346FC8B
FE95FEAE
FD12FEFE
010C034E
FC8BFF0E
FE320436
02EB01DE
FF05F3F7
060CF9EC
FDD0FE34
FEDBFF1F
037600EA
FFA70396
02FD0209
F866008B
04A6FBBB
FCC2FAAB
F96E0099
0148F9CA
010F02AC
077E04D3
012401B8
FF40FDB8
FFE0F66B
F8D1F8D1
01D9022B
0C67FDA0
FF09FC92
006EFCDE
04EEFF9D
005DFD63
0291FEC3
0335FEC0
03EC0072
05910E8A
056DFE55
FD5C01E4
FDFD00DB
05BBF9D1
FE14FAA5
F9EC00B1
001DFCE9
FDAC003E
054205CA
FF88FA6B
FECCFCB3
0058006B
06660CDC
02EEEE46
FE1BFFFD
FD3FFD1F
028DFEE1
0351044C
FE5E01CE
00C8024F
F95CFC0F
0355FDE3
FF0EFE0C
FEFC0273
FEE5007B
02A800D0
0294FCDA
FD6C025E
FCE6FD28
FAC0F847
F400F85C
F88FF3A1
FB690568
0067FBBD
FC0800C2
069D0B79
FDF80485
0222FEB8
FF2FF942
051200E3
00750AF3
F62FFD7E
FE47FEDA
FCF7FF9A
01D3FF43
0449013D
FDA70263
FD37FD28
F7DAF7E7
FECEFBFD
FE29041F
0031FFD4
FD99024D
02D300C4
022B0152
FE32013F
FF5002FD
0152FCB6
FB4FFF2C
FE33FAF2
FC6C0228
04AB03C8
02BCFFCE
FEE70284
02CB0174
FED704BB
FB67091C
FCBAEFB6
013A00DF
0226002A
F658FE8E
02EA05F2
033DFE51
008D02BB
FD1BFDAB
02A9FF79
011EFCB1
FDC304DC
02F90202
FCB7FC30
01CEFFBF
016AFE75
0311FCC0
FAC9FF0D
F8EFF437
0061F3C3
00E2FA15
03B1FC11
F879FF28
F805F502
FDF9FA8B
FC5AF980
FA27FEAB
FFD40434
019E0410
FF5DFD82
0A72FEFC
FE83024B
02A30E5C
042F00E7
FE6E01E7
00BFFFC0
FB4CFCEE
011FFBA9
0019FFF4
FFE6FC47
FDE70663
F9B4FD37
FCE8011E
011BFEFD
0109FD7B
F2E6FCBA
0435F6BF
FB77FFEF
FA5CFE44
FD90FFEA
F55CFF80
0087FCB7
FF2B03A3
0009FDDE
FBA0FD87
FD490577
06F7FE86
05ADFCC2
02EAFC7E
0145FF6C
04A60582
FD94FF2B
FFC5FFE8
09F205F7
00E8F9C2
0047035B
F9C7FCF9
045DFA47
04C310D5
00C1FC66
FCD4FEE8
FC18FF34
FD1BFFFA
01E7FF8E
FE170305
F6A9ED91
F3B70046
F5E3F423
023A006C
FE8702AB
FDA2FF6F
FA2F0164
0282FDDE
02B5053C
0130FEC3
05A902B0
03B00505
FB7AFE09
02BAFD87
FFA0015E
FFDDFFA9
0071023E
049AFE4A
012E00AE
021CFDDA
FDD20496
014DFFFD
0255FD56
029F005A
0087FF52
FE1EFAEC
00F5FDD2
0468098F
F99E04DA
F58BFC73
080107E9
FE52067B
FBB3FDD9
06D6FDFE
00D6FFDA
023C012A
FAFA02A7
FC0CFABC
F7E3FB27
088F0057
00D30322
01890589
FD1D0067
FBC4FC75
FF00FC10
00ADFC65
02F000C0
FB0D03A5
07D200A3
00EAFFBD
F561FB7B
0064FBDB
F472042C
FAD0F726
0070005B
0049036B
FC120924
01B0008D
FCC1FB13
045C063B
088AFD6A
006E0007
05C1058A
05EE046E
F393FDA5
0011023C
FAE2FAFC
0B8F0076
FF22FE08
FD370127
FE8E01FE
064F0404
F650FB1C
FC34028B
F60CF655
F650FC61
07910286
FAF2FDF3
FF940336
01A40230
FE880395
F771FE69
FA90055B
FB310004
FF73025C
014F0AA9
FC92023D
06A405BF
0627FD68
020AFB11
08FC02EE
01B30569
00FDFCAA
02DFFC00
FFD40339
01FAFD06
077702BD
FF960235
002E08C8
F496FA8D
FFCF0048
FE2C0076
FE02FE79
FD74FFFA
0151FEC2
0734FECF
FC5303B7
0109FBAB
F67AFB7C
FDF3FF4A
01ABFC6D
FAA2010C
FD0C0189
F894FC3F
069C01F2
FE7B0952
FE4FFED6
FCF2FFF1
FE5F012D
038B0582
F906FD69
FFDA00FD
023C02A1
03BFFFE9
F45704B6
FE8EF830
0552067D
020EFECA
073501CC
FCE105E9
02DB0383
0149FFA2
FAB10031
FAF50622
FC63FC65
FD6BFADB
1691F6E4
090F02C8
FF820341
007E0329
FDAEFC85
0053009B
FF33FBBB
00850449
F9FCFB66
FB14FCE6
0183FE4C
03D201A8
FF53015B
00720140
038F01DB
FF0F01A5
009403A0
FE14FC02
02DEFE30
FF8CFD83
FBB1FC40
FF52FD61
01BDFB82
0343FFAA
00EE0756
F956014F
FF96021D
0088FE34
FF42FEE4
041FFDAD
0244FFE6
FFB5FC0F
01000190
FF2A0237
02D302D7
020AFA47
FCB501CF
025806AB
F244005F
FE9002F2
FEE70396
0585FA5F
FE390137
F8CDFCF8
002B01CE
FD1BFE25
0596FBF3
017700D0
00D00447
FE29001C
008CF906
023FFB77
FDF00D15
0546FB47
FDBAFF27
01F2FF92
050004EC
021DFF76
034E00BA
FEADFB7F
006D0575
01FC0256
0616044E
0751FF02
FB51052F
F14AFEAA
FCD500B6
0249FD74
FB2EF9E0
FB030623
FE7605E2
005EFC6E
FD89035F
017705F7
FE3F03A6
01A2013E
FBA6FFD0
FF1A027C
FDB7FD18
00F6015C
F9B2017A
05EBFF60
FD19FA99
FC1300BB
03AD0101
FDDA017A
FABD03D8
02E90034
FE7B0353
FEC20003
00B7FEB7
0534FC10
FBF702FF
077BFBFF
00E80146
F5B1E873
007DF5DF
0091FF9E
000DFEB0
05E202A0
FECBFC0F
FF50FFDB
F810027E
023CF548
0A3E0953
FFD401E2
0445FFCA
F6F00096
FC42FCC3
FC84F708
F72A00E2
FE83FDE5
FC91FF32
FFBFFB7C
FE38007A
0185037A
F8F5FC6A
FBC7FA7F
F9D0FFD0
FFB0FD22
0083F574
FFEF0279
09570109
F8AB0717
01AFFD72
0234FC6C
04010479
FBBB0B12
FEF801FE
FFCA0011
FF7EFCDB
01FBFCF3
FF8E0230
01220897
032B027D
02900288
04CFFB93
FBEFFCEA
04A0FD27
FFEF0079
FF0D04AB
0174FF2E
FB98FEEA
00A30654
FF7102F9
FF54F22E
FBB101B1
FDC7042E
FFA3FD56
0345022A
FA8C007A
FAA6F724
F626FE0A
018FF93A
0041080F
013FFB81
FA01FCC0
F96C0107
06CDF223
097F07BD
03F0F16E
FE0BFD3D
FADB00F1
FFABFA84
0484FBDB
04B1FBE3
F9D10B87
FC15019C
FF85FF24
FFB9FDE0
0066FF39
01C5FEF4
FFE9FEFC
FC7E02A6
FCD6FCEA
FF2BFE95
0775FEA9
FDACFD0C
00F6FEE0
FA0FFEBE
0BCDFE0B
080F099C
FBBC01A4
001002C6
FEE9FC7E
FC09FFA6
FFDB0089
FEDC03AE
0040FED2
1E4D023C
E940045C
FDCAFF60
FE79FEC4
FECCFEC4
032FFC2F
01340698
031100FD
00F3FF88
F942039C
0061039E
0253FE69
F77D015E
F5B6F798
03740204
FBC2FF68
FC1AFBC9
F797F7FD
00B1FB98
03A90AC8
01AF0087
0344FF6D
FA4CFCDB
F4920296
03C9FA16
FB1DFBCC
03AFFDCF
F1580456
06D3FDB3
04D1FAC9
041206B4
FA2601F3
FDB80756
FC7BF63E
FEEEF60D
0B0305B2
025FFE5D
03920B26
FFAFF7A6
FFE9F898
FFE30437
03B4FED4
002500E8
003901F3
02B9053B
03BDEBD6
F0960551
FF7105AB
F9B9EC5B
F9A8FBFB
FE81F9EF
043BF726
03F8120E
FDBDFFDC
F5EB02A3
FB1FFABE
0722F668
F9E0FC5F
FDDE00F7
0156FC60
0383FB91
FE5601D1
FD7AF95A
FEFFF685
FC0505E1
010EFD99
00FBFFCC
FE4AFF8A
FFFBFC26
00720018
FF6DFF75
FC45FB7D
F559FF2B
FF70F33B
04ACF9C6
01C8FFE1
F84204DD
FBA203DE
0524F255
F2FE07C9
032D0152
0040FFC1
000B03E6
EEEFFF16
0337FB4F
02A9003E
0242FE10
F7E000F1
FF99F588
F8B0F829
FE5DFC2D
FDA4EF06
02E4FEBF
0606FB9F
02F60801
004A0841
02AFF77A
FA92FC00
F833FA4D
F58DFF97
FBBEF2BD
FE97F9B2
01B5FC6A
FBC40C88
05880109
013DFB21
F811FB14
FCB0FD5C
006D0458
0241F754
F828FFE9
FBDF017E
FFFEFE3C
FDC900E1
FD9F0469
00AB0401
FDB705F7
0661016D
FBCAFB70
FD5003EC
FDC90345
09ECFE8B
0124F54B
FE541016
05F3FD02
02E0FF87
FD8F0264
FFC805D7
FA45FAB0
029BFA5A
019D08F0
FD7AFE1D
FD73FED6
FE91FD8F
FFECFDE0
03A2033A
FF93FDDD
FAAFFF77
FD1FFB39
FF33F9E8
FC3AFCFB
FF48FF76
FC43F9AF
FCB5FF6F
02CAFD75
FFCF0289
08610068
F865FDE2
FA41FBB1
0EF2FBB5
005F0C90
FF31FA55
03C203F4
03860435
FF690027
FFA30275
014BFC23
0310037A
08A60096
FFE50793
FD75FE20
FDB1FFBF
004006C8
FB93FBFC
03F60248
FF2D046A
0060FBF3
03CE003E
FB7607F5
FFC4FF9B
FDD0FE17
FE7BF786
FCAF0349
0C4B048D
FD1B0702
04C5000E
01FAF89F
FC2506BD
06B9FE5D
FF7DFB40
FABA04B9
074B049A
024AF9B8
FB6703AF
FA3D0694
0FF9FF27
F76B059F
FA9200F2
043C001E
00440261
F7D8FF81
FAAF04E2
03EFFC81
067800CB
FB98FA09
015E0184
03D9FFE8
FAA7038B
00010385
FCF3FB76
F9810186
FAD6FFDB
00FEFA8A
F703FC52
06A0FF2E
02FB06A0
FF9CFF33
04B40367
03A706F3
03C600F0
01780236
FF6801A2
014602DF
024EFD51
FBE40315
FF0D0145
FDF8041F
059FFF2B
FADE005F
0329020F
FFF3038C
03E1FE64
000400F5
F9C800BA
0481029E
FC92FF59
F88DF782
01EDFB83
01C0FD8B
FD1A01E3
00D5006A
0273F9C4
FD67FFE2
0B38030F
030B05F9
F7F6F8DC
036A02D8
03A2005E
FD4F02E3
FC2D0348
005FF92A
FD1C0128
03AF0086
0917FE3E
01CCFB52
FAE300E1
FDD002A9
FE8304A6
F6DDFEEF
01D3FC44
00BC0662
0010F8CF
FC76FDE9
FC8FFF70
FB74FD40
FE01FC02
F9DAF67A
F6A1082B
0415FB21
FC93FF81
034A052C
09C50087
0153099D
02D400D3
F6E00637
FB63044B
0445FCF7
FC6A01D6
FFFBFD26
FD9A0170
054A00D0
0436FD18
FDA701CC
FC4E0394
FDD7FEFC
0411FF1A
0212FDD8
FF860105
02BBFEC1
FE930350
FC1FFDDA
003402FF
FE170394
FF9DFA14
00AF00F5
000CFEAD
FEE7FFCD
04B9FEDB
05770202
FD1303EE
03220575
FE43FD0B
FCDCFCFC
FB3FFD2D
03B8F987
FA2901AA
02040310
031600E4
03F50707
FE1203EC
06CE012D
0BB11A55
F64B01FE
00C8019A
FF6CF815
FF4FFCCE
FA15F864
FADDFDD8
FFE5FA7A
FEC1FFCE
02B6FEB7
FCF60149
00CE0019
FFF6FF50
006A07EC
06ACFD50
FECB0239
FE0BFB56
0018FFDF
08070390
F329015A
0195FC05
02C8FFDB
02D20310
00F50134
027A0525
FF02F8BF
025DFD29
004F002D
07560420
FD010062
FD2AFE1D
FCADFF86
FD91015E
FEBFFF9D
036EFDA9
01C403E5
FDB9FCB0
05A3FEF4
0002FE55
01DCFFD4
048AFE1F
013703D2
0217099B
F7B9FCCA
FE45FB57
00CEFF4C
067BFE38
FFCFFFC9
FFA80263
FF3E0188
FF5402DB
F983F755
FFF000B2
FC9BFF2A
FE7BF706
FDCEFF55
039200AB
02C8067A
FE7402CE
061100B3
017DF9AA
030305B2
019C01E7
0238043E
02AB03F8
00BAFD70
FBEAFFC9
FD6FFE7D
FDDBFDD7
007A00E4
FD13FFE6
FF4AFD7C
FFFEFD1B
08640351
FFBB01B9
00FE028C
07A4FA7A
FC38FEB1
F8FFFCCD
F84BF8B2
FCBEF8C1
00F2FC6D
FA4E033E
028FFE56
FED0FFC6
01E5077D
087008F4
0868FDDB
02A4023E
00BB0476
035F04B3
F99EFEF0
0082FCD5
00A3FC41
01880463
03690401
076CF970
034603F4
FC1F03ED
FDDAFB23
FA34FDBA
FFEBFC52
FDB5FE5D
FC2902A4
00ADFA67
FA99FF7D
0176038A
FEE4FFBA
0308FC97
FF19FDA6
FF3A012E
04D10636
FF0AFFF0
FDC7FE78
FDCDFF8D
FBF70066
FD7D005E
FF820131
002E014D
0420FFEC
024D03C8
FD5401B9
FF00FD6B
02C8FDFE
FEF4FFC1
001BFE85
FD84FFB9
F0E50081
0043F746
FFCCFFEF
01F9035E
FC19FD78
FF24FDD3
FE89FC24
F7D800DC
0080FD74
F8B3F764
00DDF962
F74DF6D3
005C00B2
FDE4FFBD
04CC00DF
01CA0174
004A0323
FE98FEDB
FDE400DC
00EF03B9
02EB02D7
F9AEFD7A
FDADFE7B
FEB6F733
00120136
0186008C
FF87035D
FAE601F9
FF9E00D8
0074006C
068404FB
024605EE
021AFCE4
FBD8FF1A
FE2BFC9D
FEBC0196
FF24FE84
044F0253
FC8D0378
FF1E039E
FE05FEAA
FE4BFD78
037A005B
FCE8021E
FF9B04BE
FE0EFC63
FC57FE2A
FF5DFDD2
0034FFD1
FB4DFFC6
0378FD8F
04BF01FF
074B02C4
005903E9
00E9FF00
FC030016
FF1C00C5
FCC2FB67
FB2FFABB
FF88FFE3
FC30FBE8
0005FD2C
02700567
F9830128
014EFED6
FD62FED2
FB92FE76
04DAFAE5
0314FF21
013A03A3
01820238
FF7C002D
02E90198
FE56031E
0140FDEF
01920321
00640135
0044FBC9
02D100BD
FDA1FC47
0002FB9D
FB0EFB68
FFF7FDF0
FF05FC5A
05ADFFF4
0095057C
00E3FFD7
FC6BFEEF
00F1FFAA
009B01FA
FB550093
0022FD54
FFAFFEBD
02F70161
018E02C2
063C1967
F63C0180
FCA7028C
0185FE56
0092012B
007D001A
FF610287
06E2008F
02A70131
034008D8
03450211
FEB600D9
FCFA0486
FDCBFC9F
0275FA90
012B0396
FB99FE3B
FD4AFD7B
FA80F718
FCF7FF92
021DF880
FC0CFBED
FB2BF85F
FF8F018C
FF6D02AD
029AFFF6
02BB02F4
04510776
FFC000CA
01E10033
FC57FABB
FFC2FA05
FE08FE6B
FD4BFCBD
FFCDFDAD
FD6A0318
038101E6
FF42FCB7
FE93FFDA
FF3CFF67
FBEEFE2B
015AFE49
02050128
FB5FFA88
FF43FCE4
01ED089D
036C0394
0026058B
FDEB018B
09D200ED
00BF0128
01C808C4
008FF8D2
F61605B6
0A7E0128
FFE8FDBE
FF45017D
0082FEC0
F888FC17
FF1A0264
015EFF47
FDA8FE81
FD6E00EF
010AF2E8
FCD7FED6
FAEB01E6
F3EEF2A5
0493FA75
F9F8F579
FA50F903
05360064
02BDFBA5
F6A4FD0D
FDAEFCB9
FCCBF86B
02A7FD65
FD30F9F4
FD9203E0
057903E2
FFF8FE08
FD1903B6
02F30361
0194FEFB
F67B004D
01DFFB3C
03EFFEE6
FBA10704
03A10103
FB20FF46
FA90FC0F
FACFFA5B
F7E0FA76
FFA6FD13
FE9601D0
024D005B
FE87FFBD
FE7CFDCF
FC35004E
FF41F9C1
FC75FEE1
FD340084
FE81FC2C
018C0131
04A4FD79
01D3FFCF
FC83FF34
F751FFEB
FB87FB98
FE43F8F9
FBFDFA75
FF8B006A
0180048D
0093016F
02E40110
013104D1
001BFF6B
0086FC11
006FFB21
FB7FFF91
FD7FFDF5
00A9001B
FFCAFBBD
FA29FCD5
F6C6F8CA
FF34004B
FCCCFF58
FE6A065A
FA8EFD84
FE7E01C6
FEB1FBB9
0420FD06
FE12FA05
025600EB
0033FE44
FFCDFF50
FD7600EC
08C00304
FD650278
006C026A
02ADFBB6
F6BC02B4
00380099
0B2205C0
022303C4
041C0DA8
15160302
FEE402BC
FD730222
FE0A03CF
04C60044
FECC0126
F5A6FE25
FCE102DA
FD91F006
02BC02E3
FF630546
0195FC77
FB4AFD49
000EFE24
00400218
0231FCB7
FF39FCF7
FAA9FD48
FD83FFF2
FFB80016
FF7A020D
05A9FFB1
FBC3FB6A
FA7BFAD8
02CF01C1
0214FCFE
01520202
00BB02BB
005A0105
02B904A8
034DFF90
FD2F0249
01FD0284
01CC007C
0120FE5B
FE9506FF
04F1FF68
FE9BFF0E
FFE70111
FF6AFCFD
00BCFF6D
0008014D
FE4E01DB
02E3028F
FF19F97C
FFBE018D
010BFD52
FC0DF99E
01B70201
FE4503F7
0056FB3A
FE2602CA
02BDF9BB
FC87042F
FF24FFFF
FC40017F
022CFFC3
FFA4FE8C
F980078A
02C9FEDE
FF580132
01C4FDC9
FBAB0214
00D2FCEE
02AAFEAE
FF90FE92
FB3F042E
0210022A
04920173
064C02FF
FE5B06E2
03F3020B
014DF6F0
FDF50126
FD53FB96
013C0022
FEC705FA
02E107CA
FF1A0047
FED40377
FDECFEC0
FD6BFEF0
01A1FEF9
01460067
FE6200C4
03E00084
FDA60077
00FAFE2D
FD75FE9F
FA5BFF71
01C50263
00C1FDDF
0436FCB7
E8DEFC23
066FFE03
02F6FEEC
FFC40559
04D7FA52
F7CE03E2
02CB0551
0317FB55
01A701DD
010B0082
FFB001B5
FCE5FCF1
FA2CFBDE
F458FEBE
F91DF735
FD0FFC89
FE7AFF9D
FF53FD6C
05E10260
032BFF05
FFD4FB83
03E3FA7A
F842FA67
FA96F586
FA3FFF9D
FED2005B
FEF202C0
0288FCAA
FFE0FDBD
FCC1FB17
00E5FC86
01AB0027
FF48F874
017D0301
FEE1FD5A
01970320
012BFFF6
01FDFE64
036D0551
F428FC55
00A9FCCB
01E5FA81
FCAEFF4A
0168FFAE
FF4F053E
02A80322
FE00FE6C
03DEFD4C
0A2204E8
FDCF052F
FAE0F552
F638FA77
FC88F732
0076FEB6
FDA1FB16
FF8401C2
0070FE5C
FE6EFDBB
FBAFFEFE
F9A3FF6B
06E2066E
FF72033A
FEAEFF30
02CE00F7
FF7D0179
004C066C
F81EFF27
FDFDFD3F
021D0AB1
0A7B0215
01490253
FC9FFAA4
0474FD87
FEA4FC93
F948F951
01F4FEC4
027DFD50
03EF049D
FC91FD79
FD7EFF0E
027B065D
105F03E2
04E70057
FFE2037E
01CCFFA3
FFE9FF53
FF38007D
00D9FD11
FF2A00D9
0192037B
01910090
FF8C00A7
014CFF17
F7F902FF
03AA04B9
FDD7EFAA
F830FDAD
01A4F8BA
02AE0391
046AFF58
00290013
FF5601EB
02360002
0245051A
FDA3FAF3
FF9BFBD7
03180307
008E02E9
07D50574
0276FCD0
FED105B2
FB42FAEC
00E002B3
038BF9B2
FD7AFD0C
FE3001AA
0140FDF0
031FFD55
FB44FE83
FA1EFCAB
FF9400D2
00D7FCDE
099303A5
014401EE
093400E9
FFB40AC8
FC7E0974
0990FD4D
FBCDFFB6
FBC4FB07
F91BFF8D
0270FE35
FEC90247
FCBE037A
031D087F
F1C806DD
0146FDE3
04B2FE4A
FE18FC5B
F63FFDC4
FB6DFD3A
F71DFC58
FB14F7BD
F685FDFC
05BD0432
FCD002A0
FD5BFDAD
02D401F5
019E0227
FC2803B4
063C026C
FD550170
FF7AFAF8
FDD5FE94
FD8203CC
FFCE06A1
0A310049
02230246
05A109E5
F248FF7C
0486022E
FC98F9BB
FC830403
FE3B0144
018DF7AE
0238FEFB
02F0024D
01B9010B
0257007D
FFE900D8
017EFEAE
F55900B4
040D0107
03B2F709
04E5FD11
01C8FD7E
0899F611
084600CA
00750444
FD380255
0E5E0443
02AAF29E
F648FFE3
0523055E
04C8002E
FECA02D6
F99FFDDE
0412F503
0295044A
F739F67F
FD3BF873
0336FC6A
FE86FB72
FD90F652
FDBE0D09
0247FA1D
FB78F686
0001041A
FF450112
011AF653
FCE3F5C6
01DCFF93
0B10FD55
08AA0B8E
00F7FD2F
03B2F95E
01E309C4
023308D1
F7CF032C
F415E3D4
0144026C
FCEB029C
019DF585
FF240420
005404FD
03C9FFB2
FFABFE9F
FF3A004E
02560192
028900D4
020800B9
F7EDFFC2
05500363
00DF0046
038402F0
0369FDA2
FF2A0236
FE1401A0
047900A1
01DCFF71
04470549
F89BFD67
FF22FF00
FFB1FD83
FC0E033E
FFEA00B6
0021FD62
012A0031
062A0291
0423032C
FD62FE45
016BF917
0286FC31
F39FFF09
0409FB6F
00F3FADC
F98CFCA4
008FFF87
FC03FF95
03B70674
FFD4FE4B
04900111
FB95FC8A
FFE5FD7A
FA65FA23
FFB3035B
0337023A
029DFD57
00450064
016AFD30
01DBFF22
F6ACF8D5
FF33FA8C
0039FCAC
001FFFDC
F866FC25
000CFA2D
0356FEA6
010BFEA9
00EE0593
FC960159
014800CA
022AFE8C
E9B6FAF6
07E0F2FD
03870375
07CA0227
04860346
FB04004D
FCB10B80
0459F708
FDDBFEFD
0134FEC6
EE3AFEFA
09BD072E
0071F908
FBB904BC
FB68F2A3
0152FE9D
F88BFE34
F7D9F389
010B002B
00AAFF8B
FD35F705
FB39FFB3
FC1DFDE1
FD81005B
001BF0B1
FDB9FE7F
012D005A
FD7BFC81
FFC9FFC9
FFA8002F
036501B1
FA740000
FB33F51D
01EC01B4
041CFDF5
00290230
FE62FB0C
FD6EF963
FF830AA1
FFE3FBB3
FF72F771
FDBC0148
0570027E
0011FDD0
FAB1FB21
029B0007
FDE4FF29
F583FA47
0524FE38
033BFCEC
FED3022F
06EC05DC
FAFEFF0A
008AFAFB
FCF20277
0248FAC8
F7A0FA65
075100BF
FB3A07E3
003CFE97
F75EFCF9
0313FE21
FA44FBAF
FE03018B
FDD00252
FB1FF56D
058FFE2B
FFDBFD21
FDFD0309
03C9077F
FEA6F05E
00B6013B
FD86FFC1
FC220202
FF67006C
FB5FFEEA
FCD8FC4D
001FFF5B
FC63FC9D
01CAF9F9
004EFFA6
FB010674
06E802AC
FCC3085B
0611FE9F
0412FFF4
02AE0420
F7580495
000EFCD5
FFBC01F5
F459FC52
FE55FC89
FDF2F642
FAF1FF80
FB30FB81
F92BFAE6
0740FADD
002002C8
024F0009
01F0FF27
016A008D
FEC5FFE3
FE80FF69
00810253
FD0EFD15
019701CD
020DFC67
0123015E
02BC006C
F7E2FEBF
FD82FF71
02DC0074
011E0348
FEA502D8
007001F8
FF62FDAA
FF0F064D
01C80704
0632FC2E
EA80FC64
065E0876
012400F9
041002A9
FAFAFD06
0031FEE5
015AFFDD
F9BEFFC1
05A3FE99
0109FD06
FE28FE25
FAA2FCFF
01D4032F
F9BDFCDE
FEC100B7
FDF3F61D
0025FB4E
FB6AFF59
01BAFFB6
FECAFF9C
FDE1FE49
00C5FF9F
FF6006EF
01690427
FF4100BF
00BF004A
FA79FE35
01EFFC9A
FC3BFDA1
FD7C0059
001FF240
0571FBEE
FD8605FE
FD4CFF6C
FBB30035
01FB032C
0D010711
016B019D
014EFCB8
061BFF41
FBA000AF
FDAC00F0
06A7064F
0168FFF1
FFE4FBEF
010B06D7
02B7FFEF
FDBA00E7
003FFE89
FAD3014B
049CFFDD
FE2D05D8
055C039E
00D10095
04400790
ED3CFE0C
FEFDFDA7
03B303FC
094BFB15
03D30043
FF500083
FEE30036
0223F9DB
0287076F
018E032D
FEDEFEBB
FC01F859
FF4603C1
0022FFA3
036C01CF
FEC801B3
FC85FDC8
005303CA
FE0D0093
00FAFFCD
FE5100F2
FFD9FD17
0305FE30
00D6034D
0379FD72
FFD30457
06810336
E523FFC2
01F2FD05
01CE04A4
0DE70026
E8C505A0
FEFAF840
FD13FECF
F8A9037D
FE30F59C
04E3FB16
FED103E7
041CFEA6
04C4FEFD
FEF5FE58
024AFE9E
FB34F71C
FC58045C
FA8CFD32
F9660363
FEF2FC4F
FEAEFE80
04EA0668
00E50020
00AA02A6
02F7046F
FED5FA86
003500C4
FFE3FE97
004CFEDD
FE0A00E3
FC16021B
03ABFA51
04AD034C
FD5FFE0A
FE94FF32
F96BFFA3
FD1801D4
FE97020A
0240FFC5
048FF943
FF9507AD
FF8D0213
01B0FE00
FEE400B6
01CF0211
0147FD02
00D9003A
029906B8
F71504B5
FC740230
0145FC5E
0191045F
04EBFEA2
00000109
00110168
FF19FE7A
FE37FB9B
FC5001E0
FF06FEBC
FD29FD5D
0319FED8
042AFBBD
010B052D
FB17FCE6
FE0F04B3
00F5FF00
F1110EA7
02A5FD60
0140043B
0146004D
021EFF97
FA93FC17
01FB0205
05BC0217
FB57FC85
0234058E
FFEB06A3
0141057E
0749018E
05BA09A7
FA500DEC
FA95F13E
FDB9FB0C
FEA300E1
F92EFA22
FD7D0313
008F062D
00ECFEC4
FE00038B
06DD0656
012B0186
F81E0126
03C10080
FB93F345
FDCA0CFB
022E00A5
0300FE65
05ADFD84
FF02003D
009FFDAB
0664FDFE
FBD40782
0B95FD82
044B03B4
FF430281
FF3301E4
FB7FFB13
FC46FC6D
FAE0028E
03360619
FE1C025B
FBF1F7CF
0433FAFB
FE280188
F863FEE3
FBA601FF
031E02F8
FE46FDB9
08FDFC21
F8A9FBB8
0778031B
FF4105C5
00CEFD7C
066C049E
00BFFC3E
07C4FECF
F9CFFD4D
0033043B
019503AB
025DFCE9
FD0804E7
022D02F7
028BFD05
00CD0271
ED41EF58
054F0070
FE33FE68
01D10017
FECCFB8D
00480021
FC690299
00BD0145
00DB013C
00FF03E7
06050320
FDDDFE18
02E7FB64
F90E0082
04DBFD0E
F3C8FC40
EA52F912
FC7BF66C
03870B75
FFDB038D
FF970234
0417021D
00AEFC35
FF3B0490
FE17FBFA
04BEFF30
FF570004
FE1DFD24
038AFFB2
FE37FF33
0031F9FC
FE65009B
02B4FC35
FE9BFFA2
F6F3FEA6
0173009B
F9D50B5A
05870361
04DC0832
FBCBFB6E
F1E905CE
033BFAF6
FB0B05B1
FEFD006A
023402E1
00B2015A
FF2AFF75
FA99FCD4
04B2090B
FD0A019B
0881FA2B
FA5EF87A
03CA010B
0121018A
FECFFC1A
00C5001D
FE750136
FE4E022C
01EAFDB4
FD6E0079
001BFD65
0244071F
FFFE069C
F7D1FDC2
041E01F1
FFEC027B
FFA2008A
FFC4FFC7
022C0058
015A05E0
03780939
09A8FD49
F5E202D1
FB190126
FFB8FF9A
01D0FCF1
F975F8F3
FB7403AF
0415FBAC
014800A5
021B01AE
FFEBFEF6
0323FE23
04BE01FE
FD10024A
F5FAFEE8
0307FE62
00AAF739
07360683
00F2FCFF
FF7C0283
FFBFFF14
FCEBFBCE
04E6059A
FD5BFFDF
F748FD05
042DFA5C
05CAFFEC
FD7801E3
00FC0398
FD7F023C
F874FE6B
002004DA
FD92F7C3
FB48FDC9
FCFC01EE
F8BBFD9D
014AFCF6
02A907D3
065FFEE6
0505006F
04080776
F9F3FD68
02C5FD72
FF6600E2
FFAE0400
FDA5FBF9
FFD20552
0160FFAE
FAE004FF
FAC2FBEB
04C2FF14
011F0074
016BFD66
F89FF86E
FE78FC09
FE2FFBC4
0FCB08E4
048403E5
02D302B1
0628007D
FC5402C4
005FFD36
F857FD9C
00130145
038305E1
0B88042A
FF100112
FF5AFD8D
05E802E2
006E0132
01B500BF
FA6EFC27
0155031F
00E60553
F44D02D1
00A1F92D
FEF6032B
045B05A5
FD910291
063DFE8D
06C204A1
FFE9FEE8
02B80BB1
ED0EFDD7
019FFCBA
05080246
02DA0783
FDEFFCCA
00EEFBFC
0099066F
FD590310
FB87F712
0A5B05F1
FE2C0433
01FE02D1
FB400137
FFD30155
0311F81F
028A09DB
FB57032F
FDD8010A
F81CF96E
FCD3FABE
FFFF0069
FC02FC80
00A901CF
FB8D027D
043AFB03
FF8F00B9
FF75FE25
0298FD7F
FCB8FF33
FEFAFFEE
FDBAFBF9
00A8FEF0
FF9201BF
FD720147
FCB302BB
FA3EFF27
FE22FE53
FEDCFA8A
00E7FB87
FF44FA80
FF58037B
03600028
00E8020A
00120030
FCD3FB1E
05A90192
062300F1
00710718
FE4800CE
FA6501D9
FE0FF9AA
02840004
02A9FF5C
FC940401
0674019A
FD980131
FE93FFEA
FA96FF46
00DCFE66
FF650578
FD25FE14
021EFCC6
FC22FD8E
02AD03AE
0A72FBC2
FF1A0985
0532F788
FC10FC0C
10AE0460
008BFE10
FCC90091
FDF2F9B4
FAD0FD22
FFADFB28
01FCFFAE
FC7802E0
01B8FEF6
04CC0339
0062FE63
002D0199
074EFEFF
F6B8FD9A
0016FFCE
FE9DFE77
FAC508A0
02DCFCE8
01740628
00C00081
FF73F9A8
FF51FB92
FFDEFFCA
FF8A036E
02E4FC69
FDE9FB8D
FAD0092E
0D0AFF1F
FDE901D4
053801EB
FF30FC95
032B05A6
F7B5FD26
FF02F85B
F6F5FE71
FBA3F891
F9A4F7E2
FAC0FF8F
0038FC5E
024408BE
FE34FB23
0122FB4A
003A04EB
F2A7F767
04F0FE40
FFFB033D
F3C6FF1A
07FAFA4E
03770203
F99601BC
F9C2FE9F
0543FE09
090E0489
FF0E0084
FFB0FD55
FD06FEA8
0B2601DD
077E04FA
FC51035D
035502E4
008B02E9
03BF0492
00B6FF4F
FDE0010B
0C94FF71
FB3D036A
0573F633
0549FDBA
010E0343
FE3803C1
00AC0502
01D5016B
FF43FECF
FDDFFFD1
03000377
093A0387
FC05F90B
0236001E
0256FE59
03ACFD13
0119FB05
024F0A8C
FE19F895
FE56FC01
FC5AFDB5
FBA2027D
00C502B1
FAC30001
013501EC
FEF201DC
03E7FF0B
FE97F8D9
FAC5FBFC
FF9801B3
08DB0262
02D10094
FC8200F4
02CFFDA6
FB7602DC
0068FBF3
08E4FE6A
FBDEFDED
05320C96
000CFEE7
001C08EC
012202B8
0B3202A9
FE9A0082
00BC02DA
FFA6FFC7
FE9E0023
00D5FEBC
FE64FFD1
02CF01DE
01E102A1
02F2FD8F
0B2A05C1
03440A9E
01010449
04DDFFC1
FE720233
FFD00151
FF14F7AA
FE0AFBE3
019900B1
FEE2FF3F
041A0122
011EF6F2
0ED8F4E8
152CFFCE
F857F36B
FEA0F568
FF40FE54
0461FCA3
FDE7FE12
00220054
FEBF0990
F7C0F964
1996018B
F788FEDF
FEDEFE4B
FEB80173
0768084B
0248FC0E
FA19FEA3
FFA0FEFB
FC4DFC59
F8DCFF52
01FB01CD
FD75022E
04D9F8E4
F6E0FC77
F64CFA1D
F88CF537
FEC1003E
0370FF30
FDD30228
03260363
FBBB021F
01EBFF07
FF2800E0
FE4C0554
03010266
03CCFC2E
F5D1FDC2
02990531
00A2FCC5
0B53FCC9
FB60FCA9
E31806BF
F929F9F6
06A902DC
F871FC7E
F595FB60
F53AF64C
08620445
00EB0028
FF35099E
000FFCFB
01B8FEBA
0204FDEE
FF47FBD1
00AF00FC
07DBFE59
FD0F02A3
FDB40C4B
025C0651
02D9FE5A
FD7D0657
FB17FCEF
FEBDFF9D
03620334
002900AC
0948FEEA
002DFB6A
0187FCE4
FCF2FDC9
FEE5083D
0423F59C
FDAB0045
FE04FB29
FC05F76E
00B60167
FFD3022E
FF2504A6
033BFFAE
01C804B2
0084FD7D
FDB40113
04F30386
0962F8CF
F777007D
FF08FD06
0503F9DF
FE56FF45
FC9E04DE
035500B5
FFFAFFA1
FDB30430
019BFBA0
14D3FD40
FF0E0193
FFE50052
FC03FD7F
0AB40178
0361FD8D
00A0061C
04230436
FBD60461
040E0292
00DDFAF9
FEFD01F4
FFEA0199
FEC9FBCF
022B02CE
0DC006A3
054AFE9C
F95B0D69
FEB2FF82
FC670134
FEA1023E
FDA7FB42
FDFBF9D8
FE44033F
03DEFFE6
0534FF7B
00500053
FD6BFE30
036EF9F9
FD540612
09C7FABA
FDD3F984
FD3E01CF
01F8002F
FFA201BF
FAEA01BE
FDF9037F
FD9FFE5C
07120112
05BF0CE3
031CF366
FC3E0175
00880177
FF64FFED
FEE20035
FEA1FDCE
FED3FD08
FF75FA17
0527008F
034100B6
FFFB02AC
02FAFD4B
FB9200F9
01B3FFE1
F860FF58
FA9B0227
FF4A005C
05D7FDFB
FDB4FC52
FE6D0025
FEFE00B7
FD510434
02FA01CD
FC08F896
FFFD00ED
0148013F
04D4F766
024DFD96
0260026C
FF46FE01
FABE00A3
064FFD35
045BFBC5
00F9028B
009601A8
F63D002D
043FFAA1
FECD0A1F
FD96025D
FF3BFF34
02C305C5
023708C8
0419035A
000D0228
053CFF72
FE7CFE3E
0098FD3E
03A500B4
FA9901CD
F98FFEA7
FF06FC4B
FE160056
FFC6FF54
023C10CF
FA7AF252
0656FD0A
FE0DFC51
FCD0FFB1
01310447
FF0E0121
FF19FBF7
FF1BFDEB
F5C00428
FFDC0473
0312025F
0153FE26
FB76FBF4
03CEF0E6
00C5FFD8
0357FBC1
FEF7FECE
0EBB04D0
FBA4FE7C
FF4C0088
00E6FAFA
FA36FF11
FDB7F80C
08BFFC9D
FB05FEC3
FBB2FA5A
FE3CF9B8
0045FA6F
00C104DA
032D024A
02AAFD22
FBABFE29
FCCBFF82
01DAFD95
FDC9030B
FFA6FEE1
FEDBFABE
FEB7FCF1
0425FF80
00B7079A
FC95F76A
FC50015D
FD83F6DB
0236FC55
F911F8A6
010CFE50
FA3902AD
FFF2FE66
032DFEFB
FB8C02AD
F918FE0F
0486F962
FE9602F0
FD06017D
FD4704CD
0432FCA8
0720FB5F
F96EFE0B
F922F095
F7F8F8E0
0291F943
FC0DFEF1
02B00339
FC40FAF2
0002002E
FDBA028D
FE1CFE01
085E0044
FC3001E3
FD36038A
FB0EFE3D
04770311
FAB400B3
FB7A0905
0176FEEE
FAA10316
0925F4CC
FD5CFDC8
FDB4FF42
006A0109
016A06D1
0028FA96
FF26FDE2
FDBDFD67
FE30FDC4
FBEDF869
F98CFE03
F92FFD0C
023AFD18
FD65F339
F464FADA
0614001C
00BAFD8E
FCBEFDB4
FF6707FE
033CFD93
00A5FF9B
0193FE57
FFC7FDE8
0073FE8A
0470000F
FF020392
FE3B0377
FEEFF956
029703EE
019D06CB
011C009B
F922FFD1
0000FCC3
FD84FD8A
0501046F
03CFFD8F
FFACFEB6
FFADFF5B
FFDE0250
05B80419
FCC5FBE5
0097065F
0018FCCE
FF76FF85
FEB6FF91
05F105E6
033BFD72
046B02DC
09770E8F
20FF09B9
F7860EC5
F0FDFB16
06740167
03B500EA
F7E0023C
FEDF003C
FDF5FE63
0021FFC9
FF51FDF5
FF2A0380
054B0634
FC40FC1B
024C01E4
00E0FF5F
0366FDD7
F67D03E4
0DB70161
03DD0117
00D20AF5
FCBC03B0
F8F1F8EA
F680FACD
FC1FFC4B
0301FC0C
009B0215
034BFE3E
FBBCFF5C
FD0E016F
FBE3FD14
031F03AC
FDE5F8C9
FAD6FD9A
04B502FF
FCB5F86D
FB26F8D5
0396054E
04C7073C
08061337
049303F2
FF3104A5
0307FE7A
02480037
0041F8D1
FC6E0297
04F502D7
FEF1FF51
0380FF64
FAA502B6
02250339
04B5FEAD
008401B6
013505B2
FDF105E8
03E7FD12
005A02C7
0426031F
02CE057C
FF0B0673
0054012D
037A031B
FE260187
0491FDBD
00B201F6
02B902CE
020C0060
FEDA0134
02C5034B
059B0222
F7C1FE70
00660047
03E7FFEA
05CEFE76
F9EB0280
FB65FD31
01AF0203
0064020C
FF09080F
118208F0
06CC0898
04E00A0B
03E90826
03F7F5E5
F452F58C
FF40FF9A
0C1BFBDD
04600888
FBF102AB
000B015F
00BDFBCE
FC900030
FF600149
FB7B06D5
042C0399
03DA0129
FACE0212
FB62FE8F
FEFEFEE1
FED201ED
00C9FEC1
FB9AFE90
FEA7FDDD
005F0134
0275001A
020A0381
0024FE36
FEEB02FB
0083FE96
008C002C
00870535
00390127
FED5FCF2
FD4FFC28
FBF8FFBE
F9E0FC5E
029DFFEC
03B505E9
F8B5FD88
FE1C0153
012BFF4E
FCDC0160
01A7FDF0
FF69FCBF
045A03BB
FDA40059
FB6C031F
FB9FFE14
FF310318
0104FF50
FDA00553
0709FCF1
FA81FAC5
09DE052C
FBF9FEF9
008307EB
020DF492
FB1A0610
FDEEF3BB
04630400
009C00C2
FAC3FBA3
FC380039
03C2FD70
00F5FC19
00F400F6
0252FD2A
FEE5034A
FB840173
0118FC56
FA1AFE42
04C80890
010403A1
02A90005
FD4A01A6
FD2B0749
025EFEEB
040FFCE3
FD17FCBE
FFE50064
03570175
F159015B
0C5101AC
FF73DB0A
F03F2291
0A7C015F
00C10353
00F9FF6A
01A0FF69
FFF8FA87
FEC103D3
FDDCFE35
05D4FFE8
FA85FEF1
FB77014C
FCF303E8
021DFF1C
FD7C0193
FE37FEED
FB34FCF6
0501FD56
FDE70013
FF2B083E
0032FA0C
FCCFFAF7
FF47FF6E
FA23FF7C
005203E9
F74E021A
FE4FF78A
0361002E
053604F3
02C008AE
080DFFA6
0378FF19
05E306BA
01E00219
FB9900FF
FAC3FC15
0AE2FF3C
FDD8FBC0
F95200A8
FE200602
0378FD22
FDAC07DF
FF8EFDF6
0484FBB4
05F0FF4F
FFFE03C0
FFAC008C
017DFD65
FA0DFC82
FAC1FEAB
0579FCA6
0D03FECE
FE1B0343
FE6CFCBA
01CE01AE
0233FA02
04AB0123
E630FD35
F964F398
070D08C1
1950041A
012E0962
01B5001C
001B01AA
02A7FF90
FE55FFEE
F77002BC
0029020C
FD3A0580
F6700428
FED1FF43
FFE1FDEB
F764FE24
00FD00C8
FF95FB7B
048C0A40
FC32FEA6
09A202D1
FE80FE79
FC1F068E
0304FE7D
0564FDF2
FD780039
FCCB06C9
FDD7FBA9
03DAFE0F
030001B6
FEA8FDF2
FDF6FE6C
068401C7
FC3D0A44
0628FE3D
0162FADF
FF39FFE1
FE3CFDF5
FE60FFF7
FD06FE2C
0274FD6E
FD240286
0242FE24
FCBDFD73
FEC0FD83
01310430
F9B7038B
F562F739
02E303FB
FEA7FD93
0123FE8C
025E02EC
00240093
FEEB0139
F8730299
FDC701B8
F9B90098
FEBE0124
FFA501F5
0044FD1F
00A5FE1A
FFD1FFDB
FB6F01CF
FDC6FDC8
FBAE0054
FB630093
F72E00DC
FF5EFEB4
FD21F63A
FCF0FED2
FC7D0359
0B99040F
004D0227
01E8025E
01C0FA5A
FDC90061
0027FF29
FF5407C5
07E1FFAD
01B40656
02DB0204
FA5700CF
FD4D01F2
07C905C3
F891FE86
010EFF14
01C10752
F502F965
FE6FFE2A
022C03CB
FD9BF769
0197FFA5
05350177
06FB04C7
FB13FFD0
039DFA39
0244FD3E
FF0A0558
01B505B0
F8320385
FF52FD31
FB6C01C5
077F00FD
0074FBC7
0180FF48
FC9E0473
04F1015C
06B8FF9D
FCF9FFA7
F45E0148
04C7F738
12EBFF43
026FF837
01CCFBE1
00BB04A6
02010147
FFCD0103
F472FDD9
0599FCAC
02530036
064E018B
FBD10078
026FFB23
05790078
FF50FD67
FDB6FD4A
00E300E2
044AFFBB
027F0115
FB4500FF
FE5F0200
FBB70085
FAC5FF9F
0224FB59
FABCF7A0
FC6BFCF8
031D034B
0109021F
07D302A5
FDEFFA77
FF6701C9
F506FD54
00BAF9D8
F961F4E0
FBD4FF46
FF7702B4
02BEF9DE
FBD000C1
FD1403C8
04010179
FA5EFCB1
FE62FFFE
FBC6F7F6
FFAAF8E7
F76C05B5
F39FF03B
FB49FFAD
FF64FDAC
04CA02E0
FB5FFFB5
02C4015B
F8D90A31
FF0B0301
FCAB0044
FF08FA50
F988FCD8
0035FDF7
002D0150
031CFF97
0181038D
023CF898
00C4FE93
02B1037E
0057FDB3
FB29000E
FEACFF7C
006E00D7
FE610635
0425FE60
FC29022E
010CFC8E
FC5EFF41
02970249
0574FD98
FE5501C7
021F013E
013FFE5B
FF590031
FFC1FF77
FED4FFF7
FFA4FD0B
FE420380
FEC30136
0052035B
007A0131
011FFCD2
F836075E
0061FB3F
020EFEDD
0229000D
FF71FDCC
0559029A
073D02B5
03A6FE0E
08010CED
029FFBF3
05180D9F
FDFE002A
FF520003
FF4F033D
00880401
01A4FB00
FC4400D3
F894014A
FE4402AC
FC05F515
FE30FE6B
FDCDFCB7
FF5DEB86
F83A03BC
042F07AB
04FC0461
0A2301F1
FEEDFFA9
FC0202F6
07C803A6
FBD1FD96
017AF99E
FC0801B4
FCCA01A0
FD8C0118
FA53012E
00DC002C
FE2D017C
FD05FAD9
084FFFDF
02C6FAC8
F90505A2
0141FD80
013F040D
FFF401CA
FD1D0EE7
04CAFA1C
FAEAFEC1
034F0476
02041204
FF8501B9
FD3CF789
FD1E0686
F802EF05
024FF886
FDBE039B
00D7FC79
FE6B034A
FFB2F594
FC4B06AA
FB4EF8A5
FD29F8E4
01880231
FDEEFC26
0231FDE0
00ED0450
FE80FFA2
FBF701A5
FCC2FAE7
03A7FB38
FEF600E7
0675009D
FBA602C2
01D00181
FA50FA1F
02D30601
F8A4FDE5
FDD00297
FF18FE15
FFC7FFDF
031003AC
FCB7FEA5
FC25F060
0337FDBA
04DC0182
062AFB0E
000DFD18
FE5A0231
00AB013B
04D2FA28
F9B0FCBF
FDAC07C4
F7C2FE71
FBD4FF96
FC9BFB50
017CFC0C
007A08BD
0036FBBE
F9DCFC43
0090FE9D
03DBFF39
02970189
FF90006D
FD430297
F52CFD3A
008FF978
003EFFB8
03630262
00E6FEB5
02C004C4
0B430204
FF4F017A
0C460B53
03F205DB
01410919
008BFC9B
0A54F8E8
0100FF15
0690F352
00920071
06D401B3
02750B48
065300FB
FA1DFFEA
029BF869
FC0BFA2F
05B403C4
0508FC89
033CFE43
FD07FE12
FB5B01A4
FDBB0364
FF2EFD59
003BFE23
FD320145
FF2501B8
01CB02F0
02BC0844
04AA0A38
FF94FE84
025C02F3
FD010365
0055FC9D
059C01A1
008C0100
0299FF70
FC350092
FBFC0328
06AD0712
FD56FF39
037F00B0
FD530180
FD63FB56
FEC1FDA8
02010117
0427FD8F
00AAFE40
018F0222
07420188
FA4DFEB2
01EAFC77
0D910495
F86EF574
F216FCFE
FFCB012D
043AFDE4
FE45FF95
0305FFEC
00E90230
03ACFFCD
0E160029
000DF95C
000E039D
F98C0353
0628FC91
061CFE3C
FE57FF64
F93B0074
FC870441
FE7CFBC3
FA06FAF8
FE05FACB
FCAFFFA5
F7C1FFBC
FA2AF173
FAADFF0A
F90BF9C8
0650FE35
042B011D
00A1FFC1
FCBA0047
00BE04B7
026D06C5
002DEE91
05A5FD5F
013B0C22
FC4002E5
FF440539
FE160041
06CEFB58
FD10FDCC
FBF0FF3F
FC210A74
014D0434
02A2FBF9
0022FE85
0152FED2
01AB0005
00C40544
FF83FF3F
03FDFE5A
F7F703DC
F8B0FF6F
FF58FD51
01FBFCAE
048CFF83
013AFF54
0458050B
03710059
FE4AFF17
0304FBFA
06570115
00910416
03D80A27
FF1B0420
FBA50008
FDB10114
0225022F
01EEFFF7
01EA01C5
FE27FAEA
01A901E4
0379FD93
FBA10BD8
03AA0123
FA1AF5C5
FA77FFA3
05F7043A
080CFCD6
01420AED
FD5C03E3
02EDF9BD
FF10FDFA
FEF1011B
03740C1C
03CB00FB
09D3FCE6
0F1D0478
FADD00AF
FE3CF9B5
02020140
FFF3F9E9
FDCB00BC
FBAA04CB
FBC30036
FEE3FDB4
0138FB60
FD66FBF5
0216FE1E
FE9F04B4
FF8104C5
0352022C
FEA6045F
FF9501F8
FF18FE7C
0671FF16
FDECFD60
FF9402DF
FB25FA78
FA28FE06
FE0902BC
FB0CF9FA
044F0052
FD5E01A4
FCB2032F
04B402CD
032B020A
FF73FCFB
FF6BFEBD
FC4D03A8
031F062C
02FE038C
FD030372
03820050
049AFF79
FAF1FE69
F8A8FFFD
0BF3FEA3
FC7DFE27
FED003B7
FEAD0347
FAE5003E
0224FF5C
FC5D0169
FF030338
FE93FA96
04DDEF32
011709A3
02C008BA
FE9F0113
FECA02D0
05960095
FD61FB25
045E03E4
052803C7
FAD80529
00A4FA76
04C7FBF5
F70EFFEF
0919F431
02C7F66A
00E3F7FB
0265FFE3
0132FD3C
062FFEC8
02CAFD18
FDBA0216
049F03B8
FF97FE0A
01490231
FE9FFE8F
FF1D02A3
FF4EF7A3
FC7B0573
FABAFF7B
FF20000E
FEBCFB84
0235FF86
00C5F9B6
FCB20340
FA7901C6
050703F0
FA5700EC
FCF30226
0069FE0A
0199FE1A
01CD0474
FBAA02C2
02E6002B
FE17FAE1
FA39006F
0720FFEE
FDFF012F
FE1B05A5
F9EEFFCC
0369F6D7
09A9FB3B
F59FFD64
007206D4
F985F9CD
07B30071
FFA80798
00400369
F430FE2E
F9DFFF69
FCCBFB45
F946FC3A
FE39FEF4
FEBA0004
FF69FD6E
FEB8FD25
0102FF43
00F60296
F49C070E
F7D5EB58
FBFFF9E4
02BF0737
03A60541
010A0254
FF16FEE2
05C20591
FA9D010F
FB080128
F68900E1
076D00DB
FFA1FD31
0049049F
0AFDFEB4
FFA201ED
FD73057F
01F4000D
FBFE0204
FC86FAF7
FB9CFE69
034DFA88
FEE9FA05
FBE9FDF8
0321FAFE
04640159
049005AC
03C00232
FD21F82F
FDB7024F
FF49FE98
FF24F9F7
07C30036
02EF04E0
01E6FD92
FD94F799
FFFE007C
F8E00CBD
FD3F0015
FFEF02DC
FE570338
044CFA4E
FDB9FF42
03CCF213
00FE0166
00D1FE5C
FCA60440
FE6DFEDB
F98FFA56
FEBDF60E
058D0324
FDFB01C3
FD8B03F9
0568FE42
FE7DFF03
FA1B0280
FEA7FD07
0034FE3E
FE6BFAD0
FEB90261
FF66FF4B
FEBD06C3
F92CF22C
F1D1F3D7
F536FE3C
FFB903B9
FE5703D1
FF32FDAF
F84DFC31
FFC4FB3D
018AFEA8
050A03C4
105101E5
E6BCFF97
013FF9C5
FD3E03F9
009A01D2
FDE9FBAF
FFCC0070
013EFC72
F74FFBA9
FF89FF67
002603E7
FEC3FFE1
F97E012A
FAA2F6AA
FDB4FD55
FDB8F8A7
FC5DFA2C
FEC80482
001FFC50
023D0419
FF31FEC6
057E01EF
FCA2FC06
02A70358
FCA3035F
02FFFC4A
FAEA0206
037C0118
FFEFFE32
059200AB
FD110030
FFA8F957
F9650383
FBD807F7
FFC6029A
F57DFE6A
F92CFE89
F4F504A8
FBF7FF65
FDCCF872
003AF604
FBBE036F
02290127
01020562
FBAC02DB
00F6FDF9
058E0285
005B012D
FE4F016D
036E0EEA
FFEDFC49
FFB0FD01
FE82FDCA
FE85FF53
059E001E
011E107C
020EFC68
FCD3FD2A
FBE6FED4
0F09F8DC
0226FABB
00440ACF
F5B3FC22
FC92FBDF
011D07F0
0730FEA6
013AFF82
FF0F056D
088BFE91
FE4F0143
F8D8FD7F
04A10076
03580262
06EDFD3F
FC0C034F
05BEF879
028901EE
010F00BC
FD38038F
F9730548
05AFFFCB
FF7CFE42
FFD90533
ED450086
FC34F184
0130005C
0553005E
FE1204A9
FA71FD37
F733F95E
F781015F
FA35ED5A
FE8DFE2E
02A5FD43
00A6023C
06D4FEFB
027CF9A2
FBEDFE83
F5C0FD96
065B0024
0D15FF0D
F32E0527
FFAD0520
0035FF68
F8A70009
01DE02D1
05510723
FF1CFE70
0537FB51
044FFDD5
FB8B037A
FFBD018B
FEC80082
FB3601A4
FEF10070
FE4C02BA
FF7700E5
FA19FD32
FA9D0120
F884FEA2
F91EFBF8
05970115
FF4CEFAB
FE960939
05B20618
024101A8
0062000C
FCEBFAFD
FE9CFF4C
FAFDFCBD
FDEE0479
FEE501B6
03AB0314
007A01A0
FA84FEF9
FAF00210
02C804E4
0B40005D
FC1DFCD5
FF0A00AA
0497055F
0543075A
FF1401D3
035EFF53
00A7050F
071301B5
FA9100FF
F70CFEC0
FE890691
FA91003C
050AFBDC
056BF93A
FE04FF55
00EFFD5F
039501AA
07F7FEE8
000600E2
FB88FE13
FB180415
01DBFE8A
FE1EFC3B
FBC0F97F
FCDF00E7
FD9904A0
F7B0F7C4
015E02B5
FEF3FC35
037401B0
FCADFCC8
FA8A02FA
F67500FE
FD14FEE8
FC9100AE
0557FF9E
0613FF66
FF3F00F7
019201F7
04C5FB40
FB89FDA0
04ACFCF1
00BE0008
FF4D0616
00D300C6
FA560163
FABEFC86
04E802CE
FD860690
FF8FFC18
00B700DC
0040F819
FFF70784
FB4FFDB2
0262FACB
0385FFBC
F583F48A
FC8AF514
FF73FED0
FB710393
FF40FB64
FC62FD91
026FFDBB
FEC4FD23
F86CEBDB
050200F4
01B701B1
FF110091
FD09FDB9
FF5CFF74
FACE024B
005BFF83
00A8FB4A
01360111
FF4F005D
0109004A
FF80FC39
07C5FC61
F6B908E4
EE45F047
0651FF3E
0196FEF9
0284036A
03EE0230
037B0379
F9A4FC6A
FD48FE9E
01D6020D
0325F980
FCC901B6
07EB05C3
F9E30E6E
0AC3FC2E
FB55FAE6
025600EE
139E07AF
FED90918
F856E5EE
F5E2F9FF
FF80F60B
FCEBF9FF
028D0659
05EDFBE5
FD7D0269
FECB07CC
084D026B
0187F2A7
F194026D
02EEFEC5
032B0600
013FFC9F
FC88F901
F4CBF6FC
0412FF72
F80B00CF
F602FCE0
F81800E4
037DFCE3
07000478
01350331
013B04E5
F876FF81
FED5FE30
FD82FAF2
02AD066F
FBE5FC1C
F841FDE3
FFF2038A
05AAF800
FBB501DA
04F8FF4C
01D002E8
02DD0124
FEC40111
FF78FF94
FF70FEB9
01580183
01870369
01CC0050
FE30FE53
051F005A
034601BE
013AFE87
0057F9D2
FF95F9BA
00A1FEC7
FC460061
FF09FFCD
0089FF90
FDBA0858
0991FCB4
F36DF67E
FC80FD7D
012E02A1
01060051
FA87FFDD
03F6FC8F
FFFE005B
006F030A
056600FB
007B0474
024604AB
FCBCFF24
FCB3FECA
F762FAD1
F821F573
FB6F03A6
FAA8FE8B
FAE50298
047AFE17
020F00BC
FD12049C
FAE7FF90
FAAC00AF
010F090A
07C0FC71
FFBAFF16
0200FD24
FCE206FE
019F04AE
FE78FCCA
FE9F0394
EF47070C
02C2F50A
01590291
0B74013B
04C4FDB7
03920B8A
0273FB0D
FF08FC9C
FFF6041C
FC58FA47
FD21FACD
FAD8F694
039E003D
FEB0FA5B
FA5705E3
FB470045
FFE1FA5A
FDEE0096
FF8E003C
000501B7
FE36F3B1
FD60FC76
FEFAFD38
FD3EFF4A
F6010048
02A1F523
FF92010E
FD2DFFA6
FD9C038D
FF4DF966
FCE3FF84
0009FA35
FE750056
02C00361
FE1503E8
FE3EFD60
01FE03DB
FE2EFF28
FEA7FF3B
00390084
FF6D0407
FD6F0607
F97B04C4
FF40FEF5
F996FCBC
FCA0FED3
FCCCF708
FCD4F91A
00230079
FDB40038
FB32F808
06230387
019F057F
016B0410
F872FBAF
01A3FA7F
FF8A0213
F94EF67B
FCECF683
FDB3FFC6
FF62FD31
01E10009
01400645
FAFC026F
FF7B00A4
043E0186
033C002C
FE05FEA9
03A005A7
FAF5FBED
FDB5FF17
0022FD57
02C1FB8E
F98F011D
FA80FFF0
FBE0FD4E
003BFC2D
FD7605EF
0757008E
007FFD3F
FFDEFCD2
FE73022C
FF1D0156
FD1B0358
01820354
FC8101B6
FF640627
FC5EFEAC
01AEFDAB
FFB1FF83
004702E5
026FFAE1
FD2200C1
01C4FE94
FDDBFFB0
006AFD5F
02C0003C
FFECFF91
FE90FDAE
02540582
FF26FFD2
FFC0003F
FD24FEAD
FEF4FFC9
014F01ED
0513FBD0
FEB8FF04
00B802A2
09CAFCFD
0371FC32
F89EF14C
FF89FF18
F6E300FD
07D50186
FB96FBC8
FCBB007A
F94BF633
F9A70674
011BFEC2
FF45FA1D
017C000F
FDF20116
043EFD68
0055FE3F
FF7A03F2
FF5D0112
0854FE71
0061FFBC
FFA400C7
F9E30536
0272018C
FC01F632
FEE700EB
FE5F01A0
02020299
0057FEDE
01370726
FD140289
054F03E9
FBA5FF92
FC2606FB
F95AF673
0013F7FC
0049FE47
FF78FF84
FDEE00C8
004BFDD0
FF5EFDF3
03A1FF73
FB3F0288
FF7AFE69
0334FDC5
FFBD043F
004E0049
FCB700AC
FC49F9B7
01C70090
FE7AFF86
03AAFB24
06AF013D
00A50455
02F9FCAC
04CC0067
04020289
FFBE00A5
FA53020E
05050349
06AEFDCE
FDAC015E
FE18071D
FE9BF65F
FD65FF99
FED5030D
FFF300FD
016F0076
024DFD1B
01BB03E8
FFB5F757
FFD9F543
FF4BFF0E
036DFEB5
FBB6031C
FF7D0362
FF620092
01770458
FB7A0130
FC57014D
FDE8FF0D
028CFECD
07FCFFDB
FC29FFA2
FCAA01A3
0057FBAD
FFD20142
03EE0871
024D04CA
FBDC03EF
04B2FDC9
F6CE000A
07A6FF94
FF25FE58
FA9001AF
00AEFFF8
00AD00E3
FC3BFCC9
FEFFF9A6
01AEFE27
023CFC55
FDCC02DD
008AFEF1
FF04FF37
0237FF2A
FB040370
EDD00131
FD10FD63
0064FE70
FD65FF75
FCB303A0
007A02CC
F8ADFF5E
FE78F8CB
FC47FB33
FC8D0066
FEBB02AD
00C7FF00
EF5307DC
0286FD13
075B074C
01620058
0318019E
010E0749
FDBB0014
0055017F
FF60FC11
FC16FD1E
01A1FDBA
FF06F90B
0156FF83
FF74009E
004C03AE
0279FEAD
FFDD001F
00B1FEBB
FB3500DC
FF800148
01D4FF4E
FF12FB92
0C1BFB23
035005FB
F9F9F7EB
00DCFB22
0074007B
00B6FF9F
00F4FDC6
036E00CC
0069044D
F86BFA4F
07210205
05D5FCB1
02B6050B
FFC9FEA3
0179FFA1
FCDD0AD2
0031FBE1
03E5FDDD
0092FC3F
FE630053
FF43FFCF
00B60244
FEB3F56D
F146FA0F
05C0F833
034E05AF
044203E3
FE4205F1
FFE3FA91
FDCDFC97
FD72FE83
FD6C0213
054AFCEA
03F9F70E
04F1FD2D
04D902D3
FAE0FD13
FF66FC5F
002501BD
0309FC63
F6E104F7
FFD4FB56
026C053D
0215029C
F4F0F5FC
F8AFFA43
FE1CF430
007A009D
036F03B6
06E6FF50
0C5AFCD2
02A0FE75
009100D8
054EFC88
FD6601C6
FB47FCE6
FE6DFE5C
0338FF7D
00BD0762
FDBA01BD
009F000B
01ABF505
06BC01E1
00940048
FD6B0317
F37B0124
FF61FE7A
03E6FE94
049903D0
01200184
FF330064
0523FD4E
F80C06D7
0293FD8E
FD22FFEA
03EC0095
05CE0647
FDA10347
00DB0277
001CFC63
FE86FF6A
020AFB79
0197042B
FEBF0394
FBBAFE1D
FF35FD34
F718FD16
0135FEAE
FEC2FEE5
FF98FF47
0555FFED
FEB5029A
FF680290
FEB10448
00F2FCD0
04E00430
FDAE0405
FDCAFFB3
F8590162
FECDFC9C
02540497
FF0900B5
FEB30518
0031FB0F
F972FFBA
FEC5FE40
FBD30373
07C600E6
0AE206B9
08FB07A0
F664F943
FDA3F8E1
03750495
0CF7FC6E
FD51FD56
FF2F06A5
F9C1FD1F
FC54FBA2
05B9FE09
FE1CFF6A
0029046A
FD6B00F2
00AEFF32
00DBFF55
FF1301FC
FF33003E
03A5006C
0452FE39
01AFFF69
FD7EFD26
0373FBC0
00BE04C4
03DDFF9C
FC80FAEE
01040366
FF590248
FEB204FF
FFFE0102
FFEEFE75
FCA3F9E0
00FD0075
02DD0001
00A30123
08BA012F
0064FF9F
FD9D0122
FD330172
04C6FE0A
00E20321
03C4010C
0582FCED
FD54FF7E
FF8F035F
00670310
033603D5
F5EF0468
0702FF89
FED40018
013201D2
01A2F8FC
FE74FCD3
FC72FD8E
FE96FBC4
02FD050C
006C004F
FF5AFCE8
FFF0FEAF
02B70075
FE27076C
FA69FDE3
FE500170
F967FFD9
02CBFF85
043DF6F1
011DFD4E
0131FEB5
F8EC0217
FEC6FF19
0138FDFB
033BFFC2
FEBF0474
FD5FF75B
01C70105
02A7FF26
F819051A
039110E7
FD66E875
0333FE63
FE3601DD
02F90080
0079FB45
01D2FB74
028800EA
04AFF3EF
EE78FE2D
03EDF9D7
02FCFFC6
FD7F0077
FEF104A5
0237FE53
059F02F7
FF55FF3C
FA86F977
FF21012D
FFAD04E6
03BA00AA
07E6066E
FB44059B
F69DF979
FE080243
05DB01CF
05990D6D
F99E0382
FFEB016E
00A102B1
0065FC19
0099011C
004A06D5
016E02F3
012401E3
03D6035C
F8F9FE73
FFB003FA
FF96FF3E
F9E3F54B
09C5FD85
FFEF04D8
014A0110
0368FFD4
FC070252
FD6700B9
FDBFFB52
056E002F
017A028C
FDF90014
0229FD12
FD6FFBF2
FEB401B3
FFDBFEED
FDA102EB
03CDFD96
03F8014A
0AD7000F
04EF037E
0239F97C
F9B4FCF2
FD9FFDAB
002CFB43
FE0800C4
FFDF0029
FF18FE64
076C0199
00220079
00DF022E
FD80FEFA
FF4E0225
FAE3FD9B
0615FEB0
FF19FACC
FDCAFEEC
FA08FD35
0252FF9A
00ED0303
FBBD042D
01A2FF3F
FC60FD72
F7B8032E
0111EF5B
022C015A
FED8FB77
FDBDFE69
FBC90840
00AA0101
07CCFF57
FD04F8FE
F4CE0D48
06750061
FF780437
01DC021B
018E0196
017C03A8
FC92FFEE
000500CE
01E0FD3F
FEA8FF41
001B00CC
FFAF0357
044600B8
F4C4FEFF
F0BEF18C
063303C9
001A06A5
FFF40038
FA590013
FF6FFF06
FFD601F0
0150026C
0FE500E7
E6C2FED4
015DFD28
022504CC
00FAFD34
FD29018C
044B04B3
FE70FFF2
04950241
04BE003A
0336019B
00040031
05E50227
0466049F
07430179
064AFD83
01C70317
FB8EFEA5
FF8002D3
01C2FC92
04C40118
FC7EFD2E
FD5704EA
01F9FD90
FF1D06CB
046D0576
00D30461
03BDFF2F
FF72FFAE
02C600C5
FF8A01A3
FEDB0393
F09A0155
0471FE53
FD61FB29
04930077
07E60081
00F00177
05B90332
FE8AFFB8
FA9408CE
02C5FE62
007102DB
01FB012D
FF39FE47
0093FB59
02C2FD6F
FCDFFE8A
00270375
01250114
F8D900AB
016A0028
FE2304A5
017202E6
FF1102BF
07060811
F6D4FBD8
04AD01C4
010AFEAB
FD2EFFBF
029900CF
02FA0201
FF0A0071
01B404B6
02BDFE08
FE68FB64
014FFE6F
FF830A5A
024E00F5
FED3FDE1
FD8AF864
FF8BFBE4
0202FB5A
FA8FFD69
02D600A6
00F1FD7C
01BFFD29
0A98012D
03EA00E5
FD0702BC
0564043F
FDA004AF
FE4F05A8
F16CFE5A
FDD5F9A1
FDACFE12
FE87FFF4
FAA3FEEB
FA72F613
03C2FDA9
FE7CFAA3
F8A7FC0E
083F018F
00D4022E
035E07EA
022304D5
0214FCDC
FD80F6CF
F8AC074F
04A30CC4
0152083E
FE66FF29
FE67FBE5
FCE5052C
02490150
04EE00D6
FFBCF869
FF01FD1F
FD97FFC9
FC6E00DA
FCF00192
01BAFF83
FE3E0066
F7A1FF3B
000EFEFD
000D0380
021EFEBF
FF3D01EC
FCB4F718
03840218
FED2FD4E
0411FD55
FBD1F5B0
FEBC0776
0016FDE9
FE260041
00BC0008
00D5FE93
FAF1FEC2
FE88FE1E
FF22FE42
0075010B
0274FE3D
01C5051C
FFCAFF6D
FF7CFD3B
032DFF7B
0352FDA1
FF960210
01EEFF40
FC0A026E
020301C8
FFF30072
FF2B0000
FFA90479
0313F8BD
0014FC80
FFC7FD8A
FF7D01A1
FECDFAF6
FDF002D9
FB1EFA94
0277FEEA
02DC00E4
0462FA5C
0434FFFD
FFC10126
01F9064A
05F1FEE2
0258FF3C
FD99F878
FE6BFDCF
0210FD67
FEDDF32B
FFCC0218
00180299
FCA80143
01C1FCB1
FC4DFAB6
FE0FFDDB
F2BD002F
FEC6FFBB
FD700153
04FAFCDA
FDE0FE12
00B3063B
FFD6FE6E
FDC1FDD6
05D5FEBA
FF26FE77
FCD9FEC3
016602BB
FED2FD88
FD1300F6
FF710C68
055FFA95
FBD0FE88
FD870CD7
02C40147
FF69FA0A
0A6AFE5F
FFDDFFCB
04950419
039F0853
E967FCCA
FE53FB6C
00CFFEBB
FA17FEB2
F81F02FE
FB52F692
FC69FCF5
FA0CF9AF
03F9E03B
0423FEF1
FFA2FEED
FE9A0506
06760384
018BFF81
0046F84B
FDD601BE
FEFE01B9
01B902C7
0081FF3A
018E00B6
FF0201D8
052F020C
F71F03DF
0673E59D
026E0088
022AFAFF
FFC9053E
FDED0507
FFEFFF79
FB3BFB79
FED2FE74
FF4D02FF
FBA9EE3E
010A008A
0335013D
015E057A
07A3FF0E
021AFCB9
FD85FFE6
FA95FEC0
FE03FD82
FD13FB8B
08FF03A1
FF20003F
FF99FF4E
FCFD02D6
FF98F9F6
FBA900AE
02C401E4
008BFE5F
04AA032D
05D70471
FF7904E2
00EEFE0E
056CFF36
FF96042F
02340076
F524FC2B
03F6FBE6
FD70008C
FDC4FA8D
0302FBDB
0075F9EC
FE48FE24
02B9FA1A
FE720260
FB600006
006D02A4
0378FBAF
FFDE0026
FC5E01DD
01B2F4C0
04EFF8E0
FBAC0435
FED9FDCC
FEB9FE44
0389FC2C
FF78FF9B
FE57FFA2
016000AD
FEF2FA8C
027302D3
017FFF4E
FFEA0133
FDF60241
0164FD2F
F91EFC93
FF26FE3D
001AFFB7
011DFDE1
0182FE1E
00CB0088
FE01FF81
FFEAFC16
030502AD
033904EF
F76E01F9
FDA5FD41
015EFDD0
F9A1FB28
FF0EFB60
FD4E0045
FA1EFEE8
FFA20379
014C04AA
000BFF3C
00DBFC13
00BF0A05
FD65F82E
FED1FF75
F900FA0E
031000AA
00FAFF58
0240068B
FEF4FE70
030A051C
FE7B0224
FD4AFF99
F9B1FCB4
04D3061A
0AE5013A
F945F9D9
FED0F8C0
F579FB48
080BFE1A
0156FA11
F54DFE46
0236F14A
07D3FD5C
0092FC4C
0352FD5E
F5E8FEF2
FC1EFB97
FF0802B5
FF61F87B
040E0028
013900FD
FB45FDF6
FED2FEB2
FEA106B3
05A702FA
FF10000D
001C04AF
FFD80322
092D00DE
FF5CFA9C
03A0FEBF
FDC801AF
008A01A9
01350133
FDDA02CF
FEBEFFFB
FDBE012E
05E4FC2B
0160029E
0125FD0D
FC97009C
029900C2
FC4B021C
FF040136
FED300F7
01DEFB5F
FA6C00E6
FE680168
000A021C
FF36FF61
00CD06AF
066FFC7C
02D6FC7F
FE8B053E
FB45FDE4
033FFF52
01EAFF09
F71F00B7
FDE90166
FEB9FC82
03540470
FEB8FCF2
FF310785
00DCFE32
04580290
FA81FD5C
FFC0006F
F8A4012D
0241FE1A
FED9F446
04450332
FC5401FA
036AFBA0
F230039A
FB090CCC
FF34FAA3
FDDE042D
FB45FC2E
FC140097
0378FF58
0050FD06
02E7F477
F97B02AF
0202060E
00A6026D
0494FDC4
FAF4000E
031101C6
FD3EFF43
FEDC0294
017D0348
00D8FE11
FE9E05B4
0038FE06
FD4EFEF8
04BA021D
FC36FF9C
006AFE01
0095FF39
F8DBFF06
F528FD67
FEA6FB19
FBFFF9D2
FDB3007C
0008FE61
FF030491
FC3A016B
026DFF25
FBDCFF33
FF18011A
FDA101B2
02FF0157
0443FE7B
01DF0475
FFF2FFB3
F244FC6C
FF17FC9A
FC9D0132
FD5B01AE
00440BC4
03BD05ED
FFE2FD8A
0279FCE6
002EFE15
05B90169
005C032C
F2510013
F18CFEE3
0822F3C8
F2590604
FBDEFF7F
FFA2002E
034F0287
02CB002D
FF63FF36
0597FF21
FB610135
0097FD32
FDB40107
05F6FD89
FF670108
F868FA34
FB83FA9F
FEF8028B
FFBFFC04
FFC7FE6D
026702C3
FF12076E
09C4FF19
FD55FD24
FC02FC56
FE5FFEB7
FFA401A3
FE560153
06910070
FEEBF8EF
FDCAFB01
F9F0FC5D
048DFB85
FE35F8C8
FC7A00DB
007F017B
0588FD7F
FA8E03EE
01220AFC
078EFFD3
FC6702EC
0184FE1B
FFF50A16
07A1006E
064105DB
047F010C
0184FA16
FF5BFEE0
F8C2F8A7
FC4FFDCC
FF6FFE65
02FAFFF2
0ADAFFDB
FB9301EB
0005F5FD
FB3E0245
FF14FF19
FA80FD9D
0125FC51
04F1F8F2
F811F426
FD85FDA9
018C02B8
FE36FDA5
04B8FE3E
FEB8FF9E
FFB5000A
01AA0099
FC52FB39
FCE0F5E5
FC16FC26
FDBAFB7A
FF8000AA
08D1FDA0
FEFCFF8B
00AD00E0
FD130090
FF17004C
FCECFFEF
016B00D2
0435019A
FCC4FF99
0689078F
0388FE6C
0158FC47
F11FFEF1
FE730622
FCE9057B
F707002A
01E6FDAD
032A009D
F941FD3D
00A7F8C7
006AFF88
F8FFFAD8
F6DAF992
02070830
FE07F944
0174FDB6
FD0C00DD
FEFCFAA8
FF6EFE6E
FE130167
F03FFEA6
0018FED9
FCA9FD2A
FE77FCE5
FD73F82C
0046FB2D
0383FBCB
FF410008
087F01B7
04E50323
04FFFC58
F6390A04
FE9F0153
00DEFB7B
F96E01E2
FEB4FE7D
0B55FE04
FDC300BE
FDBEFF9C
FC1300FF
0352012F
FCD9F970
027DFEE4
FF020269
00FEFFD2
FC93FE8D
016603F7
009FFA30
FB88FB29
FB9BF8A4
FC48FE66
FF6301A5
0034FEEA
FD17FE9E
FFB6030C
FF24F8A7
FD30FF44
F97701D3
0A35099B
02400215
FF1CFD53
FD25FF9D
FE240006
FED0FDD0
F8DB020C
022701B9
022CFEE3
FCFF0188
FFA902B7
039E0226
FFD5EDD4
EE86FDF8
F826FC09
FBC8FCCC
FAE5F9FA
F825FD62
0265FF54
FC91F822
0362014E
004EFE0D
041601AC
FC6C0129
FC09FF7D
00DF0293
0610018D
FCD90205
FDFB0243
FDC6FB3D
FAC404B3
FA85084D
0483F216
FFD8FDD4
FADE0301
FFFF0488
FE9CF9E9
FED307D6
FEDB07C5
FC5F0476
FFA5FC06
FD9BF973
FB69FE54
FD11FF55
FF1F079E
077FFB37
020BFD0D
01C00516
01F4019D
090103B1
003E048E
01A30115
FB63FF5E
000FFF91
04AA065B
F6D70147
FFCFF939
00DEFF45
FF58005D
FD7C0137
00810129
FFFA01A7
FCF20097
FEF7F8FE
FACDFFAC
FE90FBC0
FDE9FE00
FEBBFD6A
FB31FAE7
FA4AFE6C
018B00AF
FEE8FE75
026300A0
0201FDD9
01BC02AF
0544012D
FAEEFE9C
FF01FF95
026FF493
F9B6FB14
006DFC5D
007CFC48
FCE70385
FE33FEAE
FD5101B0
F77AFDE5
00E9FE7A
0119FF93
F613F9E4
F7EEF818
F248FA08
EFEEF8CA
017DF3A3
FF7401A5
026A04F4
03D70116
03ED03BD
FE97FC6D
008DFE81
0214EA11
FC810021
FDCAFADC
FFFFFC3B
FF62FE1C
FEF1006A
027C0914
FD320321
01FC0352
07CEFDD4
FD290213
0034FF09
FEABFF8A
FFAD0048
FD1D009F
0029FA20
FAF8FD09
FDE7FCDE
FDFEFEC8
0068FE82
0252FC5F
FC30FD7D
022801AB
02C2FB35
000B0227
FC86FFFC
005EFF15
006EFBA8
F9740013
FC05FF1E
FA26F747
03630282
03CC0092
032308BD
0245006B
FB28FEA2
FFCF02EF
FB69FDC0
0262FE1F
01F7FC82
FF50FF63
FF8DFE4A
00120051
02E3FFC8
FA6F03C2
02BD01AB
01E6FABD
FE43032D
FD01F9B1
00050464
02AFF8D2
FA5105D7
03F60053
FF44049B
03B90427
057E02A2
02BA049C
04F60634
051E03CF
01F5058A
00F0FFBB
020DFFAF
F9E8FAD0
01CCFEF3
02E0FFAE
049F03CE
03B4063C
001EFF90
01A1FE12
FF9FFBD2
01BB01D6
FEEF00C4
FE1FFA7B
F689FD03
045CFC7F
FCD7FFD1
00D608A6
02C2F838
FF4E00FB
00BEFD70
037C00E5
FE85FC8E
FC7B02D0
031DFF43
04AEFC9A
066606EF
07CC0441
0878018B
FF11FC9E
FD6802A6
02A2FCA4
FD64FF90
03100723
002203FE
FAF1FDEC
FE88FA17
01DEFF91
FEC2FF4F
088DFE05
082F0ECE
F9A2FD67
0183FA17
04BF0743
FAEFFBE9
FFFAFBE8
02CAFB36
FD56FDC6
FCACFC65
FBD10729
01EFF93E
FFF2FA9D
FE45FEAD
FCAD0056
FEC6005E
018DFA2F
01B103B3
FCE7FF8D
08390231
01E2FE65
FE43033C
0035FA54
F968FE6A
FE30FB33
FFD5FE6C
05800102
FD3A04AF
096AFF73
0A2EFFAE
FF9D0686
01D8FDCC
FA92016E
0040019B
FFA6FFD3
0CA301DE
04100291
FFCEEE92
ECB4FCDD
032FFD6C
001500D6
FE0B0183
0077FB48
FEACFFB1
0347FE68
0386FF91
061BFCF6
FC71008E
FCEEFE90
00B8FDA5
0972011F
FFE5041F
0220FF22
F9FFEF71
F9FE0495
03BFF848
F91CFFDB
FCAAF2EA
05E3FEE9
01C604E5
0145FA8F
FF510561
02B9FF82
FD46FF4C
006C0EDD
06570169
048BFDFC
FB56F8A3
F669FCB9
FD560021
064801F2
FF10FE22
FB600424
FE91FDFE
FC97FDDD
00E4030B
0092FC89
FC4E0398
01FFFF39
0412017A
0AC0FE8B
03ADFCAD
FCB00302
09680226
005EFFD5
01BA002B
FF12FF6E
FF5AFEFF
FE06FED8
FD7EFB61
FBD6FBFA
FD73FD66
FCFDF6C2
00FBFC3D
02470142
FE2B05A0
0558FD02
FDBD0294
0443FDCE
023E01F3
03BC0515
01F20163
FAFB0204
FB230232
F5EBFC43
FA9EFA81
FC81FED9
FA77FD9C
FCF3FDCF
0027FADC
03590163
FCCF037D
0059F4D6
FABA02CE
01C40086
01EFFD6B
FCBFFC42
FB5BFD66
FBC8FEAF
FBB2FDF1
FE1CFF39
FDBCFFBC
FD950154
FC4FFFE0
FF4AF939
F986FB6B
FDE8FD8E
047E0229
F2FD0083
FEE6FB1E
FB2DFACB
00590320
00EB00C1
FF3E030D
027A05F4
043C0063
03300611
03310228
0291F90D
016C05CA
0B99FD69
F96EFDE2
FA29FA4C
00F40342
FCEDFFDB
0002FCDF
F0F8FAD1
01EBFBED
00DCFDC9
FEAD014F
FF06FFE4
0067FFE4
03620436
0008001E
FCB3FE23
03AB003E
FFA201E7
FF46FF43
00620066
FD9A00C0
FCFFFB32
06FA06E8
06DB0740
033F0543
0B0D0C7B
FC6A06C4
FB90FE26
04070712
FEF0F375
F88EFD48
FEAD00F7
062600DC
FF7F02F3
FE61FFE6
002BF849
FFECFF90
FFDDFD71
0028FC51
02070070
FA24FC9B
F7F7FE8C
F927F607
F8CAFF66
FD1DFC30
FEAD05A0
0668FFF6
010C01D3
010A0324
F7A5FC6D
0092F9DD
F769FE95
FC51F957
0360F66F
009A0247
F64900CB
0030FE7C
FDEBF83C
03BB008A
FF8300BF
FE73FA25
FBE9FEC4
FD86FFC0
00BC00F5
F90101CC
FDD2011A
00A7FF06
03620433
FF850702
02FC0544
00A700EA
0134FE84
FD8D01C5
0112FF72
FD97FB40
FB7BFF12
FF7C00BA
01CA0141
FEE6014A
F95BFEAE
FD0CFD4B
FF2A0273
FC14FE38
FFEFFAC3
FEBF0124
0122FE6D
FE81FFED
00D50134
0135009A
FEECFF6E
FF970029
FD2D0124
FEC30388
041AFD45
FDA0F8DE
FCEFFD69
00B3FCA5
012B034E
FC82FF0F
007AFE81
EB3CF9A0
0038F671
FDA2F82A
022E03AA
0220045E
032E086A
FE70FC8A
FE84FE96
FC5003C3
0189FF5E
FF4AFE5D
FEF7FF1A
FE66FF85
F9E50320
00C0F906
FE1AF4AF
FFA2041B
FEF7FF57
FFB100AD
FD8DFFA9
FE5EFCB5
FDADFD8C
0229FDCE
FD38FD08
050302D9
FBDF0136
FFDCFE50
FAE2FA72
FDBFF989
FF95FF75
0218002A
F9B403F0
02C1FFD5
01CAFC5B
02C303F0
00FC0F47
13060D75
FEE2073D
FDFC0531
FCD4FEC6
FC96FD99
009A0360
F6F5FD32
FE77FE6F
FDE3FBA8
F66BFE96
FCDDFEDC
009700A4
022C007C
F9F2011F
FBABF26A
FBB7FE07
FF24FB65
FE06FEF0
FFAFFF8F
007AFD90
FF84FE45
FC5101F2
FA43FD86
F5A2FCBC
FD6300A8
0098FD92
FEC40106
04DA00B5
00DB00FF
023000C1
017101F8
FF70FD18
F7C7F8C4
02E6001E
0216FD01
01B7005C
FC3904C6
FCEAFC1C
FE1BF9C9
FF5301DA
FD92FE0D
FAE9F6BE
FD7CFEE2
000D0266
028100F7
FDF7FD03
FF4FFFFF
FD11FE24
F91CF51E
FD09F22A
F530F154
FC560373
0271FCC9
0135028F
023900C2
014AFD2E
FB1C02CD
F9EDFBE2
0024FDB6
FC1FF932
F606FE74
FE5AFD60
0177FF5D
F702F7E0
FF43FA34
FD5DFE08
027205A2
FC64059F
F61FFA81
FEDA02A1
FE18F714
FF93005F
FC220062
005FFDDA
FEC4FE5A
FFC8FEB2
FDBBFCB7
FD2D06A4
F6B6FB71
FD6AFD77
FEB5F99D
FBB4F603
FB4BFFCA
FFE50144
FFE3FC97
FE73FDFE
0019FD22
FE95000B
FE4C01E8
FD92FD89
FF8E024F
03CAFAE3
FED9034F
FD4BFF8A
FD6200E4
FDB00154
042E082E
FE240BDE
FF7DFFCD
FF98005F
FF28FE8A
FBAAFC1D
071505A3
141EFECD
E8730439
0285096B
0476F812
FD9D0316
017B0102
00A1FA24
FBFE0177
00AFFF2F
FC6BFF27
020701D5
FCF7FB14
FE4A01CB
FB40F74A
FE000024
02F0032A
FF860442
F8EAFAE3
FB63FB53
039B01D6
06A60200
0915057D
F99D0065
FD930BAD
0331FAE2
FB2C006F
FE54FADF
FAA101B3
00640127
00F2FE05
081A051E
F81D0428
F4380A04
FF7EF76C
FCB1F94A
FEA3FDD9
067BFD97
064A02D8
0B950623
05AF0621
049C0456
FB9D0631
0176FEA8
FDA3FE0F
0110FED3
016E0013
045E0A0B
058102ED
00E7FDBB
00CAF92E
F589FFD0
024AFD9E
05370826
FE05089D
08F60120
FDF1F3AA
FAB7057A
02C20443
025CFCCE
003402A7
04DBFFDA
0180FBB7
FEF100C4
074EFDC7
000CFF34
FF6B00AE
0250043E
02140038
FE1100DD
04A8FC0D
FFA105E8
070003C4
F8DE03F6
FF05E761
004BFCC9
FDB9FF5B
FF8CFE78
045CFC9E
0453FF5C
F9D901C7
FE1801E8
015B020F
05610940
F817FD6F
0054FDD6
057402C7
0048FE07
F8F50372
033BFDAF
FD0CF97C
FC5DFBF8
FADAFB37
FBD6FAA0
027EF93C
061803DB
092B0284
014CF9BC
FB7F00EF
FF3BFC3A
0531FD1A
046B04D0
0078012D
013F042F
0208082A
038D02F9
00F80590
FFA2F34D
03CA0400
04740630
096EFFA4
02A301D2
01FFFF62
008B0270
00320169
010302D5
02DB050D
FD1AFD48
FB480101
00C20422
FD9AFCA6
01C0FFBD
034300EB
FE37F7A0
0136049F
084004B4
FF7BFE91
FF750124
00760285
FC96FB9D
FEAFFE53
FC8BFE3C
FFE70444
0318021B
01E500D7
0090FFAE
00290280
FF3FFFD7
003C01E5
FEBCFBA8
03E1FD28
054FFA73
FB3700A9
FA24FDFA
0111FEB5
FD2900FB
02D905A3
03ACFCCA
01C20086
FE06FBDE
0A12FF64
059208C0
FFBCFE4C
05D60168
FF120786
00BDF9EC
00C5FF91
FC6F0197
FF3000B6
0241FD71
FF8CFF47
FD86FE1E
FF880159
FE53014A
FFC5FE46
050901D0
021A0440
029C05B0
FF720081
FF98056B
014DFB18
F264FA62
03DBF882
05BF0375
000B04B1
FC4C0524
0532045D
0208E5E0
F3E9159F
09970444
0322FFCB
FB79018C
01A70253
020BFB16
01E10174
03A7FF61
12510475
03FD055A
09D40A76
03BCFCBE
FB1703D7
01ADFA1B
FDD70307
0051FD1D
FF610129
0B39FCAB
02370548
04200123
063E03BB
0301FE62
00B403ED
00840058
FD030098
FC49FC5E
FE4801FC
01E1FF40
FDABFD87
F9CEFEFD
004C0072
FE64FA09
FFBDFFFC
010E0119
FCD10100
0172FD72
FD5AFA17
FE710027
0267FF57
FE3A0046
03C50AFA
01C7004B
01790085
06000180
03DD0097
019702CF
FB05FE3E
07450409
082A0117
FC660CFF
FD500048
FCAAF9F9
00DF0132
FF7D01BC
0AEDFEB3
F9ED02BD
E3C4F3ED
FBF8EED4
FE361052
1C98034A
0362099C
FEC9036F
0015047B
02DAF83E
00AF036F
FD6902EF
0243FFF7
FFD1FDDD
02250384
00EFFD54
FFD700C8
FF9F0452
025802AF
FF7302E5
FE6DFC9C
FE47FCB1
00B00709
FDE1F7E8
FF4DFC50
FF66FE8A
F7D6FE7C
02F6FD86
FA9C07AE
F94CFE8A
FB9BFE08
F3A3F6C1
FA3B008A
FE5AFCA2
FB9AFDD8
070200E5
00D0F966
FD4301BC
FD2EFE67
047DFFCE
FD09FF75
FF2602C7
FF5D0005
FDB4FACF
03F40019
00BAFC86
FF4DFEEA
FCB4FF5D
FD7EFE8B
F79B0161
FF9B014E
FF87031E
FC45FD9B
027AFEDA
FF50F6BB
FD4600A2
02DCFEEC
FD0A028B
FF53FB0B
031402E7
FF02FFB7
FFEE00BD
0603F879
FC5B0BEC
0381FE83
FB35FE03
F7B2FFC4
05F5FDA7
FF6CFC44
F8DD0280
FA48FE4B
006C01C3
FE5DF1EB
01A60873
0234032B
038FFF32
FBBDF996
FB2402E2
00BBFFB8
08380167
FA6C011A
035305FD
FD0EF53A
016FF89E
FA0F02CD
057C0860
0013FFC2
0667FE83
FD1AFF55
EB86F3E3
F90E0A5C
03E2027A
FBB9FFCA
FF250220
FF71059B
FF1903AD
08440787
07E11122
F638FDCE
FE21FAB0
FBC6FE99
0713FFEF
01AFF7D8
F16B0CE1
028603BA
FE1DF160
FDFBFAF7
F19CFD26
04E00026
08890F6F
FD6DFF39
FC43FD81
FACBF7D0
00BF001B
FF36FB0F
FF8601DD
F5B5019A
FD16FA0A
012CF922
09F6FF01
004BFA2E
FD7D01E3
FC3CFC5B
01A40280
01B8FB88
FA3CFD7F
00D80037
FFEFFBF8
FDBBFDEE
F85B01DF
0052027F
FE37FEF4
00D9FD4C
F9DE09A4
0FEBFD8C
FF3AEC0F
F2C202C9
FD1E00DA
FE0EFD98
FFB803C3
00E9FD54
FE97FE45
FF53FF86
062CFC4E
044AFDE9
F9000050
0A29FBB9
FFDE05FE
0577070C
00CBFB5F
018CFFB2
00EE049B
0CC507C4
02BCE879
FBA2F9B7
0566FF70
FA2400F1
FDEE0161
FE670188
008F07DE
03250454
0352FD12
01A30252
0780028B
FE47FE7E
FF47FC4F
FEC8FF8E
FCBD010A
FD1FFEFE
004E02A9
0ADBFCEA
FBDBFC82
FAD1013E
FCE2FDCF
FEE4FEF3
FED8035E
FD48FFBB
014403AE
01C40015
0272009F
03B90107
02C7012B
02AB0081
FF9002B3
01A7FFE4
01820151
04810165
015607FC
FB2AFED7
007204C1
01BAFD5E
F933FFEF
017E0021
0466FC38
096DFD3C
FDBBFCDF
F96B046E
0316FEEE
033AF5C8
F6E5FE4D
FE020112
FFC401E8
FC58FF95
03B5029F
FE5AFECF
03810857
F199FB8B
FF460035
FEDBFA85
FD9800D9
03E10344
003B056C
FFE3FDE9
FDB2FE56
FC5CFFF9
FB2AFEFA
0239FEEC
01240609
010700E5
FB9BFB41
000EFC14
01080590
FD5CFD9F
0125FD0E
F9F7FF25
00230204
FA9C02BD
FB79002D
016CFF78
027D0685
0050FF9B
042902F7
FB5D038A
FF93FB28
FFBF025B
0032FFA7
02B70339
F66CFEDA
009F0D21
028E0249
FC3F010A
FD4AFB31
0AAB003C
FF94025D
FF140123
FA930085
001F05A9
EF110D85
07DCFF3E
FF3EF8C6
FDCB027E
033DFE33
01CA006D
FF27FEE8
0248FF1A
0170FF76
003901AA
FAA40128
FAA60082
FAAB0380
09960296
014501EF
0052FBF5
FE68062A
072F0384
064A0B3B
06DF078C
FEF104E0
FF5202D1
01CE01A0
0207FB28
0414035F
0392FB56
05D1FFBB
F77D01F8
FA9A018D
FD750588
FFE0037E
FCDBFE63
0160FA8E
FB1804B7
015000C7
FDF0FBB1
F388FB3F
0A7AFF29
00F002CF
FB990193
04EA012D
FDA7FDD4
FE84FF98
03E900EE
01D00136
F9D7FADE
0187FE30
FFCE0022
FFA90401
0853FE31
FDF4FAFA
063300A2
0246030B
022D004B
007CFEB3
0082FBD0
0379F916
010800AE
FFFB03B8
0277F907
FA760171
FF8F0593
00EFFE9A
F92C0E62
0095001B
FD10FFF9
034F0091
F8210351
FF2AFFC6
010007AD
02C702AC
0532FF47
FBD1F778
FDAA00DD
FC6DFF07
0066FC04
06B0FDC0
FE650409
FD48FC8E
FE1301F1
03A10052
01B9FC4E
0201FF33
FC790178
00330191
062FFE50
FFBEFDB8
FF18FFA7
FA56FB79
FC6A0201
F51200AB
FCBFFD6C
00A7FC89
034903B8
012D00A1
00A7FF59
FDC20672
029DFEC6
F22A00E3
0DADFE04
FF27FB88
00070243
FE9DFD11
00CE058A
00CC0163
FBDD01B6
04070349
00A0FC6D
FF08FFAE
FEC101D0
0106030A
FCF9FE6E
17EE0216
F9B1F277
F28AF4D3
04FD0157
033B014A
00FDFDE0
FD12FEF8
023D03E9
FED8FF17
FA4A0A34
058DFBEF
0005FED7
0069FF63
FF960073
000D0943
0797032F
023FFE85
06C402AB
F52CFCC2
05D4FD53
04C60406
044EFCC7
087D00C4
0AD50432
0393FF4F
0190F759
01A40262
0186007D
FFE804AE
FF1C02D3
FBE1FEF2
FEC5045C
013BFFB0
041DF92E
FF4A03B7
FFA0FAB5
F977FF22
066E011C
FFA80A3F
F5FB0153
004DFFCF
FBCDFCF4
167A0704
02180344
01680175
00A907B4
FD2D028A
FEE1F980
036004E5
02790218
FA3BF71D
FD01FE59
0063FE83
00510057
0805FF1F
00FFFE10
FC5D02BE
FD700359
000F0408
FB5A02C7
00EC05C0
00EA05A8
0658004D
00FBFE4F
00C2FDCD
F0460309
FA74FEBC
0055FF3F
FC03FBF8
00150299
0331FFF1
00FBFE38
FD3101FA
00720627
FBC3FFA2
00BFFC47
03BFFD33
032A0AB2
0A5B01C2
00A9FACE
FCB0003C
FEC2FD5E
03D3FD6B
FE7EF2B3
03A60253
010406DC
FABC0071
02530308
FFE10004
FEFEFFE3
FCB000BC
017503E7
043E0410
FF5FFE3D
FF80048A
001CF75D
FC93FCAD
FFD00291
0145FD70
FF76FD17
FC9F0009
FC880298
025EFCD8
FB6EFEB2
06C003F9
0050FD3F
0683FEA0
FC0F0350
FFB70B50
0246F6B1
FD96010F
FB16FC3D
01F1FD40
026FFFE2
046CFDF6
017C01BE
FD83016E
0469003C
01F10155
0409FE5E
FD24026E
0518015C
FE26FA2D
0667041A
FE6BFFF2
F7E20414
FE6BFF68
FFE2FEA8
060601EC
FC8DFD85
0026FDE0
0011FAB3
FBC2FCBF
003B00FC
FFA400D3
114E00CC
0224F310
FAF0F328
FE890083
FE9200A6
028B03DA
02440072
00D6FEDB
0327029D
03A80460
FDEEFF19
F720FE90
F924FBC3
F987FC7A
FC82FBAC
07860557
039E0253
013D05B5
FFC40652
FFFDFE79
FE46FDC4
0AB301A9
FDC4FDCE
F94F0030
02D3FEF7
FB99FD85
068D0026
FE2FE16B
FB171D05
07030071
FFBE036F
0A34FEDA
FC52F755
03D00054
F9A4016E
033401D0
0814032F
00760483
05B8024D
FB41007F
FA95FEF5
01A3FCF8
081B0032
F7F2FD72
FFF0FBFC
FEB5FFA0
0368FF62
00C406A1
0225FFB4
02BC0382
021FEFD9
12FC068C
02BB0524
012A092A
0352FDA6
035AFD7B
FEEAFCD4
012C0178
FA4EFB30
F98AF667
041D031A
0004FF70
FDAB01EC
0A2BFE7A
FEAAFA57
0020FF40
F379FF36
027FFFB2
072CFB92
FFB5FD14
FABDFA04
FE6DFEE1
FBCBF7F9
02A7FE5A
FF8AFF68
FFD5FE7F
0566FDBD
FDBC0D21
FB06FB1C
FEDEFCD3
01950378
0721FA0A
FAE3FA45
FD95FE0A
EAD9FC13
FD28FB4E
041C0FA6
0D060038
FE61FFC6
029F0139
FDB7FDB0
053D064A
FC6D031D
F8AE045D
00CB0537
00ED071D
012AFA72
FF03FE0C
FC990637
00480142
FFD5FF86
FF4C05CF
01E5FFF2
002FF8D9
0987FFD8
041DFF59
FEAB00DC
FFF7FD70
1574F9E2
FE7AFB3E
06B4FA47
0200FFB6
FA24004E
024D05C7
028EFDC4
FD080363
FF6DF321
EDF5F649
FD250264
031DFCD6
02D8FED3
FF450139
040C045E
01AF003A
023E02C8
0390FE23
0183FFF3
FF6AFB49
FED0FA0F
F901F917
CB39F613
C99CEEBA
059D1500
FE391250
FE69007B
011103BA
0140037E
0166FF23
FDAF005D
0AA30291
FEF30155
FFA50023
FF7F0520
051F0131
00F3F530
FF8806D6
FC40FDD9
00ECFCE0
FA3C0148
FDD102E1
027500CB
FB920254
FF3300F2
0346FD91
002606F8
02F6003E
01470253
01A2FF04
FAB5FF95
04FAFF84
FF30005F
01EE0151
06050477
0226FC2D
F98201AF
0448FB0D
F71602D5
0124FCE4
00F101DA
010B03E4
FF92FD98
FBB2014D
0496FA09
FC39FAA6
FDD9FD05
008FF844
03D10D1E
031BFA2E
03F6FE3C
01060725
04D8FF0A
0149FE90
FF0F0054
006AFC75
FE2102DB
FC6700F5
FCACFE65
FF6D02C4
FF92FF08
07AAFC68
03ABFF8D
04C1099B
0A840204
02B7005A
FEE103CB
F73500B0
006701B6
FD94FFB2
FF390284
0080FFB2
014BFCC2
FB3EFB25
FFE8FEE1
039706CF
03C6FFAD
FF9001F1
FFE2013F
071BFF76
02D1015A
036AFB40
0156FE1A
FDD3FC6F
FF0FFB8E
024EFC86
0017FDE8
03DEFE15
F7BB01F9
0127051B
044AFCB4
05EAFEB8
FF98FEA4
03860501
F36900F6
FFDDFEAD
042603F4
054905D1
F7CE07E1
F869EF2C
00AF00E2
03FEF9EE
02750955
0320FE62
0725FC1F
FF1905E4
02930778
0431F35C
F778F8E3
FAE6090F
020D0740
041CF80D
F748039B
FE2F0722
FFC8051F
081801A1
06A0FF10
02330759
FDD8FC0C
0057FE0D
0801000B
F7F700B9
FFBC03A1
FF8A03B7
00E202BE
FD24FE14
FADCFC2D
FFF1033D
FE4802A4
FEC4FBE4
FCB6FE52
00CFFE2A
028CFCD6
F1CFF959
04110E61
049BFDD0
017400B9
FDBC01F2
01E3FFBC
00A30076
FF3B0332
03A6025B
0012FE2C
FD9E0005
FB700338
03ED00CC
FC740292
FFB10524
FA6D00B5
FA54FF5E
FF6EFB9E
FF0DFD4E
FC1300AA
FDF6023F
FEF901FA
08A9FEB0
FEF9039E
0044FF85
F9F702AB
FFAEFEA3
F8DCFFAB
054901C8
F8770056
FE52FBFB
0487FF8C
001BFB8B
008500E5
FD410431
FF04FFE9
0243FD50
0012FE88
FE47FD93
FF7F0078
FE0EFF26
0294FD8A
022603FC
FFBE093D
046901AA
016DFF62
FA96068B
FCE7F9F0
06AD023B
FF600350
02CC0137
07710101
00D3018D
0232FE8C
FF55FD45
FE630778
039C003F
FE17FEB1
FDD80312
081AFDBA
FD8FFC16
FC9E0186
F954FDBE
075DFD8D
FB85FAB8
F844F929
06280244
FC71FEDE
FB6B013C
F920FEC5
FFC2FD67
00520334
F8FDF78E
00DBFFCD
03AB014D
FC1BFF02
02FEFE36
FE1EFF1A
054C0117
FDC00170
FEB50638
F84DFE70
049601A1
040D01E6
FDF4001C
F8E00211
F834F9B9
FE41F9FB
034EFAC6
020D0466
0184FD42
FE60FE3D
FF3000DB
03260031
FFEFFECF
00AEF84B
FAF8FCC5
03310375
FB3E0385
FFDA00E3
026CFCC0
FF8FFBD6
FC1AFA96
FE79FB28
07BF0022
09AE00C6
005102BC
FA73F990
FC40FF2D
0185FCBF
019E02DC
025F02AC
FC94045E
F89BFEB4
FD5A0175
009AFDAD
FD00FD04
013D0AAB
01A0FFEE
FEBFFB4C
FF03FEF2
F97000D2
FF1FFF90
F610F82B
FCEFFB2B
FDD6FBBC
FF290634
0040FE94
FF8702D0
F909FD95
01FAFCD7
FAA6021F
079A0361
FC8B05E3
FAE7007A
012B00DF
0704062C
FE690777
FD640156
0141FC76
0527044C
013801FE
F4C30418
FD58FBFA
04BDFD6E
069F0603
027003BB
006F0329
03380123
FC59026D
FE110015
FC9E010C
FED202BD
FD1D0048
03ADFB69
FE720332
021302B5
F73C016D
0AE1FD09
FECDFF4D
017AFDC3
FD3E0014
FF01FDDD
FE7C031A
05EEF953
FE57FE60
00DCFF63
FDACF507
FD4D05E6
FCEBF6FA
FCC0003C
F6F50357
0092035E
F8B5F81D
03660214
FEEBFBFE
FAD00CC9
00C1FD7B
FB9AFB2F
00CDFE2E
011AFB88
FAD9089F
FF39FD0E
000BFEFF
FFD10238
FC98FC48
01C40298
01ACFD62
FCCEFD0D
FD230717
02B804C9
F7DBFC25
F9B8FBA8
FE4DFE8E
0260FC20
FFCBFDD3
040B0154
FD3BF966
FF5B08AC
FD5D091A
00DCFF5B
FF08FDB5
FC2BFC28
03A9F7B9
FAD700CC
01C6FFB2
FD92F43A
FFD60084
FA3BFD7C
FD85FAA8
F9E6FF46
01030417
FF440594
00660141
FD550480
00B30484
08D6FC16
0446035F
00B7FCB0
011500CA
03A0FD32
FF5309E8
01130145
FE02FD38
FE3C033C
FC22FF8C
FDE2FD48
FC78FC39
017E01A0
FEDDFFF7
FDA9FCF2
FEBEFF51
FE80FE7F
FD8AFFA6
01C5FE44
04D9F8EE
03170061
019806F6
01A6FDEC
FBE3FA14
08820450
FF9BFF78
FFBCFF0E
FF6D01B9
FEB202B8
02A2F575
FCFF00AC
034600FD
0759FB38
003D0317
0160F9C0
FF5BFC3F
FFE8FE7C
FCBD05AE
00D9005D
F306FA99
00A30760
0578FE52
F6A8FE25
FCFB0847
00DFFF97
06B70151
FF56068E
046303CC
01B3FB9B
F971043A
0284FFF9
0308FB88
03A702BC
FBD606EA
036C049B
FEDBFDC5
06BAF7EF
056D0217
01AA0076
FA6C0650
08FE0443
021BFD0A
FE5F00D1
FFA60387
FCF8047A
009600B7
0411FF62
FE45FBB3
047BF888
FFFDFF23
0334FAE4
FE7BFEE6
0029023F
033905B4
FF6DFE23
024500FC
FFF00005
FDFD03FD
02AD0074
FD440148
03D2FE37
00BBFF3C
0403FD5F
FCC10657
00B5021E
FFFBFF80
00F3FC20
FABFFD1F
FCA306BC
0001FA06
031906D0
024802E3
037B0548
FCD8FE1F
FFDB00F2
03A7F932
0127FF43
F713FD9B
F81EF852
02C2014D
0562FFDB
F86AF4A8
FF710259
FF4FFCCE
FB0D018D
FC22FFA1
02B50186
FCFF0494
019C021E
FDFBFEBF
00E4FB9E
FE5400D4
FED2016A
F60D01A3
FF69033D
FEE30319
FC0AFE84
FEA00229
FFBBF9BC
FDA4FD7E
04D4FA53
01BA0688
FDC604D1
026F021A
02B3FC3E
FEEF041F
FC190313
001EFDED
000003B3
FF2EFD57
FB06020C
FB6CFB1E
FCFFFB12
0689FFD4
FF8B02A6
FE6F05A3
022FFE20
FAEF0947
02FBFF49
008102B4
0251F8D7
F45F021D
0403FE70
FB26004F
FFD0FC13
FE4BFD3B
F9ACFF6D
F7B4006A
0384FB86
FFB9FB1F
FC8F018C
03FD005F
FCB001C4
FBAB0224
030E0409
FF12010C
0251FAF8
FB92FB21
00B3FDF9
FCA20085
FEA9FD3E
FDB70079
02DEFE74
005806DD
FFE8FD94
FBB40586
03220429
002FFED5
FE57FE2A
FE140135
00CFFAC2
FDECFFBE
FEB700CC
FD0AFD01
FC02FF06
FB6501EE
FDE1FD45
048202A9
02500077
FEE800AB
FC920007
03A50210
00C5FE7E
FD97FE41
FD84FCA3
023AF723
0102FF17
FDD3FEA5
FD0CFC9D
FDC1020B
FF920971
FAE0FF68
0119FB6D
00AE01F2
FD870879
FF73FE5B
FDEBFBDD
00D9FC99
FDC10233
01E001FF
015AFC53
FFE3FC8F
FE7AFF50
FE7BF47D
FB0EFCCB
03B00352
FD2FF847
F7BF0077
FF19FA7B
FF1305AB
01F9FFC0
FD60013A
03050DBD
FFB4FDA2
F93B0379
0318F33E
0307FF20
FDE10142
00320330
FF7EFDF9
FF1E0321
FC0F054A
00FFFEFA
FE83FD58
FC95FE55
F8B5FE70
01AC0000
FFF201F0
FF63FEAB
FD71FBAD
026A0823
02F4FCD5
FFADFE7E
FED601CD
FF520021
FD0702E3
003D0272
012F02F8
F94EFD43
FF0B0206
FF99F927
01D50165
00580369
04E0FEFC
FD22FF34
00BFFBA1
FBF4FD26
FED00054
0439FF01
FB37FEB3
03B10344
074201E7
028E022A
07690C12
0A000FE3
05EB02DF
052802B7
FB950803
FC3203A2
FE7AF758
02D40045
FDEFFD83
F9C9030C
01E9F85B
02610293
FB6AFD0A
FEEC05C6
0090FB46
FF3C027C
FDF7FDC7
FE11F5DB
FB7B0395
073B0A62
03E3058B
060E00D4
013C0686
0B490354
FDF2055E
FD70FCE5
062103EE
02A805F0
01F30191
0199FEE8
0237FE20
04920048
038AFE5E
FEED06C0
FF76FCEA
FF3001A8
FF6F00B8
005E036A
0156FCCC
FCFA00C4
FB91F664
05E00179
0139F6DE
FE8B02BC
FB41038A
FE36FD45
FD3EFA73
0322FFF6
012E0206
0392F96A
FF090122
FF67020B
01F5FCAB
F936FF78
FCC1FC62
FEB0FF1E
F53DF9F6
02FDFA12
FC830300
F05FF992
FE87FA26
0285FDDB
F9620009
0144FB70
032101AE
017C00FB
009D001B
FCAFFCCF
FE340201
01170646
03C5028A
0256003F
FDA002EE
039AFDC8
FEC302BD
019D05F8
00D8F99B
08380591
03FA04F6
01DCFFB0
0A0401C7
052C0106
FFE1021D
FBFB00B3
FF76037C
FD8404DD
FA99FC84
FE340128
FDE8FC60
FD10FC51
0153FAB9
0284082A
FE0AFC68
FBFDFE96
FB3C068E
026DFE25
FF7AFE41
FC1FFB46
05B0FEC6
FC89FFCB
FC24FD2B
01C60177
FFEBFF97
001FFCB1
01D10245
FE0B02A3
FFC40295
FD030302
0276FCAF
FC2BFE64
015D0045
00E3FE53
008E0115
0ABA012C
01E602AF
045D050D
0406FF4C
F9A201B5
FA35F54E
017DFF18
0250018F
0284FC43
0005003F
009502A1
0130FF5B
FF69051D
01D5FFDD
FA92FE43
FEEAFF37
0395FB78
FBF20098
FF9AFF7D
0205FC2B
0084003A
0B6B0691
043702A6
0A8902D5
FDD9FEE9
032C00B4
FE4AFE99
004803CE
01CAFD29
FDB804A8
FF1B010E
FF70F7BE
0022FB76
FAAB00FB
00800103
0487015C
0023028F
FD69F994
FEA0027A
03CEFD0C
FC6E009B
FF200580
01FE0058
001EFDF6
FCB1008F
FCC7FB7D
FF92FEAC
FFB400FD
0006FBD0
F52AFFF9
0865FDDC
FDB800D1
0490FDE8
0104FF1B
02B9018A
FD59FF09
FD02FAAB
F497F505
F9D9F481
F5CBFACE
FF11FF28
02CC0034
0203FE7A
08170097
0450FC23
00D301CA
FC19016E
04250677
0569024E
F8C9FE67
F960000E
FE39F96E
0028FE47
FE4F0330
FB54FA37
01EEFF5B
FF590016
01280232
FCA000D8
FF2EFF09
FE9901B2
0B79019C
FEA603AF
FF02FB4B
047C01F8
001B023F
02060595
01310361
FEF20720
024DF550
014A01FA
00DAFFB7
FFC5FE84
FC78FEBF
0315016E
FEB80275
F964FFD0
FCF1FD5E
003BFDFB
FA44FE3D
FBAFFA68
03F1FF21
F6FA0125
00D5FD02
FE50FD94
FDCDFA00
FFC3FBC6
0344FEB9
0EB201E8
FD4203BD
02C4FFA6
FF47FD22
00410291
0166032C
F53DF9A8
F8DEFA8A
FE3203CE
FFF9FBDF
02D000D2
006404BA
0095006C
FB76FF98
FDC700F5
02D70647
08E1FE47
FC30FE3B
067B054F
010E0348
FEDFFD35
0036FB8B
FD81FF1E
068BFE65
0341018D
04FD016B
00800546
06BF0661
FB33024C
07A205F3
0DB2F8C1
FF2F04D9
0180021C
01A5FFA8
006EFF60
02EF0341
00A200AB
FF82002D
0309015C
00D000E8
FC6002B1
0260FEC0
F458F232
063BF33F
056301F0
F634FCF1
FF25FA64
FF3A02F2
021603D8
00F501DF
0113FE8A
FEC9FF0F
107DFC30
F8310625
F8D2FA2D
02FA0286
03D801D7
FB01FB7B
00520434
047CFF7D
FB4EFF58
FF770228
FF88059B
03C50038
00BAFE1C
031D0557
03CC01BE
0194FBA6
05180157
01F20433
FF530175
FD9B0219
FC9DFFD6
FEF9FEF2
032DFF3C
FF92039D
047F022F
FDEFFA49
FE79010A
FDD3FD06
014403A3
010DFF9D
F7710171
07EEFFF6
FEBFFCE1
FBE1079B
0212F550
07EB09A3
0AAA014D
07450CCB
01690361
FED50913
FE48F66A
07C6016D
04080229
01540613
F92602A1
FDF30507
FCAD0332
F9CFFE58
0251FFE4
02F40AA4
07000575
010005ED
FDADFD94
0041FF4A
FF30FF4B
014E091A
0682FF07
01A4FDD0
FD4BFF99
0307FE0B
016700AB
04EC0933
F2F1FE9E
0088FFDB
FF82FFED
002000AA
0164FB22
F9E0FFB9
0B1A025E
FD29FCDB
FEBF0063
F70CFE35
FF220346
FCF200F0
FE01FB04
FC74FED1
00BF04D3
026102E8
FF340618
00ADFB99
061D0358
00E6FE59
FE7602A1
00BF019F
FF2F07CA
FD46FDCB
FF8CFF5B
F997000A
F988F9E2
FC4AFD5E
FDAF048E
017EEC6E
FDFC0299
00C60143
05E504F0
F0D7FED4
0050094D
07310318
F8B7FBCE
07A3FCAD
0B2A052F
007A01B5
FDFA0573
FD55F88C
F808F977
025EFF41
08B90EC0
FABAFBD9
FDA2FD53
FC8BFE81
FE9E00BA
FE5A0083
003E01E3
F8920187
00CEFE4F
04200168
FD280248
FF330186
02E8F97A
01FC02EC
FE1B015D
0153FDB7
00BDFD65
FE010A3D
FFD8FFAF
00EA021D
023BFEC3
FDD0FB22
FF4D0064
0096FE3D
017903BF
0397015E
FE850137
FF3E0153
FF8E02A1
00FE00BB
0006FFEA
FE94030C
019FFFFC
FF6EFFC7
0F8300F8
FF8205FD
01F1FFBA
FBB30482
039DFF97
027401EB
024B011E
043BFFC1
00610759
0342FA7A
F7CE043E
05FB0A44
FD90FE99
01EEFCD0
FD5600FC
FBD900C7
FC5000DE
FD50F8C3
FB150052
FE12FECB
001CF994
FF37FDE8
08DD008F
FAA6FCDF
0B4007D1
032FFD5D
016EFF0C
F9F5FF71
FAC10380
FDE6FFD1
113805A4
FEC5052E
FCDBFC51
FE35FEC0
FEEFFEA5
0578FFAB
0061FB6F
02360240
F9E80037
FDFB045C
0FA5FA98
F69EF683
FFAC058D
FAB3FCC4
0660F9EF
068F0306
FC3305B0
FC30F6D8
FE850124
FFACFDF1
FF20F787
F5DFFD7B
F2CA0466
FFF7F298
073EFD03
04540B7A
012CFFDC
0712015F
02180361
070FFE38
FB89FF57
0055FC07
FFD0FACA
03E20511
00990946
FDFC0887
0445024F
076202EB
079BFFD0
01BA02DC
0322FEB5
061E0146
01C9FD6B
01A5064F
0258FD36
F5D70306
03EAFB83
F6F0F9B0
F79503FF
FFD90451
041801DE
094A034B
020C0373
01F1FB40
0A4702C9
0239FCA0
0167F8A9
06C2FF91
0283F6FB
03A20739
0BB4FD10
FC8B00C5
F9FA01C5
FBF7FE98
F9B0FD77
FF2B0A6D
00E101AB
F9F20084
0067F7EF
FF6BFE6C
FAF908AD
0272FC71
0764023E
00BA034C
FE2E01C1
F6B6FFE1
023402D1
FFAFFBA9
03100140
FE95FF87
018BFBD8
017905A4
007BFA67
FFAEF64A
FB52FFBA
F8960281
01ABFF91
057EF98A
02E503AE
FFC3FD3D
003BFFDB
0108FE63
FE31FBCE
053FFF7E
00F5FF5D
04F705DF
FEFA0693
FF9B00DA
FE30FCF5
02A30425
018F0102
FB4CFE81
022B0390
03010223
FE330031
033001F1
FE340010
FB8BFF25
FDFBFF77
01B0FCC4
03B4FEC1
024EFF86
0091049D
0014FFD2
02CDFE77
FE64025A
0353FE16
01B4056A
F29F0381
FE2D027E
023A058D
04B3FCDC
FF940469
FEBF054E
00E4F089
FE18FF99
FE870062
FE2C0260
030DFB12
019E0081
026DFCD9
02A3F866
02710835
06860410
009C0544
FBA00255
F9EBFE37
0001F93F
035CFFD6
0190000B
01DAF490
F71F02DE
017A05E5
FFA10DE6
0695F61A
FE27FE17
FA5EFC1D
FBC4FBCF
044F00DA
046EF775
1C1CF780
03060322
053EFA7F
FEF6F826
036D008E
077B088D
06C008D7
02B003D3
FF8C000C
01A6FAB7
FDD6FE16
FEFDFE73
0783FA17
015506D2
FC0501D1
F7AD01C1
002F002F
028BFCB5
06B3FD2A
FFF5FC48
040C0177
02F8015D
0204FFFD
FF0CFEEE
F3FBF889
01B9FA63
FF160367
FF4003FF
FD37040D
07CD0164
01F5FD5D
FF2201B1
00B4FAE6
FF82FD7C
01F0FEE3
FDB904B0
FCAD02DF
0065F7FF
FBA8009A
0208FCCB
FCE5026A
FC59F255
F87EFC9A
FEB702C3
01C9FD83
013DFC1D
FDBEFDD0
FEC005D5
019600C6
FB3FFEF6
FFD9FC21
FD42FB42
02DE0470
FEA202AD
FFD3FCB7
07090528
FDE0034D
0419031C
FD1BFF9F
074B055D
FF47047E
0373064A
F8DD0694
EE47FE77
03720BBF
00A5051D
0599001F
FF33025A
0A85F60E
03660993
FFF001C1
FDF5038F
F88CFD43
0015FEEB
0257044D
032B0447
049E01AD
FA04FCEF
FC63FE97
FF200290
FF950154
FFD40172
01AEFD2E
0371FFA8
FD0DFF38
FDC4FAC8
FE5EFEC3
FD6FFF9B
003C0064
FCFD0060
01910BE7
FDB9001A
057BFBB4
FC46FFA5
FE47FDC7
FE500404
04D501DC
00160258
FD26FF09
FF2FFD44
FEEC000D
034F02B7
03CEFFF3
012703A6
03710171
00B7FDE0
FF3603D5
FFD0FF51
07EDFE10
01B80015
FF63FF89
002A047D
05D9F9BA
0249007D
FFF001D5
03BC01FE
FEA809B8
FC3AF8FE
0704FDD2
FFFE0767
0105FC1C
02D0FDA6
02AF04D7
00850240
006C03D4
0466FA77
02F30220
FF350361
FD9BFD0D
05E2FE9B
02B00318
02D40D05
0138020F
02BD026F
022DFF4C
00CC0170
00D100FF
FF55FFDF
0684FBA7
FF310976
FD5BFAA8
FC00FF1B
02910170
FD66FCA4
FDC7F8A0
F7F00B81
0221FE00
037E010B
0163FD33
FFD3FD4B
FF3F0297
FE690293
FD8B0359
FEA3FBCE
00FFFD5F
FF22010E
013C010D
0861FFC5
055BF657
F725FABD
FB2CFF4A
0411F616
FA2B063E
FC17FB9F
018BFF60
018D0202
0460FAD1
F5430110
FADFFB6A
0586FEFC
FABE0440
EA87F725
FACFF81E
FE5DFBEF
035601DC
F8E5002D
05B106F9
00F1FFF2
FF2B031C
FE410058
028D02FC
023400E6
FED1FF2F
09F8FBBA
08120768
FDB7F87E
F782FC22
FE94FCFA
025900F2
019A0100
FDBAFFE2
02A10138
02CA0035
FD93FF0E
FF9B0528
0392FE4A
01FD0191
FF560050
F51CFD5B
FF2D00AE
030BFA1D
FCC1FE59
FF67F56E
FC37F245
12B70243
00CCFDC6
021E019F
FBB7FE53
00E9084D
00EBFFC1
00B00225
F94203A5
FD1B076F
001300BE
001DFE64
00690292
0436028E
054D0313
05BF0A49
F47FFE6D
FB05FD33
F7BEF70A
03CEFF36
0683031B
FDCA04A8
FF5B0C01
020BF8A6
F98900B5
051AFA71
02630285
00BB081A
FE4B036F
0241FCC8
FE570F59
EE6102D8
FA85FA83
FEBDFA2F
005B0286
FBADFF96
010AFCB4
FDDCF9ED
001CFE59
036D00FB
FFFDFE72
012C02DF
FEAB0561
FB86FCCE
060BFCCA
0EAF0155
FBE4FC9C
FEE9F978
FF7600E6
FFC2FF83
01100480
00A40011
FD2103F3
055A02BC
04C5027C
0286FF6E
009DF78E
040CFE6B
FE9D0196
01A802E8
005901CA
FB0A00E2
0083FB93
F8DF0768
033AFFCF
FCB3FC9F
095C02D1
FBED07D6
01AE0039
0323F493
031D02B0
FF97FFEC
FA9BFCAC
FE170045
00FB0031
01C4FED8
F7660098
0004FDFB
FF81FC04
07A3FAAD
01130404
04B5F637
04820276
0069FF15
0131FEDB
14FA01FE
0144FB2E
F83BFE4F
FE7FFEC4
FB7BFB2B
FB54F1D9
05B6FEF8
0290FEB8
05D901DE
FBA3FB13
FEC5FD61
FFA4FB56
FCCB00FE
04ECE691
EEC60048
FC5C0350
FCD7EAD4
0070FCE9
035D00D1
FDF60058
FD3F03DB
F97600BF
FF62FC78
FD08F9F4
0B2502D2
FBDFFEAE
FD4DFFE7
F620005F
FEDFFBD8
FF1DFF85
00F2016C
01DD0007
FA4A00EF
06E10187
0250FD91
FABCFD81
FF110115
01A2FD4B
0304054D
02C7FDEA
F8C8FBF9
F2B80CC8
00ADFD0E
019BFCA3
05ED067E
FB74FED9
036DFD7F
F3D00A77
FE98FE9D
FE4BFF14
FE49FBA6
067F0143
00180639
FAD9FDCC
024AFC62
01390521
FED4FF59
00A7F90E
FA200618
00B2FD6C
FA11FF47
04C7004F
F577FCBF
006A02CE
02A1FE90
FFE3FD56
F95D020C
F6A1FB1D
F783F74C
0390FBEA
00BEFBAB
FE940078
FB8EFA72
FCCB0020
002302F0
FF5EFEEF
049C0053
FFF50889
FFF40413
008C01DB
FEA6018F
FBE9FF0A
00F9FCF7
FEA5FD11
008C0301
FE25FD76
078B00F9
03D8027A
FC5A0134
034FFC28
FFF202E8
FF55FEAB
02970204
FD11FD72
FF8BFE1F
026F03B3
FDE6FBC9
FF5202F1
01F5FF8D
FE94FF8C
FFB0FEE6
FC130079
010E0047
FE830509
0393FEB9
0514FC2E
FF0B062C
03BE0230
03BFFF30
FDBAFB01
039D074A
FEC20081
FEC2030A
0069FD02
FEA8022E
F9C8FC56
05F1F85A
056E0731
FB170631
FF35FAD2
FE9E0130
FFAB025C
05C6FF43
00380122
FEB7012C
FB9AFF35
FFFD019B
0074FFD4
0712086E
029AFD50
FCC802CB
03B801D1
079605AA
01E8F8BA
032D0120
018904BB
0284F73A
01D9FFAA
02B4FB60
FDE10155
0107FF1D
070F0172
FDF20478
FE04FEAE
0596F760
004E0CBB
014EFE66
010F00AF
00B3FD9F
0065058B
021AF880
FE0F0156
00A700AD
FC86FF90
FC43003E
FEAE0310
01E70153
0153009F
07DB093A
018DFEAA
FB77FBC3
051AFA13
0D3A04A8
FE8F042A
005A05AF
04F602B4
011A01CF
068AF669
FC280061
04D3FCEF
07050787
F9E3FA0E
FF3E0569
01B002F9
F8090360
04A701F2
06ACF21C
FF4500F5
FD43FDB2
013D0149
FF2D0048
FFA402A6
0043FCFC
01420206
F8D6003D
0A56FC3E
FC020013
FD2A0342
01E1FDDB
F8A6FDBA
07C100B8
0044074D
03FF045B
021DFEDE
FE3F0754
02EE0496
FF45FBC8
FE5D0233
FCEA0073
FECE021F
01F9FCF4
027101F7
022CFF9F
04FA0073
FB5805C9
003F03F4
FFE6FF2B
01D400A5
030C0498
019E03BB
0030FC76
010CFC30
FE05FAF6
032B0584
02480389
05B70334
01B2F9D0
FDE3FD55
FCC1FE97
09960590
F9750222
04E1F48F
FB0AFF49
FE5FFEEF
00EC0235
010101C7
032EFB8F
FE7E029E
FF38014A
FF1FFFF4
FA2E037C
FC83FDA4
02A2FCD2
06E508A9
F491FB0F
FBFDF9AA
0016FF5D
00C40054
FF7BFF12
FE1BFEBD
050C04A9
FFE50163
047EFF97
01E400B7
01300EFC
01ABFDB4
001B0AB7
09C00586
0B9E0222
074D060E
FF7B0783
FE65FEC0
03E70381
01300135
FF9703F3
FD24FA88
E1F9FFE1
188F01D6
0215F541
03BA09F3
FE8BFD03
03B204F5
FF8D0080
057F008B
06CC01B3
023FFFA4
FCB2FDB5
FFE7FED9
F973FD9A
F9310560
FC9EFC42
FFBAFAF5
FDE6FF86
026B0387
0609FF17
F968FA61
FB0E0221
01A5F9BF
00A2F83D
F920063E
002A00A4
030DF6E7
0646FB7B
FC4BFB55
FE360663
FF68FE42
014302D6
FF7BF886
0AECFB34
F9A50917
FB91FF40
F26BFA91
FAF9FAAB
F8B7FFB9
FB60FE22
FE76FD36
026BFEB0
FC4BFF81
FFA8FF60
002A0422
055800A5
FE360028
FFA40045
0A65F9E3
035E02AF
03B6FBAC
F80D01B9
FD86027C
022CF9EF
FB7EFB26
FC68FC1A
FA63FCCF
05E201E0
FAF00218
02D90400
FDE1FF88
03A20402
003F02C5
FDAF01EB
FFA503EB
07ACFA07
FB64FF24
0290FFAB
03BFFBD9
FB650189
FCC4FD79
FB70F544
F5FE0077
FA9E0395
EF0BFB47
EE9804C4
007802AB
0634FFD1
F0BDFCB8
FCDF0A0F
08A7FCDE
F95DFFFC
FFD6FD2D
00CFEDCF
0B350431
0159031A
037FFC30
F96303D6
015807E8
FFD4F887
FC56FE64
F413FE93
F270FC6C
FC1EF95A
FF92FA58
FCD501A0
FEBCFF6A
FDDA057F
01BC040F
01B30139
F8BCFF82
FED2EA66
F620F789
F898FAB9
F851F25B
F8E5FA09
01EEF960
049616CC
0321023D
FDC4FF8E
FA1506D2
F971FB1A
FCB9FA14
FBB7FF62
0516F7DA
FD77FDC3
FEA9019C
FDD902AD
FE71FA12
FD95FFC2
0206FE94
01F60277
FC3F00E0
FFEF0A3B
05A8F8A3
F68EFE74
FDD9FE59
FC0BFEC4
FDF7FD40
0BA7010C
004B0253
FF5BFFED
024BFF7B
007BFF72
FE760079
FD55FFF8
FF0A00D2
03B3F749
FFE002C1
FF1200F5
0491FF3B
F9000180
FF6C0193
FC83F3B2
046DFB05
F85903C9
060607DB
FC6EFC7F
FE3A03BE
F9FCFC22
FA720823
01F1FC99
00550C50
FD6D02B1
FE8F00E5
FC1404F9
FD2DFD17
0074FBF5
FBE0FF70
FD6F0349
04CBFE3F
0821020E
034100A8
FCFC02CC
07EB06B2
FECCF78F
003D0136
01ACFF94
FC9E043A
0398032E
FE7FFC32
0B5DFD05
FBAB037B
02990290
FAB3FC43
FED20266
0259008D
028BF841
04E30564
FE0F01B5
FCDA03B4
0FC5FDFC
F610F9BB
FCD40797
055AF8AD
02D5FE5C
F37AFE05
0359FE77
FEBBEC54
FCE6FEAD
03C5FB97
FCE5FE38
0502002A
059CFC30
031703C2
F6A6FC90
FF31FC44
0060FF4E
FE73035B
FE8903A2
F72AF68B
05A40033
0162032D
02AD0236
FE4A0409
FD6205BA
FFEDFF44
F604FE85
07C40291
09400131
F7DFFF5F
FF1901E4
FEE2FFEE
08B4FF29
FEF4FFB9
FC94FE62
FC6A01EE
0107FE98
042EF7A3
FF7BFDEE
00E70614
FC0FFFC1
FFD3FE5D
02880348
08B3046B
FB24038F
0270FEDD
FE8F09CB
0AB704BC
0652F721
FFAF0339
06D40200
F9130169
05A505A5
FA3400CE
FF99FF9A
018E0163
024B0111
00650480
04E2FE44
FB68F6D1
FA1F0B66
030DF83E
005FFDA4
FAB1FC1A
FEA01005
F8C6FE39
00CFFFED
02C801E8
FB0DFDEE
024DFFB0
006FFF48
F916FEF8
FE7EFDB2
F7310567
03920238
0164010B
FE5EFFC5
0961F6F7
F73F0867
FD9EFE7B
011D042C
0160021E
07BCFF8A
058BFE84
FD8A0202
01D100D4
FF26FF83
023C054B
FD1C04A5
01B7FEE3
FE50012D
049A01E7
FDDAFE1C
00A3FEFF
FFBE0417
FA73FBA0
FD93FDFA
FF92FA92
FFAEFC54
0302FF5B
04900514
FE1CFA56
007EFB75
01BB0601
020D0169
01E80080
01C50090
FFEAFBDB
05DF00F6
044200E9
02970298
FF3FFC2C
02E6FFC0
04500041
FE16005F
FF5604A7
027CFFB7
FBDFFF40
055FF67E
FB92FEFA
FF5A0069
F44A044D
089FFE49
F68E06FD
F9CFF414
FE57027A
022404C1
07CFF6B5
00980228
008603DD
FEA9FA30
F3F7022F
017CFAF6
01D90FB1
01E3FDED
FA7C0053
FE0E0199
FD120226
FE67FFAE
02B503E2
02DBFFFD
0460F54A
FA16FF96
04C3FD2C
00A8FE29
00A0FFC1
0BB00399
FCAF0339
018BFD8D
0163FA56
FACD00FD
FD730002
FEBE01BC
01FCF40E
FC5204AE
015B0231
FEF8FC5F
FF36FE9E
FE6CFC47
FC14FAA9
FB48F8FD
02820055
F975012E
FCE9FD8B
015BF97A
FF0C013D
0069FF75
FAE4FF68
FE5D0157
01FE0324
06F2FDAC
FABF0412
075AFD63
FDBBFB02
FB5CFF46
0208FBC0
FC88FDF6
034EFC6C
00800DAF
03AE01B7
0337033C
03D80D03
0015FB0B
FE9501DE
FC7BFA1F
0DFB010D
01F3F706
02D0FA96
02E9FD7E
FE4302B4
FCDDFFFC
070807B3
03C90411
02FD0335
019EFE04
FF60FAE8
FE3EF985
02840008
FAA5F91E
FAAB0A6F
0043F215
01ABF9D6
00B1061C
0036042A
FFE6F7CA
FCA7FE21
07E9FC87
F3340813
F983FB8B
0515035F
FC97FC47
FFCCFABA
011FFCFB
0310FCA8
FFAC05BB
025EFE08
01D9FE04
00870053
058E021E
FE6DFF08
017C02BD
FD16FBA5
FE77002F
04B1FF08
FFEA034B
03CBFE83
029A0015
0518FFBE
FFB7FEE4
053E044B
009D06BD
01B2F533
FD5300B9
FD3FFD46
FFC3FF91
012A07BD
02C20353
FEFB00F9
FFA10261
FF7200CD
01AFFE25
011AFECD
FC09003B
FFC9FE27
0323FFCF
F6EAFE3B
0500FD85
064703F6
FF83007D
FEA20611
FF0B0FF1
0023FF13
FD5B0294
00640021
0319FBEE
FBFEFEBF
FAEA0042
06350530
FEDD0E17
017FFDEA
FEDBFF69
FD3DFE18
FC890242
00C802FB
029102F7
FE9CFB4A
FBE500C1
045D02C0
0018088C
F7330322
073AF595
F4CBFD3F
02E20C71
026001FF
00FC052A
F661FC8B
FA3003EE
0605FFDA
038DFE73
00A5FF7A
F8B3009D
FD73FD15
FA35FA5E
04E6036D
FE6FE443
F9B31A75
077E02D3
FF2601DF
FFF2FE17
FAEAFE52
FDF5FE8A
FE2BFEEA
FEC1FC10
F8D0FBAA
FB65F933
FEB3FF7F
049CFBDF
FCF50246
FBEC0875
FE15FB21
FE89FF9A
0094FC3F
F968FE4D
01AF032F
0188FAE1
FE98033F
0C38FE7F
002C086A
FA43F802
FD20FABF
01A00388
0206FF64
FF40F877
FEE9021E
FE4BFA2C
FD43FFDA
FBEC0B09
051000A2
FE5A0399
FF03016F
05470034
FE5B021C
FE150118
FC60053C
0516F9F2
0273062D
FB4500E5
FFDD0657
FE59038A
FDD2FC0E
0291FE52
FF7BFDEF
F97BFEFE
00290234
0066FC35
00A3FD27
FDEEFF37
00D7FB6A
FFCFFFFF
01E40044
FC37FFA1
F57AF711
0234FD82
FB870A0E
0330009F
001502EB
01CE000A
FFE7F9AD
0024FE43
016E000C
FD8000F1
04C901DF
FF130049
055E0294
01610021
FEFA03A2
FF81FE5D
FF1905F0
030E05CB
FE3D06BD
050FFED7
F7C704EE
009BFF24
FA8AFBCC
061F03CD
F5CDFC6B
05BA0500
027F00D6
FF52FD48
02840051
0525FD68
FE3DFCB9
FB73FAB1
0080F8C5
08B2F7E3
FDB9FF5C
FD3E00C8
0216FD03
FD5CFF58
0091FCDC
052C0378
FC970242
00240338
FFA0FC2B
FF5AFC64
FF88FF25
02E60107
F1E10076
FC2A019C
016F01A1
FD7E0206
FE01FDA6
02020286
02BBFED1
00EB00E0
F941FD4C
0664FDB4
01D0FD33
F889FCED
0040FA3E
02980068
0187F94E
FE5C0449
00F8FDFB
F268FCFA
003F0561
0611FAE8
0440FD65
0071F9EB
FBFB0503
0088FA96
06A102EE
F6A908E0
04DB06C7
04B4FFCF
FCEA035C
FDCCFFA4
02C402A1
040FF9F9
F263FB54
FD21FDA9
FCD7016B
075AFC1D
F1310470
FF3B0602
FF0E0153
0008009D
0BE906CE
12E8FCD0
0871004C
FEEE0123
01D0FEB9
06BE013B
FD830530
00FD051E
0202FF64
03CD09A1
0030FCEA
028101F9
FDDE00AC
06ED00CD
0247F482
FED20799
FB210008
FE950316
0353FC11
045FFB8F
02650079
FC5C0049
06E102BC
06F0FD49
FC99FFB7
02C9054E
FD230753
FD3E0151
095604CC
01AAFC64
00C3FCDE
FF7DFD69
FDF4FD26
F942FEEF
FF460166
FBD5FD36
FE0AFFDC
F81AFE7B
FD3AFA15
FD5BFB64
F8F8F6DD
F83CFA5D
F852FA94
FA30F983
0007FD4D
FB37FD6E
FF45FB6A
FFFDFD96
FDF9FA9D
FE01FC24
FB6BFFBC
FE4E01D2
03BBFC6C
FDF402BE
00270204
0D43026C
FBF80191
00A10597
055B0192
0000FC61
FD300052
FE090112
FDAC0512
F6D3FD83
F6510274
048D00CE
FD690533
F6F2FC59
FF3B0124
041507DD
0A6302B8
FEF10A50
FFB60151
FF96FB97
00C1F7BC
F760012A
017DF914
FECCFD08
02E9FFE5
01D503FA
FB2601E0
0010FB6F
FBA4FF7C
0311029D
00B4025C
FC740058
FDDFFA54
FCEF037D
016EFBB7
FEBAFF68
FF04FE7A
FFF2FF66
FE77FB3F
023EFF9E
FE560184
00F0FF93
FE040294
013DFFE2
FF37FDBD
FCE906FB
033DF9E6
FA13FAF4
FDE7FD6C
00D602FE
FCEC037F
01DCFE81
F92DF62A
0046000D
F9BBFDAA
F94BFC14
FF9E02E2
0592FD80
FCF2019B
03E4F75E
FAA901B3
FF2F008C
FDE8FD1A
FF69FF53
F77DFBFB
0452FCFE
00E0FD23
FE34FFD9
064BFC68
0032FD9B
00090157
FECD045B
03B90070
058BFF54
FF1E0A43
00C2018A
FC8B01AB
FB90FD81
00EA08EE
FF92F814
FB5703C1
021EFE70
FBFBFCD8
0240FEF3
FB9200A4
FE630048
042A0762
FDD9FDDF
FF6CFFBF
FF6D0387
00BCFEF0
0015FC8C
01060201
FE5BFD1C
030701F2
05B4FCF7
FE4C0063
FD9802BE
FE8200A2
FA3EFF9E
04B1013D
FF6AFAD0
00A0F9A6
FEEB0179
FF12F9E5
0064046C
05ACFDFF
01BE01BD
040FFC3C
FC27026E
03C9FCA4
FCB3F625
0439066D
08DFFDB9
FA9B039F
FE810030
047B0097
045106E5
FC65003B
F9E101F6
0142FCD2
FC05042B
00F6F9FA
F3D8F433
FE57FF11
02D301CE
FCE70002
074F006F
0544006D
FDAB02E2
0742FE91
FD270243
0945FB60
FA34FE24
013AFF9B
FEB50089
004FFF48
FA010160
000B000F
FEC9FDD1
FB17FB52
FA8C036E
F895FD48
FAA6FB98
F85AF8E0
FB72FA5B
FD52FC7C
FFAFFA1D
FDB8FDE9
FD9FF837
FF29019C
FE910AA2
FF16FE4E
04040654
03FCFC32
FF6603B5
FC790293
F88FF8FA
FBDAFA4C
F82BFF1B
F91EFC95
012CF95A
FC230202
FE6FF4A1
FDA3FBFB
FD7C040B
00350546
061FFD58
05B0FB40
0103FE98
02570173
FD41FBBF
F53902AC
FC42FBE0
0304FD02
009CFEB0
FF0BFE3C
034003B2
01900092
08C2005C
038304E5
F917042B
0094005E
0248FEB3
03E4057D
FF0F007D
FF3A03DF
FFE0FEB8
FF5AFC9B
FFA500F6
FFD6FEF7
FD03FE97
FD1E0116
FEA9FED4
F8C401BB
0119FF47
034C0632
000C05AC
FE81FD98
00DB0181
010302FE
029D068C
F9CEFE8E
FF240056
0317FCCF
03DAFF51
015806A9
FABEFF20
FF39FFC9
01C500BB
0372FC4E
06900459
0555FC23
FB4A04E8
0418019C
01B8FC0C
00320012
099C015B
FD09FDAD
FB50FEDF
038B0220
0211017A
FF0A0051
FD50FC2D
0506FD06
FBED0151
FCFD0347
FD3F0015
0030F9CE
FC4004D2
FE35FFFE
0551002A
0255FFE5
FC6BFEF0
FEF9FBF9
FE74F929
0542FD09
0046088E
0DA50C6F
0216042A
07DAFE4C
029D01D0
FEEE013A
FF37F397
08010054
00FD008C
04A407A1
FEC0FE1B
FE67FE58
FA780A81
FF34FF7E
FF3102B7
FF17048E
0376FFCA
FE280475
FCB8EA65
FB79030A
01B7FE7D
FCD00145
FF3D02C9
026EFD7F
0236FCF6
019BFD80
02080314
0555022F
05E80374
FDE70369
FCC4FFCF
016CFDDF
FE15FD4C
04320105
F92AFE79
00310475
042C02B3
F392FBA0
0260FA05
02D30A15
FB5BFE11
FE520161
0500016C
F58501AB
FD5D0595
08FEFD85
02C8024C
00D001AF
021E00BE
0785FDC4
02F0F9E0
0105FDE9
FE56FD5B
0543FE3B
01E90959
F0BBFB91
030D030A
03FA005E
FC60FE15
FE15FC7C
094DFF70
F7C8FD6B
FEA9FF5C
FDC1FD53
011CFB03
0241FDD1
0F7DFD81
F726FFA2
0146038C
0304F0BC
FCCDFF74
FEC50448
02240FA0
FBE5FFCE
FD6EFF09
F655FD7D
FCEA00D2
FFD5FB59
FA2FFDD7
FADD01BF
029CFDB1
FD90FCDC
FF4BFF6E
FD35FC9A
FCEDF7D3
FE83FFEA
02ECFC4F
FD48003D
F9C901F6
0131FE99
FA32FDD0
033EFE90
00B0FE77
FFE600BA
0B1E0360
0037013E
04FCFD37
0506FD1B
FF56FF85
FCEB0355
FFB40004
0119F998
FD51FE94
FFA2017E
02D80773
039B02EE
087903BE
019303B4
02CF004B
FE8601D7
FEFC005F
0337FCB0
FB4F0168
083BFBCC
022A05FC
FB11FC89
FFAA0164
FBAEF8F7
01CB0046
0170FE1C
03B001BD
FBF900A6
02EA0857
038708A6
07BE0450
01E50311
045E02C3
FD3CFAEC
FEF3FB59
F7E6FA54
F60DFD76
007F074D
FE220407
F958FD73
FFA1F85F
FAD5FC73
0BFB03A4
023F02AE
0177F7F5
EDB1FC0A
023AFF92
0071FF5B
00B6FBB8
007705BE
01C3FE37
FEA3FFC6
081AFCFB
FB2CF8CD
FBCF0457
FFD1F707
0138FA4D
FB6C02A0
038006C0
035AFE42
FF56FFEA
011A03F7
00F400B2
031CFF66
01A801B5
FFF4FFAF
07DF073D
021502DC
F90800E8
F8B0FF18
0522FD5E
0598FFF4
037702DE
02A70431
FF5EFB6B
FC3AFEE0
019B0585
FFDB04A7
040BFDA1
FD8FFF45
FCEFFB54
F4C302AA
FE60FFCE
017AF7ED
0662FE1D
FC4C0318
FCACFEE6
03AD07B7
FBB9FF47
FD9E00A9
FAE7FE80
031D09B3
FE50004E
033EFD21
FD820029
FC81FC28
01ACFEB8
024EFC60
F652FF00
054A0427
FF4A05A1
05D2037B
0469FE54
FB3B03A5
FDD106E3
0381FC27
FDAE01D2
FE6C03B8
044D050E
FF4B02B0
001CFB9B
F8E1FE60
FDFF058E
012CFC6E
FD820478
FFD7FDE9
FBD4F6A0
011F00D2
004FFE24
FFEFFF9C
01F3FF92
0071036D
00E1037D
F977F8F4
050DFD33
000EF802
069801AE
FDF70262
02ABFC65
FEB8FB96
FB99FEE8
FF5CF1C6
02D0FFA9
FE20012A
FF5C095A
066B0100
F9FD022E
0246F1F4
0150FEC3
019E01C0
FB330719
03F900B2
0200042D
FB6006A0
FB1FFE1A
025DFBD3
009D01AC
FC8D01F1
FECD0577
039D04EB
FFE40620
04800430
05EBF85F
FF60FDBE
0135FAC4
00AC0026
03F0FF31
006B00FA
054900C1
FE7A03AC
F26BFEFD
0FFAFB03
FF8B04CE
00E5FF15
FCC800BD
03C30133
02DEFC8B
FB91021E
0401FE34
FC55FD70
FEBAFEF2
04250274
FD0301A4
FDE5F6C9
F95CF8E6
0329F945
FF06EF96
00C200EE
005E0110
F92FFE3F
00C7FC69
0140019B
F9EA018C
0121FDDF
00E7FE5C
FD3C07DF
01E3FFD3
FD22FFC7
005E01B6
FE1A0369
FDB8016F
FACA00D5
000CF8FA
02500C5F
0169069A
02A9006B
065C0397
07E60BE0
FE4BFE2D
FD1CFB49
FE9CFD76
FA3BFEDC
FE22FF4C
FF71004B
0422FE07
FEAD1024
05AA0786
FCEFFDF5
FFA212E3
0220FB97
0061FF29
FD6D014E
FF860625
060700E1
05EEFEF5
032F0505
F7A6FDEE
01C1F8BC
FE76F9BE
014502A5
009D0233
FF5202C7
FE64FCA1
FEA901A0
0265030F
05E6FBB4
022DFF9E
FE08FCA9
FFDC007E
00F4FFC2
0228022C
FD1B051C
00A1060F
00B8F48A
04C3FF2B
0096056C
0801FE68
FBEFFCEC
FFAD0952
0273FB7A
0423FF15
FF3000A5
03E90393
0308FD06
FEA7FA20
002102F8
FE2CFD8D
0093FA52
01A30532
F78C0020
FD98FC7B
F777F35B
F484F82F
FE5FF686
009501F5
F80206DF
FE51F76D
043BFE83
FBD70125
FB1307DE
007AFD50
029C01EE
FE1A02F5
FF000581
01450109
FF830136
00BAF9F8
045B004E
02300280
04530020
FFD902E1
01C602DD
FD5D03A1
045FF9A1
FD07FE64
00B40017
FA59FCF3
02FFFFD1
03D006A6
0033FF2A
FF18FE8D
FF05FDD2
016004E4
FFF2FA01
FF5A04CC
05DAFF17
FF3200DE
01120668
FE4CFDCC
0368FE3B
015900A1
FC01FE0A
FE7DFFA8
FC6DFDED
0347014A
FE76FC9A
FDDBFC60
07B7FD0E
00E8FF1F
01EDFF1D
F8E10116
04DBFCCD
0024FB6F
026401B8
059D034F
FC5FFB19
05860492
07A2FD7B
042C0C38
FAC8FFFE
0285FF28
EFF2F3E3
FECEFF52
009C02AE
029EFF21
FEF0FF84
FFFF00D8
F8E50194
FACDFC2B
FBA7F5E5
FD400167
F7F10234
06ACFB27
FDF50168
0020FBE5
FDDCFDFD
FD160206
FAF700DC
02DCF693
FC1E01D6
FF7EFD0D
FF510112
FF4C0009
05DDFD02
FA90FFBA
06F8019F
00F6F1A2
FF670B69
FE080146
FEAEFF51
FDD004B8
03F201D3
00900113
FED6FFFA
FAC8036E
FF3DF9DF
FC1CFE06
FBE8057B
0089FF44
0160FCC8
FB93027A
06C8FFEF
FA8EF9BA
F7C40283
04010133
05FF05F7
0104FF1A
FF260014
0250FCA1
02B3085E
FEBCFDFF
00FFFA24
016D06BD
FF35FC8E
FC2100D5
FE510251
FCF20237
FC3C011C
FE64F2D0
060200A0
0125FD58
0073011F
0071016D
0279FE3F
0508FFC0
02F1FFAA
076DFD67
FE2B0724
FC620084
01C50345
FC69FE7C
F974FD88
01D6FA8C
FC0F0111
04A4035A
FFFB0293
00C2F8F0
FA91F93E
FC17043C
03DAFDB8
0085F93E
FD440818
0459011D
0501FE8A
0419FD5C
02A3088A
FABC022F
0413FE83
FE4EFF52
FEF5013B
FDD7FEEB
01440077
055FFBE4
FB71FF94
026C00FD
025DFE16
01CBFD97
FF1BFDD8
FD980430
0031090C
FF5AFB1E
05C80293
FBAFFC59
045501ED
FD72FAB7
0187015F
FE72FCEB
03D10298
03FDFECA
F516FC66
002D0442
054F0254
016C0154
079502FD
FF8EFFFA
023BFEFF
F5DBFEF0
FCF1FB52
0432FABD
0037FF7C
FED40314
FF7F0228
FFAFFE6F
00E30202
02B1FE90
00F7FD88
011203E9
041B01F6
017B015D
FCA80081
0627007C
FF5FFC57
0085FD0F
FF01FCEF
FFC90049
FCC3FC44
00B00193
F43FFD95
FCC2043B
0AEBF5BC
039101EE
045F0651
FBA00132
05670A3B
0432EB0C
03BEFE90
FEBD0120
0148058B
FE05F4E5
048101F9
041EFE78
FACA0243
F73BFE9E
FB6BFFBF
FF35FD14
FF0D01D8
FF7FFC0B
03ED013B
00CEFF1B
FD0B02C2
FF0E05BC
00BF00F5
FEB003F9
FF1AF4FE
08040008
FD03FCBD
FF3A060F
01480111
F8DE0070
FEB1FEB2
0A8F020A
FDDD03B0
F823F654
FE5B0865
0016FD20
FE07FE48
FD2AFAB2
FDD70211
045E05DA
020000A7
022001CE
020AFDF0
0631FFFB
004F0132
FFDF021B
FC5EFEB5
02B402BD
0022FEE0
FBA0FE96
006B0226
00E2045C
05910272
05DA02DE
F7720633
EABFFAEC
0191052D
0061FF8D
03CC0123
FF5B01F4
FFED044A
058BFC12
FCC7FFCF
0549066C
0357FD86
FF19004F
03C3FE53
F7FBFD03
0653FF27
FD9D02A2
01DB01BC
03060383
073C080A
0181079C
FFB1FBEA
F686F98A
FE25046A
01D40133
079E09D1
01F80271
035A0163
FE75FF61
FD8BFE99
FE71FE3D
000EFB84
0143037E
FC8BF998
FD2FFCA4
009E03CD
04A5FE0B
0576FE74
FE1CFCAC
FDD60417
03A6FCF8
FF52FD36
00CEFDC3
03B8FE8E
FEB20063
FB8C00EB
08080686
02A804B3
0008FD81
00F402DD
05C6FE4A
0079FE23
031BF97F
FDD3FD9A
0071FC03
FEE205BD
0200FD41
FE42FA68
00FAFF23
FB7E011A
0032FDC0
FD1204B4
FDB4007D
F9FA04DA
04240007
02E9029B
0060006D
FFD60006
013A038E
00DBFD9F
013CFE6F
0211FCE4
FF4803FB
009606C7
0211FD00
0072FDDA
FCF2FD44
FED0FF62
041B03BF
FEB90230
0578005A
027D03B1
0185FE78
FC890281
0008FEBB
017DFF37
FDFE0626
FEE7FF06
FF50FE68
FDB20202
01670096
FF66FECB
F7C80029
FCBD00A0
FA7903CA
EE95FB4D
0671FF89
02B9F0D1
03A6FE5C
FFD2031B
01A20226
FFD5FF3F
FF640606
