FA0B
088F
F635
04DD
0066
0552
049A
0645
F720
FA07
FDD9
FC78
FD91
0224
05F9
00E0
F648
05B2
FE11
01AD
F909
097F
08F8
0087
FE99
02B0
FCA8
0009
0582
09B3
0C67
FD59
FECF
FD35
053B
FACE
046B
FD33
02F0
FB9E
1239
01DC
FD52
FD33
FFEA
FA56
046B
FE1C
06AC
0C60
0380
FCD3
01F7
01A7
06EF
0179
020F
026D
FF5C
FE90
FE1E
02C4
FA90
0041
FAB4
FB4F
F0ED
FF89
FB42
FD42
FF40
0634
01C5
F22C
0149
05E1
F66F
0216
FCAA
0205
FEC7
01D3
013C
015C
0354
FD8B
003F
F53F
FB77
0747
FAB2
F472
F9BD
FDFD
031B
01EB
FBF9
FF4D
04E6
0102
047F
FE09
006A
021D
03D7
FAD0
F7D2
075D
0368
FFF6
09C6
FE3B
FD7D
FCF7
05F3
0B56
0505
FDE5
F871
093E
07C6
FB89
FFF5
FAB8
FCA4
01A7
FD81
FC70
01E4
0539
F256
EE34
FFB2
F3DA
15C9
FC23
1925
FC9D
F9FC
06BD
06E8
112D
F72A
FFA7
FBA2
06E4
1128
FBA9
0BFF
FBC6
EF84
F53F
FD15
FEDA
02C6
FF88
F76A
08AA
FEC9
E2FF
FC4D
F3F4
1020
028A
112A
FE51
0FF5
F0CD
0512
FE38
024A
F772
FB7F
015F
0868
F2C1
084B
1B95
FE23
EE92
FE29
EE05
FCB0
0276
0387
F5DD
F9EC
F7B0
FEDA
F9A6
F89C
F9A9
0418
F218
F57C
002C
F9CF
EF2D
F523
F13B
0355
FEDD
0187
01EA
E8F7
025C
02D0
F170
F7E0
FB03
144D
08ED
F864
F4E3
03C5
02E4
094A
FB3B
10C8
F522
1531
FE54
FFBB
0976
FEDC
0631
0AF4
FA41
037A
01D8
FE93
F598
0340
FFF6
F154
079A
FB8D
138D
0283
0A63
0501
0D73
FAAE
0A95
FB04
FD8E
F64A
0393
F02D
0430
04A0
08AC
F8FC
079B
0E0F
FBF3
F6D5
FA11
0B58
05AE
FC1F
0AF3
08CE
066C
FC86
F805
08DE
0AEC
FFE0
FF7E
03E4
F2AD
F784
F764
0326
0645
FE29
140C
03CE
FFBF
027D
060E
06AB
0472
00E1
FF40
0248
FD37
09A0
F864
0398
F9A7
FC95
FFF1
0023
F779
F6F9
FC94
FB69
0445
08D0
FE71
055F
00F5
009B
F9AC
FBBC
FA4A
00E7
045E
F97F
0A26
05D1
FA2F
0375
FD23
04E4
0D33
FCF2
FFE2
095B
FB28
FDF6
F85B
FFDE
094F
002B
FE2C
00BE
FF66
FF45
0776
F72A
0008
FEA2
0CC8
F35C
0301
1152
EF10
FEFB
F601
FCA6
0117
0376
0450
0476
F97B
01F1
0EDC
FC38
FE29
FC15
FA4C
0199
0937
0053
F536
FCBF
F9B8
FB4A
01AD
016E
F751
F622
021D
0B1A
FC1C
FBBB
0A00
0E40
03EB
F4DE
FF3C
006C
0718
FAB4
FFF5
FAC9
0473
0657
F50F
F864
FE72
0578
09F4
0B5B
F7BE
FA32
0297
02BA
06EF
FD6A
FAB5
FBCA
FDF5
0ACF
FE86
FE9C
F844
01CA
FB5E
05EB
0079
FA1D
FC5E
0116
0718
FCF6
00A8
024D
005C
0918
04C1
F6AE
FD2B
F857
003C
FC67
FDBA
0376
FAB6
005F
0ACD
03E5
FDA7
0638
EE29
038C
055B
04F0
FED9
0B95
FFF3
04F0
02BA
FFA4
FB52
05E0
FD58
FF45
FC02
0475
076A
F6E8
0A34
FA1C
00EB
06B8
0691
FF7C
EBD8
FDA2
FE6A
04DB
0AFE
FE29
FF3E
0077
0C8D
0573
036C
0250
FF64
FE19
FFA2
FA38
0525
070B
00F8
F70C
FF85
0115
F96D
00A0
F85A
060A
FE26
05A9
FC2C
0217
015F
0917
0640
0622
FE3C
0086
FF51
FCBA
03D2
02B6
0E6A
FCFC
02EE
FE2E
FCA1
FFE0
FDD0
026F
FCFE
08E4
F7D8
FE02
FAB3
01D7
FEFF
FEAD
FB4E
04E5
001B
FF6E
0377
F51E
07AA
F538
0633
FF5D
00FB
0F53
FE01
06D7
038A
0677
FE69
0885
0315
F4E2
0B04
0597
EB1F
0C62
FE32
F8B1
054D
007C
F797
EBC5
EC72
FFF3
0523
FA46
0626
01E4
0651
FF39
0BCE
F5A1
039F
072A
F5B4
FF72
F4C1
0750
08E4
F645
0092
F1F8
F4CB
F774
FE1F
0036
F5EB
0715
01D5
F31E
1182
F79C
00C2
FD99
0CA5
0E66
F221
EA31
F57E
FFE6
0A06
F968
03C1
0720
FAF2
09A2
F2D3
FA64
06B9
F33C
F95D
F7C8
00DD
F079
1038
048E
EB0B
0875
E62E
F7F8
0511
0945
FC33
0381
FCED
F111
0DCC
FD51
FE74
000A
E745
FC74
ECC3
0532
024B
0D16
03B6
FFE4
00E9
01D1
FC13
F9B0
FD0B
F249
F4EC
FE79
0595
F80C
0449
0563
FE6C
FC9A
0129
0132
FB8C
0472
0634
FC66
F537
0140
0C90
F3E3
F8BD
E5BB
057B
FCFF
FE97
0646
007E
F2F5
02CA
F9E8
FA2A
0682
EF5A
FF57
F818
0301
F316
017E
FD3E
04AB
FA41
FE1C
FFBC
10D8
F9EC
E8B4
098D
086C
FFE4
0360
FC01
04CD
052E
F293
F0A9
F89D
00C6
059E
061A
0210
FECB
0870
F991
0329
0361
016D
FD7B
016A
FB8A
FE51
01DC
0470
0312
FBEF
FFFD
FA94
FD29
040E
05A3
FC5B
020A
04A9
013B
F9E8
F78D
F28D
F9AF
060C
01F9
EF73
F37D
FAE5
F98F
01E4
0C97
FBEC
06B3
00EF
0011
01CE
F9F7
FC4E
018E
F628
FA73
08B8
FA1C
0079
FC00
004B
1136
0872
0093
FEBB
F8B5
F954
0655
FC4C
FBEF
F7D7
040B
0A7C
01C7
0AE1
F62D
FBB8
FBFF
FD2E
FE7E
FFCD
04A1
FB30
F43D
04EC
0136
F908
039E
1017
06D7
F86F
F994
FE29
FE85
FDE3
0409
FDEB
FEAD
03C2
EF22
FFC0
FFBC
F3DF
FF21
0C68
02C7
0BF2
0B0C
0D52
0A5F
04F1
0156
0A0D
095C
0046
0DBD
FC5F
FE2F
09D6
0595
1359
F586
02E5
0026
094C
0EB1
FF54
01B1
F63B
F92D
FD8F
056D
052B
0106
FC38
0527
F57F
FB7C
F667
0A5B
04CA
223D
0DEF
FCCD
F9EF
E9F8
FA7E
0384
03B8
024F
F8A1
081C
0438
13A6
07AF
F8A1
0ADA
0291
0311
0135
05D0
040D
0B3C
FEEC
0AD4
06A2
0280
0026
EFD7
06B3
0877
F2E2
081E
02B3
07AB
0B26
FC3A
FB79
0365
EB8C
F5F4
FD90
0353
0A36
FCE5
FC87
ED0C
F9DF
178E
00F8
0A6F
FE7E
03D3
F2A6
0CB9
F525
0FCA
F135
08C1
1571
02C0
0690
FBF6
1431
0346
F9D8
15A5
0095
1031
086A
05A3
02D7
0DE4
FC5E
034B
0D41
0DEE
026B
0D62
00B3
F780
0532
0638
0586
FF91
08B6
05F3
0243
1340
117F
FFD9
F9E9
F9C3
FC40
0215
FE23
05EB
033B
FB4C
FD0A
0346
FD10
FAC9
F84C
F938
F810
FDB4
FF27
FD97
0E01
1066
0014
FCA0
F942
FB44
F377
FB1C
040E
0320
F006
FE48
028F
026E
04EC
FDD5
FE3F
0031
FC9B
F8D1
FCF0
00A7
FBDB
03C7
04B9
F826
FE5A
01D2
FD60
F72C
04A3
EFD8
0468
F85A
0662
03A6
FC48
EEA8
023F
0568
0861
FB00
097A
FD8D
01CD
EFD1
FAB0
F62C
FC6B
064C
FBEF
F3F4
FD2B
F49B
FA66
0F94
FA6A
F94E
04D5
0335
F0E8
FCB2
08BE
0840
F6DD
183F
FF35
FBB0
FBBC
FDC4
FD88
F75C
F762
FEB8
FD54
FB2E
FF3B
000B
F8F6
F6B4
06F1
FFC5
F96F
FB8C
F726
FF83
0099
F988
FAB1
F62C
04A9
07F0
F87D
F1EC
01AA
022A
FE54
F5DF
FDF0
014D
01FC
F835
FCDC
F60E
035C
01E2
023A
F271
EEAC
F9DF
086F
FF89
FB67
FB3C
021B
F86A
FFAD
0FFB
EA52
0166
0EC0
FAD9
0852
F986
0896
0028
FE1C
0610
12AB
EDA2
F2F4
FAA8
F4EC
F446
FE50
03BD
EF26
00FA
0903
1C6C
0C75
DE7A
F7CD
F799
F8C0
FDCF
FE68
FB29
FA9C
FFF7
1EE1
FE7F
DB02
077F
E371
0C4A
00D3
FC54
E75D
F8BC
FA53
08A2
EB12
15DD
0447
1E79
F38B
0E20
0CB8
0568
09ED
ECDA
F799
FC8D
1007
0B79
F1E2
F82B
051E
EE7E
0004
F05A
2AE8
0336
F84C
ECA5
1019
0A16
17A0
FB66
FC03
F756
E9FD
0250
F2C5
155E
036E
FBEE
02A8
E65A
0050
F8DF
0ACC
0124
10F4
11C0
F01C
EBC4
F99A
1609
F444
0C8C
08B8
01A9
040A
EEB2
F794
106A
0993
FC36
F925
E9FC
F379
FDE2
FAA2
06E2
0127
EC01
FE9B
0041
F944
F9A7
EEEE
2B24
0DDB
0491
FDE7
F888
067C
055E
0CDB
E9D4
FF6D
F928
EEAE
FF46
FED6
06FA
FB06
FDCF
00B1
12C3
FF2D
F4A5
FEFA
0629
F855
00D9
FD84
050C
083E
FD2B
0443
F945
F3ED
047D
04C2
04A5
FF1A
FC28
EBC7
0D07
1E99
01ED
F4AB
F2A4
EFB5
10EC
FD27
F345
1036
FE92
001B
F257
0355
EA63
F007
FF9F
1978
0525
0112
2552
0549
FF3E
042F
EFB4
000C
0493
FA4F
073B
F105
FE4D
F368
FDFE
13DF
EE5E
11CC
EEE8
083B
02AF
F6E4
F3FB
01D3
11F8
FBF2
01C5
FE3A
F437
FF13
F4A5
0EB3
0065
0995
06D3
F08E
063A
0978
F2FF
FBDF
108F
F580
06A7
00F6
04DE
040C
0B77
0757
FF2D
EC8F
FCE2
FD30
F953
FC71
FA0C
F1ED
0129
06E0
FF51
F05A
FECD
0BD5
F82F
F6C9
0041
FAE4
F327
FC9F
FFE2
1378
06DF
FCDF
F326
F456
FF2C
F953
E8E8
F823
03A5
F7A9
F354
0BAB
F4A4
F6AB
F34B
0831
F7DC
04F8
0741
0548
F5C6
F666
0D9B
06C7
FCD3
FC2D
0F04
0551
0A1F
F06E
F0EB
023F
0063
F6E5
00D9
F473
F366
02AE
0162
0DA8
0AF1
0359
F2DA
062F
F81F
E95D
F340
F5AA
F003
E6C5
0090
FB82
0676
02C0
EACB
F7A3
04CC
0A3A
0116
0197
FC89
F2BB
0693
FFAC
FD90
0E14
FDEF
0244
FF15
FAF4
0D47
055C
0049
FEF2
E5D9
05C8
FABB
15EB
F069
040B
0A32
1338
028C
01CA
0F89
F719
FA73
FCFA
EC85
F4EC
0F0B
0C8E
1115
FB2A
0944
FFE8
F262
0075
FF06
F186
086A
2187
EBDB
F5C7
F4AE
083F
04BD
FC0B
0717
EF1F
F73B
0173
0D4C
FEB0
FCE7
F296
F2F8
0E2D
0D60
09D8
F3BF
F5A6
0542
F5C5
01D6
1093
1016
0459
F536
03AC
03E9
0116
FABC
FC43
02B0
208C
F345
008A
07A7
F3D5
F371
E60A
061A
FA77
F192
00E7
0705
FF07
FFEF
01AE
F8A0
FA48
0F82
0EAD
0788
FCD0
0135
1B9A
0632
E332
F845
F4A1
FCBE
F3C8
0504
0989
F3BF
FB5E
13F4
0368
0C03
0BC3
FF9B
DF14
1117
12A2
F220
EFFD
0222
FA55
F605
0674
EF0F
F3A6
FA58
08C9
0563
0875
F63B
15C6
FAA3
042E
01A3
080F
053F
E95A
0C5F
0257
F5D7
F3B6
F437
F106
F931
EC75
F38B
0468
0905
E56E
F650
0E43
FDC3
0D80
F855
FFF1
0089
EB2E
01CA
085F
0AE2
06C6
FDC1
043D
0ECE
F53C
F268
02FE
F980
0311
0391
04A2
000C
FCEC
FE63
F892
F784
F272
FA4C
F784
F550
0053
E3DC
03FE
0452
12B8
079B
01C6
07AB
1472
EDC0
08BB
FC65
EC9C
F076
0CD9
FAE5
E2CC
E7AA
00F0
F652
FD2E
FD2F
F717
16F6
FDF8
00E2
09B0
1670
F9CD
E364
F299
1A53
11CD
FB75
00C8
F8A2
08B3
F1F6
DB2B
F70C
F232
0EA8
0428
11C0
EB3A
0600
FB04
E614
EF8A
EE6A
03DB
10F0
02C3
03CF
F7E5
F9BD
114E
18C5
175F
F769
F03E
FBCC
F7C2
FB97
08CD
0FCE
FCA8
F6E6
FFE8
058F
F1DC
F030
061A
0BB4
F35E
0E94
19EF
F491
07BB
F495
0317
100C
082F
F0DC
08EB
097A
F4FB
FDA5
F9DB
04A7
F689
0936
F4E9
0193
FD38
F123
032F
FD64
0FDD
FD7F
0A52
FA23
0036
F631
F2CB
02FF
F6A5
E813
F1EB
0691
1046
021E
04C2
FEC3
E52C
F69D
F209
EE24
FD49
FCEB
145B
EAB1
020C
FD0E
FA9C
0372
FAB9
EDAA
1E55
FDA9
06C4
FF28
EF29
FB82
E6B2
0761
FBAC
052A
F7B2
F6BD
0702
FDC8
F624
F7DA
FEE3
FE7F
F05C
FD58
E38B
006B
03DE
FFFD
07E0
1B91
01FC
EF06
00A3
FED3
F91A
E609
F3CD
F1A1
F9D8
FD3E
F052
0DE9
FA64
FD2E
02B0
06B2
0352
0529
FC16
FFD1
06D4
0B93
04E5
FD42
F7A7
FFBB
0F57
E869
F307
082C
0901
0BA3
F446
03A9
01F7
E892
04F2
01D9
F32B
F2B9
0B81
FFB2
052E
0046
FB18
F6E2
045E
0432
FD77
0467
0483
FE72
FB45
02A4
FABB
01DE
FCB8
F93F
FA10
F511
F6B0
FCE1
F1FC
EDE6
F723
1100
FFDF
1106
07B9
F6AA
0AEF
0625
F689
F7BF
F810
F978
FE14
FF15
05CF
F73D
0908
FC3A
F593
063A
0721
EA2E
FEE6
ED62
F4DE
FCD7
05B7
0364
1156
F8AD
FE4A
FDA9
FBE1
03DC
EB2B
00E4
FD9A
01D9
F81B
0BFB
F7B6
FC83
0220
F3A6
02DC
0A65
0143
0BB8
0AA2
F09C
03A6
FC81
01AF
F686
2056
1964
0616
185A
F794
0485
F212
F04D
FAA3
FBD4
1B28
EB6B
FE1B
F49E
0CC6
05E2
F5A9
01BA
FF42
FF6F
FB71
097F
0F41
FD00
E746
F998
0536
F2AD
F233
E9F0
E609
F091
02CB
F19F
095E
FAA2
FA18
F6D2
0060
E5BF
1179
FCFC
F522
13CE
1370
1669
FF8B
FA27
0182
0A59
0DDA
FE5C
0BD9
FAC1
0330
113A
FE4F
EAB0
061A
FF61
EA87
0DA9
FBEA
F997
0A6C
ECE5
FA4C
122C
FD23
07BB
FCA0
FC09
1659
F656
F24C
0702
EEF4
0555
006E
EFD6
088D
F032
F68B
F899
0959
0260
0338
03ED
0B35
0FA9
FA52
0B51
1517
0D42
F6A4
F557
FEC2
0431
FDCB
FB65
0753
F178
00A6
EAD7
F652
1533
ED55
FC52
01D2
05AA
0273
0133
0EF1
02CA
F777
F637
E68D
0847
F822
07AB
063E
F17A
0029
F668
0919
FB41
EBA7
06D5
FC66
E5E5
0010
0D70
E8CD
09BB
0586
FCE4
0476
FC95
087B
14AA
0002
F839
FDBB
0E2A
FAB9
038E
0202
F6BA
FC45
03E7
EC99
0B7C
FADE
FDCB
FCEC
0298
E1DC
F55A
F1F5
FC11
011B
0981
EE62
FDB1
FBBE
0837
FC38
0477
FFA0
02A0
F0E9
FAC0
00CE
001C
08D4
F910
01CF
FDCE
0455
F59E
F81B
F32B
FA81
04D9
FD1C
FCFF
0420
FECB
0606
0073
F833
F141
F948
F41B
F8F5
1044
F02D
0047
09D2
F6EA
01A5
0B52
FB44
F9F2
F396
0730
0F34
F929
03C2
F922
F5DF
0534
056D
047A
F90F
048C
F782
EBB3
00AC
0406
0945
00F4
0186
0718
F7E9
1290
17C6
0547
134E
0A65
026F
FA31
FD01
F815
F6E7
031D
F695
F4AA
0685
FF61
0D60
0F95
17F9
FB2A
F8B8
F936
0534
F7DE
EDC6
FCEA
0C9B
FEA2
FA16
FB2F
085C
0369
FDD9
FCB1
FA87
FF9C
09CE
02E3
F511
FD3F
0609
FCD9
FB89
EE17
F12D
FC99
F672
0963
FE27
FB10
0821
FFDF
FEAE
FF15
F0F2
F761
1131
FE54
07DA
FF45
FBE4
FD5A
0760
046B
0B14
FC2F
0B17
0CF3
0052
F51C
F74B
0B42
0BE7
FB8D
0AC9
02CD
0289
0925
FF6F
11F9
FDC1
F817
FC77
0939
05E7
F80A
0881
F54E
F415
F521
127A
0F7C
FCDC
F876
FAB6
04A5
092F
0153
F3A5
018E
0C79
024E
0B1C
FB41
0BBF
0109
F21A
08E3
FC88
F468
F844
F3C3
0072
0426
FED5
04A4
FE99
FFEB
036B
F1BC
0499
015F
09B3
F936
F5EF
F66B
F5E5
00E7
FFD0
F458
07A0
FBF6
F72C
066E
0EE3
0124
15F8
0A02
F582
0786
050F
1B1B
097A
FAA7
FC87
F12D
0C14
F841
0549
0463
FBED
047E
F758
FD1E
1436
F8D5
F6A7
040A
FE9B
FD82
FAB0
FA00
F9ED
FF63
FC69
EE7B
FA19
0281
F349
0723
01F2
0262
FE2F
FAB3
F08F
0A0D
F8FA
FCA7
FEB3
05D9
F0A6
0379
0420
FAF9
10A1
F929
F8E4
0959
EDF4
F8AB
F0E6
052B
FBFC
011A
F628
08E0
FE01
FAAE
F477
FB58
05B7
0104
FC36
F74D
001D
099D
FD29
FBC4
F673
F90F
F732
FC0D
FE30
089A
F67E
06C5
0BC8
0332
FAE8
FE8E
F8FE
FC10
0C0F
F8F4
FCC6
F209
FEE4
0175
F7DA
07CA
F824
016F
FB7C
F1A4
FB55
F7F1
FB05
02FF
08C1
FC93
FAEC
FF4C
085D
F066
0069
FBD2
FB2D
FA46
F883
0806
F799
F717
0110
01BF
F907
0657
0AB8
F8B7
0083
02AC
0B73
FA51
0863
02E8
F966
FFF9
02F8
0AF4
0771
F766
078A
080F
F4FF
00CC
09B8
FD8C
E9ED
16B2
15C9
FE3E
FC2F
0603
0715
FC7E
FD9E
FD51
0C14
0183
FE15
0544
056B
03E0
F745
F713
F5C7
F536
0A00
06D6
0413
F9A5
F24C
01DF
0A04
F8EB
0262
0052
ECE0
0A99
0B35
E736
1353
FF97
19D7
FBAC
0A35
F7D5
F0DF
0F01
F523
1801
F97D
0238
0829
084F
08B7
1367
FE26
0D23
E804
0E66
F043
0C27
F71D
EDDC
F83F
FF35
072F
FD69
FBD8
0644
F42F
FF27
033D
057D
0CF7
1DD4
F913
0015
ED27
FD11
0683
0020
0A4F
FCDD
F405
FA95
ED96
FA40
0C7D
1ABC
F10A
05C3
FF9F
051F
FF38
F68F
FF2B
F97C
ED91
033B
EBCD
0A3E
0153
F5CF
FC4A
1255
072A
EA91
006A
058E
128E
FB9F
0E43
EA90
F699
EFCD
F898
F422
F54F
027A
061B
0689
0A39
0B42
F11E
FAA5
F5BF
107F
F6AF
0787
1638
EC00
FF0D
F3DC
1D3D
F023
F314
09C7
057D
00C8
FA3B
FDFB
F2C9
F79F
1163
FCEA
F616
059A
07A0
F768
FC94
F9A2
EE26
01CB
FB72
EBBF
096D
F5D1
0159
000F
F1A1
ECB8
004A
FDD1
F724
F62A
070B
00A1
04B1
0274
F527
01F9
EEBC
EF49
03F9
0CE5
FD1E
0AC7
F8A7
F8F1
0069
022E
F0D0
FA8D
04D6
076B
F541
FCE1
F708
F319
0776
00F8
F6CA
0223
FC4A
0FCE
FAC2
0B41
F26D
0E78
0661
05F0
F0E4
FE3C
0550
033D
F474
F790
03D7
0C21
FD0B
F442
FF32
EE2D
FAB8
0731
F58E
0A8C
0534
FBA2
0D74
0CAD
F3DB
EDC2
F11D
F578
01DE
013A
FF2C
01BA
0244
FE7C
FA28
0565
F2EC
0087
0299
06E1
082F
0B5E
FEF7
F9FC
F7D4
FDC3
F5F0
0141
FB58
FBED
01DF
F9FF
071C
0657
04E0
FC83
F638
F756
018E
FC22
0A53
FDD6
00EC
0569
F6ED
F29E
FC05
F742
F58A
FEEC
EF3B
0C9E
F381
EA3D
0885
0815
F629
F9EB
ECBF
0256
FBCF
F59C
0401
150A
F0A6
F278
FD66
0356
0335
007D
F984
FB6E
01C1
073E
FEF5
FAD0
FA02
FAF2
0B92
FD6D
06C1
0A78
14BC
FCC9
0582
F643
0A3B
01D0
FF47
FEC3
FE86
04A7
11BD
091F
FA7E
06EE
0F93
F57B
03E2
FB8A
F611
F8CE
0E10
FF67
FCBD
F259
14D5
F671
0D64
0B2E
0913
0723
F609
EE5F
0FF0
F3D9
0946
0CCB
081D
106F
F6D6
F38A
F1FF
0544
111A
03BE
F6D8
F13F
0229
F410
0727
1224
0604
F4FD
EB11
03E6
FF3F
EE29
0241
F040
0C86
F98E
111C
F561
E20C
0453
FE56
F6AF
0731
ED49
2761
08CB
E0F9
F409
F62A
04DF
F6C7
FFC1
F4FA
07F1
F0CE
EE13
F6BB
04F2
12BA
F393
EFFE
F97C
0EC2
11E6
F503
FD9A
00E0
F883
F77B
F44F
F305
0C42
ED9C
000A
FA63
0B4F
007E
F592
EB58
E255
02EC
0181
F9C6
04F5
0086
FE6B
1689
ED62
0529
05CA
FDF5
08DD
FC8B
FB1B
06CC
FD50
FF88
0301
0430
F96A
0257
EEA2
E0D8
1407
034E
E504
E842
0630
FA55
0D43
0AB8
F910
FDD0
032C
ED70
0146
FDBD
0480
F2C4
0637
07A6
F5AE
F455
05E1
F1E3
EAF5
06FD
106F
11E1
FF89
F7CE
011E
0129
FB8F
DB2D
0306
EE92
08DB
1303
FD24
015F
0F53
F87F
1173
F32C
ED49
00F7
F98C
F0FD
0734
0A35
FA6F
F8A0
FB19
FCDC
FE54
F726
FFE6
0C5F
FE73
F7DD
085A
05FC
04FD
FC8D
F232
111B
EF3F
FF13
F3A6
F338
EAC9
03CB
EBAD
F7D7
0BBE
F38B
0DC2
0394
02F3
03BD
09CE
FA5F
F234
F8C7
F5DD
EA65
04BE
018C
02EA
0D7E
FB55
FBDB
F72F
F22D
F121
07BB
0140
FD39
0391
036C
FD6A
F343
E8DB
FC5E
F78E
0867
DF0F
F761
0286
1451
052F
00DD
104B
1539
FD14
01C5
F83B
F296
FE1A
02A2
F96A
FEB5
0E90
EA62
04CD
FB60
0FAC
060C
01EF
F7D5
FF30
F0B8
FD69
F8DA
13F0
0315
06B9
F5FB
001C
FC81
047A
F0FA
051E
004F
0E61
EB1F
16A4
FEBA
0A8C
04FC
FB0C
F6EF
0446
F74C
0825
0BEF
1089
FAF1
F598
0230
044F
FC71
FF04
1DE1
F28D
F1AF
EF95
0377
05F3
FAA2
0D7B
F4D5
0060
F647
FE94
FAD8
04CF
0CA0
F5CC
08A3
F69A
F927
F7C3
EF12
F8BC
F716
F9A3
0298
ED0D
0333
FD27
FEAA
F39A
0F9F
FDCA
FB89
F5D0
FF90
FB5B
02F9
F231
F827
0644
1F5B
12D6
078F
FFD1
00B3
026E
0E5A
F31A
0986
F5D3
0BB6
09CD
FEB8
FEF8
E447
0748
FC80
03FE
003D
0C0D
05D6
1859
0351
135B
F582
00FC
FE9A
FBC1
FAED
F7E2
0991
150D
02D4
F517
0141
ED2C
102D
0D39
0F1A
FE24
FFE7
0813
FAF2
FE95
F394
08E8
0F0D
0026
0552
0EDA
FB4F
F72D
F998
0B89
1370
F5A7
F721
FA59
F717
009A
1906
184F
FB7C
FD8C
F4BC
FE08
FFA1
024A
0AC5
F24B
E72C
0DF5
035E
F511
F50B
F18B
FE9E
FC0A
067C
FD37
0844
E9FF
FC70
0D34
FD8E
FD64
F3D0
059F
045C
F9D5
F445
0344
0296
07C7
00A2
F064
0165
F943
F489
F486
FC75
0BA8
0E6B
F288
02F3
F9D2
FF91
FB85
F86D
036F
F731
FE25
FCE1
FA58
0ED7
03DF
FC48
062A
E9F8
FFB5
09DB
0305
E5FD
0E75
0BA7
FA87
056E
1162
0C92
F673
07AD
0673
F79D
0788
02AE
039E
03AE
E4B4
0C99
022E
06B7
09A5
FB52
1044
F70D
11AC
FB67
2B93
F20B
F622
EFCB
F954
0124
026B
0B4A
F0C4
FE4E
035B
DF5F
FCDF
0306
01B6
003D
09F7
F6D5
FD96
FC79
FA52
0C16
F92D
0680
F9D8
01F1
017C
0357
0356
028E
FAF6
F6CE
FC05
FA58
F9EF
F9B8
FB32
0905
044C
FE4B
10C0
FE05
0499
F80A
0120
011D
FAA9
0298
0176
FC5A
FD1D
F8D1
FF5E
0499
04B6
0418
FC2E
F5F7
0020
F748
054D
FE4A
0077
F481
F8B0
F962
014A
05A5
082A
F6E9
FA6B
014D
FA7A
FD96
0D1B
0350
FCF3
FF1C
FB46
FA8D
05A3
FA65
0296
0829
F71F
0D4C
020F
0B91
FD92
FC11
0607
046E
01CF
0279
FD05
FBE3
FB03
01B4
04E2
046A
FFC2
FF17
0130
052F
0056
0351
0246
0297
F799
F2C0
049B
FBC3
04BE
F3FC
0967
012D
007A
F78B
00A2
01E9
FC06
0127
FA2E
FD20
04F8
04E1
FADC
F86F
FDE9
031C
053F
FE9F
075E
F1A5
03C3
FF2B
01A0
03BF
FAA2
F8FF
FB4E
EF39
FFB7
0590
FBCC
FECA
E5BB
0A00
F2E6
01D5
005D
F245
FDFD
F8D5
FF41
D2C3
F5B5
0240
1A69
FCAB
F38F
F241
FF84
05DC
141B
F6CD
0139
1CE4
F5F5
ECD4
0C59
F56A
0167
004E
0E0F
0BD6
0E84
FF8B
01B4
FBA1
FDA5
1BB8
0DAA
F908
FF16
0FEF
EF9B
F361
F603
F931
F7F9
0F46
0845
ED9C
EC31
121B
FD9C
F399
E85D
0405
F91D
F4D3
FD8D
FC92
F61B
EC9D
07E1
FB10
014B
0E3F
0E90
F7C9
0983
1379
F123
F656
FD56
F9D9
10E4
0A2B
0075
07E4
0AC3
FF73
11A6
F5F4
FEBE
FBC0
1083
F658
FF33
F7C3
EEDD
152A
F1D4
E76D
02CF
F1DE
F349
0FB6
13D8
17CD
0B31
F7B3
1833
1425
F1CD
104F
0A30
FD99
0888
FA06
03E4
FF68
11BD
FAA0
0747
FD5E
E761
11BE
FEB6
0AAD
F549
030A
0816
FF9C
FE2A
FB00
060C
EFF7
07E0
15DA
F88E
1CB3
F99F
F8FF
0505
FEB0
0CBC
0098
F3E0
FE35
F54D
E73A
0537
FAA3
0177
05DA
FFB8
071A
FBF9
0384
F3D6
06FF
1C1B
E7B4
0530
FDA5
04B4
F7DF
F701
FDAE
02C1
F09B
0122
F227
0C5F
F75D
04B6
0552
10C2
072B
FDC9
F30D
EDA5
02A3
F2AF
F967
FA91
03FB
FA86
FD9F
FDCF
FBAA
F57D
1424
FFE6
0E69
068E
06A8
01B3
033A
F2A1
0F82
0571
F6B8
0779
016D
FBC4
F6A4
DF71
F876
F931
F07D
018B
197B
F9BA
037E
F6D6
0128
0161
054B
F4C6
FEFC
0425
FB39
F637
0153
13F0
0653
EC67
00B1
F36C
024B
F896
F164
0EDC
0514
F9F3
F9B2
0578
0AFE
08A6
F6B5
F1C4
EE05
F61B
0035
F5DD
04B5
013F
FBA5
F3D9
F528
FF1E
F9A9
04DF
FDDC
0BCD
03C8
0160
0C21
0617
01E4
0515
F5E8
1BE6
FB58
F126
FB74
FF14
0504
FE21
FB56
0849
F810
FFD5
0314
118F
0914
F686
1761
FAE2
F8FE
F940
F569
FCB7
0561
F957
EC7C
0ACF
0D11
EBAD
03EB
FC5C
0A63
FDEB
0C37
0307
08F3
037C
FF7F
0386
0352
F7F3
F985
0704
0053
19F7
EC55
FFB1
FB06
02A4
004D
0C7D
00BD
0370
FC2E
0919
0A55
1005
F0C2
10A8
0F57
F81E
F554
EC03
0601
007D
FF76
F7BB
022E
086D
030E
02F2
F9E0
032C
FF57
0F05
D73B
E4D6
F56B
F03A
0080
F0EB
02DE
F7F4
FBCD
F65F
082E
05C9
FE46
F230
F93A
12E5
FA5D
161A
FE51
0B59
F6E9
F2CA
EFE2
0E13
FAEF
F680
0347
00AA
EFF8
0022
0207
107B
0999
FC1F
F9B8
17EC
FB17
0B67
F7DB
F405
0284
E830
F45A
F8EC
F90D
14A1
06B8
FE12
FCEC
FB9D
074F
0498
0014
EF15
FD24
01C2
010E
F110
0404
0B2E
F41C
035B
0A40
08BC
FCA0
034F
FAF5
0235
03B9
0689
FBDB
F92D
FEC4
0CAA
FA75
00B7
F717
06C0
FE2C
063E
FC02
04D6
F75D
F761
02C3
F82D
FE30
0437
04E0
063F
0129
F692
F9D6
FC01
0805
FCA1
FEDA
0366
F943
0261
0167
F2CF
FC50
029E
F2D1
FCB8
000E
FF34
F56B
00D1
008A
0523
0A3E
FF76
F802
0113
0340
FDF9
FDE4
FA0D
04F0
F5A3
0007
FEE6
00F7
07B1
0905
00FC
F43B
FD53
0005
08E9
071F
FED6
0402
01CF
0CAB
0793
06D9
0486
0BD4
FAB8
FAF5
FF0A
07A4
0AFB
01BB
F849
0405
00A2
0496
06C1
F7E1
0334
009C
FEB0
FAB3
FE95
0269
0479
FD1B
0623
F8CA
FB12
FD5F
0283
067A
0D2C
0CDE
F843
F86E
0253
01F0
017E
F952
FF0A
FD73
0675
FD50
F98C
0230
FB82
0169
F5FF
F847
01E4
F753
FCFC
F890
03B9
F5A4
FBF4
04C6
FD56
FA8F
0864
F9E6
FE0D
02B3
FEA6
F0B1
FB59
EA9D
F6BF
0274
F036
F991
03CB
EDAF
0956
F956
FFC2
F027
24D9
FEAB
FE90
049B
0579
FC8A
0B0C
0895
FBD1
143F
03F5
F2C0
F1C0
0DDC
042B
0C0D
F579
02B0
0BD8
F8A4
0E7F
FC34
F52F
F7C1
08F8
0F80
1F0D
EBED
0571
FBDF
F913
F487
0919
13FA
0267
FF30
FE3C
0A8E
08A0
FC24
F8C9
0A28
0E27
EE99
0EA3
F327
F674
F67C
023C
FF22
003C
0340
050A
FEE8
03EC
FA39
0043
FFFD
0C49
0EE9
039B
018C
FD6E
F8E5
FF3C
0663
030C
FF76
012F
EBFB
FDFF
00C1
F6AF
F879
F90D
0D79
0009
FF69
1332
FBFE
E814
FB66
0BE8
F2B2
0438
007F
F202
00B4
F7A3
079C
0EB0
F03A
07AB
EC48
0154
FFED
0404
EA92
08B3
04B2
F20B
FE3D
F3F5
EFC5
0871
074B
030F
0614
FA8B
0283
06A1
088B
0A90
0476
037A
FEB4
02FE
FDD3
0443
0E3F
0A0F
0B97
FA43
0055
09FA
02B9
FCF3
01DB
0423
FE78
0269
FF0C
FC2D
FCC9
F70C
FDA0
FE96
01DC
0648
FE6E
FB80
0571
08D5
0159
079A
FF45
FD45
05C3
FDA8
FC1C
0200
FBEA
04A3
FF72
0769
FE50
06D9
0633
08F8
F812
FC17
FFB1
0590
F9A1
030B
FB36
07A9
0485
FD46
03F1
01CE
FDEC
F8D8
09EB
F8C1
05D5
064A
0230
0019
FE69
FDCD
06EB
06CB
0764
0211
0158
0A1F
FF4E
0726
0668
024F
0B4F
01FF
015B
03FC
0F33
FFDC
0184
05C5
F366
0089
03D4
05D0
00FB
FA6B
F143
0630
03FA
08A8
FBA4
0C6E
0358
FE36
0241
0414
003A
06DB
05A8
005E
09EF
0CD3
0CCF
FB11
08AC
05E0
FF76
06A2
F684
F4C5
07E3
FB32
EE9D
FCA2
FB70
FF3C
06CC
070B
0410
FE37
FD79
FEEB
F805
03B4
0B7B
FDE2
0221
0010
EB05
F8E0
F8CF
02E7
041B
0308
045A
0137
FF97
FA22
04AF
0795
0018
0239
F962
02D0
FE4C
070F
F842
FA75
F56C
FDC2
031D
FA6D
FBA1
F779
FE99
05E5
0833
02C2
FD78
0109
FB1A
03CF
05EF
F79B
028C
0254
0604
FBA0
08B8
F7E5
0100
FDBD
FA0B
0B5B
0BE9
04AD
00D3
04E0
FB9B
F87C
07B4
0401
0ADD
0421
FBB6
FDC2
0131
039B
FD94
F7F1
05A0
F8E0
0BD6
EEBE
0218
0C22
F31C
F9BE
FE09
FC7A
FEEC
0B33
034E
09A9
F986
FDFC
08EC
F797
FBD4
FD92
F7D7
FC3F
0AD7
FFC8
FA51
FA9B
FC41
FE70
0484
F9FC
FBCB
F8F0
083D
05D7
FFC1
02A4
0603
0905
0808
F476
004B
01E5
08EB
F5FA
FC01
FFF2
04D8
0ECD
FB5C
FDDA
0067
0566
0A3A
105B
03F5
FE0F
0531
F67F
0BD1
0210
039B
0176
04FE
0A05
0519
FCF0
06F0
FF1A
F867
FC14
FFE7
FB27
E8C7
FDE2
E260
04DA
0446
FB95
057F
FACC
0EE1
F5D6
0EDF
EABB
0338
00A4
FEE7
0718
0588
FDC0
FE16
F972
FE71
F392
0731
0825
FD3E
F7B6
F2F4
0DC8
00E8
F970
0D72
FD10
FDE4
0B5C
FBB6
F584
0660
07AF
F565
0713
F57C
F209
F7FA
F868
FC10
F810
04DB
F0B7
F375
014C
00EF
FEFC
FB0F
0304
F268
086D
FE21
F5AB
0122
F9A5
F80D
0051
03F5
F6AD
1120
F506
0512
FE61
FE3E
FB45
08F0
FDC3
F9F7
FE81
017D
F96A
FEE2
04A0
F90F
0B10
0831
0084
0BF6
0E3A
07CB
09EF
F967
F85B
F528
F83E
F804
01B1
0CDA
F819
F01D
0D9A
0139
FB2E
0CC4
EAED
FD15
F67A
EA7F
F565
FE39
FBDF
FCF8
00E8
1131
F6B4
F700
F8D1
024D
069F
FF27
FF4E
0A84
F001
0388
0F04
F8BC
069A
1099
013E
0F07
F8B7
F8EE
E43A
0081
FB78
1173
FB33
EBC8
E325
1248
0EC4
05E4
F859
0599
F2E0
0C07
2AB0
0626
FDF7
04F6
F754
F94C
E96A
FC58
008A
EB0F
FBAB
FCA4
F635
009C
EC38
FEDC
FB2E
EFE7
1014
ECD0
0742
0CF4
DCC2
0574
EF71
0080
0EA6
0C7C
0677
1403
F542
FD36
11E0
F6D6
0119
FA54
0BE0
09F6
F87C
F30E
FDFE
ECEE
0041
D6B6
1507
F2D6
00D0
D70E
06CA
101A
F89E
0B4F
02DB
0965
FB60
FBE1
0242
F4AB
0EB7
084F
0627
ED41
FF47
FF05
D123
1314
1906
0736
FC93
F0DC
E022
FE6F
1668
F0BF
1B25
FC09
EF3D
ED2C
EC7A
F34E
F055
F4C3
01B7
050A
E780
02C7
F3AE
FEFA
D86F
034E
0F96
F09F
053B
EDFE
FAAA
0BF5
F87D
FB4C
FFAA
0045
0975
011F
FC89
F352
F301
07FF
011C
F59D
074C
FCAC
FEFA
00A9
FB26
F91E
02B9
FD42
F9AA
F2B4
EF0F
0AFA
FC97
0482
F64E
0E68
0322
E7A9
FB85
00FF
FAB5
F5DE
F5CE
E74A
08BE
01DE
F202
F519
F169
0A48
0E2C
0700
EDB3
FCBB
F9E1
FECC
0847
FE51
F4EF
F9EB
0B48
092D
EBFE
FD16
069B
0B88
FCDE
F4DC
EEBA
0490
F47D
0A68
F77E
FC9D
0667
103A
089F
FFB7
0C70
F20C
02F7
0463
FCF1
FD6D
06AB
FFDF
0125
FE50
F963
05B4
0E35
07D3
FB47
0895
0436
0581
06E1
164E
F994
F3EF
F2EC
F5E9
F768
0179
F792
0918
F602
FFB7
FD50
0C50
FF10
FB40
FFCF
00C3
07B7
03C4
1160
01BE
FAB3
00D1
F8E0
F86F
FFC8
F0E1
F42C
0740
0AD2
FD77
ED93
FE16
0967
0EEB
F133
FB72
E718
0BB2
0AF1
FC8C
FEDD
09D4
0D45
F7A0
FA24
F9B8
023C
10E4
FF3F
05ED
0886
0ADF
F59E
0545
074E
08B9
F717
0E05
F46D
FBBA
109A
F0D8
0300
080D
F3C7
F6A9
FC8B
FA3A
0FA0
E58D
0FC2
FCAD
F999
EDD9
FAD6
F55E
F6AE
05ED
0888
FD59
FEB0
05A1
EF4F
F811
FFCD
0EC2
ECA7
FA50
0E1D
18FC
08D2
FA5D
F121
F41C
0C28
152F
009C
0D4C
FA01
0A43
F69B
FCE1
F4FF
FE57
FE2F
05B9
F1FE
FF51
F8F0
0138
F99B
F50D
F93B
05B9
EBE5
F957
F441
EBF3
E3AC
FC98
1067
FCEC
0A1F
FA69
FA5D
F689
F8B9
FDF8
FF2C
F6D8
0CB8
09D1
0A1E
0269
1477
FEAE
0420
F46B
F0E0
FA1D
016E
1503
F5C5
FA1A
0DAE
F269
EA4C
0A68
F5BE
FDE2
075D
F52A
0CE1
FEE1
F0BE
F923
FE9B
1356
1341
0420
F7D3
09C0
F9C0
01A3
02FA
F80B
01F5
1442
FC3E
0884
F9B2
F542
FA92
FB68
FC47
106D
0A11
023A
EBD4
0664
011F
0909
FBA9
F16A
0069
0EDA
FCEA
FE74
F3A1
F8B9
005E
0A52
001F
02E9
F19F
FABB
07A3
0743
F380
F832
0790
F3D4
F2C9
F797
26B2
F830
0E94
FB32
0FE0
FA5C
F99C
ECE3
15BA
FBFC
0050
FF02
EA92
F957
F519
02E3
F1D4
021D
FD2D
FDD4
0485
FF9F
FF0F
049B
FB39
FA21
04AD
F386
F8C6
F744
017A
F2E8
F020
0C7D
FA56
0EAF
F6CB
0192
F922
FFAD
F883
FB0D
0067
F71E
FE6C
F605
0759
F2FE
F6AC
F6D9
FB7B
01AD
F4A7
0428
07C7
EA17
0DA2
F9D5
FBFE
0E20
0349
F990
F483
017B
FB01
0CB5
FF72
FEAA
FA1C
FC81
0533
0669
ED97
F4CE
F5F8
05A6
00CB
EA2E
0249
F745
133B
EDB7
0365
0C7F
0A5D
F4AF
0A55
FCC5
E84D
0BA1
062C
0A55
E649
FE8A
0759
16C5
11DC
0007
0916
0BA3
0E95
F5EA
F509
FFD9
F9BD
0EBA
0491
F9D1
ED67
F9DB
E866
FCA2
07CF
E30E
0CC8
F959
0BED
04A1
0E75
06D8
F5D2
03F2
FAB5
0F85
12CD
F866
0279
07CB
FA5A
FC16
0B5D
EBCD
F6F1
04EF
FD1F
06C5
F1EF
07DD
0222
F107
F5E3
F425
EF08
F8F9
FF2A
1188
004E
F033
FE59
F7DB
0211
0275
03B0
0E1F
017F
CD11
E8B1
EF12
EB39
F080
0184
0BC9
1678
FE32
0384
EE10
0E64
059E
FD7A
FAE8
035C
0822
0ACB
05FB
0085
1730
05AB
F2E0
002E
FB2F
FF23
EDB2
FB3D
F657
F945
0413
0094
F2EE
0074
DED3
F5B9
1F55
0CF7
F677
F2BA
FE40
FCAA
018F
FF13
F2B8
0C9B
F35A
F7D8
FC4F
0F8E
04A6
F526
0517
E29D
EB05
E644
F29E
F9ED
FDB8
0E97
FE62
FDD4
FEE1
0058
FD2C
F636
FB81
FBAD
FC91
F773
E8E0
0131
028E
F60C
0C7E
E47A
0401
EFF8
E8B4
072A
FA27
DDAE
02A0
0363
F497
F697
0A6A
F7F1
0A23
FECD
EC03
FB56
F6FF
092A
FF18
0A02
FBF4
111F
025A
F9EA
F74D
F2E1
0D17
E7E9
0433
F303
E398
F984
0FE0
013C
FB5A
0779
EAF6
0064
D86A
F49C
F9DE
0F78
F9DA
01B7
F4FD
05C0
E9E7
FFE5
F3B1
E95B
1297
F7E0
0ED9
F588
0151
0184
ED6D
07EE
086F
EFE0
F2CE
E689
FB5F
F904
081C
05A0
FC5B
FEEF
FA9B
0058
09E1
F501
FB7D
01BF
08F6
FD3C
FCAA
0198
FF11
F96C
FE95
0A6D
FD09
0388
F167
F84D
F5D5
FC37
020A
ECBA
064B
F03F
E730
FD0E
F218
F6F1
F55E
0257
F41D
01D6
FE54
EB4B
F8A6
F56C
03A5
DDC6
F79A
F5FC
EA04
EB07
F4E8
039A
EDF4
016C
05B0
1A33
0274
07B0
FC1D
058E
0A43
FF10
EA45
0132
02BA
020F
0322
FF92
0AF2
F858
F27F
FE5B
04AC
DE33
F928
010C
F9A6
061D
0297
F410
FDAE
03A0
FB41
0822
FE07
FA6C
0149
FA7D
FF12
085D
067B
108D
FC7C
03C4
03FD
FABB
0854
0DDC
0326
F636
FBAE
F304
FA00
F968
0590
F9AE
FAD4
1118
FE05
023B
F854
0419
FC3B
FF56
FF8F
141B
0214
F1D9
0BE2
042D
0431
FD77
F738
0003
02AF
F6C8
0CA8
007B
FF86
0D36
07D4
FE4B
FD42
F94B
0AD3
FBD9
0393
FB07
0269
F87A
0E0D
FDAB
0690
0595
0487
FA0B
FCA7
FE8C
2087
FA41
0223
0658
F6A6
FBB8
FC0F
FEF5
02AA
0508
F949
FD08
013D
0022
FA3C
0723
0748
F70B
F980
07A6
00EC
F45D
09A5
07C2
F946
00AC
FAF8
F975
F5E5
F8B9
F820
F563
F738
08E4
0220
0B79
FAAC
F24B
00AC
EAEA
109B
F2A2
081C
FD58
F948
FD13
ECEA
FE96
0CD3
F1A2
00CB
F383
E7FD
0543
FBEC
03B8
0944
04CC
0EA2
F885
F684
1080
1154
0639
F597
F930
014B
FE59
F11C
FEC5
F9FD
F9E0
14C7
FEBB
075E
FFC7
00E1
FF9B
F221
0D7C
0BE7
F5DB
1321
0910
090B
FDFA
0CD0
F463
0847
F76C
0C0B
0112
EFB4
F467
E970
F0A0
F726
FE76
0910
F694
FAA9
FE39
FDB2
F36D
05D5
F39A
F294
F754
F4DA
F954
1443
F5CC
020A
03A4
FEE7
10E0
FB21
0C97
FE9A
08A9
E811
01AE
010C
E464
0FBA
E0D7
F3D6
FBCA
03C2
1250
E948
FBDF
0495
F330
F6C6
F8A5
FED6
1730
0965
FAC1
F0FA
FC5C
F2D2
08DF
0324
E44F
11D8
F3C4
E92A
12DD
FD0C
03AE
109C
09A9
F149
1132
0C23
F5AD
0E54
E4FC
F71F
01EA
F74D
F348
F1AF
03F8
01F0
FB28
FEA6
E6B6
0C05
0003
07E7
08D6
EFD1
01CD
F5AC
E9B6
0AE3
1859
F878
FE0D
EC06
0F4C
0A76
E5EF
FC23
FED4
FB92
FFD8
FAE0
E8EC
0070
FB9A
0AE9
F054
F331
EFC6
16FA
0323
F6A6
F891
F0B9
0B39
1D55
F93E
056E
0B9E
0DDB
042D
0B39
1034
0597
F6EC
11C8
F3D9
FEF4
FE46
FF35
FA8A
100B
F8ED
094E
E907
F5BD
0115
FDEF
F32F
F439
F220
14B7
FFC5
05B7
FE23
03F7
F21A
0439
FD29
0EEB
0711
FFF2
0912
FAEF
0794
E3FD
03AC
EB02
FFDC
0A12
0EF7
08F1
FD4D
FD99
F424
F3FC
E0E9
FFF0
00BF
002F
E8A8
F6AB
0559
EDF3
0B66
EC59
FB37
F3CD
062B
FAC7
0D46
01BC
FBE1
08A6
1874
057D
0461
0690
1374
E8D3
EEA6
08BD
FC0A
060C
EC0C
F439
028A
FFEA
07F1
EFA1
E8F9
0CF2
223E
0EAE
0A41
0F04
F0B0
FFE6
0A54
FC7A
E53C
FD3C
FA95
091C
FD47
F4B6
0DAE
E43B
FEA6
08DA
F55B
0059
1836
F121
02D1
03FD
FFCE
FE85
F5CA
2341
EEE1
00D0
F028
EE2F
10D3
0977
E773
F61C
FEBE
E859
03CA
F0FB
F93C
0956
05A5
FFD4
0144
16EF
0738
FA31
0018
F2C5
FFA3
0927
06E3
ECF9
FAD4
0038
F8A6
E0C4
FD00
FF01
E928
013D
0CE0
02AA
F71A
F02F
0EF2
0FAA
F972
FB14
F6CA
E19A
ED6D
F4CC
F9BA
DEDD
F818
ECDA
F122
041D
11ED
0848
EFA8
097F
0142
F83C
F515
012F
05C4
FCFC
F759
0B0E
0880
FE5F
FBCE
F760
FE8C
1577
0BE6
E4DE
FA3B
F43C
F941
F83A
F787
04E6
1732
F8E4
FFE8
07E5
08BD
E992
E4DD
0116
F7C4
E9B7
F24C
F82C
F69C
FC29
F197
F3B9
FECA
0924
02CF
FC83
F386
04BD
F5AA
ED7D
F892
EBA2
EAB5
08F5
EEF6
F521
FFA6
F7E0
FA13
02BE
035D
065E
F4F6
F15E
F2EA
0315
EEED
E952
15D8
0324
E620
0B85
FECD
F82B
FD95
F15D
FCDD
FC01
0B34
FDA9
0DB1
FCF0
F8A5
0167
0B6B
FE28
E4F2
1696
12FB
F79B
081C
0265
08CF
F592
F8A1
1711
EFD2
F4D7
0703
0C7E
DBDE
0471
0EF5
0508
0863
F820
F885
05C7
05D7
F49D
F136
F65A
09DC
ECE6
FA9A
1CD7
F4C2
09F3
F806
F6BF
FD95
1760
1174
0BB8
F28B
FFC4
061C
F30C
0050
EFD2
FC17
F6C7
028B
F972
028D
F82F
065B
FB7A
060C
0212
0F9C
FA66
FCC4
FADF
24C5
095B
013F
07A7
F72C
0D3E
0E09
E386
F914
0362
FEA8
00F0
F438
0969
FF85
FDD4
F4A3
02E0
EC5A
FC96
110F
FFCA
F5F2
ED42
F8C8
FDD6
F8B7
FFDB
F79F
EA2C
0759
EE4E
10EB
0B6D
F81C
FF97
E2F4
0DF6
0391
D86A
FD2A
04DD
F333
EC99
00D3
1334
FBFB
20F8
DF64
03E9
023D
F6BD
EC55
EC81
01D6
0886
F8FA
0CB9
F179
0B2E
F400
FB98
EFAE
08BA
FE61
029A
0746
FB23
EEC7
02D0
2384
ED01
E2D1
02BD
0E39
FA86
EAF0
F4F2
0710
F54C
F669
F574
F0B3
02F1
FDB1
0988
042F
07F6
F209
EF03
FCEE
F36B
F470
0179
ED4A
FE62
0E3A
F75F
E7A2
EDDD
0817
09C8
E59D
FF2A
F7C6
0BA5
F664
FAFA
0568
03BE
0A61
E77E
0612
F7F0
F3ED
FB5C
08B0
1046
EFCB
F7AA
EA29
043D
FD05
FEE7
0ADB
F004
F76B
FA4D
094D
F669
09B3
02FF
F606
F8BB
F1A6
EED9
F89D
FF7A
F825
F156
FF8C
F490
EB24
EDC6
02E5
0220
1174
FA41
EBE9
10B3
FDA4
FB96
FBEC
0D3D
033D
0286
EB3E
F05B
0F0C
00E7
FECF
FB45
0174
FD35
FFFB
056B
05B3
0D77
1097
F903
03A2
F5D4
0546
0F5D
EFB9
0017
FD4D
041C
FD28
F7E6
0D4F
F0F8
0284
F87F
F82C
EB13
1607
144F
09B0
F96A
09C6
0542
F380
F77B
0424
01C8
0C5D
08E5
120E
0325
FF4F
02E5
07BC
FF74
EE35
0B20
00EA
0E04
0545
10F9
0B22
F937
1CD5
0138
05D9
FA53
F65F
F7DA
F1CD
EC6E
F27A
0B23
05B9
0F30
0EB5
2376
009A
F0E3
0AC6
F239
12D9
FBA3
FD9C
F23A
FF6B
0965
0953
F95F
F642
08DD
F398
EEB5
0811
02E5
F837
0300
FEB1
0399
FF4A
0143
0015
EE3B
04EA
03E6
EB13
FD1F
F6E5
FDF8
F447
0542
F820
FD5F
02EF
02CB
00F5
0134
01B3
FCC3
FEDB
FEB9
E9D6
0149
F743
11A3
092D
066D
FB71
0D0B
FEA8
FE69
0314
FCAF
FDB0
FB82
1361
F153
F819
FF73
FF9D
02BB
0DC0
FCF3
F612
11B6
027B
FCB1
0F05
FCE2
06EA
0899
FA85
0581
FAA8
0FBC
F215
0473
0058
F13B
072E
02CC
0E87
FA90
F8B7
FA97
0ED5
FC8C
0667
03B2
04F0
FAB2
FB3C
F60F
0FF1
05C1
03BB
07EC
F680
01EE
EDC0
01A4
FB88
FD3C
FA9D
F19F
FF66
028A
0263
0FF9
F355
04E0
0AE1
00D8
F56E
F83C
F0EF
0B66
FCC0
F3A0
FD2D
03DD
0634
F40F
F78E
0352
F072
09F6
FBFC
F2B1
FA5E
07DA
0758
FE79
FB15
02E3
F84F
F684
02A7
F729
F8DA
F879
ED6F
02A3
FDD5
0B29
FBD8
0638
F371
F558
028C
F86A
F2FB
020A
0514
010C
FB54
FD8D
F78D
07D3
059F
FD8E
F894
0748
F39A
167F
1274
021B
E855
0C5D
FBEE
096A
F438
FDE8
EB80
F6FF
160B
F628
FA08
0AAA
E957
F67A
F6DF
0596
00C9
ED52
0650
FF0F
0038
FFBE
FCD2
0D3E
E8AA
F97B
0436
ECFE
0527
EE18
F988
F406
0022
0135
03D3
FED8
0354
F9AB
09ED
FCCD
FA47
0582
FC92
FFEC
00C6
FE57
09CB
FF3A
FD50
FCF6
FDCA
04A5
0AD3
04E0
FB2B
FF01
0629
F97C
FDAD
FAEE
F7B9
FDD9
F080
0119
FDB7
FB0C
0A78
F7F8
FEE8
FCC4
FD93
0310
03E5
FF36
08F4
0005
FA23
FDEB
F519
FE26
EF07
FAEC
0452
0396
F159
FF2B
00C4
FA4A
F748
0518
FE6E
0127
0A2D
F57F
052F
FDA0
FF09
0780
F7ED
01AB
03C6
02DF
0C5A
0506
0233
1773
083F
05A0
0209
F63D
FE21
056A
FA18
FAD0
FE89
0568
03E4
FE23
FF16
FDA4
F79E
FF66
F987
F45A
FE03
05B3
06B7
F474
FD72
08E5
F981
F95D
186E
F483
F91F
0059
FE83
00BE
FDF1
FBB5
0116
01B9
07C9
FB90
FD36
F71D
04F8
164F
F060
FE9E
111C
0685
ECD3
F893
DB64
F817
00B3
006E
F929
F5EA
F069
F946
0AC7
02E6
047F
0556
1053
0730
02C0
0E2D
F680
EBF4
F4D0
FA5F
0F2E
12D9
FFCB
1449
11E6
F95F
FDBF
FACF
FE72
01E0
FAF7
F19A
0699
F325
0103
03ED
EDFD
05A0
1800
FF2B
EECD
FEDB
EF33
F6AE
02FD
FBAC
FB38
02AC
0D59
0C4F
02AA
0602
F5FB
0956
F134
0178
01EF
FFC4
E97E
F864
FEFA
EFEA
FFD7
EF87
0A14
058D
FA84
0988
0AB8
F6C8
F699
0204
F4A3
F884
F917
0AAD
08EE
FDE7
F1D9
0811
F9F2
F800
0DAC
0452
F044
FCBC
F5DF
FA2F
003F
F7EB
0CE3
092F
F56F
F998
FBB5
02EE
071D
08C2
10B7
FDB1
FFD8
0258
0187
04B8
F5D0
05D6
F58F
0125
01A7
E773
0055
F98A
FB1F
0D90
05CD
F3D7
FCB0
FC29
F102
FEC3
014C
F6D3
0783
05E7
08C0
F62E
FE30
08BC
0C5B
0039
FECF
E6AE
F090
FC55
FCDF
FE1F
EBC7
0BFF
0BC9
F45F
F58B
12A6
F34A
125A
0E78
047D
FEF8
07E9
F4C2
FE93
FE0C
F644
F1AA
001E
FB20
0931
14EB
FB17
05F4
0D72
02C0
03F3
FFEB
EDBA
2169
03D9
FB25
F727
FDF2
EA6E
F778
FBB0
F37D
F59D
0DA3
F557
F9D5
0626
FE65
01C2
0DBC
0576
F7B0
039F
0307
F476
02A3
F0C1
F43F
2E3D
0941
03F3
F96E
0801
0A63
0B9A
0254
08C2
04AF
FD3F
F42A
ED33
F605
0798
F892
0260
011A
FC62
0188
0181
FBB2
F8C4
F8D4
F0CA
FF65
01A8
FF14
0552
0232
EE08
078F
F89A
001B
045C
F917
01FA
FFE3
F93C
0F0E
F6DE
EE8B
EC0C
F8A0
FCE5
F57C
F644
FE3F
FEB1
FB86
0870
F20E
F7B0
0A17
F966
0CFD
0C8D
01FA
FBD8
FAED
F6F0
F3C0
EC5F
033C
EC2C
0CDD
0A76
FA28
F453
0406
059D
FA46
F196
0DEC
ED1B
0AFF
0E8E
E7B5
0072
01DC
0843
03C3
F68F
0126
F500
FA66
FE5A
EE42
F6A6
F47B
FA3F
FE4B
FFD0
077A
0E2A
FB7F
0DD6
F89C
F55F
0786
02A5
F0FA
EA08
EC94
F761
F721
F2AB
F992
EF85
0C84
FD70
F989
09D3
02D2
F90A
F739
FFBE
F69D
1386
F2F0
0FCA
00E9
026B
0A34
0049
EC2F
F84E
0E07
ED8F
F4BC
03CC
FAAA
FF7E
02CE
F2A0
00BD
E142
0050
FD31
F725
F97B
0D8F
040B
FD80
FEB7
FB50
FFD5
E65F
FC55
F5E1
09A3
2195
FA89
048C
FEC0
FF54
F0B8
F987
FD44
FE15
055A
0427
F460
F9BB
F803
058E
1129
FC52
097D
EA8B
FA4F
ECAD
EAFC
02F5
0914
FC3E
0540
DF37
FBD9
FEDE
14A8
F2ED
F42E
FF4D
0B06
FCB7
F8A8
097E
09F6
FAE5
0256
FA82
0BA4
EC6D
0A58
F83A
F9CF
F282
FC16
0051
0950
F7AE
F3CC
0512
F4DD
F8BA
04F4
EC48
FF60
F5F2
0D7A
FAB0
EC3C
05C4
FFDB
FF52
0646
020C
FBA5
F369
E7AF
0B6A
0464
FBEB
F87B
FEC6
EF4F
F06B
EDDC
E15B
011C
FD1A
FB4E
1369
052F
FEEE
F6E0
06B6
F358
00F4
F10C
EC23
1463
FA7B
FD02
EE95
EA4F
E564
00D4
ECAB
FED9
F1D4
0289
F310
FD5C
FF28
E191
EF8A
F1C7
01EA
FDD3
F932
101E
F6EC
FF1C
0BBB
1806
F8D6
F6BD
118D
F582
0571
0608
EEDA
EA5F
E6DD
0663
FBC6
0A0C
F7BA
0536
F413
0662
FF33
0E36
DDD1
090C
0BA9
F46B
FC0D
06B7
F9E1
FDB3
01BA
F82D
F793
099F
166D
FF09
02F8
055C
FF16
E9A0
FEE8
EFAE
00A7
03DE
F7CE
0739
F1EB
FB69
04D5
0015
1055
0349
0214
E317
0565
091F
F73A
F02E
03A6
EDC7
F186
01C4
FA16
07AF
F74B
0296
F072
F706
FBD5
EB07
04CE
F516
E517
01AD
F2DD
FD34
035E
0434
F47C
0132
11D2
F4B7
FF95
0196
0005
FDD3
FE76
F1BE
FDC5
1184
F9A5
FEFA
0488
01ED
FBE8
0A8A
033F
1334
F2E1
1BB6
E974
EDD3
045F
F878
0F3C
F618
F118
058F
07F1
FF26
05DD
F18C
FCE7
0765
F3A4
0B09
FCEA
FBE9
E4C8
E7AD
2266
FAF0
E3B0
FE03
FAC7
04B6
FD98
0B64
01C4
F739
0B03
0386
FFD0
00D6
05D0
FDC0
F849
03B5
0E89
F701
EF63
F449
F396
011C
01BB
0C14
F3F9
FDA4
F0ED
0443
FC2C
FEED
F5F2
F68F
FB2F
FD5E
FD9D
EFFE
F0AD
03E1
01AA
111E
0516
FC75
137E
054B
039D
0A52
F916
0062
0CB5
0B31
0042
F169
EE8D
FB8F
0247
12D4
FA57
0482
08C2
EC17
13FE
FED4
FF1B
09B8
DEB0
E9CA
F3FA
E539
FF1A
0324
0D99
FBA9
F278
11DA
FE16
EF58
F78A
F110
F2B9
FB34
00FE
01EB
0553
0BF9
0AB6
007C
EB3E
013E
F364
0350
07A0
F8DA
0399
F597
FC2F
FD3A
F2CF
EF24
0052
FF9A
FDFD
0D91
FFDA
F83F
0A02
0441
F56F
F3AF
0ADE
FEF1
FB70
05A5
EEEE
0227
02DA
F3F7
08A0
0C1F
0084
F3E5
103D
F3FC
08EE
0528
F972
09D6
08E5
0417
FD89
0610
11C4
0BA6
F66B
02D6
1142
2012
0114
FF91
ED2B
0A1D
047D
05FC
0238
E697
EEDD
02F7
F2B4
0710
E901
F28C
EF99
F57C
0BEF
08AA
01DC
0585
FE44
FAEC
EBC8
10F3
EE20
F550
FAF1
F181
07E4
F437
FEC9
F5F0
EAEB
040C
ECB8
1627
F177
EA64
F600
01D6
01DC
09EA
F7C4
1796
FA13
E670
F109
0A34
F616
005F
01DE
0573
0978
046E
F4FF
01FD
07E5
FB98
053B
FAD1
F941
0672
06A3
F4D9
09B1
F86C
F1E6
FAD9
F5C5
0C7C
F38B
13A7
0053
F87F
F504
0558
0219
012C
F4D4
FDC6
FD69
F6BA
0625
0F63
F8EC
FA77
F338
ECFB
04F9
F54F
F89D
FEEA
0129
0921
04F6
014A
091D
036A
F63D
E992
0416
FA36
FBCE
0904
041E
FA5A
F429
FFC2
014E
F4FA
FA54
F753
005C
0E99
084B
0B16
083E
1480
022C
FC35
F82E
056D
040B
FFB7
07D4
0D45
010F
FE76
F687
08C1
F3F7
FECE
FEB2
EA68
FF19
FEA1
06A0
0A2F
0301
0D9F
0429
FFE4
0750
106B
FD88
FFA9
03B1
0469
FEAC
FE51
06B7
FC26
005B
F88D
0ACE
0F4C
FC52
0173
FECA
F480
0E73
06C1
F787
FAF3
0FD1
FB9D
ECF4
00B1
F31E
12EB
F847
F6E0
FCC7
0386
FB5B
E353
F148
0012
FD22
FA2D
F4FE
00F7
F20C
FD79
03D5
FE36
FEAC
FA82
FD9F
0815
FC4F
0090
F84C
008F
077B
FC20
00C6
0198
F8A1
FE54
F7EB
02E7
FB98
FF60
FEE0
026D
0413
0154
FDF8
F91C
052B
0050
F60E
F26C
FABC
FB64
00E7
0536
F4F1
FE19
0278
FC65
0118
F761
FC96
0293
FAF2
FD68
F77C
0079
03F4
F7AF
F93A
FE3F
F6C3
FBC7
0417
012E
0A71
02C1
FA64
00E4
0179
FA6A
FF34
FB93
FD68
06A0
0195
FCA9
064F
014C
011A
FADC
FDD4
058F
FAC5
010B
081F
0683
0211
F493
FBE4
00ED
0053
0A22
FC45
F047
0185
022C
F95B
038B
FEFA
F961
034B
033A
F5E3
0C4E
03A1
FE63
F0CE
FF8B
039C
0B6F
0555
09E1
FCC8
01F0
F8F8
0350
FA76
0161
F94C
0AD1
F5DF
03B6
093E
FD1E
FA61
0A20
F72D
072C
0722
FDE3
0391
00F3
FF3E
FBE9
FC79
FB29
FF4E
FF2D
FE4A
0B54
0271
0FFD
060B
F90D
FB5B
0413
027C
0073
EFCF
FE25
FE5F
F1DF
F535
E750
FB6D
F6E4
F999
0602
0C3A
10FB
FCEB
FE92
F378
04DE
01F9
0FC7
0B47
F89E
F775
0756
13BE
FB97
E964
01E5
0779
0907
061C
F54C
03A5
FAE5
0FB0
F462
F98A
F358
FA8F
FD4B
F705
FE93
F423
FE49
F600
FF06
FF33
FF8C
EF78
F3D6
02C2
F273
F0DC
0313
F9EC
036B
F426
03C5
FC21
FDF5
F642
F681
07C8
FFF3
0AEE
F465
FAB1
FB8A
010D
09CA
FB5B
06F7
07E9
0CC7
01C0
FEB3
04DB
1424
FA68
0B08
FA73
05E4
0170
0116
FB44
003E
0430
11CC
0AB9
0084
017D
06D9
F755
F865
FB43
F730
FF9A
FDBA
0098
0168
0F94
FECD
FA71
FE99
19D0
FC70
F6AE
057F
04DE
F67E
0752
0D2D
09F7
0433
0EEE
FDE1
F057
F9F7
EF5F
F7B3
ED61
F69C
F7DC
10B0
F58C
F0E9
F565
FF0C
F1E1
06F6
FFFC
09B3
0E4E
FC4B
086A
FDA9
1A34
030B
ED0C
F5F0
FAF7
0003
F701
F24C
F352
0759
1712
FC2E
0625
F5EA
F5C2
F83E
FAB3
051C
0520
FE6B
0F21
0147
1134
0EC3
F304
FEAC
0CA4
E9DA
0F8F
F850
FAA0
0863
F796
FF0F
01DA
08EB
111B
148A
08CD
EF7C
09D5
0358
0901
EBC8
0EB2
F4A5
FE56
01B1
FEA7
0AEE
F714
F147
F904
049B
1F8C
024C
FCF2
F8EF
0524
00CB
EA00
0241
F8CC
F644
FBB2
FB20
FDF3
EB0F
F6EA
0AF6
FD41
135E
F865
14A3
ECA0
F929
0437
06AE
FA57
ED36
ED7B
E5BA
FBCE
0333
EF9D
F639
0FC6
F302
FE87
02CF
F905
02AC
FE49
F068
000D
FC96
00CD
FCD8
035E
07C8
FD1C
FE33
F7A8
0231
0653
F788
0BCE
F561
FE6E
F668
0115
F9C6
F66B
F397
002A
FAB1
0A20
0091
FDC9
137D
0B49
F6C8
0ECB
13E5
F454
F3FC
0E1E
F6E4
038A
0C1A
F783
0DCD
0069
F6BC
0618
F504
F71A
FA8B
F43D
00EF
09B8
F896
F888
F83A
F65A
FB99
017C
1027
1AF0
0AB2
FB8B
FB32
F93F
FD94
0DDB
F47A
FCF0
0F7E
0BDB
130F
0C3E
FD6B
F746
F237
06B2
0404
0C6E
074E
0648
F62E
018D
0EB7
F8A8
0E99
F738
0A60
FB0F
03A9
F3F5
FC84
036C
09F0
FEDB
FB85
1188
0B66
04C4
F272
0075
FCBB
FF3C
0044
01BF
070A
FFD4
FAB6
FDFE
E955
FA54
075A
0B79
FEC2
0A8B
FBED
F85A
02B2
F9EF
04A0
FE72
FB66
0321
07DE
0640
FBAB
FE63
FE6F
F3CE
0216
F673
0231
FB8A
FACA
F128
08BD
F9CB
FEE0
1BE3
F6D5
F42D
FD59
F932
EF79
FC6C
FBFF
09DB
F8F5
F026
0345
131E
EE54
D883
03FA
F8CC
FACC
0A36
EF29
0CF4
03D2
F2B4
FF09
045D
0307
E83D
F4A2
E7E8
DE1F
F462
F6E1
FCB2
05A1
F86B
FD1D
FD32
ECFD
FC9E
0C51
13C2
1386
FCA9
F93D
0E1B
FFC2
FAD7
FBBF
F6D4
019C
E24B
F08B
EF39
FD91
FA7D
FD40
03A7
04D5
F79C
0380
0C06
114F
F6F0
F9B4
EC8F
0189
03CA
0797
F8C4
F355
FBB8
E912
F759
EE35
FD7D
1387
026F
F9B1
FEBF
0777
FCB0
FAF2
0F5E
FA9E
FBDF
11D9
F13C
0542
0DDD
F8A9
FEF7
070F
FB15
0672
0FFA
06D6
E6FD
0800
10BF
F367
FD61
F065
F47B
0467
F5C3
0302
003B
F097
F6C4
F931
20C0
FA41
FAB1
0800
0CEB
FBA8
F9E2
0669
0C27
189C
F735
F7C2
EEDB
067B
150E
08EA
0AB5
F873
127B
0CAB
FF6A
0B6B
0069
F96B
FFD7
F866
0150
FDF2
F75B
F968
05FC
00D4
049D
F5A8
FD6B
FF73
FDD5
02DA
FE28
F3A0
FD9F
F546
FBB3
0D23
0713
0009
F1A0
FA77
FB54
FD66
FD7C
FFE0
0680
01A4
F685
02FD
05BD
047E
0017
01C6
FC5A
F689
F789
01BE
F751
FAF5
FAAF
F781
FAFD
FF71
0012
0BCE
010E
FDA5
0E72
F6D7
FE67
0395
084C
07FB
F6A6
0445
065C
FDC4
FBC7
FFF7
FC49
0D70
FFEC
02F9
FD45
040E
F872
F923
FEA7
0940
0229
007C
062D
F8C7
03AB
F350
02CC
0288
082D
0001
04C2
012E
0588
04E1
0685
FFE6
FCE7
003B
FC5C
0049
06D7
F48E
F3CC
1029
F75B
05F5
F374
FCE6
FAB8
067C
FA48
FC56
0616
FE92
FCB0
F4DE
02D9
0079
FE17
F78D
07CF
05B4
095E
FD2C
F3A1
FB6C
FC76
04AF
0447
075F
F5C1
FA8E
FE66
02F5
0B9B
046E
F753
F8E4
0D07
F96E
02F9
0173
0875
F44D
F82A
0D41
F401
F84B
FCA2
FE3C
FED9
FDAF
07F1
04B3
EAE3
FAE6
F1A1
11ED
3301
0796
06EE
176F
EFD8
0312
0D0C
FA3F
F31F
1E92
03A9
00FB
FE3A
0273
E803
F00D
F38F
E837
01DC
FBC3
F217
0FE2
1773
F68C
F2DC
06C5
F5DC
0B7F
F346
EF1F
0466
FB4C
0325
0270
129D
06EB
F11C
049C
FCDB
08CF
F4E5
F6AF
EBC6
FF72
EBD9
EC05
FB90
0B61
1DC5
EE01
EF05
ED13
EE56
F5D9
F8E9
05E7
FAC0
0002
F8E3
FE59
F5DF
0C7D
0C65
11CD
F963
FF60
F9D0
F3C5
FB5F
FBF9
F327
06F2
11D0
0603
E9B8
038A
0AF7
07DF
F424
0040
0C33
0938
0AEC
FA0A
F6DB
00F1
03E9
0C81
FEAF
095E
028F
0CF1
039B
07CC
1273
ECD6
F7F0
EC77
F677
FD3B
F4F0
0B15
F5A9
F928
F872
FF6E
FB53
FDEB
0076
02D5
05AD
F8A2
FDE4
F152
FD30
FDAA
F1CA
F15B
0699
FBA7
F046
00DB
EAED
F748
F80B
0096
FA3B
F761
DB5A
F24B
04F7
F8C6
0BDD
F5AD
FE58
064C
FC3D
0423
0067
0258
F6EC
F764
08A2
F552
0D83
FACE
0B72
FB7A
F58D
FB46
0378
02C0
F36D
04BE
F217
FEE6
F6C6
0CE5
FA7B
F0A6
01A3
17A3
F993
FA8C
FD9B
03B9
F6B1
FB29
0D86
036A
E1D4
FFFB
09AF
11AC
E825
F54F
FA41
0B2B
F42C
F7D8
08CB
F365
FB6C
FD8F
E717
FE92
0D0F
FAB4
0D0A
F7CD
027A
ED32
EB40
0923
05A9
0470
00FE
F977
0E21
FEA1
F24F
E825
F6FF
EFEF
F865
04C2
F33E
FA52
0439
0DB9
0165
0098
0D95
FA30
EBAA
129E
F888
0CA5
14CE
EF26
ED97
FA9F
ED08
FEC9
F4C2
FABB
F81A
ED11
1520
FDBE
FB24
F75B
F261
0A79
019E
08DC
FB62
F573
0143
FF75
F82D
10AD
07B0
FA04
2C5E
062E
02D7
FDB2
FA46
0AEC
034D
0966
F2EA
FA87
FEF7
0756
E140
F5D2
016E
03DE
FB6C
01A8
045B
F967
04B7
F7F6
03EE
0871
05C0
01D9
ED04
FA05
09C5
FA11
EEEC
0836
023B
FEF2
FFD6
F9DA
05FD
010F
F840
FEB9
FD85
01D9
0B05
FB93
0679
F32A
0A5E
107C
FDBC
0DF0
F945
F7D5
0608
EE98
F10E
F96F
0353
F423
F639
01F2
0E19
01BA
F3BA
04C8
04D7
0580
FBB5
FDA2
142D
0A9A
08D0
FB46
FDCF
F360
02FA
05AF
FE6A
03C4
F9F3
FCEE
03AD
0008
0C4A
1244
067F
05B3
FF49
F1A7
FD95
F1F8
EB02
061D
FCE2
05E9
F96D
009D
FD85
0520
F4F8
0B4C
00D4
0165
FBFD
0B94
FE23
F688
FD78
0475
FEBF
EE38
FA24
FD77
0441
F4DB
0270
0770
F367
01AB
0098
00FE
1930
F8D2
12D2
E381
EC00
FA79
149F
EA5F
0AEE
F7F9
F120
028A
FB83
0FBE
149A
01A2
ED7C
E073
F1E9
F240
FA3B
0364
0818
F848
0636
E8A3
DCFD
FE18
005F
F562
0964
0274
D547
0CC2
1751
EFAC
102C
0140
0CB3
0AD6
F549
1E15
FA8C
FD15
EF0B
0EDE
087A
00BA
E195
05EE
0611
F097
0155
DF9C
09BA
0273
0279
21BC
FCBA
D0C9
0AEA
FC39
0112
1EB9
0A87
F003
FDE6
038F
EBEF
146C
F054
F697
FDF4
F560
FA27
F378
F5FC
0206
F52A
0138
FD54
F373
FD76
FAF2
0461
DFAB
127A
FC50
0AC6
F18D
FF48
024A
0A13
0A75
0546
F364
061F
F195
E2CF
01A4
0690
F96E
179F
FECC
FB14
2242
0D46
095C
0D88
EB90
EFBE
EB2C
1FA5
0C48
E1DC
0C1A
0037
EF84
0905
EAD4
FC8E
F9CE
E03F
0A25
F9DA
0FB8
EDA9
EF3F
06B5
015C
12DE
FF82
F6FB
FF30
02AB
04DC
047B
F401
F528
FDD7
F7B5
F705
1BBB
0B8C
0302
11DD
022A
F901
F3C8
FA5C
FF6E
0645
0BA1
0B5C
F6C6
01C9
FEEB
0AF5
EED4
F526
EFEC
F988
FEBC
02E3
0182
FA1C
143F
0CCB
F838
FB5D
F944
0C14
064D
FFC6
1193
F679
FDFB
0B61
FAE6
F4CB
F5D5
069E
FFDF
FC43
F6FB
0A18
F893
EBF8
EEEE
EB29
FDAC
EB47
FE75
FDAA
F302
152C
0326
FABF
FA60
10AB
0000
F556
0425
FDD2
03D1
089E
0D04
0BBD
FE12
FE63
092D
095D
0180
1149
19D1
0750
0FB7
0E04
0274
F410
E61B
FD74
0133
FD85
EE7B
FFBF
08E3
EF63
F884
F6CB
FBEE
0067
FCCD
F3D0
0C7B
F9C4
0AE2
F3E8
FD49
16FF
004F
074A
1BBC
FA9F
ED37
03F9
01F3
0D67
FAD6
03E6
0285
0D8C
1E5A
F778
F54A
085E
08E8
092C
EE4B
FBB2
F9AC
0C04
FC7C
F85F
0238
0757
FE5D
045D
FEB4
0120
FE39
F4FA
F7C6
F800
F809
10F2
F147
FD66
F52D
FEAA
23D5
F71E
E6E3
1136
0052
FEFD
049C
0371
FDF8
05AD
FA54
08F9
01F7
094C
087D
038F
ECB7
1783
FEB2
0189
0761
F9E6
FB59
0C29
FC9E
04F6
09F8
F315
FBF3
0BD3
FC58
057D
EDD9
0656
0181
0DA1
056B
FC55
FA7A
FF5E
EF2B
FE8D
03AA
0800
12C6
EE19
F843
FD4B
F025
FAE5
FC17
F2C6
0774
FBFD
EE4F
0883
EEED
F56D
FC52
0262
EF39
F810
EA28
00C0
F4DD
F354
F96C
FE46
F28E
01A5
EDC1
05E9
0946
09FD
0001
0113
0F20
014F
FA1B
025E
0C42
FDA1
F9EB
FBF9
05CF
056C
EEB0
0C6A
FEEF
F89C
F560
0D07
018F
FAE4
09E8
FA10
08F4
03C7
FE46
F50D
FD82
1041
03A6
FE16
FE13
F9B7
0738
046F
F70E
23C9
07E5
FDE9
0589
FC3E
0063
EF0F
01C3
042B
F615
022D
080E
FE0E
F170
0AE3
EA41
F7EE
F97C
FF87
0321
FA9E
F96A
10E7
0B7B
FC55
FB6F
0104
F629
DD36
107C
EEB5
0251
0257
F9A1
05F0
01A7
F287
12BF
078E
F531
00DB
0F85
FA58
0762
F24E
FF3C
F6B0
FCBC
F222
114F
F232
0CA4
07AC
06BA
F046
F0A8
FCA7
F380
069C
FEDE
FBCD
0150
FF05
0500
E90F
0314
F3F2
FE9F
02C5
015F
0EEA
FB8B
01FD
FD85
0456
FEDB
0AD6
0DFB
EECC
F99A
FAE4
FFBA
FFDB
FC8D
F571
0EB5
0CD1
F0FA
1222
04AE
FEC0
11D3
0368
F99F
F701
0606
05A5
FDE4
0073
0A61
0207
ED05
FDA9
ECA4
F63D
F6D5
FCA8
02B5
F3CD
FE85
0832
F1B3
F85D
0C4C
F9AA
27CE
FBD7
E18A
FC3F
FD5E
0B25
FBDA
0336
05B0
EF93
FF75
FD15
FDEA
F611
0253
F647
FC51
FAAD
FB30
0143
0C7E
0005
0F2F
E6A4
0462
E920
1710
F2F8
FBA7
E9C2
F720
E984
FA59
E46B
F8AA
03FE
00C7
0908
FAD3
031E
06FD
0068
F9F3
EEFE
112D
FBAE
0269
08F2
EAFB
F1F4
0273
F883
0370
02C4
F98A
F42C
0705
FB29
0820
FD63
0844
F1FE
F89F
EE95
FC00
F362
FCAF
F2AD
E055
F811
F140
FDE7
F111
04DF
FDC3
1769
1749
F062
F05D
1385
0B6F
F91A
00E7
0AED
D18A
F6E1
0DF3
FB9C
F6E4
057A
F725
040F
FCDC
0055
EF28
E039
EDBB
E8C5
FEED
0796
EC6E
FF6C
F825
F707
F862
FF7A
F81B
02D5
10E9
FE1A
FA73
FC39
F68F
FBD6
056E
11BD
EF16
F27E
F523
0488
FACC
F784
F4E2
EDC5
F701
18E1
F98E
F88A
0D97
02E0
E3BB
E87D
F12C
F80B
0C80
FBBF
FFA2
FD82
0F9A
FEE5
0BDB
0DF9
F9C4
EF3D
10A8
037D
F86D
02A7
009E
F661
F342
0B28
F39B
F9A3
F73A
F68C
ED25
F24B
F86E
F2BB
00E6
FBFD
036B
096C
F783
008F
F27F
FC70
F1EC
02F5
FAFE
EDDB
0988
0902
FB85
FE01
0352
F8AE
0C64
04D9
F2A6
F916
0C42
F69D
04AB
F99B
17F9
130A
032B
052C
0AB8
FCE0
00D8
00CE
FE4F
06D7
F9B0
0254
F8C8
0849
0669
F9C6
038C
FC8F
FC6E
F580
FB93
F415
06E8
0F67
13F4
F24F
F1D8
00AE
0A13
0C3C
0221
F3E0
0106
F522
FBA6
01E6
FBA7
EA35
FE52
0273
FFE7
FFAF
EDC4
F75F
09FA
ED1A
FA69
F062
F6BA
F7EF
FF8D
0203
F9EA
00D1
05AE
F118
02E6
076E
F1CC
06A0
F628
02AA
F6CC
FB71
FE60
0805
F96B
F789
0001
FD49
EB7E
0283
00FF
04B3
016B
0275
F9A4
FD10
04B0
F593
F543
00FE
ECA5
F97D
121A
F88C
F2AE
FDCA
05C3
008E
F794
0463
EA76
F36B
E6DF
F1BC
04CF
058A
0295
FC7D
F4DF
000B
E542
FBF2
0AF6
ED37
F666
012F
FB88
081F
0A65
F8D2
0DB1
0322
00A8
F122
15DF
0219
0BB0
F539
F4D3
FD9B
06D1
1534
FDE9
01D5
02BB
064B
ED0A
EBBE
F571
0600
0702
16B0
F7C7
F94B
0907
05B4
0FB7
0A46
F97E
144B
F8FA
E034
F4C4
0DDD
E3DA
0835
027C
0F3A
FE73
FB61
036D
0370
0056
0229
0047
FA73
EB14
FD75
02BE
08A7
F29E
EFFC
F8BE
06E6
F8DC
F271
EC06
EC0C
FA8A
08A2
FBEC
0A44
1542
0717
F85A
12C2
04DD
F253
F844
F4AE
F1E8
F017
FC5A
0530
FFD1
FE59
1496
FB10
0166
126A
FD0E
08DE
F14F
FCAD
1127
0189
0225
F647
F320
0DFB
EDCF
F3E6
11F8
01A1
FD27
0361
0953
086E
FABC
FCB7
FEA3
02A3
031A
F847
03AD
0165
F930
01FF
06FE
0218
FF6B
F6BA
09A3
FBEF
F6EE
08D7
F2F9
0770
05D3
FABD
FCB5
021A
FF37
017A
FB18
FE8A
02E2
0362
059C
FCBC
FE96
01E1
035E
FE8F
02C2
001C
0022
02F3
0545
031D
FAD7
00AD
F191
FEB6
FAF1
0046
F93A
FC2A
065E
FC85
0376
FF72
07AB
F8A8
FD68
0137
EC2C
060F
086F
03FA
FDC2
01F1
09A5
010B
F7D5
0AAC
FE9B
076F
FDBC
FF76
FC1D
02DB
FDE4
0A06
F9AE
06AC
04DD
0383
07C9
FFBD
06ED
147A
0CB3
0560
06AB
FE9E
022E
FDFA
F970
0368
FDBD
FFAA
F719
056A
FBF2
04C9
FC29
F86C
FD1E
FE74
0851
FF9E
F9D9
FA33
F4C7
022D
FFFE
0617
03B1
FDC7
FE3D
FD7C
0238
FBB7
0591
FB99
011D
083B
0563
F029
FF05
FE2A
0C82
F116
1515
2160
0547
DE9D
E625
EB94
0B21
ED12
FFB5
E1D1
0B6F
F5CD
E39F
F8C7
07D1
043A
FF63
0D08
016D
FDDF
F716
FF4E
FA29
F562
166C
F5CC
F05F
0456
FD15
05A2
0D68
FDC1
FB1D
E96D
0947
0737
F27C
0BC2
04E5
1451
DC7E
1D7B
033B
0279
FD08
EDFE
E53F
0719
FC37
EFA6
FD7B
F960
077A
F75C
2133
0146
0492
1F1D
0493
FB71
0225
0C24
E3B3
FEB0
FF33
02A4
F898
FF2A
D1DC
1223
0853
0A0C
01EA
F8A2
12A2
1578
EA05
05FD
0E8E
0625
DF39
1AB6
0478
F446
EF4D
F846
EDD1
EDF5
F1CE
E5C6
1126
07EA
F19E
EF9F
F867
0BF8
198E
0C33
F2E7
0156
2091
0F2F
EF1C
0D6B
DCE6
134A
FF13
1BFA
F774
FD7B
FFD4
F803
E952
06B1
1C9F
F241
073E
054F
FDB7
FE6F
FDCC
0B8F
10BD
0457
02B5
E943
F97D
01C5
FCE9
FE6D
FDF8
0414
FC72
FB1C
0858
FEE2
099C
FCE4
03C8
F819
FB46
0125
0380
FDE9
042D
F82D
EA4C
042F
FCB4
0873
03D3
FD95
F9EA
01FC
0D2D
FCA2
F77C
FFCA
0590
0814
FC2D
F63B
0206
04FA
0872
F99C
0286
0375
0578
0404
F84D
FCAA
FD51
06D9
FAB7
04DD
0075
0AF2
FE6F
044C
0841
FBB4
FC76
0361
045B
0107
0547
01C2
F21C
0826
FF99
FE34
FFBA
F9C2
FE8A
F98D
F43E
059B
05C7
FF68
0036
01F1
FDE5
057E
0190
F7D6
FF5A
05DF
0239
FDAE
078C
081B
FFE4
F9F6
01DD
09EC
00CB
F7E6
04BC
FFB3
0980
FC67
00A3
031F
FF15
0701
0165
F7EE
0040
FE6A
FD89
FBE5
FE63
075B
FEED
032A
FAF2
FB72
FFA2
0349
F9EC
FA25
FFDC
0390
F9BC
045B
0E3F
0BE5
FD13
0648
FF4D
FC4E
FF10
0196
FF0F
F483
FFEE
FD11
088F
0330
F6F6
FB49
F21A
FD1A
0715
0310
0999
FAA7
0037
0625
0669
1049
0AEA
0003
FEEE
F9B5
F7F9
01D3
015A
FE32
FE51
FEF7
FD15
02A6
FA37
031D
F9A8
02B1
015C
FC53
F7D8
FC4E
0211
ED0D
F8EF
023C
FFD5
F516
F7B0
FE5C
0306
FC47
FFCD
F971
FB40
F580
FCE7
FD3D
0380
FB37
FBEE
01CB
F97B
03E6
FB84
FBC8
FD90
0112
0570
FEBA
F673
F873
F910
F38A
FF63
046F
01D3
FCFD
FB1F
0364
00C9
01B0
01C6
FF11
F72C
FBBE
FD9A
FEC8
FC90
FF03
FFA3
033D
0267
00A8
0015
F266
F9BB
0945
0439
FB29
F9FC
0039
FE08
FB77
0307
FFDB
FBFD
FEA0
FAAE
F688
06CD
01FF
FE27
FB69
0261
F855
FC49
FFBD
F6D5
0094
0254
01F9
FD4C
0226
F223
01C2
FDD4
02EF
FF4B
0508
FE61
FC90
07E0
F31F
E482
0329
08E2
FB22
06B8
0D44
EB71
FD5E
0914
F605
F32C
F4E4
FF5B
0CAE
00D7
FFA6
0873
E85B
F370
E750
FE3A
F837
02D4
0279
F27C
016A
1A79
F4A6
0603
05EC
FEB0
F5EC
0351
EC78
099B
EB5F
F072
E33B
11CB
0224
0C57
030D
EF0B
E991
F214
F7A5
FF36
03F4
0239
15C0
EE12
0E11
0255
EB84
FD5F
FC8C
10FC
F9F1
F98A
F19C
0A99
0FF3
1C86
F7C0
F973
EFED
F3AA
1C95
03D6
F23F
0BD0
F98A
02E8
FF5A
F5C8
F471
FDE9
03A6
0E1B
F2DE
FA39
081C
F949
F8B4
14FD
07B4
16CE
FF4A
FAB2
0E18
FC5E
FD7B
01DD
EA92
FD28
0437
F215
EEA4
EECE
FD82
EC05
0465
EFE7
ED9F
F0CF
064E
FC63
FE42
E614
0D4A
0F2E
0A1F
E59C
18AB
E9EB
01AB
F589
0A91
F1D2
F2CF
F742
0B5A
F465
0CBA
06E8
F9E8
FD3D
F0AE
07BF
0CE9
F2F0
046C
FE29
E616
0202
EF36
0E85
0912
F465
EB6D
EF82
069A
ECFA
0521
F6F9
09EF
F857
FA0E
07AC
F061
0BAD
02CC
0427
0ED3
FDAC
FE7F
0B55
01CA
08BB
0D9A
FA6E
F66F
063F
025D
EDCA
06B1
1C15
F613
FBA9
FD9E
F725
01CB
EE10
F74D
E424
FEB9
FD3C
FD8C
FAA8
1951
01E0
F51D
E941
0123
08F1
FF44
EC1F
00B7
0CFC
F61D
0AF3
01C2
EF5A
EFC5
13F9
F27C
FA76
048C
0459
FC79
14F7
04B0
FEC5
004A
0B6E
0533
F27A
F6CD
FAFC
08D8
1010
02E3
0D6E
F998
0080
0A6F
F366
0277
0700
09BC
F8DA
F512
0A2D
03C2
02DC
0AC4
FD62
F1E7
EEE9
F3F4
0347
0129
F500
1789
04CF
F809
FCE6
0B57
1094
FFDD
0339
FF04
F1A0
EB9D
072F
01A7
10EB
0554
0652
F596
F996
0913
00A8
FF28
199F
0423
FEA2
EA9C
FD2F
0375
009A
EE96
062A
FD22
13E1
06E1
04E3
07BC
0706
FFE2
04F9
F914
F718
FE31
FC40
0D7A
FA75
F5C3
0BA6
0DB6
F785
E7C1
FFCA
E979
0768
F865
FFCF
053C
0CEC
F7FD
01A4
FD41
042C
04D7
F285
0FE5
EB66
F9CF
0188
189E
EB92
0421
10FE
1E75
0502
0A51
FFA1
F45F
1554
0B2F
F4B7
EA2A
F559
0313
F4E5
FE28
F94E
F2C1
FBD5
FB45
FC2D
F1BD
0355
04F1
035F
E92E
033D
0278
04F4
F18D
DF7F
01B9
0085
FC95
FE15
FA32
F477
05B9
038F
F6AD
0BE2
ED2C
FBD5
F89D
FD7D
0069
F5AC
FA8B
0413
0025
F56F
EF61
F9EC
ECA2
0027
F4C9
02AB
F7D5
F4E3
FEDB
FEF7
FAEA
0863
F88B
F628
06F1
E52B
0F3B
FD13
1068
EEBE
FC5F
FC2F
F022
0AB7
0771
2322
FA16
0264
032C
01CE
0069
09BC
F7A9
F99E
13EF
FC31
F93C
0737
1AE5
F2CD
E861
F8EF
096A
F2EC
0B01
0384
F57E
14AD
03F8
0D2E
FA5F
F34F
F563
F5E9
047D
0306
F37C
F9F6
F1CD
FF15
1522
FC09
04DE
0D41
1292
FF92
03A9
FFD2
034F
FBE4
FF2F
0091
F7AE
FE96
0B66
09C3
0310
0D49
03BD
F29C
F7C4
F77E
072A
F017
0A78
F65F
087F
0678
F875
0A67
FDFE
00C2
FC94
010D
0DFD
F03D
F73E
12B6
F298
0516
F2D6
0606
0B5C
0AFD
FEBC
FB69
0903
FF55
F52D
09E1
F1E2
F9D2
FF56
1882
EABD
FC80
04F3
FC5A
F0E1
0299
052E
F0F5
0146
F86C
FF70
09CA
0ACF
0E55
F444
0917
0B09
06FB
131A
EDEA
03AC
0171
FE28
F063
009C
FAB2
0B18
F7A0
0896
0E06
0FD9
FE23
FD34
FF1C
F7B8
FC29
FB8C
F6D7
F426
0370
EDD6
10D7
F36A
F077
04F9
04D6
FD1D
039F
FC4A
000A
0433
F934
FA5F
0A2D
F454
09BF
0D0B
0360
FB61
F7AC
FBCF
033F
0505
0197
FA77
F587
0442
023C
06A1
04AA
0155
0490
FDE9
FC66
FA73
021B
0592
F730
FFBA
F97A
FCA9
03E1
FC14
FF15
F8F6
F96A
FDE9
182B
F8D9
FBD3
F8DF
F02E
F78C
07A4
FE98
0BBD
0784
0454
030D
007B
FA12
FEA2
F5C8
FF33
00ED
0318
F39A
088E
0379
FD74
08B8
FB2C
0367
F96D
083E
F92D
FFEC
0047
FD1A
FFCF
FE40
F1D8
F945
0424
02D7
0A2B
0725
FE1E
FC78
0F64
0D8B
FE79
FC59
FDC2
05C7
FC09
F396
037D
FCF4
0B02
F63F
F9A4
F99D
026F
FB9E
F7B0
057C
0094
05AC
F105
FF72
0CD3
F897
FBC5
F4D3
F598
0CD7
09C2
FEA8
F3A1
F8AB
FF99
01BC
FAA1
F9C7
0A0E
F804
F5D5
0317
078E
F98A
0473
F66D
FB06
0262
FE34
0A1C
FC64
FBB0
FBD4
F873
0124
056E
092C
062D
FAEB
F6A5
F0D7
0194
0DE7
F94B
0721
F8D0
04A1
07C4
17B6
FEC2
EE6F
F962
F590
0006
F42A
F556
E7A5
0A8F
03EC
0581
09D8
F3A2
FC63
1358
FF25
F379
1031
EDF4
EF12
F7E8
F430
0521
FB0C
0163
0413
FD14
FF8A
EBF6
FBF9
FBF0
FE48
0300
F022
065F
ECC6
F3B3
06DA
EEEC
0729
F354
092D
014E
0BB0
0C54
0A99
E969
0B64
03EF
0A14
0000
FE0A
0709
04D9
080B
EB93
F7DE
07BC
035B
FC8B
EA74
09C8
FEB4
02D0
00DD
1336
F871
FBBF
1C16
061A
FCC9
0725
0B44
006C
00CA
F72D
0F17
F0BB
FAD3
08E7
F285
F61D
098D
EE18
04FE
0F1F
F2F0
F23C
0D03
FEE4
F80E
010A
0714
F942
0473
F883
FEB0
F5FC
07E2
0FC2
F88E
FADC
008A
0979
F31A
0BAD
F8EE
001F
0009
F1E2
0DC3
078F
0577
F842
EE50
F6D8
FD15
F4DB
18FC
FCDE
F7B2
0AE4
EB80
0B3D
FFE9
EEEA
05F1
1432
FC1D
F76F
0FAE
1010
EA26
0DF6
0064
FA3C
FF02
F4A4
F9CE
045F
EF13
046B
FBA9
FB05
04CA
FC9F
FD04
17EB
FCBF
F392
00FD
004D
EEBA
0086
F095
F412
0813
E8C6
1680
045B
0844
047B
FE51
0435
FD6F
F42F
F200
055A
FC00
0C88
02BF
FB9E
19A0
E9B7
05CB
0DAA
0953
05A1
FFC1
F6BB
FBBA
0915
1016
F8A9
06C4
E7E3
0990
FFF4
F715
0EF6
F41F
0DCD
12EE
068C
0BBF
FB10
0524
FD4E
FA35
0611
F9F3
FA01
F1D4
F0C5
FDBE
0126
FC7B
FB18
0658
05BE
1405
01D5
024F
EE5F
FB7D
EEE5
EE20
0683
0695
007D
0BD2
ECA5
FD94
EFA1
FC82
FC9A
F6D2
F48A
0F53
0F8F
F391
F6DA
FA34
FC5C
133B
FC6A
F9E4
FCEB
083A
0269
0D81
0B30
07F0
0100
0B98
069A
03C0
F989
FFD8
EE63
EDB8
0B3A
E607
0E08
F194
0B77
0347
FC71
0A5E
0EA9
FD5A
11EE
0DF8
0401
F79B
F7BC
FB5D
0290
F93C
0EA9
020E
E6F0
0311
00F6
0661
0FC1
0212
FA4B
050A
0084
EF53
F372
F8FE
F8F5
FBBA
F991
F3ED
FBC6
FF4E
FCC2
00EA
F523
FBD8
FC80
F3EB
0BC4
FE48
F8D9
FCC3
168D
1430
EC58
F1BF
0657
F7FA
FC5C
FAF4
02A0
0B00
02FA
F7F8
0757
F80A
F67A
F5EC
041F
FD05
05D0
FDBC
FEAA
F850
FC7A
0C7C
F712
F8DA
FB25
F322
F8ED
F8F6
0013
FFC7
EF8B
0B27
F386
0804
FF93
FDBF
0499
057B
0C8A
097D
E73A
EAFD
F760
FE72
1149
FEEF
0B74
02C7
0DF1
0283
F875
FCD9
F375
0D48
FE41
0273
1447
FB88
134B
09D3
EA08
FBC8
0C68
FDD2
FFAB
F04B
0827
08D6
FEA1
F69B
FF97
FC07
F76B
0402
FD90
EF37
0298
0013
01E6
FEF6
FF1C
0FDB
005F
158B
F40F
07D4
04DB
FC09
12B4
019E
F542
0611
FF4F
ECBB
1C55
FF76
F95B
F03B
09BB
0E31
F525
0D3B
DCE9
FDB1
0004
F3C9
FF82
FCD1
06A7
E7AC
F950
EC19
F78F
08B7
0619
0214
F011
FEAA
FFB0
030F
F39F
F70E
0B7A
E7CF
F2D0
FBE8
0B3E
1D18
E86C
F273
FAC0
FDE8
08F4
F651
FD36
0166
F36A
FF07
0897
F70E
FE9C
01AE
FA62
0EFA
EF78
FDCF
01FF
0367
0332
0446
E733
011A
FADE
0BF6
02C3
FF6A
0722
01EE
0E0A
12C8
F77D
0C8D
F79A
0D2C
06DC
F730
FB6B
F939
FA97
0ABD
FCE4
F7CF
F52C
052C
0F32
FA0F
0920
F9B6
FE33
067B
092F
FA8E
FFCD
0C8B
041B
FF83
0C13
F4B7
FCE6
FDBA
02C2
FB9A
F514
FEFF
F749
F524
F522
FCAB
F680
FEBB
F664
095B
0CBB
FEE5
09CB
FDE7
F9E8
F696
09C0
022A
ED32
0007
FA73
FDE8
FEB7
FA80
EEE0
0CF2
FF19
F030
039E
F4C2
E977
FD65
0901
0854
0768
173A
FFC3
FCA2
F623
F964
015D
F307
0CBD
FDA5
045A
1053
F734
F93B
080B
0129
FE94
0F6C
EEB3
0265
FE5A
0ACC
0465
F4DF
F256
F05B
FF3E
013D
0954
F76D
FF62
02BF
04E2
01E3
F9D1
005C
04BF
0753
04DE
01C5
0282
FD0A
0E10
FF65
F880
079D
002B
047E
0671
F099
FC63
FD92
0515
0817
FA8E
0912
F976
0363
FD0B
FEBB
F69F
19CD
0376
00D6
FD05
F06C
F190
0263
049E
08A5
FC3D
FB27
084E
FEE2
F073
F0B7
0E21
0687
FFA1
FAD0
FAA0
F940
05A6
027C
0284
045F
036C
067D
FC49
FEEA
F7CE
0402
F9D8
EE52
ECBD
FEE1
FC72
F987
11CA
0AFD
FCF6
044B
0D68
139D
0D1D
EDDD
04A6
0146
009E
F578
EC95
FF02
10F6
ED2A
0D1B
E929
0548
FA5E
FE68
0D8D
E9F2
EA47
23D9
0822
0A5E
2CB0
16FC
0BBB
FFF6
F71E
1719
F755
04AC
F95A
EF44
FAE8
F8AB
FE46
F766
1723
E277
F5E8
02E8
FB7F
F73F
F7D6
0952
FE6E
0D26
EBE2
100C
EB4D
FD7A
F84D
097C
F4C9
0652
E94A
F893
0B28
F823
F770
F870
05A2
FFBA
026C
F187
0118
FEA8
1102
EC72
05B9
F733
0042
0344
E37E
0A64
FCE9
073F
F171
1542
F75F
EB2D
F995
E730
FA95
FCF4
060A
0FA0
E972
03E2
FDCF
0117
ED9D
0D72
F6D2
F5AD
FBFF
E81A
FA59
0B91
FC5D
FFE0
10CB
F258
0FD1
F2D6
00AB
FC26
F628
F02A
EA65
03FB
03A0
F1EE
04F7
0599
077B
F9F2
FA16
F944
073C
F92C
002C
046F
F7C4
0B3E
03B7
F8C3
0053
071C
FF6E
0167
00AC
FF0C
025D
FAB7
FFD2
12BE
0018
FE2C
FED6
0040
FD11
FBE9
FC87
03CF
F748
FEA1
F81F
FD64
08D0
0B0F
F9E4
FFBD
FFF0
077F
01F9
080E
FE38
0350
F60C
0651
FF7F
FF27
0575
F110
046F
0B54
FA8F
FD85
0D03
0B44
F965
04FD
FE50
FB63
FB52
F262
FF38
F7EC
0DAC
0293
FA65
FFE1
037E
FA89
F6AD
00C2
FEC7
F912
FED1
021D
087F
FE2B
F862
F883
F763
FE82
0B35
F6D3
FECD
0DC5
02B0
FFA6
01C4
0468
F83D
F66C
001A
0716
FA2D
FFB8
FAFA
FC93
01B8
FC1C
05A8
0128
04E6
01EF
01F3
10FC
F9E6
04E4
0663
0BF6
FD22
0676
FFDC
FF55
F9D1
04DF
FBAF
07BC
FB4A
FFC8
0098
000A
FED9
FB6C
FD57
FA71
01A6
FE80
0477
0C95
0110
02F4
04A9
01A7
0CDC
00BC
07E9
FEE6
04BD
06F0
065D
0988
00F5
FD95
071F
FD93
081B
0858
0DC6
00C9
08E7
0943
FD40
F9F0
FD16
FC52
01BC
FC9B
FEAE
01B6
FFB0
0692
0298
0169
077E
FFE7
054D
FD15
0824
02D5
FCFB
0515
0127
052B
0351
087E
071E
F9E0
0394
046D
0894
0797
06BA
FCDE
0573
F3EA
0171
FFB7
1370
0426
FE50
0540
01B9
F913
039A
048C
07A1
FFEB
01A5
03AE
FFB4
00B5
0781
FB1A
FEBC
FAC6
006F
FFB5
FCBB
FBD9
09D3
0028
F814
034E
06D3
0035
FC92
F423
FA0E
07B0
F909
04D8
06AC
03ED
0B20
FC91
018D
F719
0194
FFB8
FE2A
026A
0D25
0481
0770
FEA0
FE72
0135
02F4
F800
FB91
04E5
FEAB
FE43
02A9
03E7
0444
09CD
0D97
FE52
F4A5
FE78
00C2
FD1A
09D7
FD8F
00A5
06A2
F2E4
06B3
0041
F91B
F7E0
FFF8
FA84
FFD6
01B7
E567
03B4
085B
028E
0177
F393
04DE
E477
F516
FFBE
E2C2
F503
ECB9
0531
12A4
EA2A
F735
FD69
FCB0
E135
01F4
01C9
ED5B
F943
0194
F85E
F1F5
13DD
F0A5
DBD5
FBFC
FC0F
285E
F701
0C20
F550
0258
16A1
F2C5
F77C
F034
FA70
F2BA
0AA4
F6EA
EF3A
19B3
F3F3
0B4D
FC63
EE19
EED3
0A51
0F74
F948
0CA7
0E9C
1EE4
FFAD
FECB
F5B9
0FA9
F811
0DC1
07E5
05A6
0711
028B
10B7
F0CA
0363
F38E
F966
134A
FD64
0282
F8EC
F055
0846
FC55
F6A0
15A3
0C20
F9D1
0784
F666
F786
0272
0DDA
04B9
05AC
F6FD
FDC4
FC7B
02B8
FA40
F1BF
0AF0
047A
FD20
089B
00A1
FD65
F55D
EC9F
FFE3
F31C
EE12
E4B1
E8D8
0248
FA93
0255
E793
E3D6
FE02
0469
F80F
FFE8
0C82
F361
F51E
0E46
EFD5
F87C
EE39
0D05
FE3A
0C3A
0AAD
10A4
FED9
10DA
03C8
08A4
FF46
28D1
F7A4
F59E
01A0
FB6F
F1AE
ED6F
121F
EA41
F630
EAAB
048F
FF1D
FC85
2139
F465
0DF2
FEC6
F8D3
FC3E
F3A0
1C83
F50F
022A
0879
FBDB
F3AE
FEFC
FF70
008B
0F3F
EFAD
EE11
0B56
FA0D
E0CB
08BC
05DA
DC9A
D6EA
0271
DEBA
0FA0
152A
FF89
FDDB
0C1E
F856
08B8
F2FB
EB7D
04A5
F99B
0641
FB21
0E7A
F476
F476
02A2
F702
EE20
F724
F38D
0BFD
E2B3
FC03
08C9
EA23
E797
006D
FB0B
FBFC
FDD2
ED1B
2351
F5B2
FD60
05E5
193D
EE16
FD7B
FCD3
F9AC
FBFC
0CF5
0699
FE3C
0CD1
F5FA
0337
EDE6
F18F
F923
EA04
283A
0683
F941
F9B6
0137
0844
1026
FCAF
FF91
0B8F
FD49
FFB3
0A78
1C4E
05D4
073C
179C
01D9
EDF8
F882
F93A
FCE6
FA6F
F20D
1B19
EDAA
FBC9
016E
0274
F5C5
02DE
FBE9
0978
F56F
EEA9
0057
F3EB
FDB9
F9C7
FA8C
F634
FD28
004E
030D
F6F1
067F
ED15
13C9
F1F2
F3E0
FDA5
FEBF
0A3A
FD82
0986
ECDF
F59E
0B4E
FC5F
EE3F
0D8B
FECE
FFF3
FE58
EEF6
00E4
EE11
F8B5
0205
FE19
1077
0A97
F623
FE63
F1AE
F15A
04C9
FE4B
0C40
F624
02E2
F976
12A0
0EBB
EE00
0733
0782
F29F
041F
083D
03F0
F689
F9E6
F44A
095F
04CE
F499
F5FB
0D2F
0AFD
060D
F05C
042D
039C
085B
06CF
0D67
11B7
FDEF
F7EA
F871
FDC3
0A01
0480
F869
F190
FEE8
EBB9
062D
1A10
FF15
FB95
0A00
F204
EB56
FC6D
00AD
02F0
138E
0E00
EFCD
F982
0204
FE92
F8F9
05BA
EB34
F541
1341
EE43
F2E6
ED02
F800
F4C7
137B
F80E
F85E
FDD4
0656
0CC1
0893
F496
FBCB
F817
FF19
037A
F150
F259
F290
0170
03A0
FE00
FD50
F4C1
F7E9
E41A
152F
E7ED
EAC8
0320
FDEE
FEAF
06BE
05DD
FC08
018C
F2D4
14DE
0070
FCE1
0644
FD88
FB86
0DB0
FE66
FFA3
0B5D
05B5
FC89
1352
0EFD
0DB7
E7B8
0059
F7A6
EB92
03BD
09D6
10BD
0FCA
F5B0
FBE3
07CF
E7B3
F8E0
F78B
F367
0F5D
F9F5
F3BB
16F1
0D2B
FD36
15B6
FA27
033C
0881
F961
07A9
FAED
EEC7
F5D6
0B08
FFD5
F867
F243
F6CD
0487
F77E
E3BB
F8AB
0E86
01E2
FA87
00E4
F7E6
FB65
FE9E
FFA6
F5A7
FAF7
0C7E
0588
017A
09B7
EC83
FDE7
FA76
F72A
F2FB
F088
FB3E
0528
1A87
EB67
00F5
F14B
EFB8
1229
FDDF
0ECA
FC1B
F872
FBCF
0755
05CC
1032
F2E7
F6F1
F4BD
0EBA
041F
F9A2
F2B5
0855
F61A
04D0
FD46
072F
100C
FAED
133F
043F
FAF5
EBD4
F8C4
0515
1237
0380
03DD
0C8E
FEC7
F7B3
FD7A
04BE
F383
F651
FE0D
FDC0
0173
FD7A
0E81
0AB4
FE0F
04D7
FCCB
FB32
FF79
17AB
0312
F621
0537
1615
FA0B
F1BF
EBD3
0A87
EBDE
FECE
079B
13DB
152B
FA05
ED9E
F7DC
F9DB
E9AB
F81C
10A2
0469
F9C0
F2CF
0226
FED2
F6C7
127E
26C9
FE39
01D0
0313
F8F0
F481
06E9
F77B
F36A
0CFA
FAB6
FEC2
F3FE
07BA
FE2B
FF3A
0355
035E
0997
1E0A
0648
FCFB
02AB
F253
FE3C
F616
0E90
FD6B
F5F3
FC3C
13A3
FFE0
FC25
114C
ED11
FE1E
0209
F2CC
02F3
08EF
06ED
FDE3
0362
FC2E
075C
F42B
F0E9
F5E7
F98F
FCEC
F4AE
FDE5
F678
04BC
072E
FB65
FEDF
F418
EBF1
F2EF
E5F2
0F77
F813
08F6
09C0
F64C
04C8
FB0D
0672
FF0E
E992
F2B3
FA2E
0516
0BFB
0A50
0497
ECB1
F733
FE64
EA49
F95A
EC0C
F68C
1050
0F56
F21E
FF42
100F
0D2D
0097
1268
FC80
FFAB
F7AE
01DE
16BC
0EFD
0A4F
10C5
FC9C
0AB7
FDF6
0839
005C
05D8
0CD1
0239
FC4E
098E
0174
0B35
076A
F5F8
FE97
09B8
043C
FDA2
0F1A
F1E0
0CE5
F869
0C8D
F91E
ECF4
F857
EFC6
E4DC
E14F
0596
0B6E
F9CB
02BF
FF39
EA19
F25C
EA48
FA93
F940
1157
FDDE
1912
0AED
0150
EC3E
12C4
ECF1
FC96
FFA7
0C78
F1DB
F83C
EE90
EF80
0D4E
FCC6
E793
F6A3
F650
F651
FA71
FA1E
E5A8
0045
FB49
16F3
0142
FDC9
0519
F0A9
06B5
02B8
FEA8
16F6
0745
F691
ECF0
00E7
058D
F063
FD25
11DF
0B2B
F576
F343
03C0
FF84
01FF
0E4E
F5B0
1805
FE6B
0D5A
E7DD
E3E3
F6D7
F517
0A56
EC8E
FB30
F7C5
09FF
FF7C
0BC0
F821
04D0
F1DE
F059
0612
1EEC
EDBC
EBBF
0ACB
0569
FE41
EF4C
FEC5
F4B1
1591
F3B4
08AC
FF7F
FB01
FF19
F62C
EE0D
FFF6
F1F4
FDA1
FA6D
ED1E
EA52
054A
EF4C
1083
0F78
FAF2
FB23
F604
F91C
1089
FF73
F4FE
0FE2
F9AE
FB7C
F138
EDD9
1513
0329
FDD9
F7AD
FEBB
FB91
FA30
0D02
F7E4
10C9
FABF
EB54
0222
0665
EF5D
0039
062A
F3B2
084B
066E
06C8
099C
114E
FDCD
F23F
FE3B
1166
FBF2
FD62
11F9
0329
F19E
13E0
F4CA
F5BA
FEEB
00D4
F0C7
F3E3
143B
EAF3
F2B1
FD02
FB24
FBA5
0409
F471
EEE7
F941
02CB
012D
037E
0EAC
F9CD
EE5E
FD63
0295
F6CF
0294
F417
04C6
015C
0A29
FEDD
1DCF
032E
F356
F747
F4CB
FF0F
0168
FF4C
F833
F6F9
1539
FD61
02F0
F163
0039
E7CC
F049
0F13
0207
F8B3
16C6
F654
FDA4
FF64
0194
E570
F549
F012
FA98
F61F
ED5E
04EA
0F84
155A
08FF
F6CD
048E
0AB1
FFA4
0AA4
F7C8
FD82
F976
013E
157E
FCEE
F344
FE8D
0943
01DD
EEB4
FA4B
0371
02B8
FD97
0A1D
0383
0986
EDE9
F602
027D
E1DB
0318
F29F
009B
056F
EB86
070B
06D3
00E7
F322
EE54
097D
1576
E637
FC9F
FD15
F7BB
0617
101B
F4FE
0386
FB64
FFF9
07DB
01D3
FBBE
FCC9
0AF9
FF76
FF83
024E
F67E
008D
FFDF
F447
F348
F53E
054E
0C18
040A
02BB
0E0D
FDA2
FC49
FB7F
012D
10E4
FB88
0B9A
F2E9
0422
085F
FC18
0980
00DE
FD63
F806
F18B
F67F
FFB9
FBCD
EC99
081E
F7F2
FB60
071F
0555
F081
01D0
FC71
FD30
FFAF
0466
FA72
FE77
02E9
F0D5
FBD0
09E0
FDCF
F49C
FC62
F6C3
EA12
EB28
04D5
035D
0007
044A
F494
F313
F2DD
06E6
1622
E2DB
EB81
E7DE
FE1C
0498
FE33
F7F1
0342
01FF
F9F0
FEEF
F512
FAD6
002F
F27D
056A
114B
FEB9
FB2F
0658
03EF
0323
F8BD
04E9
0250
F32A
F283
FAFE
02EE
03B3
0DF8
F55C
0E9B
FF8E
09C3
091E
EC9E
00D7
F3C3
0330
FDB0
F9EA
FB64
F2C2
0FFB
0340
0A12
02F5
F639
03F0
037C
19E2
029E
F56B
F481
178D
10AA
F9DC
02DF
1595
077D
0CD7
04E7
FB25
F92A
F9F5
0196
022F
FB74
0482
15D0
007F
040A
0838
11A7
ED21
0FFC
03A4
0238
0065
F73A
FE00
F96C
F7CB
FD23
F546
F009
F692
0BD9
033B
F91A
072D
064B
0DB0
FC59
FFD2
F5AE
F6B3
02FE
08FE
FFB1
F9B9
FB67
062C
0D00
06A6
F1D6
09FA
078C
F7C4
F8DE
F83F
03F7
FD67
0217
0029
03CB
F469
F866
FDB8
F034
F93E
F923
0BFB
069D
02D7
11AE
FD09
0665
EF00
00B2
0318
06A9
0DBF
04FD
FA2D
EC3E
05FC
FDE1
FF78
EFEE
09A6
0737
0388
F8EC
FE85
01B3
FA46
FBCB
FE3F
0D97
07C7
F406
FB50
06A0
0099
F83D
FF93
FBC2
0786
FB6F
FBE1
06D8
0923
F13B
0962
F60E
08A9
F5BF
F9CF
073A
F686
F9CD
FC12
FB42
FD2C
0280
FA8C
F30F
F92B
FAF4
FC85
F943
FF04
06C0
F6F1
FA83
FE95
F78F
0A0F
F711
FB30
FF1F
FF4F
FC0C
FBA8
FCA3
F538
022B
FA87
0300
07C5
0690
FB77
0284
FCF4
07C1
FE5D
F6AB
FFF2
F14F
FB80
EE43
06D1
0FFF
F72E
069E
FEDA
F845
003F
FB05
FAA5
0100
F64C
029D
06AA
FAA8
08FE
0AD1
FC29
EEFE
073A
FFCB
04D9
0321
F4DA
F560
02B9
FE34
0183
04B6
0BED
0451
FF90
04C5
FC1A
0046
0166
F870
FFD5
FE07
0588
FED4
FA1D
0326
046A
0212
EFA5
F5E8
0382
FB26
FB06
FEA1
FAAA
F899
FE16
0224
0303
0133
FDF6
F647
0327
03ED
F6D1
024C
FD86
18CD
FAF7
FCB5
FEC4
10FD
FA5D
FCAD
0567
FF9D
0221
0BC7
064B
11A0
FB96
FEEE
11B0
FF38
F81F
00DE
F8C1
FF09
01B3
FFF4
F37D
0312
F910
0258
FB4B
1B32
0062
F38A
FCD9
F8AC
0561
F94D
075D
EFC7
02DE
0476
FE7F
03D9
F991
06D5
029E
042A
FDD8
077F
FC05
FBD2
05DA
0D65
FCF2
FAB7
0BDE
FC93
0E0D
FCB9
ED5F
FA2D
035A
F9EC
FA03
F95A
FE74
F9DD
09F2
01DB
07EF
F488
02FB
0586
FF3A
0014
FD10
02AF
F8E5
ECBF
0389
00F3
0421
FC57
F91F
0CFB
07B3
05DF
F27A
F0F9
FFE7
0316
E5E2
1791
EB66
02E0
110F
FAC6
FB61
FE97
11D6
01A1
F30E
FB77
0222
EE4E
0BBC
FE15
07BF
039A
FD3C
109E
0181
EFCD
0C3F
0F7D
1679
178B
05AF
FF1D
EEA0
07BF
023B
0716
E59C
EFD6
0DEC
F769
0A78
FC12
084A
0A3A
F652
F69C
114F
02CF
053E
FAB6
E974
F11B
FBFC
FF4E
F0D1
F444
EEEA
F8D6
F4C8
EFB7
095B
0880
FC23
E871
FEC2
11B5
035B
F63B
01D2
EF16
0A2B
0E8E
03D2
EEC7
0A36
F676
0878
08DC
0503
0736
F050
022A
0B8C
FD75
FAB2
F6B1
F950
FD0E
FBAC
F5C8
E5A2
F2A3
E4FB
FB45
ED4E
10BC
FCAC
055C
F6C6
088C
F610
ECCA
0457
095D
0274
F79A
09AC
F9E6
07D9
174D
0649
FB50
FAA5
F5C6
F116
0808
E649
FA9D
16E7
0DDA
EB8B
EB35
0E01
F012
1A42
0622
1B3D
FF48
0BE2
F775
EFE1
063C
F959
136D
F49F
044E
F95B
FBD4
0D56
FB3E
0E5B
F9B0
05D1
04FC
1A42
0ED6
F97F
041C
098E
0E9F
FC40
FBDE
FDEB
F8C2
EF17
04F0
FF8A
10E7
037E
F49A
F090
086E
F86B
07E3
F2DD
F2BB
06E9
012F
FCED
0274
F4DA
113F
0691
0B6D
0094
F2F1
F567
FC5D
F8C2
051E
FFE4
F3DF
F96E
13F2
003B
0079
FBBB
005E
FBC3
035B
FF18
E61A
FA32
F633
0212
F08F
F90F
1498
F5B3
F5B3
0229
F5CA
FDFE
0513
EFDE
F6AC
0ECF
F9C0
EA83
F4BE
0269
00DD
0007
EE86
F4E1
FE9F
06CA
FEF3
F869
0CE8
F433
F6BD
0C5B
0B3C
FB3E
1822
FC31
0FA2
F89C
16B3
F7F7
FC92
02F8
EF9E
F685
086C
0810
F1A7
03D7
0210
EDF1
FFB7
EF79
F3B5
01F6
F1A9
04D3
FA65
F766
074A
EC2E
0BBD
0559
F7AE
0335
F7C8
026F
0D55
F24D
FEB4
077B
F3E1
F9EB
F217
E87A
082F
F029
F12A
E53E
F141
0A31
0AAD
F65B
EFC0
0218
F28E
FFF6
009D
1582
EBD9
ECB6
EA39
F27C
E138
F952
F7D2
FEEC
FC09
F3B7
F1A9
FC9B
FB71
F07E
1386
0850
FDB6
F204
0908
0EB4
0414
FFC6
F6AC
FE10
F1D7
F9D1
D88C
F9AC
04D7
0DB9
1EA6
1BE2
0A75
040C
08A6
FA68
FEFA
FDAB
EFC0
FA0D
FE79
F8EC
ED2D
FAD3
0727
EA31
0D74
135A
1A65
FADC
0760
FE15
EFD6
05FB
F321
1468
0521
F618
0E22
102E
03AD
FD31
F230
0D2C
12E7
F560
0C33
029B
F253
FD34
1921
1086
0A27
0E3C
F87F
0697
F7D5
E306
F654
012B
FF2B
0539
0A67
14C2
024F
E98C
EAEC
FF89
004A
148C
11BD
17F5
0123
FCA7
FDFE
E4FD
03E3
09EB
FFAE
FCFC
F9AF
169D
F5AF
029D
1562
FA66
F69A
E806
0F6C
0CD0
1D21
EF56
FD44
0104
F780
0762
FAC7
FB80
1D91
FB00
006C
0A31
FEB3
FF8E
0F74
FEC6
F8FC
08AC
0511
1699
1DDD
FA04
04F7
115D
F25A
F3A9
1E63
F2B2
EF87
0DED
FB3F
163C
0798
FECE
F43D
F6A9
FE7F
EFF1
E485
ED80
E692
FC43
F7BA
01FF
0142
0C65
00C1
ED69
F6B6
E8FB
ED8F
067C
1B9D
1536
009F
0E6A
F305
F7A9
02A2
EBC7
FC88
F8D8
01CD
0020
FDF7
12C1
F111
FF70
1923
F60F
142F
0A8D
0367
F5CE
0564
00ED
FE9C
F121
FEDE
0772
10C9
E7B7
0EAB
0CB8
F769
E687
F797
0204
EDCD
0059
0588
08B1
033E
0213
FF94
00DE
0F69
FCEE
06A4
FB4F
EE5F
0EFF
E927
E6A2
0402
F8F4
02DF
0A63
0266
FE46
0C46
0450
FE53
E9DA
0DE7
035B
FB36
F6FF
0583
115A
FFB4
1D02
F168
DA59
E605
01AC
FA64
04DD
F081
FB3B
00EF
001A
0411
FE14
F412
F642
F868
FCF3
0476
FF5E
0097
01B4
03C2
035B
F62D
FA1F
FAE9
F7C8
FF8C
F309
F918
FE3F
FC29
EFD1
EE94
0026
FFAA
FC10
FC52
F880
00F6
068A
033F
F814
0CC3
05D1
F067
0A8A
022E
02D8
FE4D
0E4B
08B9
FB86
F6A8
FFFA
057E
032C
F13C
0CA2
0C0D
056C
05CD
F79B
F92C
FD40
00B0
FDB7
01E9
018B
F65D
F432
F280
029D
F609
08C1
0E0B
F582
12D3
0144
FE56
1155
F1FE
0D23
0044
0AE2
F4FE
0E7A
032E
FAA0
10C0
03D4
F493
F8A3
0008
F859
05EE
0E62
0AC8
13D6
1078
FA30
F393
04D1
FD9D
EDFD
017F
F30C
F76A
FAC8
FF61
01C2
0617
077D
F9C6
148E
F156
FD72
0406
03E1
F607
FF8D
F2CD
F7F9
0718
0CAF
0303
FFC1
02AA
F4EC
08EE
0D20
0980
FCBD
0361
0FFA
EF74
F797
00C7
FEB9
DFD2
FC25
FD7A
EE58
0E74
F44E
E979
F16B
F3CB
07AC
FE81
FE18
F715
00E0
FDB0
042D
F8DC
1823
05EC
F075
FA3B
0A9D
0397
FA08
01B3
FA9C
F1FF
163C
FF3E
E2B8
F3E5
F728
FC35
F523
0EA1
ED74
FFF5
0164
047F
F77D
032A
EE45
0D55
E450
0D00
EFD8
105D
FB3F
FDD0
FE1E
1371
F1FF
023A
04DC
E3DE
E098
EAE9
0233
11D4
0FFF
F9A4
0E7D
1046
EEC7
EFEA
E4A6
0304
FE95
11CB
06C4
F75D
25C1
0DD3
F2DB
F6DE
FFC9
01EE
DCA2
F5EE
F772
EAF9
FF3C
FC25
087E
F727
084E
F5E3
F416
05FA
F92A
12BF
0850
0F37
220E
ED7E
F6FD
0CED
0632
0233
05CD
FA0A
DB4A
07BA
FC2B
0C96
14BE
FEFF
F107
029B
16C1
02C6
F7C8
FCB8
FB66
F8AA
FFC4
FAC6
16C1
EDF5
E377
02C2
0509
F906
FE21
036B
1518
0589
FC34
FA88
026A
00E2
F4D9
095A
FE1B
F5D9
05A0
0AFF
FF69
F06D
F201
00BB
FF5E
005C
E602
F74D
F2A8
0C99
04B5
E9B9
F2E3
FF2D
F7B6
EE6E
F46C
11DC
F759
FE62
058F
F888
FCF8
11DA
FFAE
FA38
F779
1AC3
F9A1
0ACB
0089
F89B
11CB
0547
F244
0466
030F
138E
FA26
05FD
1475
0390
061C
01FB
0112
F5DD
F03F
097E
ED90
FFD2
EC9B
F423
193E
0B03
058F
EC93
F9D0
F42A
0035
FF8B
0F1B
00A3
FE7D
0611
07A4
F6A4
0346
0193
FABF
0905
070F
FD56
0884
0774
01F1
08F5
F508
032F
1756
FCF4
09DD
1725
F81F
FB34
F3AF
0115
0D54
EA84
0B8C
F017
FC3B
EE68
FBAE
038D
F673
F3CA
FEFD
0292
FCDF
F6A1
F12D
030C
F7A9
0C5A
FE8C
1708
FA95
F602
07B7
F668
FA6D
F21A
FEDA
F6D0
E78C
044C
FE8C
FF05
0212
0C70
0EDC
034A
ECC5
FF68
EF4F
ECFA
01E1
F102
0B99
0246
014A
F449
FB93
FB44
F5CF
060F
E3B9
FA8F
F79F
F715
F773
F165
0194
07E8
E938
F579
0290
FED3
FAC6
F556
EF4A
F218
080A
F8C1
F92A
01D0
0015
FA85
F9D5
EC9E
06D6
F5E5
0678
05D6
F957
FA4E
F06C
0082
0364
FD9A
F79E
04BE
08CC
0A50
F74F
03FD
EFAD
0293
FBC8
FB2B
F520
077D
0282
FB04
0BDA
0C66
FEDF
F234
F4BF
F79D
FCF5
F421
F388
ED91
F139
EF95
F9A8
102B
0045
051C
042F
F973
F22B
EFEA
0EDD
F39B
FDD1
0726
F173
0604
F138
FD5E
F076
FEA0
113B
F1A0
F0E5
F81C
F85A
F253
04C8
0E1D
F1ED
0515
075A
E8FB
FC68
FCBC
023B
F40C
FF15
F316
FE7B
EF9D
0D66
06A7
107C
125C
FF60
060C
0090
FC2A
038C
0317
00CA
01C0
0048
FC93
0525
F47F
0E8C
F3E1
FAF2
0892
0381
F86F
0669
F3EE
FEE9
008A
0D33
0069
FA5F
01F1
F561
038B
05EC
0008
0336
0812
FEC7
FFBE
03B6
01E8
FEF0
00D0
0199
FA7D
FDD3
FFAF
0175
FA9D
FE89
FA57
0232
001F
FDF6
0658
0525
FE85
0305
F835
FD9B
0114
FDC5
0499
FDF6
0712
08CA
FC89
FF19
F867
0636
0673
FEE1
073C
06CF
0745
074B
0126
0536
0608
FBAA
02D4
FF87
040E
020F
F9ED
0832
0113
098F
0DA7
05A8
0526
0C00
0847
191E
FE35
FE70
1544
066E
099E
0B3B
F752
FCA5
0EA0
F860
0326
F5CD
0101
FE84
067D
010F
FCB5
013F
FE5B
FD7A
023E
0CD3
05D4
F998
F2DE
0053
0CDD
0611
FBA8
FF30
FE8C
FBF5
04C1
F8F6
035A
FC87
F7DF
F0E0
0391
0AD4
F773
FADE
EEB3
FBEB
EEFE
FD32
FC79
0720
FF6C
00CF
088D
02E0
EDC1
0222
F327
07C9
FAEA
0BC8
FF81
0511
F9A4
FC85
FFE0
0559
EF71
F999
0890
FAFA
02FD
0272
078A
FD0A
F13B
0826
FAF5
FEB4
15F2
F41F
FB14
F83F
FD03
FD35
04C8
F2A1
F800
F6A7
0C5D
FCA2
F3ED
0134
FE71
05CD
FF63
02D9
04EB
F355
07FF
03E9
0DB7
F285
FCD9
F1CB
F839
0701
F739
FCAA
FA2D
EF4D
0303
0004
FA48
FB15
18DB
F9B8
FB01
1D96
11A8
FB0D
0DEC
F65C
F821
061D
FFA4
00AF
005C
FB09
EF12
0841
F2CA
0E0C
ED45
FD61
FDBF
E844
FC3E
F6F6
F091
FA83
F31C
F702
FEF0
0CD2
FB76
FE49
F6B2
0CAD
FC44
089B
F62B
FEEC
0426
06BA
F1BE
1288
032D
03F7
F6B1
06BA
02B2
032A
FCFD
1710
145E
FDB0
07C8
ECA4
FF15
FB80
042C
F13B
08EF
F3B8
06B5
078D
F463
0246
FA6A
F988
F5F9
0801
F1DD
04AF
FBF7
FD0B
F8E8
058D
F42D
FC62
F058
F8D0
01E6
08DE
0053
FDF3
FF63
05F6
FE96
0C9F
F717
FA23
06D2
1444
FB1E
FCF4
0A58
F535
F69A
02EB
17D5
020B
1010
016B
0D3E
0CAF
0503
03FE
F808
022E
0677
FE13
0BF5
E86A
FF86
1131
FD5E
FB1F
0538
FBAE
0A7C
FBE8
F484
FB6B
F0ED
FDF3
0366
0D53
FCC2
F98E
07D8
06E8
FE89
F560
F717
F7C5
FCF3
FE5F
06A0
EFF5
FA9F
E8E8
0A83
128D
FF24
EF69
DFB0
0736
09FA
112B
F48A
0469
0ABD
01A2
F212
FCF1
F8ED
FE29
058B
EAEA
FA2D
04FB
0F08
F5D6
FD57
FCC2
0382
FC1C
0495
0ECC
FDA7
06B6
FC52
F5D7
FF68
FD99
FF64
073B
067E
F0C6
FD1F
145F
0B61
065E
FD24
FF22
EB46
1064
F697
F971
0758
0566
0B15
FFAB
FADD
F9F6
EEF1
01D0
EF3D
0F1D
0271
F6BE
FB49
F9D1
F437
ED87
F696
F68C
0CF7
E81B
FC95
F7B7
F587
F51A
F30B
F54B
FF1A
FD77
FCB5
FF7C
FD34
03B0
0C85
E355
F5F4
0164
ED45
FC4F
EB06
FBEB
F678
F7E3
2AAB
101F
1156
EC56
ECA0
006D
FE53
FFA0
0438
0487
EC6F
F87C
F0B7
0054
01DC
0CAC
00FA
0FEA
FAC7
F785
FA44
EE3E
022B
FEFB
F83A
F41E
0BDB
0AAB
E8A6
00A2
0077
079C
FF9D
FCA7
062C
0865
00EB
FE45
F9FA
EF5B
07EF
1598
F9B1
F3B8
06DD
0544
FAF6
0979
01BC
0C36
F9B4
10F5
F155
F8C2
F260
0CA5
FAAD
FE9C
EEE4
08F3
186C
FC94
FBA9
FEA6
FD6B
0401
E123
11C8
060B
07CA
10DA
07D4
FF59
05B2
FE5C
FB20
0255
0610
F5FD
03C6
F6E1
FB51
F4B1
F5AE
FFAA
FF60
0773
FFF8
00A6
092F
FC09
F56B
FEAB
0B34
09E4
FA68
F585
EFC0
FC10
0BA5
1A2B
F545
F2FA
FF86
F7C0
1001
04CF
FD2E
E270
F917
F948
05B5
ED54
05AD
043B
02C0
F7F8
FE91
0C9F
0068
FEA2
029F
F6A5
EC2A
F13A
106B
F0E8
F9C3
FA07
0FA3
05E9
FE94
FD37
FD30
0659
E7C7
12C4
02F3
FF2E
F68F
1B72
FFF0
0956
EB15
F0F3
0126
FAB1
F3FB
0727
00E2
08A2
F998
F951
127E
040C
EC67
F987
F7A3
EF7E
FC4E
07BD
FC21
EB49
F0CE
03D4
0F6E
079F
FAE4
FD97
09E1
FFB5
04B9
FA1D
FC3C
024D
02ED
FBAD
1464
F20C
10B1
FBD6
F5DC
1E37
FDF3
0A5B
F272
FA47
06E2
1116
EFBF
0064
0061
F799
FECF
F39D
0843
FA1E
F536
EC72
05CF
024E
FCF3
010A
F2D0
0567
EFCE
0206
FCA7
024D
02E9
FAFD
061F
09B4
0DB5
01C7
EE85
02ED
08F4
0D8D
EFD3
F999
1A38
093A
0565
09F9
FD6C
0CA7
0A43
EDEA
EF97
EF81
FC75
0104
1969
002A
F184
F55A
18EF
F5DF
EC09
028F
10E9
1044
0905
01F7
0631
F441
F961
0116
F0BA
0B54
EAD1
F866
DB61
F4A5
EE97
E9AF
0248
ECBA
FF97
F0A9
091D
0771
F3C0
1D54
01C0
06B3
0195
F4B1
0FA4
087B
007D
0D0D
F85B
DF87
EE5E
FD3B
0330
0D8F
F67C
F3CD
0A56
F39C
F7D1
1433
FEF1
E348
00AE
0E9D
0F8B
E917
0B6B
FF1B
0F31
01C1
0068
13AB
06E3
FF87
EAFE
F6FE
F994
0A07
0DFB
05B8
F6F2
ED75
07F5
0AA6
2051
0847
FEB5
17A8
EAE9
06B5
06BF
0464
ED4C
0CC5
10BF
0FCB
0387
0557
F490
E4DE
F69F
08BE
1B30
03B9
F55B
08C4
07DD
15A0
0200
EEE1
00F8
F2B8
0513
0185
F116
1154
F8FC
0264
FC7F
022B
FED0
F2C5
024A
FF5C
F58F
FAD5
03D1
09D0
0421
0404
FB67
FA89
FA96
0FA2
F680
16EA
FD38
00A1
04EC
F8E3
1215
1BDE
FB45
0A94
0305
FD7A
0B39
F6D0
0C19
F36A
F81A
F6E3
F8BE
FE50
F593
F4C4
0C2C
01A9
F159
FE58
F8AC
E87A
FD2A
02CF
F864
F4BC
F769
1D17
1460
FC1A
00B8
0750
E93B
F8D8
F44E
08DE
0208
FAD6
014D
F8B6
0612
0F43
EF11
F216
F83B
DCBD
FB30
EFEA
EB9A
FF8E
0397
EB2F
FA02
0231
FA16
E804
094A
039C
0452
F674
F7E8
0234
FD86
EEBD
F1B7
FC78
F43C
F9BF
FB31
094F
FCA8
F26E
0026
0856
FE09
12C7
FDB4
0958
00BC
F6A4
169D
F94C
F951
F9C8
FE9A
0427
F3A5
0E03
01B0
FABD
160F
FFB4
01AA
EDC0
12C1
ECD5
F846
0236
06BA
E598
08F4
0022
F71C
0585
000F
F482
F123
F4C9
FF59
FC11
FF6F
F486
F262
04F4
F44E
FEFB
16DE
057F
0340
E7EC
E846
F1C1
F5BB
06EC
F859
10F8
FEF6
F836
F10B
015B
FD80
0408
0063
0540
026F
F6D0
03AC
09CF
1290
099D
F602
0B54
12EE
0EB7
0CB9
0EA8
047E
FDB0
EE35
F898
02ED
FD76
F990
FA06
07E0
1026
0377
FA1C
0305
0694
F757
EEDC
0475
EF20
06C9
04B4
04D1
099B
F489
0341
0736
F121
02F8
D7F9
1432
0683
0B4E
EB6E
024B
F268
FA7B
F4F2
F214
E81E
FDDD
FB7D
FB04
F832
F32C
173A
04EF
FE6F
010C
F8F3
0985
0094
0E82
0246
F0AA
0482
FF2C
0642
0E74
FB9E
F727
122A
14EB
F550
1877
FB5D
EEBC
FF6A
FC16
081A
F76B
FEB2
FF57
1237
F345
FC02
FEB2
FEDD
F401
F092
137B
F37E
00ED
17D0
F914
FA5E
EC7E
F0FC
1167
E635
FEEE
0016
EE7C
F72F
F27C
1406
0F7B
F92B
F97F
0461
FFF1
ED12
0697
EFD3
FEF2
0C3D
FD69
F957
1A0E
11B3
0971
FC89
E229
F444
F7B0
16DC
DFBF
F9BC
1389
02A0
F8AB
0E3C
F785
00AA
F45A
18B2
03AE
E558
FD4A
FC4A
FE1D
1E3F
DCCF
0E9E
FCAD
EB52
0FAF
09CD
FD2C
EED9
0011
0325
FA2F
E995
0ECB
0EDC
0F2E
FBE6
F7F1
DBBF
EEC5
EEA1
066D
D085
F07F
FCD8
2372
FBCF
ED28
FF9D
1127
E685
F0EE
064F
FF3E
FEC9
1466
07A0
F3AB
0FCF
F0E7
01B5
EF66
0ED8
0477
E5A5
1322
09B1
F4CA
E8DE
FA81
09C0
F777
0D61
F8D0
FF76
FF95
0108
0388
F39E
F623
F632
FB99
0C13
FD3D
0BFF
04E4
FB42
F47A
F2B7
0558
0409
027A
01B9
EA9F
F42B
F956
0332
0314
0731
0DB2
FF60
FC82
0C53
F3DC
F594
EFBE
FBD2
FEF7
024E
06D3
0871
F852
FEBC
F72D
05A6
FC61
FD19
FCF9
FD2B
0546
09FA
F622
0589
0648
FA4A
FB44
FF31
0A0E
F4E1
FD68
0CCA
0D9A
0395
0607
FB8F
F82B
F972
054D
F52F
FF83
F009
0592
EF41
FB3A
020B
0161
F4B4
0242
FC93
F773
0AB5
F7F3
04E5
FF4C
F952
012E
0222
022D
05E7
051C
09DB
FBE2
03B6
12D2
0F9A
03A5
0189
F970
038D
FCFA
0A8B
FFF1
FA0A
FAFE
120F
036E
0AE3
FE55
0825
FFCD
F643
FEB3
FB99
01CD
029C
0FCE
0548
01A5
020F
FC82
00AD
FBC1
FADA
FFF7
F294
0A5F
01AA
036E
2252
FED9
FFDA
F4E6
1719
FD0D
F5E8
0351
E8AB
0863
FF7C
0472
030D
F336
F197
F903
F3F7
0E41
0D0A
020D
08DA
16F6
F6AB
0138
FEF6
FA94
FBD4
0DAE
0DF2
FB79
055F
0245
034F
FEA1
01C3
F510
FE04
E68D
02A4
046C
F541
00C9
100B
E0A7
F593
19C6
F949
0104
1C1D
F972
026F
0879
FC55
F5C7
1593
F87F
F6D6
0882
057A
03E0
F3C4
EBF0
EB7B
F84A
04D9
E564
F99C
02D7
0E7A
101D
EB0B
063B
0F31
080C
F5A8
FFA0
EE72
E85D
FD48
E405
0E0F
0039
F3BC
F7AD
EE5D
02A9
EEDD
FABD
F614
0F99
F763
08E7
06C0
F775
FEA7
EED6
1132
0235
F04F
080E
0681
F747
E89B
0476
0EF2
FA0D
0727
0397
02D7
0C6E
01B9
FE03
F0A2
FFE3
0AC9
05DB
F853
0296
F942
F4E4
07E0
FFDA
F8A7
F2E4
FB1D
0000
13CA
F14B
FAC3
F2D2
F70D
0CBD
F25A
E671
0229
00C4
E937
F9D7
F118
FF90
F97F
F690
12A1
05EE
FD50
FA17
F467
FF59
1187
F5D1
EE95
F872
F9C8
0D3E
02C6
F267
F7BE
0A2D
0D5F
2092
0BAB
031B
F6CD
04AC
F5AF
0730
F49C
F6CE
0279
07D0
0105
F94F
FF12
0977
E393
FD6A
F9FF
FD44
FE31
F7E6
FFC4
FF5C
F79A
FDC0
FC77
F887
FF05
0886
EC93
0016
01F9
FB11
F8FA
F99A
FEFF
FC3F
08FA
0007
FB4A
0C2A
F15A
FD75
03C8
ED88
13FE
F83A
F63D
02C7
0DA4
04CD
FCAB
FA58
F95E
F0E4
F08C
0C16
09A2
0DE7
050A
0D43
0546
0670
FBA4
0371
FAC9
153F
0A1C
04D7
138D
F887
F37C
F674
07AE
F530
0426
FA90
07EE
FA2C
F558
0089
046B
10B8
046D
07F5
00B8
FECF
F9B5
FF38
F923
F6BD
13DB
EEFF
0BFD
F9FD
0676
0726
F668
FBBB
F366
FF87
041D
081D
FE8C
F690
0517
094B
022A
022B
F98F
05B8
FB5D
FC1E
02B8
F778
F62F
01CC
F305
F5BE
03A6
0C57
0ABC
FE66
F6B6
EB9E
FFAE
F2EB
0994
E01D
F75B
0A6A
FA8E
F757
FF6C
EFD6
FD1F
FD8B
F445
1264
F821
EFEA
0B38
FFC4
0ACA
F9E2
EAAC
0991
E6D3
1A87
0830
0542
1CE0
0B4E
01DD
045A
0A63
F3E8
0F42
E9A6
058A
F8EA
04F0
0061
FF40
16A5
F473
07F1
FB87
F61D
0FB3
EF99
F325
F1A7
01E5
FD13
07EA
F6DD
F25F
FC13
F7DC
069D
0923
02E6
1041
FC4B
0406
F734
00AC
069B
07C7
FA14
FE0D
094A
F259
F67A
ED0E
FBD0
0DD5
F46E
0034
033D
08D6
FC12
F7FE
FCCD
F9D2
08D5
11B0
08D7
F5D2
0B1E
F681
FAAF
04C0
FFA0
FA6F
FE33
1063
ED62
FF3C
FF24
FB43
026A
F65F
FA26
1075
0114
F99F
F8FB
F764
0000
FC6D
FF62
04E2
026B
05DD
FE5E
F327
119D
01BD
F6F2
F76E
F9D0
0000
0AD5
1949
F915
E8FB
12FB
F3CF
F681
F8BA
02A8
FA45
FB31
F585
0882
FF04
1297
09DE
00EB
FF8D
FBD4
0BF3
FDA3
036C
FB48
FD0E
F96B
11E1
05F2
FBA3
FC7C
0254
FD9F
033C
FCDD
0522
FC34
0BE9
FEEF
044D
F317
FEA9
0CDE
04AA
F5D0
00E0
FEA0
FC66
F8D9
054B
02A5
FFE0
FD8F
F3C3
F6D7
FE02
0029
F519
05C3
0772
F918
0093
0505
F59A
05CF
FAA0
F3EB
05CA
0109
0C30
01DC
0525
05DE
FD49
05DF
068A
F5E1
04CE
FF02
FBB7
030F
02FE
FCDA
00A7
F427
F979
0157
F983
FF24
0B86
F70A
01AD
F7FF
FE8E
FD25
044A
F5A4
02AA
F921
FC76
0171
FD83
F619
F886
1119
1243
FE3C
F9CB
FBAB
05F7
FED3
F628
02A0
FA65
0507
FF24
0A40
01D2
0E2B
049C
0119
0A2E
FB0E
02FB
09C0
01E6
0351
FB2D
FEB4
FBEF
FD26
0819
FB04
02E1
0A98
00CA
0A08
FAD7
038F
0D69
FB3C
FB04
FC7C
F628
0071
03C3
04FF
FD08
FF74
F9A2
EC86
00E1
153A
059A
EE25
EBF4
0598
FC84
FBBB
FE65
F31D
04A4
113F
F7BF
FF46
FB35
FCBA
01BE
01F3
EDF9
01CE
FC9E
FE13
F609
FD60
F642
F8B3
FE72
007D
F0AB
F6E5
F647
F435
F34C
FE68
0CC9
094D
1744
FF76
093C
FBBF
0CF9
04E1
0808
10B4
0623
1BFC
0991
05C6
0072
FEAE
09B9
0998
003A
FBE7
FD2D
FD60
F748
F37D
0A70
F42E
FF7A
0C96
04C9
03A1
1038
F95B
F633
00E7
0988
FD00
FA74
072F
F2DE
F1B3
0C27
FC62
05AD
FDD9
FFC0
04E9
03CF
F001
0877
FBA4
FC58
08F0
0AA9
F069
0582
0620
F016
0805
FB52
F9A1
FE4A
0DC6
0443
F77A
0425
13A4
064D
FD30
FFD6
0579
FB03
018F
081E
0653
0939
FAAE
0237
F7B8
071D
F2EF
05E4
0894
FC34
07CB
FF76
07EB
0683
E963
F8FD
F72A
0301
00AC
0139
F590
0787
0571
F1C3
0016
FBB8
EE6E
01AD
F4FD
FE3A
F6AC
E74F
FE33
F781
03C8
1171
01F2
FB8C
0010
EB25
F866
FDBA
F103
0BFE
0C08
074C
06D1
1563
F163
F311
FBA7
F4A8
F059
FCF7
F3E4
066C
FB10
E4DA
036F
F5EF
0BFB
14BF
EEB8
EF2F
FC02
00AB
1816
E9BF
F8A2
163E
0FF8
07FC
02CB
0404
FADB
0850
02D4
01D4
F400
FD96
F603
FEF2
F80E
0DF2
FD5A
00B9
004E
1514
101E
119A
F851
F865
FD87
ED3C
1A98
0341
F1D1
FCF1
FB9D
047A
F47F
15D6
FD4E
0298
0B4B
F66E
063D
EE19
E8B6
0373
F493
FA72
FBA3
FEA8
FF63
F6F3
F8B8
FCBE
09A4
08E6
E9F9
0855
13C6
FA76
1544
02DB
F244
FC31
0175
02AC
0780
F019
036C
FEAB
01F0
06DB
F1C0
F6F5
0324
FCDC
1B01
004E
F744
06D0
002C
01FE
0350
F783
06AA
06DF
FC33
F71B
1439
E590
F5A0
E047
FF07
F9DB
F92E
F99F
EB13
EB2A
0C09
0FDB
EAF8
1FEE
ECC9
F2CA
F4A2
0343
E9CE
0DF1
045F
F437
01EB
F669
F841
F968
EC14
FC35
07C2
F221
FAD1
FFD2
0225
E70F
024A
F3EE
F0D2
14A5
EE48
0BE7
E25B
E5C6
F53E
F73B
F441
FB3D
F9A2
072B
0619
F7EC
FE54
1300
F263
FB64
F1A4
FC1C
F079
F458
0088
F9A5
F12A
0B9F
0945
FE5A
F58F
F935
EE26
041E
FA2D
04D1
ECA2
EF4F
FD6B
F3E8
F807
F277
1756
FC5C
FE5F
0011
F9A9
FC75
F46A
F501
EB33
F3D8
19EA
0778
F786
F7DA
F449
0054
F31A
FDF6
FA1F
F29A
FC15
FE6C
1E45
FFBE
0F6B
FD11
0117
0324
09EF
FDC9
0BB9
F8D7
F098
F84B
FD77
F37C
E962
F503
F9E7
F6F3
EBCB
048E
F4FC
FEEB
F542
1108
E29E
FB23
FE09
0206
FCC4
EC27
FC47
F5B1
E35D
16A2
07A4
0450
F9E0
FAC6
F240
003C
16F8
096E
002B
0F82
EFA9
01FB
06C2
F851
F85E
00AD
0D95
0831
F34A
04AD
09F6
F8CF
F354
0F27
097B
0D58
F6A2
FC00
0243
E3D2
F58B
04D3
ECA4
F43E
0850
0456
06FA
FF14
FB42
FDD7
09B2
1098
0925
0087
EF80
F66F
F232
00F4
0556
0D22
FC12
01EB
F983
0BB1
06C9
0152
FCCB
06E5
0281
0C7C
FD5B
F877
062B
FD87
ECD1
F195
FA04
EC12
FBBE
0CBE
FC01
FE2D
10C8
0919
0783
0CC8
0418
F4BB
0320
F02B
ED06
04C7
0C1A
13CC
FB78
127B
1088
E89B
F672
0007
027B
0697
FBF6
0026
EEC3
093C
F563
046E
058F
F6B6
FD3C
FA14
FC24
021E
FAAD
02E4
0D86
05AD
F94A
EA79
FF0C
F736
1CDA
F452
EC12
0288
12A3
1286
F9A2
001E
07A7
FDFE
F272
060A
F2D9
FED9
09AA
F0CF
047D
F485
FCED
F5A6
061C
0053
027A
FC7B
0168
FECF
10E7
FE05
E740
0AA5
055E
FD8C
0307
FF8A
053B
03CD
F44E
F94B
F942
03A0
0C45
0826
0230
FEFA
0898
FA7C
085D
04B4
FD05
01B7
00DF
FDC5
F9D7
030A
052B
FF60
FF02
020F
FB1D
FA7A
063E
021B
0312
01FE
05DD
0826
F9CE
F887
F132
FDE5
0349
02C7
EF0C
F0FB
F4C6
FC92
F77B
0F1A
FF59
0256
02D0
0188
FD7E
F910
FB11
0160
F460
FEFC
036D
FCB5
02D1
FC4D
FEDA
0FF0
0B5A
003A
FCCB
FCEA
FFA0
0483
0193
F8FF
FAC7
02F9
09B8
04C4
07C3
F734
FDE5
FE9A
FE1D
F78F
0369
01D1
FC41
F239
FDC9
05EA
FA21
0055
1799
0498
F3DD
FDC9
023C
FA5B
FD6D
0818
0183
041F
0593
F5D6
FA6B
FDB0
E6D5
0702
14CB
FC2B
05E8
06AB
08B5
FB61
07C5
1121
04E2
0562
FF4F
FC7D
00F4
F14A
F88C
F197
F97E
0683
F510
F2E5
F2F6
0F26
FDD7
0A7F
0601
0766
EAC9
0A0B
F646
131A
F1C2
F5DC
F061
FAD4
0722
EED8
FB69
E3B1
EAC1
EFAF
E8C6
066B
066A
0C9C
ECDC
040D
00B6
FCCD
00C8
FCE0
003B
11B3
035F
FE59
F80E
1234
F254
FF1C
F8C1
FD4E
E433
F7CA
E617
F830
F53D
FBDD
ED67
FF57
E972
FD2C
F47A
03A5
03F5
0514
F78E
FEB5
0A5E
F968
FDB2
F391
FCF6
F346
FED9
0E07
F953
1675
F8A5
03E3
0C3F
012E
003B
08F8
FD2C
039C
EDB3
F62E
0123
F9AA
FB87
1232
001E
FE10
048D
0372
1AAC
EFF5
0503
FD82
0930
0B5F
0AC9
FC75
0EEF
DF5D
01EE
01B1
0155
005A
05EB
FCDC
F228
0420
031E
0548
051C
09F4
F8D8
EA00
EDD1
0779
F62F
F004
F7BB
ED64
0BF5
EF50
F7E4
FCF2
04B0
F7BD
0EAA
F591
085E
FDF8
EC9E
EC77
0865
1EF8
F84C
10DC
ECDE
F8BC
0241
F655
FF17
0ABB
F2F3
FAAB
0A24
0532
EA54
FD38
0467
0A40
0481
F78B
078F
F5AC
0707
0155
0D84
FF4E
0231
0351
FDAD
1E27
FC4D
0D96
0378
0ECD
F575
F2EE
F3E5
0DD5
FC6E
F521
F3D2
02D7
062D
F6DB
F670
04E0
031B
FB63
0D47
DF4B
23E3
F4CD
FE09
1382
0658
F5CA
091F
F8E1
FA53
0004
F805
FDFB
FD5C
FCC6
FA72
0AB1
0FFD
FF6F
FE7C
0B4A
01EA
0394
F88B
F89E
EB45
E970
F1B5
FA59
138E
E645
FF8F
107E
F649
F756
FF5B
06BA
FD64
0CA8
F52C
0395
1379
17FE
EFD5
F242
EB2E
02A0
F430
0D6B
0EE8
0AB8
F79F
FE14
F371
07CF
1543
06F2
EEAE
FDF4
04F1
02B1
F861
F9EA
0AF1
FB3D
F43B
1975
03D5
063E
FF5D
02E3
F064
09C0
0727
0BBA
FCCC
F8E1
F399
EB58
0223
0BD9
E84A
F96D
16D6
0F47
0B7A
006E
03A1
F615
01D5
F1A3
EDC9
0A0D
0E73
130F
1491
F0DB
F6FB
FD4D
F8BF
213E
EF23
F05F
F9A6
FB7E
0098
FC91
FD1D
F910
FCD6
021B
F278
EDFB
FA61
F461
007E
0E51
F15C
0573
FEBA
FDBE
EF9F
178A
037B
F44B
ECA9
FA6D
04A7
F6A4
FB45
06E2
0C52
FBA2
FA17
0810
0C79
0682
FA51
0A32
0314
FEBE
FD4E
0117
FEBE
FEDC
F5F9
116A
006D
00F1
195C
0F50
0D2E
F023
FF95
EF07
F5B7
FDD4
0358
FCBE
FB7F
003A
0212
F984
F952
0E8D
FBD4
FEA6
ED79
058F
030E
0837
ED87
027A
0897
FD49
F2E1
ECE7
147D
F815
FE41
FEFC
FC71
F43F
EFA8
E8A0
FA23
F9E4
08A2
1145
0461
FDC6
0A3E
FAFD
0E37
FA06
057C
02A1
F9CB
F9D6
F436
0AA4
FD5F
F36B
F3AB
F69E
0B24
F4AD
FA56
F7B8
FA61
EC0F
FD40
F1E6
07B1
01C7
F739
F8FC
F2AA
019C
FD76
0812
F3FF
FD0E
13F2
0122
035B
0FD4
F768
FF4E
FB48
0697
0BFC
DF4A
F433
FB4E
EC25
F4E4
FC9A
F479
FDD3
083D
06E6
FEAC
087D
07C2
0657
FAD6
09BB
F12D
02FC
0362
F36A
0CD2
FA32
0B09
04D5
07D9
FCF1
0307
006B
FB32
F2C6
0E96
FAAE
FDB0
F9D8
FDC8
07B8
0A75
FD79
F6BD
EF40
F335
FF99
094E
F870
00BB
00B1
1989
0AEF
FF64
FBE9
EF24
07B4
085D
0A2C
0209
0862
F187
04E8
F59D
F66C
0CD3
FB23
FE4A
FA07
FB0F
ED88
F59B
0263
FEB4
0A79
0CB7
0FE2
F718
F689
F92B
EC3B
FD05
EAA2
F7CC
0A62
F24F
0948
0E2A
F45E
08C0
19F6
FE95
EF20
01CD
F681
F6FF
F8BA
DEFC
101C
DF7B
089C
10EF
15E9
E6CB
EB7E
FB80
FA75
0E44
0342
FC57
04F2
F9C1
01D4
FDBE
F8DF
01F6
F53F
F4E1
1079
0DD9
1C7B
FCB5
025A
FD48
020A
F59B
011F
1FA2
F7EF
FC40
F17D
EFB1
06F1
0746
0A2C
00BA
F601
F998
FF2E
EE16
000F
06CD
0B44
1575
F612
06C7
0664
FF84
020D
0ACE
FD68
0349
DED3
F5AD
0473
FBD5
FB3E
0236
0470
064C
1189
F12F
0E11
1425
EE08
EDD2
FE7B
FD31
F1D1
F13C
0578
0284
FCF5
2989
0CC6
E594
F2A6
F3DC
EAAA
0665
0DF5
074B
FCBF
0F6C
05B2
0393
FA83
1F2A
FAED
EA3D
F4C6
F96D
02BC
F979
0588
EAF2
105F
0268
ECBC
01FC
F7B7
07DA
FC94
F563
F9D7
051E
0A4C
0622
F833
1240
F87C
E813
EB00
F716
14F6
FF8B
0157
07C1
FAD3
F3B8
EF5F
FC30
FCDE
F8B5
0818
0306
F9A4
07E7
0271
FD21
0DAE
F2E9
0ABB
06CE
FFAC
01F4
F267
051B
FB46
0D0B
0430
01BC
06A9
F801
FC36
10F8
F7B6
EDBA
FF57
046E
F465
0084
0E81
0043
F729
FCC9
EE7E
0249
09AC
07F8
01FB
FEA7
013B
0C22
FBD1
01B1
0C25
FA79
FB3A
FCAE
075A
0AE1
F08E
087F
F910
FB52
F9D7
F96C
05E8
FE6B
F4D1
F444
FA41
FD11
0489
FA24
FD45
1957
0495
FC4B
FB97
00A6
F440
FEBA
0A73
014B
0192
0B50
FB26
110F
FE36
FB89
F707
FCCB
094E
0810
0708
FB12
FE1B
07B6
FFE2
F9D0
04EA
FA69
F082
F9CB
F954
00FF
0093
FD06
077A
F4D0
FFCE
088F
08F3
05B3
0AF5
FA77
0772
1102
041F
FC6C
F1DA
F27A
FAEC
F8BB
FD7D
04EA
FEFF
023F
06C5
01C8
F9B7
0733
EE82
FD55
0203
FE1B
F98D
0793
02BC
0547
FC5C
06EC
F90E
F501
FE15
F41F
1013
05A1
FCFE
1285
0577
EDC1
008A
0891
F79E
FD7A
02F3
FBFC
0420
FBFB
FA61
00FD
FA2B
EF52
F4E5
FCDF
0723
FF0E
FE07
0C90
0ED4
F9F2
F658
0388
FE99
006D
FE33
09A8
0674
082E
0B4E
F6C4
FAA4
EA2F
F320
0874
0D7D
FC13
ED42
F933
F31B
FA14
FBF1
FC1D
FDD4
EDF5
027A
0901
FCED
ED78
F8EC
FD18
E99B
FFA1
012D
F58D
FF76
F8B1
0146
098A
0FAD
02F2
07B6
FA84
FDF5
FFFE
FE29
06DD
0035
029D
0F65
F726
0372
F0FD
FB7D
ED14
FEDE
F915
F4BB
05F1
048C
F144
F681
0F4F
054A
FB82
F8CF
E46E
0382
F8D8
F80E
0555
FFA5
F67B
EE00
0AE9
E8D3
FBCA
FE8A
013D
F817
F39E
F587
03BA
FEF7
05C8
09A3
05CB
FA47
F72D
EBF2
16CD
F981
FD31
E688
0221
EF80
FAFE
F7AE
05AC
0007
0E39
F513
0942
F3AD
DD25
F364
0579
0854
F72B
D3DF
0139
FCB7
F7C6
F741
04F2
F8D1
069A
F7FF
EF16
F5F0
01E9
EEF0
F122
0CDC
FC10
EDBB
15C9
23E2
00FE
F006
0693
25AD
04B7
0150
0CD5
EA0E
02C8
17E0
F79D
EB07
F80E
FB8F
129F
F90E
1C11
E7EC
01ED
0022
EA7A
F27F
16BD
E9C8
026A
E9B1
EFB5
F0DF
ED6D
F320
072A
00E6
FF1D
F8C6
1525
0AB4
FDE5
E20C
0C53
FB7C
FE75
FD27
0BF2
0120
E11F
0BBA
FEF8
FBC3
FA09
1279
1215
FF9B
EE9A
FBF0
F348
FEEA
0CD2
F329
FFB2
FD14
E46A
066B
FC25
0A73
FD99
0743
EF37
F6F0
FA28
08B1
FC0D
FB96
EABC
0C7B
0147
0A0E
1801
FF0D
2254
03D8
0CFD
0763
F64C
0FC2
EE49
FE0D
019A
0C98
F100
0BB0
0811
0A31
0DF6
17FF
FEE5
006B
FDAB
013C
1380
00A0
FD76
F250
FFEC
FA90
074E
F072
F117
FDC8
FC20
FAD7
FD96
05C8
FD92
F860
01B5
FBFB
F466
0860
F7BA
08EF
F8E1
FB85
FD5D
0995
0208
0165
FB2E
F37E
F64A
F42E
0DCD
F58E
F527
128F
190C
0FB2
F9F5
FD5E
02AD
FDAC
056F
01BF
0C84
11F1
0166
F668
FA27
0A49
039C
0C71
EEC8
F3CB
FFD1
FB00
0428
FCD1
31B5
F123
0AA2
084A
0A52
F311
FD0B
F0D3
FB0D
FBB3
FAD6
037B
0813
FC26
F8E7
FFDA
019A
F810
0B18
05DF
05D6
01A6
FEFB
0625
F4B3
E982
F804
0395
0180
DF30
E875
FB48
FC66
FD33
0090
07A2
FFDE
F708
03DB
EF08
FF3F
F21B
F2F9
0C2A
ED96
0675
EF14
F1FC
EA12
F3BB
FC3E
FB10
FA19
EE23
F1F8
0058
EF8D
FFF9
FF67
046F
FD18
036F
0646
F722
F473
FE26
EFC2
FC05
ED2D
FE66
EF23
0AEB
06FF
FB4D
F7F3
FEC6
F6D0
FA8E
ED53
FB68
0A4D
E81C
FEAD
FD3B
0D30
2C9C
0A91
F5C8
057C
051F
F3FD
0B5A
02DC
00B4
10C9
FE16
F8AA
F00A
F7F9
EBF1
F93A
F704
F693
15D7
11A8
F657
0C10
0AAC
0CEF
0D38
FED5
154B
005A
FBE9
0669
FAF1
F2CD
2200
010B
F51D
F0AF
F9D8
EFCA
F21F
FF78
0FFC
FA22
FF85
ED2F
08A4
FE0C
F9C2
F742
F966
FFE7
0339
0398
FD1F
EE46
0472
FD49
0951
F2BD
0BD4
F841
02FA
0D65
ED94
FF98
FBE7
FFF7
FDB1
0089
0632
0587
1464
E1AB
FA07
03C8
08AB
F4A2
F37F
FAD2
F291
FEC2
0A92
F48E
00C4
F8EF
0082
FDC4
F744
F896
F398
0297
EC26
F0CA
0281
F93D
0AB6
0043
FA2F
FE9E
0125
0498
EC02
0641
0E8F
FC53
01F3
F7F1
FCE3
FF0D
125C
FE7F
F554
FB8F
F7F8
FD32
FE8D
FF9D
05D1
F04D
F783
FF4B
0449
084A
08C1
01FA
0DF9
EFB8
F19B
F441
03D1
0095
01F4
F7F8
0178
0321
F818
01E7
FEB1
FCF2
FE72
034D
F993
062E
FB46
F599
0037
FE78
F90B
FB77
F9FB
01D5
FC5B
F3AD
04CD
FA6D
0051
FFBD
FCAF
FD5F
0105
FE92
F589
04E4
F96D
049A
FAC0
FCE0
02F9
FC47
0451
FA79
F0F2
FDD9
0620
FA33
0022
00F4
0517
FDA2
024E
FCA8
0056
0552
015B
FAAD
F2A1
F7D3
F8BA
009A
F3F0
FFEA
0093
FC41
FF43
02DF
0BBE
F87F
FBCF
06BB
FFDE
FE60
FAC9
04EE
FE43
F85C
0184
0C16
FB82
FAE7
F9F9
FB0E
07F2
04D6
00F6
014A
05B7
FCFC
072D
0267
F97F
FB42
FF25
FEBC
FCFD
036B
F088
FD9A
FD3E
FC35
0824
04EF
FFA7
FC20
FD5A
039C
09BF
0163
02B8
FA04
F290
FF6A
FCF9
ECCE
FDA8
F836
FBF8
FB4E
FA09
FA94
0DFA
FE8F
F87E
FDB8
07DE
043B
0E30
F70A
FE4A
F419
03B6
F872
0499
04EB
0760
FC04
FECC
F9D4
FBFF
FFF9
F0FD
0041
FD2D
013B
0BEF
04E3
03C3
F4C5
FFFC
0898
F3F5
031A
0FD3
F543
F9A5
136E
F397
0257
FBF1
F305
03C7
077D
024F
0999
F6C1
0B6C
F5E4
005F
FCD9
F6D8
F892
F372
0903
0047
FA5F
07C5
F52E
0295
0A22
FD9D
ED77
FE74
086C
FE32
0DAA
0A29
130F
EFD2
0946
088E
0182
05E2
05C4
046D
0079
F765
00AA
03CE
0ECF
0FBD
EAC8
F767
F50A
F87D
FD02
07FC
07BE
FBFA
FB75
0BF6
05B4
F859
0082
FACC
0045
0253
F3A3
F3C9
EBBD
FB71
0679
FBF3
F790
01B5
FECD
0933
F189
0491
041C
0A0B
F8F2
0061
F4E8
F32A
F84A
006A
F99B
FB5D
F8F7
0A6A
020B
F71E
FFDF
ECFA
F901
FF9E
F50D
040B
0754
ECC3
034B
FD7F
F9CB
119F
F1E0
F37A
071C
EDCA
F9D7
F2E7
FCA9
0906
F02B
F279
17DC
F34F
FC6A
F606
FE3C
1289
F814
04F6
FCA0
05C9
F409
F5F9
FEA4
01AB
0AAC
112E
0B2A
FDF4
FA00
F8AE
EE44
EA3B
05D4
F78F
F7CA
04B7
048F
FCE1
E9F8
FFAE
EC3A
F58A
0040
0E84
1F9A
FE73
15CE
0998
FA36
05ED
0624
FC31
F276
13EF
003B
07EF
0B50
F4EF
05A6
09EE
F092
FC87
FCB8
0249
FB91
F3BD
0480
FE26
FDA9
FB99
F804
F6A5
FC09
FE58
F7D4
F0D8
0452
E49E
FA10
0151
E649
FBB1
0513
041C
F8DE
086A
037B
FA36
EF4A
F9AA
FF1F
F8A1
ED1B
FC60
FD4D
FED8
027A
FE71
F3C8
13A3
F406
0116
0446
F915
F813
FC5F
F10C
F72B
FBFB
0780
0788
FC0F
F87C
F31F
15BD
2ED6
0F37
1161
0797
FDF7
15A5
F91F
EB48
F307
0F13
F9EE
FDD5
00B7
FA7E
067B
0613
0A06
010F
F33D
041F
0C30
227A
0226
0A51
F393
16CF
F77B
FF58
F831
0280
FE1B
0A98
F52E
0C64
0473
F05C
0AB0
F9FF
035C
0ADE
F4BB
0A56
FB1D
EA8D
E85D
FA3E
F426
0A3D
0643
1416
FAC3
FAC1
1E9B
01CC
0CAC
0BD6
1246
FEB0
040F
0FA3
FB50
0F54
F55C
F9A4
1A35
04FA
E1F1
1938
E9A0
F4FA
082A
F80E
0AB1
FBA8
0513
047F
077F
FC0C
024B
F2CA
1152
F039
025D
EF88
0398
F70C
F66E
EE8E
FE6B
FD0C
077E
0685
E99F
07FE
0255
1182
F9AA
0821
015D
E5E1
087C
FDB1
F3EF
F84A
F30C
F676
F417
13BC
11BE
F7AE
FB5B
01F8
F5FC
E906
0354
FAC6
F9D8
0191
0A05
F785
04C7
F5C8
FBC1
0DAB
1344
0E47
06B8
FACB
0567
F2F5
EECA
0FD0
0AD1
FFAD
0A14
09A6
F202
0293
F697
EE26
F730
F6D1
FF4D
F8E8
FB97
0027
FD9E
FE1D
FC2D
0665
0B6C
F25A
FEA4
0AEB
07F5
FE17
FC7A
FFB2
0515
FA6C
04EC
F3C2
FAA1
0332
FED2
05F8
05B4
F616
F878
F5D9
066D
FD40
03AA
FF1E
FD00
137C
020A
0B66
F8C3
0427
0310
019F
046E
0519
1502
02D0
1034
03A1
05C9
0C64
1758
FECC
F414
0888
0B7F
0114
06E2
028E
FB9D
FF16
F457
FC6C
046B
F898
043C
07AD
0293
FE21
09C0
082E
F728
FA45
FE1D
F0C2
F7D5
F6A4
0302
08E6
FA1B
F91A
FA97
FAAA
00C9
0DAB
F95C
F7AA
EF47
03C4
F2AB
03C7
034D
08E6
FED8
0E0E
FBE4
0741
0919
FCEA
0CF2
FC54
FC71
0AF8
0EA6
FBA6
0047
F7DF
F9B8
FE47
01ED
0599
03D5
0363
FBB2
0B0C
07CD
FC39
F7E1
03D7
023E
050B
0D23
0081
0283
08EF
0283
088F
FB9B
14CC
FF83
FF13
FC80
F7D5
F008
FCC2
069A
FEE0
F27C
F974
FB48
F218
0CC5
F97F
FC88
FFF4
01EF
0158
0E17
FB92
FE97
0BCC
FEFA
FC52
01B2
0099
FA2E
FA39
00F0
F43B
FD48
03F3
FB8B
04EF
066B
F62A
FE50
0209
074E
0739
F068
03B6
021E
F60A
08A2
F9BE
F2D7
042F
059A
FCF4
1495
F879
0038
0E80
F564
FA3F
FA72
F9C7
052F
071F
FFD8
FE43
0A3F
03C0
00C0
063F
08EE
064A
02FC
060A
05FE
022E
FB46
038B
F0F9
FE10
04FB
EF8E
07CD
FCE5
FE41
075E
FFB7
02C5
018F
FFA3
FE16
F7D7
FCED
FED5
FFA2
0B7E
FA4F
0908
FFE9
F51A
00E8
025A
0EF3
0826
FE65
F37F
0E2B
0F46
FECD
01D5
F6BA
0368
0390
F543
02DB
064E
F48F
0048
FB70
105E
0C15
0178
F6DB
F90D
0924
EB98
031D
0A36
FAE3
EB7A
F8A4
FE5A
1201
E93E
EF14
F0E1
FF52
0B11
14C6
0989
03F5
F5F3
0778
FB78
18EB
FCF1
0E98
E506
EAC8
15D1
F1F6
F110
0BBE
ED70
0023
00F3
FB94
E647
F15A
0571
F496
084B
EF33
EAB3
F01D
F100
0192
12EE
0028
08C6
05C4
F1DA
153B
F68F
F635
F67A
09D0
FFFA
EDED
15AA
0A08
F67A
013A
FEBD
0281
08EE
F418
04FB
F813
04D7
F200
1A1A
028B
054C
04D2
FA0F
F9AA
048B
F0AB
F2B7
0A6A
FF1C
FB2F
0D34
EE5C
25AF
F278
E94A
F8B5
FB0A
F802
01D2
FADD
09B9
F3D2
0EF6
F5AB
1017
05D5
F530
2850
F0DF
FBEE
FB03
F498
04A0
F7DA
1634
06B4
0FD8
FDFA
F8E2
F75B
ED9A
EC36
0292
FF5B
FB8E
FEA5
FA4D
FC9C
FBAB
FCAB
0A0E
FBFA
F26F
ECC1
FD1A
05B8
F643
F854
FC10
F9C4
0B9A
FD7C
F565
F025
017F
01D8
EADF
09FA
01DF
FE8B
FF6C
F13F
04C3
01FB
0526
0142
FB15
FBF7
F8F0
065A
F839
011F
0E7C
FF4A
FFF4
F716
F27F
FA88
FD4D
FC0B
11CA
0F23
FE3D
0D2E
EB49
F639
00F4
F993
F533
F62B
0A3A
FD04
F1C3
07D4
F80E
0587
EC7E
06FD
FEC7
F06F
F5C4
004E
FAC5
1537
FF15
FF8B
076B
FC83
F9EF
FAA6
0672
060A
0786
FF1E
0E71
0323
FBB9
F9CB
F9E6
FEAD
0122
06DC
FC62
F6C4
0509
0124
10DC
011F
1245
F19C
00B9
F1DC
F959
00B5
0E31
00AE
FEA3
FB1A
FF5A
024A
FDC9
FDD3
FCC3
019E
FCCF
045E
FE83
FC84
F42F
EE8B
FF0C
F7F4
FDE3
FE8A
F515
023C
F1D5
0D90
0DDF
07F8
FEB6
FFE4
F2BD
0826
F8B4
115E
FAD8
0605
F383
0632
0B78
EDF0
06FE
F91F
FF25
03CA
0725
0240
12FE
F006
F3EF
E948
065E
F923
0741
F415
EA51
127C
12DB
FEEE
0855
0838
FD42
FCE5
F748
F389
FBA3
1774
0265
1503
0A3E
0096
FF3A
01CD
13C4
003E
F600
0A23
1664
0058
FA05
0053
EDCE
10F6
F4E3
0AF6
FA70
01AF
167E
00D6
029D
FB68
0BBC
E553
FF9E
F5EF
E8D5
FD29
E409
0643
F285
E2C7
FD04
F520
FAE7
114B
FE92
EAD0
FB0A
F412
08FA
0224
FF42
15DE
F774
FDA1
F2F0
053A
FC22
0732
0C04
FDD6
0F23
FBF3
FAEC
0CCE
FC15
0139
F88E
F0E7
F1CB
FD17
112E
FF71
FA14
F307
FE55
07F1
005C
086B
05B9
F524
F6A7
FAB9
FCC4
F446
056E
05AD
12CF
096E
ECF9
061D
F9D7
FAFA
F57D
0A86
118E
0289
066D
F654
02BB
FD10
00D5
FC89
F5A5
03DC
01B2
008B
DFC0
043C
F742
08A9
004E
F49D
FCA8
F0FA
E1B3
F61E
F23D
0E1F
FE0E
074F
14D7
0505
063E
0A28
F201
F76D
FC20
EC59
094C
0CD9
FB8B
03D1
02B7
0203
0EAC
090D
E7D3
F669
F536
F4CE
ED0C
08DF
F590
E793
F71F
135D
FB1E
0AD2
0024
0007
FC84
EED2
F1C9
03FC
1582
04FD
F9A7
F7C8
FE7E
FDAC
EF74
FC6B
E803
02AE
0716
FDD4
FC48
F37D
0960
FC24
FD3E
FD96
09A6
F8D3
F061
EB05
FD7E
FC19
F616
FCC2
FC51
0A41
1760
16B8
FF33
F7CA
03F5
FC88
FAD3
F784
EB44
15C6
F0EB
0AD3
F943
0CC0
0A53
F28A
F7BE
005E
F636
ED42
ED8D
F297
0323
F6FE
F522
FD4E
E95D
1759
FE34
EB40
EAB6
06B1
F30D
FFAC
EE43
EA6F
001D
F96A
0406
07B4
02AF
FC79
0123
08DF
F31F
1036
FE64
0EC3
04DB
F84C
FEFD
FBBE
0436
F198
EE21
F175
F671
F2CA
EFBC
0E5C
F851
003B
03FD
EFE9
0554
F329
01CA
FBA6
FD2E
EE08
F050
ECBF
FE41
14CB
FA03
0CA3
FFCF
ED67
169E
F16F
11E3
0207
0D2B
0805
F446
16D7
F721
EBC7
FE6C
0559
0AA8
F471
08BE
0415
F97D
0EC2
F69C
180C
FD29
01AA
01F4
06DA
FB98
F60A
F9FD
1DA2
FC2B
02D0
FA31
E0FC
F1CB
F7F8
F843
00B5
F36B
08F6
F7A2
0F60
FB77
E169
FC7A
005A
F6A3
F862
F9F5
ED1E
F2FD
EC99
F805
FA51
0121
FB76
F10A
EB71
EA2B
0023
0810
0878
F86D
061C
FD89
F663
F916
0027
F202
11A8
09BE
01B4
F296
FF6E
E644
F941
0DCC
FF12
0598
EF6E
09FE
F631
FD4B
F4FD
0F9B
0A5F
F037
F850
125C
F658
F3DD
009E
0801
07E4
FFD4
125E
EB8F
F7F8
0030
0490
F884
0109
033A
FE81
FD1A
01AD
0230
EBDE
0262
0089
017C
F416
FFE4
FB68
0885
F2EF
EF19
081D
FE44
FDCE
E6CD
0832
05BC
FC5E
049D
02F3
ECFD
13EC
F928
FDEB
044A
085F
FF11
ECF7
19A7
F71A
EA60
0911
E939
F99F
FB41
F697
06E0
072B
0EA6
1538
F7C8
09EB
F9A7
EA7E
EE73
091C
F4DE
FDA9
0390
003F
0CDD
F815
09CF
F5F7
E3B4
F410
F715
0001
0E45
F336
FE94
0F23
FB97
1533
1861
0C2B
F602
FEB7
F83E
0301
FAEC
FABB
0B08
FCFD
F986
0C02
0467
05C7
F85F
082B
0D18
F97E
FC66
F452
FE2A
1627
F452
07EC
F572
0473
180C
0FE7
1155
EDB8
0AA7
FB75
F1A3
07EB
061B
0145
0902
FE59
F415
F680
FC36
FAF9
14AB
F318
F0DF
151A
0CBB
017E
EDEA
07D9
071F
FE03
0CD1
12F6
09B3
FC07
0294
F3A3
0A93
F479
1A30
FC43
0ECC
1FD7
04FF
F8A4
13B2
01A9
0087
045C
ECA6
F4DE
0E9A
E83F
05F6
076B
FFF8
01BA
09AF
F014
EE3D
0473
EE13
F9F3
0181
06EA
FEFF
FF99
05F7
0CD0
18C0
0BD0
FCCA
2018
F589
ED42
02BC
1E2D
007E
F5E6
F74A
02A9
102F
0B0C
23BB
043B
102E
05F0
1208
E7E1
02C3
F69C
0551
F8CF
0D52
FC44
EF90
0D7E
0010
FCF2
F723
F02C
FBC9
0088
FF7D
FFE3
0CAD
0AE8
0C4A
03B7
F3B5
018E
F0F6
FE65
FAF3
F955
07D3
FE13
E960
08E9
06EF
0798
FA24
0671
D1D5
FC9F
F63A
ECDE
F038
0166
0D08
EDBB
F31C
F2AE
0F76
F893
F3CD
0BDB
F641
EF9B
F403
0712
FB09
FE61
F51C
FFEE
FB1D
E421
FDCA
F7D0
F865
FE84
040F
0782
0206
F858
E51D
1218
0528
FB81
11E2
04A7
FD9D
E913
073C
12A6
FA23
FDC2
0738
FA68
014A
EF94
0F45
FB34
FB80
0892
11DB
F93D
0510
04D7
0902
0C7D
FB9F
0A6D
0B4A
04A0
F5E7
0940
079A
047D
FB09
FAE4
FA06
F70A
FD80
01B2
FD12
0594
0606
F9EE
F71A
03F8
0E9B
FD6E
009C
0950
E8BF
F810
01DE
0981
FC35
FA35
F301
ED9A
FADC
F2AE
01A3
FAA7
FD52
FFA5
F863
02BB
EF4C
0F1F
132B
F9B7
F864
0D9E
FB79
F8DC
0AF1
0232
0499
0171
F866
FCF1
F6F7
FA2A
0882
0189
FEB5
F5AE
FD60
FC0F
0953
FCA6
FDD3
0118
035A
F869
F9EE
026F
06BC
FE01
FF9B
061A
0894
0516
01B9
F4DC
FA61
0475
FB79
0B95
0390
0393
15D4
12AB
F2CE
0216
10F0
F741
FD81
FF13
F9B7
0C51
F2EE
F840
FCFB
04DC
FC13
EAAA
F58A
F257
0A61
ED8F
0498
0500
F53D
EFD8
EC91
F4BE
0341
FB91
159B
0585
01FF
06C3
FA6A
FE28
0F67
FF1B
FDEA
06F9
F706
F308
F747
07BD
E5A9
F6FA
F520
FD38
02B5
FE74
F815
F4B4
FF4B
0BA9
FFE8
06A9
F4A4
001F
0007
0A70
F720
F95B
F344
F741
FC9C
0956
0313
068F
070D
EC5F
F40F
FAEF
068F
FE25
FEA8
E716
018C
F263
F0BC
02E3
FE31
F339
FCD8
0220
F271
FA76
FF5C
F4FA
FF0A
F6F9
FD6D
F999
F81F
0568
F98E
F822
E537
E38F
F928
F24A
F616
FADD
099A
F06C
0820
0542
F346
009D
F99C
F202
01F6
FAC6
05FD
1898
F87E
0ACB
079A
FEE7
039B
1369
F805
FB35
F608
02B8
FB0F
FAC5
024E
F695
F6B9
FED7
0459
05C5
0637
0529
09A1
01B0
F550
FFD1
007B
FC0B
045D
0CDF
0B01
FEC6
FABF
F685
1904
FD38
00F2
068F
00BA
F3A2
F57A
093F
FD3D
FE3A
F4A1
0442
EF9F
014E
1703
0205
02B2
EC5A
FC8A
FAFA
08DE
FEF4
0F89
FFCD
FBDD
F474
F4EB
0946
0F5E
FC61
F001
FC19
FAC0
FCC3
F4F9
06AD
00F1
0199
F7F0
FCA1
0335
01AB
0147
F42A
0596
078E
F847
0446
FEB2
04E3
FE41
F52B
00B2
0CFC
F7B8
0669
065A
0C00
0D47
F83A
FE66
0603
F9B4
FA71
123D
F702
FC3C
0506
03DF
00CD
FACF
F1A7
F415
0888
FD0C
FFB3
FE0D
11B0
015A
F96B
0551
0B41
00AD
FA55
0ADC
FDAC
0ACE
03CC
F7B4
FD4C
F383
0F5B
0148
FA4E
F5C1
0F5F
F2DD
F7D4
0AE1
0C1F
0A93
0606
1867
F879
0781
FA6E
F358
0201
0A7C
0C27
0945
F9A9
EF7C
0261
0855
00F9
04B0
EF14
0547
06CF
FB3D
F693
009E
FA4E
F857
F3A5
FD5E
FFCE
FD58
FD2C
004C
13B7
FF67
0632
E9DC
F3EE
EE4C
F7F6
F16D
F274
1220
1353
046A
007C
0E44
F1C1
07AF
0A01
F6FF
0F84
F78B
0581
EF3B
FEC4
FCE7
EBE5
F6B3
0483
052D
07B5
0AF7
0A43
F81D
03A3
0B86
0BE4
F528
F6F9
0216
F5D5
11DE
FB3B
06DD
FF6B
F80C
0720
09C5
0158
039F
1463
F3E7
F806
01DD
F72D
0F45
0A20
18FF
F6B9
F76A
00B4
EA46
FEE9
03AF
0ABD
FF22
FE40
0D4A
EF76
FC8A
0F19
F198
FB6A
10D5
023D
E8F8
0295
F78C
F0D7
F3DA
00E4
EED8
FD31
EE80
F94D
1A9E
0E7A
0342
049C
0101
F69E
F7C9
F24E
FEF0
F43B
08E8
06D9
0408
F61F
E4CA
EE0F
05E1
00C5
FDD8
ED35
F183
EB54
EFC9
FAAD
04C4
F2EB
F1A7
F8C5
08CE
0249
F7F2
02F0
F933
F735
F0C4
EC41
F9E4
F45A
060D
0598
FBE3
FE96
F172
FFD4
F62C
0CF8
0685
1EC2
F6C1
EC3E
06AA
02B0
F397
15A9
0E99
0B7A
FC37
0A98
0BD9
F03D
F2CA
F4F8
0E2D
F5F1
01D0
00E4
F954
E654
F7FC
F892
06EB
F54C
F8D2
075A
085D
0020
F360
0D82
0271
0C31
F24A
04B8
EFFB
079B
FD4A
0690
F298
0BB5
F1F3
FAB9
0A4C
F876
EEE6
039D
0606
F7E0
F5B6
F3F0
FEB9
16DB
FBE1
0685
009E
043D
0246
F610
0BC3
1318
FDFF
FAD2
E4C7
2A64
05BC
E22D
F83F
FE26
F53E
0F74
F79F
FE51
0C2F
0188
0A4F
114B
0A3E
027B
04A9
0747
0B97
E8E2
FD5F
00E8
03F4
FDD7
0457
F67D
FDBF
FEC1
FBEA
06F9
0D8B
FEE4
F0CA
F9CE
0468
FDB2
028E
FF4C
FA7A
F9EC
0813
109D
0078
FB69
0217
0B3B
FDE5
0D39
F28D
050D
144D
057A
0281
FFD2
FDDA
0C0D
0408
F44D
F3E8
05E0
18E6
F990
0CAD
17F2
DEB7
FC26
F8B3
0120
0685
1064
1EE6
01D0
FE7D
F117
0010
FF02
0580
F922
0AA2
FEC6
FF1F
0394
FEA0
EF24
FC22
F206
FA70
04F2
F953
F973
F2DE
F95B
F917
FCA7
F9CF
F931
1269
0CA0
00CE
E7EF
F9FA
0217
02AF
0786
0922
F28D
03E9
EF42
118F
FF6F
EF88
FB95
095A
247F
FB86
0905
0CAF
FD9D
EFAC
E423
EC62
F448
01E7
1622
E720
0297
0AE4
0858
E66F
026C
0455
02D5
FEB0
0521
039D
FB53
06FD
D0DD
FA4B
F0D4
F107
EA81
0723
0D2B
FD93
15D0
E4AC
EA8D
F785
EE47
05D0
066C
1ADA
0197
F74C
F9BE
F227
F98D
F3DF
FF12
12B5
FA50
F1B5
F875
07B0
FFC0
F946
FE51
F822
0027
F885
0173
F3F0
0254
FDDE
0A0B
F7AF
0A94
FEEC
0102
0A89
F3F4
10EB
F278
FDFB
02BA
F7EF
0548
F0C4
027A
0E0C
F311
FEBD
EF88
0423
11A8
FFF1
F2C5
F611
F8DF
0FA3
F7B1
F4FA
0417
FB34
F958
06E5
0E54
F46C
078E
FC95
FB7D
F988
F92F
0669
0B9C
F7F1
0278
00A4
10DF
F49F
0810
0249
FF75
068C
ED8E
F93F
FFE9
01EB
EC1B
05A1
FF12
F4C4
F4C1
0927
F94C
13B3
056D
ED6E
051A
FC63
E95D
FF1D
07EC
19FE
F90E
FE86
FFAE
0DF7
EFA0
07A2
0946
FD5E
FFBB
0564
F47B
FBE1
09F4
02C2
FC96
EE62
0CCB
0A4E
0EF1
FB73
009D
FC41
0132
FDAD
0A88
08CD
12D4
0B60
0AC5
F345
FD1F
0805
05B8
02A3
1484
F43B
035D
0373
FFE1
0229
F89E
F49E
FED2
EEE6
1948
FE63
EE0A
F767
F88D
F840
F406
FDEE
054A
FD18
F79A
FCF6
0357
F6A2
16E4
FA49
0C72
0955
F68F
FD31
054B
FF6F
FFBC
FB4A
F288
FFE7
F051
08FF
0595
15F1
032F
002C
F960
FDA0
FD1D
0192
F367
1983
01B7
F992
F81F
FC50
FA5F
FFD5
ED32
0188
F3AB
FD65
FAD1
0E01
0231
FB59
0885
F93B
F161
07DC
F9BB
0502
2252
FB40
F7E1
F40D
0557
FF15
028E
ED5E
173B
0A52
F3D0
