FDE20831
F816F8F4
F8010CB9
01A701D0
03280213
159A0D79
F13AF231
F6040390
06270FAE
09250067
F775F47C
F8A00711
09DE0140
F57207BC
02B5087F
FE1E004B
0089043C
E8D90308
04500A53
FEA2047F
02780C67
0C530CA1
0292F644
ED1D0771
07230AAF
F76B059B
F924F3C2
F98F0265
0A16F7CA
05700854
03C5036A
FEE5F872
F91400A5
04A210F1
02D6F7F7
F91EF55C
F953FD11
E8DAEE54
0E02050D
031003A8
02110822
F1B200D9
023DF451
CEBDF7A9
11E90203
F6FBFBCA
00B2FD7C
0141FC29
FC55FF6E
0614EE7C
EEC7F1A4
FCA2FCDB
065EFC48
12C9FE11
0AA51236
05C20BC0
04BEF917
EF06DD8F
F49DF6E3
0EF3FFDD
074AFCED
FA9603AA
0096FC8B
0052FF5A
024C014F
0719010C
FE640030
04B7032A
02450089
02D007A7
F925039E
FE5E0000
0CC705C1
F75FFD34
0CD5002B
FF9CFC5F
0418FC19
02E404A4
037E03C4
F69503C2
FF23FFE8
E8D9FEBB
015BFEE6
20180863
FE0AF7CD
FF4DF59C
F50FF7A6
0C1003D7
F919FBC6
049FFA9C
047F0809
06B0FEC9
FE4BFA84
047402BE
FC44FDAC
FF32050F
0162FF39
005FF239
0761F553
FB530103
06E8F98F
0CCD03ED
080A0E44
F96F0A16
048AFFD0
E749E8AC
024DF12A
0235FFBE
0704F8EC
F9AE03E6
05D0011C
FFBEFC5F
038D0047
0326FAA5
01C200E7
0245FBC5
FDBAFB3A
FFAEFF72
FD67018D
0108F8EC
FB39035F
F0F6FF23
ED4AE5A7
FD28FE54
FC9A02DF
FB3A0110
FD4CFF27
00A00640
FC84FEB7
EE1CFE86
0391FF81
FFC7FDE8
FEA2FAD4
0539E7BA
FD6AFF58
FD5403B0
05C6F62C
0116040F
FC31F70E
0019FF18
03B1FDAA
0A37FA7B
FB1101A4
014CFB29
EF75FBD2
FDA900D6
0466F608
027A0AA6
F7E6FA3E
043DE4E0
00F2FAB1
0438F9AE
0E9F06BF
ED21FF55
F9E6FE77
F23306ED
F6D5006F
F2F4FCF2
FF990D95
FB8FF089
045C01DA
0F56E9FD
D671F0D6
FDB9FCEB
01C0130F
0357EC13
F3380B74
08810157
0760E172
0D3BE6C7
E9D8F83C
07170E2F
F123F4E8
F5D20DF7
F8C20159
059AF76A
FD9B01C0
FDCD02B8
028CFAA3
CAD2026B
FB9CFAEE
0007F562
FCC504A8
095F009C
FDE7FB12
09D1FE6C
04921929
059702CB
051207CA
FF60FD69
00BCF71A
FEB1FDF5
04D40156
EF81F113
F5B8ED9F
ED37F307
0277EA2B
04BFF012
0851EC6B
FF9102BA
01FC1D16
095432BD
F1B8EB5B
FB690884
F80EFB76
EFCAEC44
07970EBE
F956016F
FCEE00ED
EF4B0063
FE73F334
DEBFFB33
FED1F4C1
FEC9048A
02EA0592
F9F601EB
FD65F71E
F43DF7D0
00D7DEB7
FF89037A
FB6508F0
0196046A
0360EC6C
046CE7D2
0171074E
F9F80AA5
037F16B7
041FF728
08950C4E
FDB0EF03
DDD1F782
06E80269
0389F847
F4C90646
FBC5F566
E4EEFD04
F5B802D5
F4F4F84C
FE96FA47
047BF734
F68B000F
EB19FC70
F977F38E
03A2EC25
FE79EE87
00B10B87
E781F6A2
0476F9C7
07BFFFFB
FD57FAD3
2AEEFA37
FA8A01D0
FDE30B7E
0A7208C1
F97600E7
081F0867
FCDC09D6
18B10AFD
0086FE84
1AC40343
F67FF386
FD8F0F9A
ECD105C4
FE6AEE15
DE32F6AD
0F240758
0CAC2BAA
1AAE06C9
EE82F95E
FE6FFEE3
016B05FD
059D05C0
0237F39C
FC9FFC8D
F75E0761
030FF6B9
FFEBFFD0
FCF3FA0B
02CB03AA
FBF10ADD
FFBA02BA
E2EAF694
FE3ED56D
F7C9F8CF
065E0741
F9C9FC68
0162FB9A
FB2D03F1
F635FAB8
DB18FB4C
01EA0A44
0A3AFC7F
FB7A00DB
FC1103EE
FF97FB7C
0266F761
01E4EFCB
366A1DEF
F50DFEFA
FD3BFEF0
0D63126F
1ED0FE50
0F05FC3E
FC74F0E8
FABCF488
F002F38D
F774F51B
166B0A10
028EEF6D
0FC8F994
F66E10BD
040AFEFA
06AF1233
1387D5B8
1B89FFC0
127EF73C
FDD1E844
08B6FA96
0B70091B
03D1FFE9
F815011B
1190FB7A
0CAF0665
081CF0B2
FC7EFF72
F3BCFA08
FA76074B
FB61F854
02180973
F6550EC7
FF76F4B7
EBB1FED5
03CE0D4D
F47D03A7
0E6FFD1D
000D00E2
FBFBFFA9
F363FFB8
F90B0DEF
099EF632
07230FFF
FC4CFC40
F263FBDD
F91BFDF4
FFD3FF61
EDBA087D
FA62F173
0617017B
04CC051E
F4AB0513
F6C6FBAC
FE2CFC88
01E8EE95
FF1C07AA
F027EE02
0204F062
F8D5EC2A
F752F1F2
09CF0E48
0C050D2A
FE2F06D0
DE0BFCD8
0251F4C1
E9EF0184
0D63FFCF
FBA8FC76
01A2FEF6
FC5C0678
0252015C
FAB9027A
0742FA71
FC70FF12
FD3F063D
0478EE78
009100D0
FEA10642
0044F54D
1065FFF8
F3D0F1AC
0AFA05BA
FA4402DF
084500EC
FD36FFB9
FEC90861
FC840494
FE5FF77D
1A8703E1
07D2FBED
07B2FEE6
F2A00FB4
1900075D
F639F9B0
01110910
F9A6FF3F
FD94EED5
F7E60457
FF470244
F3D00610
0D58FAEB
FA43FDF3
F69DF34F
F1A1F225
FE5D076E
01B4F885
12210F49
00BDDD30
03A8F0AB
043DF8DA
F912DDB4
E1130067
102DF292
0B4C02AD
19E6036E
0B8D03FD
EC4001D8
F873136E
FF63F46F
0080F58C
F92AFD8F
010DFD94
0037FA64
0136FA57
0648F344
06A102D3
012F020D
EFF8FA46
FE250313
002A02DE
FBF2003E
FD34FA8B
F9F5F59C
FE580531
FEE506B2
DD46037A
E4A3017F
1E3D0C42
0076FEF9
EF28F1FF
F364027A
EFB307FF
EC99F7EE
BC2600B7
0F5BF69C
DEDCFF6F
0CBBF1D5
1991F8CF
17FCED84
0BB50BA0
FA300EA2
F549F765
F41C098C
FA3E034D
0F7EFF8C
0BC4FE87
1F110192
FD8DFDD5
02F10335
EE4BFDF6
F709FB68
179F0098
F0B8FBE2
02A90252
040EF45C
F9D1F547
F61CF2BD
F917FD83
FF1C019F
0D780710
FB2805D5
FEA2F96C
0643F8C7
122FFF45
0268F1CA
EFAEFC80
05053BF1
07D2FF11
030B0434
1166F7A9
FA89FA14
01B60473
05D3FB51
013D051D
F76709A0
066C12BE
FA7F0785
02C1FE98
ED7BF82D
F48505F6
03EDF247
112B0365
06DC0AE6
CB03FC3F
07990269
0BDF0B20
F6650181
FAEC06FB
0227F509
F4ED09BF
09CFEB55
F9E30127
FAC41AAC
FFEF03F8
0FBCF7FF
ED3F0BD9
081D12D2
0D52FCA8
EF8108BE
D7160288
0411EC0D
151C0030
F9CE01F4
FCB8F51A
FD32FB85
FC610036
FA76FFE6
F56F03E5
FA6EFCEE
FF1E03EB
FCA20248
FF0500A4
0B92020F
FB00FA7C
FF98073B
FDA2FE28
FED5F738
05C8FE2B
00920245
00DE015B
FCC304F0
0EF3FDDA
EF7C046A
FF9AF29B
03960180
0B1B0281
F9EF0229
FBB7FE0D
02E8094D
FCEDF529
0BF1E874
F6B5053F
06CC0BFD
EF32069A
08720DF3
FC45FBCF
FA5DF9E1
078D13AD
E16F0129
0900091D
F98404AA
2AEAF4BA
FFE0F1D6
13AC0298
040F0AF7
28B004DD
1AF309BB
EABDF7E6
02460738
01F5FA78
02C9ECDE
00360931
059B0145
F0E6FA1C
071AF585
E04811D1
06B40196
0444E2AF
11B3FF08
080DFC43
0B7AFC05
ECC3ED1A
036710A6
F283FA09
F7B20824
0B6C0122
12F80487
06D4EDBB
FEC1FB31
06C7EC7F
17F7ED6D
110108E3
FD02FF9F
CEE3F9BD
F5B90B7C
03AE0028
0904FA84
20F7E0F1
03580C36
FF21F8C8
FE400453
FAD2FBCF
FA990275
0658FE13
FE9AED30
03CCEFBD
0F86E76A
024705BC
FBB402D8
05EB125A
D3AF0003
FCD9133D
0BF4F2FB
F83CF448
F95F02AC
1600FFE6
0456013B
FEA10B8D
0B3CEF1C
FF59025B
F1D40089
FC6107F3
F344EB82
0350ECF5
FBDBEA4D
FFA7F8E1
EFCE01AB
00B50538
0705FEEF
0480F532
041D043F
F457F9B6
F9AB0B7F
FB020A6C
064A0677
079DF913
0559FA09
0039FEE3
FD0A27DC
04AEEEC9
0B80FB29
0253FE0B
E896F8BD
FB96EF66
0799F704
F6F9F0D5
FDA7E4E9
F20408A6
FC86067F
03CFE902
F32FFCEF
05A6F59C
01B20699
F6B4FF8E
FD6DFF45
E2FA003C
F9F9FB3E
FF54E603
F97508CA
FFDD0183
0406059F
0AF90651
F9000031
F9F1FE5E
05D2F9D7
FA2FFEFE
FF65F9F8
02F0006A
FE8CFF84
F11FFF1F
F3E2EF8C
F9F6E503
091CE714
05A3062A
ED8AFA6B
FE5FFA73
078A00C3
FD840E59
2BCDEF38
F992007B
F6620879
1B6AEC23
F37805A1
0549F304
EE360BD3
1CB9F5DE
091107F1
15FC07E3
F22FF8A9
08BDFA1C
14C203A7
03190F76
04FBF313
0C5CE067
ECD0F1C4
01C6F5A3
F6DC0EFC
028DFDA3
F46707A2
04CE0DAB
00F4FB95
FEF6FD65
00C7FD10
B944FFBD
048A05A1
0025FDAD
05FDFE06
0205024D
03B804B9
009AFF08
015AFB38
FB2E036A
FF1004D9
0393001A
FFD4FAF7
0165F5D8
F3B3FEB7
FC06F73E
036EFC1B
0A040D32
F8DBF212
04F1DD4A
0753FC02
FE8DFB09
0605FC19
E6D9F400
FD6DF626
EF480281
045D0093
F533FA12
FF090DF6
FEFFF6F8
0A110871
FE461299
121E06C5
02FE1506
06A3F88C
F3200259
0D920116
DD801150
0B6BFA06
FB8F0DAC
0FEFF56C
1D0C04BC
04270726
0AB10036
F982FDA3
F4E3FCC4
125709AD
F095FF7B
12461085
07E7FDE5
F49DFA36
11EEDCA2
DED4F416
F0FCF6F7
1C07FA30
E1392686
0274FD52
0A72F735
F8F9F846
07DB03DD
F9D3F0C9
F8BCEB55
FB6709C1
F225F988
14A7026A
01ED0045
0C6CFB35
F49806B9
175BFC7E
F154F766
0204FFA2
F55902F9
0399EF4D
FD86067A
FD040117
00410555
06D2FA3E
F7A8FAA7
18EA047D
109D115E
0E3EFA6F
FAF5F180
FFD9E7A0
FDFDD9E3
E2EA0855
EBE3F0FC
ECE9FF5A
FBFA0EC4
FDEBD181
FC2002A3
FFD7089D
04B80F65
FA15F98D
0E380394
FCB80141
ED8FFEBA
F2EAE0E7
1794E197
F6D7E04B
F5E9F54E
FD99FC44
03C504FD
0CBE0967
FD1A1B1D
DF020129
F8B6F8AB
F7BE06BA
0BE80890
F84E02A4
0530F338
057AFF7A
0FCEF985
FF87F8F9
FF98023E
0FE90ADA
FE04E1F4
057BF31A
FFF5043F
FC8611A9
FF5DEED2
F310D348
F17100D2
FFAD0A8F
EC3A06CC
F5A9F2EF
088CFD19
0067F80F
07E80AC1
06E82733
FDDCE753
0169FE7F
F911F6F3
F20E0610
FC9AF4EF
07BFF736
F921CF5B
E53BEAF6
F26E0A2C
F788FED8
EB420104
F9B4F27C
04FBFA72
0362FBD2
F6890202
FC72FE2B
F948FA83
02070E34
FDDC001E
FF630237
03F705EB
011E0404
D5550004
FD0BE203
01FAF9DB
FDE3FD76
FC9CFECE
FFB1F2C7
0277F666
00860008
F2C7FB30
FE9502B0
CD8B0051
FD80FDA3
00C1EAB3
FAFCFD02
07A60435
FDA4019B
04A4FE28
076E11F1
0653040B
FD090647
FC5CF915
FC2D011F
01E5F3E1
05290182
192903D8
FEA5FF59
2C25F58D
F5D6058D
FF33F48B
F8D81090
0056FF6F
FE2A074F
060E0108
F5B4F8AB
05290525
001507D4
F17203B6
038DFE7E
00E3FFA9
FE25F799
064A1F96
0771FBBF
0CD3E898
F9DAF39B
E926F6FD
EBDDF8CF
1E3FF754
FFD4FF04
167908B4
1D0C1B52
F1FBF507
010A10EA
EE41F12C
FD920977
01090050
FF9C02AD
FE070E5D
083D0711
F1AB021F
FEAF05DD
F38BFAC0
0188FCDE
F4B1037F
07D10309
E007029F
FC8709CE
DA1FF5CB
0CCAFBEE
F3190589
043DFBAF
036CF64B
F54CFEC8
F9ABF7F3
0137FBBA
05420B9C
FB96FDFD
021DE1C0
04C8F570
03D3FDC0
04C70455
EC0DF61F
F675EE91
F06201E2
FE1EFCF5
F632FB37
FE64077A
0029ED33
FEFCF2FF
FE2704BC
EC12EC8B
04F7E005
0046F2CC
FDDBFA47
002C11FF
2611006F
0338FD62
0E8DEEEA
0FFC1B84
14A102AB
01610D7B
008DFD4F
03C7016A
FD48FCE1
007400DE
F64D08AF
050AEDA8
0BD1FE65
00E90428
01CFEF39
0762051B
FF34FD4A
FEF2FE45
195805B4
FDD7FDF0
07A90101
FBA5FCB3
00E900AB
02910674
01750C82
045004A4
EBAF001F
0213EB55
0A380323
05BDFC13
0017CD62
F19AFC86
FEA20941
F3C401DC
1641F53E
019FE6C6
FDD30133
05DDF8FE
FA9005D4
F616FB08
090C099C
0198F8F1
FDA9FDB4
F54E047D
0455F73E
036402BC
FFF8F3D0
0453F7C8
0A99077F
0389FE30
E9C3FAE0
FF130215
EDE1FE4B
F7D7025A
FEC6F2A9
FB1EF57C
01B5FB7F
00BAFCB7
0A32FF6C
F9DDFF54
FDCB02D5
FF240398
FF86016E
FCE20831
FFA4FD18
FD0F02EF
FF7E0173
FF37FB89
EA7C05E7
054F0173
F523FF86
F999F59E
00C9FFDD
F6AA0071
02ECFC6F
E90AFA7B
FE61F561
008CFE21
FC12FC7D
E6E9089B
111AF92E
01D0053B
FDC8FDD5
FFF40810
FAAFF7FE
0C39FC61
FD09FD28
FF4005E1
072BF7AE
