0023
FF77
EEA4
CB4A
71D3
0B95
F0B9
F076
EBC6
023D
FB6A
005C
0B8F
14B5
0E6F
F9C7
FDEC
FA3C
FF05
E7AD
FFE2
0210
3B69
DDFF
FD86
03F0
F893
F460
FE08
F80B
EAC1
39CD
F9E3
F64F
0C48
F2E5
015C
F2DC
0258
0AC2
E462
0837
FC70
081A
018F
025D
00CA
F852
F184
F49E
05F5
065B
0369
F291
F636
F301
F503
F85D
E3C7
FDAD
F982
FDF6
F700
FE25
17F4
0574
D00F
1EBB
F71F
1493
F52C
0B90
F6B7
1A11
FDE4
FCE2
FD55
FBF4
FBB0
0E49
02B0
FE72
26E8
F21C
0E22
CB83
06CB
FFD4
E3EA
03A1
FAFB
F063
FE5E
05F3
1B2B
061E
F9B4
0D9E
09E5
0414
EAD7
005C
FD33
DF37
F657
FCF2
E77E
FD56
02F9
0CCF
03B4
1422
E504
F970
0B9B
0830
FAC9
FC25
080D
1A56
0A3D
D256
0F44
0D3E
EE2E
1A70
FAD0
0930
0BAC
F6B9
FFD4
EE3B
024D
0CF6
EF7F
FC4B
0241
FEE4
033E
0104
FBE0
FEEF
FBEF
0214
FC39
F839
F9C4
EF13
0420
09AE
12B1
EDCE
063B
009D
0327
FFC9
0F12
006E
EAD2
081E
FA86
03DB
FB50
F428
07A9
0426
1DF3
EC1B
0167
076C
FCFB
FC44
F513
0715
FB1D
E5B5
FCBD
FDBF
0CC0
FB34
0084
ED81
00CC
FE07
1956
00CF
FCC5
00E2
FD0F
FEEE
F555
00F2
0D2B
DDDA
250B
09A3
E821
0BF8
0646
05B5
0317
F8DA
007B
090B
F955
F709
0283
F9ED
F8E9
F206
EEAD
4A2B
FE3F
0C78
EFC3
04C4
01EB
FAAD
0400
F81D
10DF
08B4
F38B
0966
0406
0FEB
F4E0
F79B
F302
21E1
BDFF
F5AA
EE29
1120
004B
FFBE
0034
0653
1A6A
F41A
003E
FFB8
153B
FBC1
070F
FC71
FB82
1575
04D5
FBFE
09C6
FB92
09F7
EC0A
F418
FFBB
4AB0
E412
FE20
03D6
F0B9
F9D3
EC02
00CD
06CC
E0F3
5E04
F363
DF6B
0009
FA26
F906
F9F3
F8F7
01FC
D6AE
F805
F7CB
F534
0281
FFA1
FEA2
FA7C
0B65
03D4
0003
FB25
FD6D
0191
009A
F860
EBA4
D1CB
F948
F0E2
19DF
0F1E
FDC9
FFC5
FC7D
01BC
14B9
FD86
017F
01E4
04C7
FC57
F848
0268
FAA2
049D
06A2
02DE
F57B
FA81
FE99
FD04
03E6
F8F3
EC9A
FE04
08B6
0BC4
022D
0184
0356
FD42
F952
0468
04FA
0391
00DB
FC34
FF6B
04C0
FE6C
02E2
F6A1
FE5A
FEDF
02AF
0694
037F
044C
FFEB
F839
2C5E
04C2
F966
FA74
F4C0
0537
0A97
0454
05A0
F839
09AB
FF06
1048
07B0
0170
FFA7
FCDA
01D0
040A
FEAA
03A2
F647
FC29
0BA1
051C
EFCC
F5BE
4ADF
CB13
067D
D466
FF6C
FF4C
F73A
05C0
02E5
E8BE
11AA
F938
DA3A
F1D8
FF49
0026
FE72
F792
E795
F244
FD86
E1BD
FD39
FF76
01E6
FFC1
0B3F
E7F8
0D07
0B04
FAE5
FF78
FEA4
04B0
035F
00FB
085F
11CD
0774
054D
0484
0244
0148
FEB7
FB73
0AE8
12E2
FEF7
F54F
F971
FF78
FDF1
0594
FEC3
029C
FE9D
FE99
0037
0024
08A4
0607
0198
EE38
F759
3AE4
FE06
DD7C
DF2E
0143
031B
FD42
0691
0BEB
02D5
FCF0
F956
07C6
0888
D21C
F7F8
0C7E
3581
DA82
F668
0F28
1135
13B9
FD84
F85E
F3EF
D78A
092A
0B0A
0C05
128E
FDB7
E428
044D
EA23
1B8E
0D02
F348
06F3
F3CE
0210
0531
05E8
F6AB
FA11
E288
FF93
0134
F8E6
033A
FD83
002C
03B2
04D2
052C
FFAB
FE29
00D6
DD2B
268D
FE50
D77A
356A
1AEE
D0DD
DBD7
1513
FFA0
F0CF
FD1B
08A7
1D68
0E11
FEB9
F877
FBE7
0692
4266
1931
3C7A
03D1
AEDB
E756
B5F7
3003
0437
041F
F911
FCF0
FC27
0498
0655
03E1
F745
0039
0388
FFB2
001C
0C8D
0671
FFFF
00D7
FF8E
0542
0CE7
E721
2F61
0463
C449
1A74
0432
D461
0BC9
E504
14E5
1050
9DF6
2CDE
08DD
F262
29B9
1544
FDBB
0D95
F62A
DD51
DBFD
0822
EF84
EDF7
0004
FDD2
011A
FD5E
0351
FFDC
FC35
0318
0325
020F
F6A9
03AB
06A1
20B3
F720
FBFE
020B
0A48
015B
016D
FFED
036C
F5EE
FB25
FDF4
FDEB
040B
00DE
0872
F6EB
FE05
FB06
0BB0
FD55
01F3
FD8A
F5D4
FDF2
02C2
072A
0CD4
02BD
0549
F993
FDB9
FFD5
0170
FFFD
010D
F539
FFFD
004A
FE6F
FED8
013E
FFD7
F850
FEC4
FCB1
0CE9
FECE
FC14
03F5
FF93
FDCC
00C4
01F8
F813
01A2
0334
0002
FE01
016E
FBD4
FF95
015B
FF56
FC5D
FB42
0886
FB15
FE9E
FB35
075E
FC86
FAFF
00CD
0566
0258
FEFB
0757
F9CE
05FE
FF4A
FE14
06C4
04EA
013D
FC0E
FD26
0048
F81B
F828
00E6
02FD
0C79
0752
FD2E
FFB9
01E6
000B
FE61
FD4E
02BA
FFF4
FFF8
FF5A
01D4
FDDE
0458
02B2
F7D6
0566
00D9
FE0A
FE21
FE58
FFA3
FFDD
FF2A
0A51
F5F8
049E
FFA0
FB5C
FD98
0029
058C
FEC5
F904
08D4
02B0
0501
FF8F
F1A6
E0B1
EEC1
110E
0058
DADC
1BD1
2652
E9B7
031C
DEF5
03BF
00BF
C7FA
E771
086D
357B
0292
FCE3
00AD
FBC8
04AA
2F31
05EA
00B5
F270
FCC3
F75A
2F4E
EFF0
00A3
CD54
1911
015B
FC43
0299
FFFE
FCC6
FA17
F48D
0753
EEB7
0066
F6FC
0EE7
03ED
16DF
FAA8
14AC
AB41
04B6
07C4
FC26
0CED
0511
0331
003E
216C
F771
B9C2
16FE
0FCB
ECF3
05C4
077C
055B
FAD9
D824
F8F5
0396
02D6
0365
1202
DEBD
0E6B
31E0
9D4C
0AEE
168B
F967
F05B
0185
F0BD
FFC1
E61D
1B33
DAA9
FF13
F3AC
F285
1005
C865
FB74
E5B6
F751
21D0
FBAF
2D99
F058
FF93
01A1
06FD
E9EE
FEBA
115A
1509
2B8F
EF88
FC79
FF64
F8B7
F3D2
2353
FAEA
FB57
08F9
FA21
09A6
F1A7
1AE0
F590
E8CB
341A
F099
12B8
1534
FA4C
0F3B
0545
F45D
6941
C02D
FFB2
0D53
FF52
FE10
F20A
F35E
FA88
28DA
2B05
05DA
FB89
F54F
FA37
021F
094A
FD88
029E
068B
F858
FE42
F9BF
01EB
115E
EADB
DBD4
5CFC
1E03
E674
CCB4
FBD6
FFA9
FE5C
052D
FE75
0A61
FFE7
0379
0011
0081
0D25
EC12
042B
0CDD
2621
DB12
00C1
0697
FDBA
FC55
F925
021C
FFFB
5005
FCC1
F890
E73B
E81B
016E
074A
FAC2
129B
E2F7
004A
03ED
FA9C
FD7A
FADD
0205
0621
00D4
F120
F93C
FDB2
F8CF
09B3
0915
14D0
0A95
F08B
B51C
EC4A
FDFF
0E1D
0012
EA62
1106
0677
FABE
065D
F77C
01F5
023E
0275
014A
FFA8
FFF7
FC63
313B
10D7
FD77
0484
FCEC
F9DA
D58A
15CA
D84E
F70B
3D5A
F6EC
1E97
F335
EBB9
D880
EFEC
FCA7
F3C4
063E
083D
3443
0F19
0170
05B6
01B7
FDBE
021F
FF67
00DC
016D
FE2C
042F
06CD
0642
F453
FF14
0910
F941
F629
F947
0753
07B7
FB48
00F3
0F59
F99E
063E
04A8
052C
FBD9
FD27
FE51
FAC0
0E5F
0F16
FCC2
05EB
05A2
FE86
FABE
01E5
01A8
0191
FE5C
0691
01E6
030C
049A
09C3
1592
F955
C74A
046F
1CFB
24D7
FB87
FCE3
130B
FB09
0DB6
2158
0D06
FF60
10C6
FE3A
05A8
02D6
038A
0193
FAC8
F92D
07C3
F8D1
08B7
0D4B
0AAE
0ADF
F732
E369
F63D
0441
0B9C
1571
17E6
0309
F96F
0B62
CD5E
0601
F8F2
031B
137B
FD0E
FD75
05CC
1BD7
118C
9D4B
0C1C
1519
E342
088F
08F6
04FA
FDEB
FBD7
06EC
FE5F
0253
07E4
1D00
F966
1493
15C8
E16F
1803
1BD5
DC39
119E
FBA1
F50E
F525
F3C6
29EA
F3C1
F80B
F58D
F6DB
0ADB
FB08
0851
F4DF
06DA
FBEF
0DD3
00FB
FF87
00B0
FE32
004A
02A2
FA8B
04F3
FF64
12A3
01EC
0024
0717
FE02
054F
0A42
053F
FAAA
0479
FA67
0AC2
F520
0B2F
073D
E6FD
08C3
0C02
F6E4
0F6F
0784
03F6
0EFE
1213
E565
00DD
1BAD
EFB3
1A0A
FB14
FC62
F785
FC6B
1D2B
0A82
F68C
F989
002D
FD98
FE70
FEC7
FD3B
029E
FDE3
FE30
0080
FE1F
ECB9
05D5
FFC0
2777
D700
DDCA
EFA4
0045
0550
FF16
04F7
FEE3
052E
1B4A
0DDB
FE81
FEE8
F8E6
0743
FF62
F5CF
0148
E025
1A76
002A
0105
FC54
FA5B
FBFB
F623
EA9D
E04F
0A0A
07D7
01C7
F84A
0668
F5D7
FBC7
F71D
403D
F8B2
FCBE
FF80
03E8
0F32
05FC
E84C
EDBE
F525
077C
FF4F
0640
F911
F110
E61A
EC3C
F72C
3444
F02E
F64D
0464
00E7
006B
0956
062E
11E1
CA2F
0101
028A
093F
FDB9
F71F
0E07
02C0
090C
F683
04BF
0056
FC06
0560
F357
0943
06FD
1A82
077A
D66B
F2CD
08AF
06E5
FC9F
0B09
0171
FD74
01E8
F7A7
F218
F593
EF64
02BD
EAA5
0524
0351
DC32
F857
0529
EAEA
0596
0B83
0685
0CCF
084A
EB17
EB53
0B73
FDD7
06C0
09B5
FCF8
1002
0D05
D5E1
0A2A
0391
0214
1398
0310
0D57
F1BE
0941
F6DF
DF95
FC04
F739
0758
F96B
0770
FD64
0065
F7C4
FC2E
01BE
05FA
FC25
F67C
F454
12FF
3A9C
D51A
AF8A
EDD8
4ACF
0FFC
FBC2
046A
03AE
FFA1
0F10
FCA5
04B5
FB61
048E
F326
1B50
F4CF
FA85
E89E
278B
0692
EAC0
0A26
02D3
FC47
FF40
EFBF
C11F
177D
09EF
16C8
0E89
00CF
F918
0761
EF50
09E5
FF1A
031A
084C
FC97
F9A1
FBF1
072E
0502
0226
F1D1
F7F7
03C9
08F4
F415
E6A8
F3E3
FF3F
4152
09D3
FC5E
F7CE
F9DE
0C70
ECAA
FF39
133F
E145
FC39
0B31
F63E
FC54
008F
FC75
03AD
0B2D
03D4
0EBC
0B20
EB25
00AC
FAC4
1904
F14A
3E68
F225
CA81
0E03
C39D
1DAB
09CF
1061
0D4E
01E0
0651
004C
F55D
D10D
E3E2
FC8C
0488
FE1C
05B2
18A0
0849
FF7D
005C
0139
FBCC
F351
FE99
0143
F6F0
03F7
0B27
0C56
FFBE
FDC4
FB01
06DE
06C2
F8CF
135D
053D
FD7B
FCDE
FB88
F928
0874
00B6
077F
0C83
03E4
F935
F999
FD54
0012
FF04
00E8
FE37
FF1C
027C
06C7
0144
F669
F6A9
01B1
10D3
2B0F
E738
DFEE
F568
049F
FF09
011D
0059
0557
05AC
0767
02D9
07DC
0097
FEB9
0294
00B4
FD4A
FD29
00A9
02FA
02F6
FDD4
FDFA
FE6B
F503
F2C5
1B8C
0BC9
F962
FADA
EE52
01B9
FFAD
FA71
0179
0A65
FDAC
020D
F5A2
FE75
01E3
002D
FBCF
F9F5
F44C
1188
FDF3
F95A
09E5
FC14
F79F
F9E4
FDA6
274D
FF2F
F9D5
00B4
FADF
06F1
FCF5
004F
0A70
0D18
08E0
1292
F56F
0278
030C
099C
FE8B
0159
F972
0863
FF21
0075
0678
F5A6
07E1
F79B
11C6
CA32
0C28
F720
0EA6
F8AF
FA02
FAAC
FC54
FB14
09A3
FC7B
FC92
15F4
006C
FD50
FD65
01AD
FAE8
E46A
F248
FAF5
F044
FA59
03D5
FB94
0431
FC15
1456
FE37
FC7B
076D
0092
0287
FDEB
FF92
046E
1372
F69F
0359
FD87
0748
FD15
FD5A
030E
0521
EA49
FBD7
FD5E
04C6
0095
FF3B
0397
003A
0179
FAC1
FD6A
034F
FF84
0060
F65E
028A
FDBB
E771
21FE
F416
0B76
0025
0150
FA5B
FB71
0072
E344
F7D9
0DA5
FFB5
0653
FFDF
FD7A
EBA8
0673
0138
248A
00E2
F75E
FC99
F856
FF14
FFEA
FC44
FE8A
E312
FF50
FD01
0A83
07D7
FE58
00D9
F387
F551
1B94
FEFF
FF8B
FA46
FE09
01A1
009A
FC65
F915
1CE9
EBA7
FC65
0BD8
FA90
0567
051E
FFF5
0509
F7D4
0004
0030
F52B
015F
0D15
F74B
F2D9
D2D5
475A
F8F9
DAF0
1879
F598
02F3
FEB3
F864
0B39
086C
0EF1
01B0
F240
FECB
EC62
1E21
F629
F4E6
E0B0
13F5
033D
0A8B
F988
FAD2
FF83
0564
11CC
0063
F86A
F524
0F24
0BD6
FDB1
036D
0131
FE8C
11EF
FA22
FFDB
080C
FC5F
F487
0F59
0203
07A0
3D45
04EC
F67C
001A
0EBC
F884
FE0B
ECBE
1CCA
215C
ECFE
F06C
080A
F166
FEA4
FA92
FD0E
034D
E63E
F217
FC02
EFD8
F6AC
FFFB
0095
0352
FE51
07FF
FFCF
FFE1
0147
FD08
0071
0233
0C5A
FEF4
E923
ED66
1C7A
EDEF
0522
FDDD
F517
F75F
198E
112D
E787
FCB7
EFE3
F7D3
059D
E5C3
0005
02F8
EB4A
0C5F
F990
1116
F3A8
068B
FB1A
0D1E
F5BD
FAA0
0186
074F
0DEE
0218
08B5
F7C8
0615
FAB0
175D
FBEA
F868
05DD
05AD
FF7D
FB33
074E
2008
0CE7
C9B0
1245
0D3E
F971
0681
F5B3
03E5
F989
FC0B
FCFC
FFBC
07A9
04D3
06EC
0FD6
00E2
E1FA
F206
0557
0065
17D5
06D8
FE1B
ED24
0092
ECA2
38FC
DDA5
F532
EBFD
F884
0821
1F18
F7A4
186C
B2C3
1341
FA26
FA42
F8F9
FE4F
FDBB
FBEF
FB57
EE9D
018E
0586
1612
F8B7
FC0E
0313
F653
FBD5
22F0
019A
FA9A
074C
F956
0A78
EEFD
00E0
11E9
A794
2B10
0D6E
DDFB
0889
0A0E
F6FC
18D3
09DB
D048
0F5E
09A2
F71A
0524
03C9
FE0A
F356
EEC5
2246
1A83
FE75
F668
FC50
00C7
FB0F
FF77
00E1
018A
0330
FA72
FC3D
FB43
FAB7
F636
F7DF
ED3A
3292
F955
E386
F965
0EAC
0A2C
07B3
FA24
F74B
B9FB
E8EF
F847
FFA7
0FFA
FBA0
0F06
EA37
FC74
F6ED
14A6
01B6
FBDF
0014
FD56
FF95
FA7B
04B5
2098
FB3C
FBFC
F428
01CF
0575
FF91
003C
FA7E
F90F
FF75
FF89
FB03
04AF
F93B
04CF
F767
E4F8
CBEB
78E1
FD3B
CF2D
2096
FAAE
FDBD
03BD
082F
02E8
FC5E
FDF1
FD31
F706
F896
F1C3
FB02
014A
147E
0A7D
F56F
1370
F3CB
F224
0F97
1241
16A0
CDA8
1687
0B6F
2096
F55A
1742
10DA
EC57
FCD1
F023
0766
FA57
F025
FE82
FE2E
07DE
FA52
F66B
1452
1525
07F1
F4B5
F980
075D
01FB
F921
0586
ED37
05FC
FCB5
F14C
065B
FEB0
F381
F7FE
0B25
F97E
11D9
0C38
FB5F
F915
F153
F639
06A0
0204
0075
F897
0720
FDEA
EE89
FB1E
0623
0E13
0B1A
EF89
0062
0363
1284
EF38
FDDB
003D
0971
FCBC
019F
0A7D
F025
F71C
01F4
00C3
F85E
0C71
041E
0548
E66E
0206
025D
FDC7
FC75
002F
02EE
0A24
F05F
FA96
02CB
05DC
FD12
02BC
0740
04FA
0932
D223
0AA4
0363
0577
FDFA
FF44
05C4
FD57
0094
342A
EF85
FA7A
EF36
ECC9
F65D
086E
FB0E
02ED
0584
FB40
FEAF
F77E
F67E
0371
F542
FEEF
EEE3
CC87
594B
EEF4
F6BB
15A4
016F
028B
02EC
FA51
13E2
F489
F71A
FCC9
FE27
070E
DF00
EF92
1172
D37A
F0B5
FACD
FCBD
FA0B
0754
0CEF
F447
0AC7
C93E
0F2C
F2E1
06C3
0E8B
F0C3
ED1E
FAF8
04F7
EC05
2A00
000B
2EBD
E950
FE21
067D
F520
00D6
0196
08BF
03E5
F83F
FFB4
FD63
02DB
07D6
04AB
EB74
0661
039A
FF7B
027A
01D1
E646
F9BD
F77B
F89A
2AD8
EBD2
EE92
05CB
064C
ED5A
ED7F
FD25
5D6D
C23B
F69F
0A2E
E839
03B2
056E
F8DE
0A09
18CC
1763
FA66
141C
1898
0574
056B
F5E3
FF96
FC91
FBDF
089D
0248
FFBB
01A6
F721
00B2
0A9D
F960
0FFC
F8AB
FC8E
FBD3
FFF6
FB30
F9EF
F418
E145
F900
F942
F737
FE5A
FB1D
0B58
FC79
FBB7
FC29
EF2F
02F9
FC46
0550
FED4
01A7
006D
05C1
0DC8
FFDA
FFA1
FB52
0896
FDF5
01FD
0188
0832
DEE5
060F
FDC5
098A
FDB4
FEB7
046C
FF2D
FE52
FBC0
0868
FD50
0169
0553
012A
FED3
FEC9
0482
F8A9
002D
FF3B
FB47
018E
02D3
16AF
FE70
2466
F6B3
16F2
FB68
E80C
01A1
FF7B
FAEE
01F3
0246
EF99
07C0
01EA
FF07
FE65
0AE5
DA64
0445
FFD2
5104
D1D5
FC10
0057
12A4
0180
0275
0139
F8FD
04ED
062D
0763
FEA6
FEBE
000C
0118
FC93
FFA4
0602
FD87
FE75
0079
FDD7
0277
FDB3
FCD1
FA65
30C7
E828
FA78
0678
F116
009B
00DB
012F
FE4B
5F46
2B46
FCA3
0152
1269
0272
FE68
03E5
06C4
07D1
F88D
0361
0503
FACE
0052
FC43
00DA
0129
01A1
0077
FDF5
FB4B
015D
