0ABC
07DF
FDD2
EF7C
F957
08E5
07DF
132E
0F1E
0AF1
F737
EEE3
FFF2
0628
0086
FA72
05CC
F6B8
FE49
FA82
0066
E7DC
F632
FA66
0491
F681
12B7
F484
0505
F6D2
07DB
FFB7
0C78
EEAA
E789
014E
0458
F0D9
10BA
09BC
10B2
FD70
035E
FFA1
001F
F888
0435
F6F4
E189
DB2E
FB08
FE2A
FADD
2414
FC04
0A86
0145
FF80
FEB6
F9DA
0072
14A1
1917
0D7A
E33A
F8D3
1032
F536
0ECB
0414
D93D
F702
04F6
061B
0CA2
07FF
FE63
032E
FB3B
FBE2
F85B
ED5F
0AD3
F242
F2E0
091B
0526
0866
020D
FC66
FE74
15D9
118A
F846
F1DD
014C
F823
FA2E
0326
04E4
FE06
010C
FD42
F53B
FE8A
FF78
FC3E
F9E8
FF23
FD16
02F5
FD81
06C6
01D8
0C1C
F7CF
FCDB
FD08
0185
0A6B
00B0
07A6
08E4
FF8A
FD0A
02E4
FFC3
0406
FC9F
0190
FB4D
FB5D
FE76
0556
BB3A
F838
FB43
034F
FF31
0458
FAA2
0212
F8D8
0217
FB34
FEAE
06D6
F893
0C74
0135
0095
00E3
F6A5
FEB0
FC8E
0771
02CE
06A7
0215
001D
E90B
07C9
02BA
2AEE
01DB
F955
0AC3
0280
0638
FB5A
F277
0760
04ED
135F
FD87
D282
F42A
FB60
046F
F053
FC3C
007F
1496
F730
03D0
FF92
0B34
113A
D900
F82E
056B
111B
0302
0522
F790
FF82
08E0
FE83
D721
F905
0187
FB6C
F756
FDCF
F989
0351
0AC7
00A0
FEDC
FA4B
0810
FE84
FA35
02ED
FE51
017A
FA84
EFAD
FC4E
0418
0250
0028
FE91
FD94
FF92
0240
F9FD
FE7C
039E
FDF6
F85F
02DD
FFCA
0166
FA2D
0211
F3B6
01BE
13F7
FB99
FCD5
FE23
F141
F7F7
FF5E
03C4
FDB5
FEF8
F89A
0445
0147
FE81
024B
FFB2
FED6
FB6B
0237
0372
FD2F
03A9
FE47
00A0
EFF4
FF58
FC42
02E0
054D
00C9
FAD4
0151
FA3C
007D
FE78
0005
F718
0054
FE31
FF3D
FFFB
FBC8
026A
FF13
01A2
01A0
005A
003F
FF78
FE19
FC35
FFBD
FF6D
F9DD
FE70
015D
FFB9
F978
FF20
FF6C
0771
01A6
FD9C
FE32
033E
FB07
00AF
0044
028D
0213
FBFE
FBDF
04D0
FA77
04B7
0448
011B
FD05
0079
02E7
0395
01D9
F5E2
E344
FA37
05C8
E896
0A8C
C418
0542
02FB
0F47
02FC
10AD
FD0E
F79F
0C1E
FD0B
FE96
069C
088D
F9E7
0641
00A9
FE32
FFE7
0424
FB9A
08C6
FDA5
F825
0146
0B88
0809
0495
025D
FDC9
FBEE
186D
FBA8
1B41
F3AA
CD0C
082A
0A78
1CD3
FF22
0264
FFF0
118B
051D
FF5F
06F7
FD7D
FF0A
FA1A
064A
140B
027A
FCED
0761
FF9D
F54E
F14B
EC33
0FFB
1533
D973
EEDF
0F0B
0A07
0A18
0918
F5AC
00C7
077B
F495
0DCF
00F8
06C4
FF5D
D4C6
0EE5
12E3
FDD6
0307
FE44
0482
099C
FEEF
00F5
F822
FAEE
0AEC
03AB
F8B3
F46F
F700
FB82
001A
03B2
063B
00CD
F8C6
FB2C
0BC9
0233
05D2
003B
F541
02C5
F8BF
059C
05D5
F7B3
0E5E
FD36
FD0A
F4AD
F8B9
FC6B
F4F6
FFC2
FF9D
055D
FAC5
FB5B
F4D8
0010
0455
040A
EA05
DE4B
1626
FAF6
F629
E9AE
0102
078A
0E76
FA92
0EC6
033B
F480
02E4
14C9
0228
0B4D
F88D
F351
02BC
F109
FAE9
EEC4
02D2
FD97
FE1B
074A
F5EF
12EE
F479
08B1
019D
FDF4
FE99
FC83
01E8
FD35
15B8
FFA8
00C4
02DF
FE16
00CF
FA4C
01C4
09C1
FE7A
FD4B
FDB9
018B
F906
F5E4
006F
FFDA
FB50
F68D
056B
FE99
0124
013F
02FC
FF9E
FBD5
F313
0C9F
FC1F
FB7D
FD08
02EC
EA6B
0524
0288
ECAE
F7F2
2108
FDDF
E379
03D2
EED1
1BCD
E482
F9DF
14D0
01A9
1C52
09F7
F917
048C
F94C
0011
0BA4
FC95
1683
C49F
0A3C
034C
E930
0767
F18A
FE13
104E
F49B
FF8D
FDE0
055F
F1AA
FA8C
FFC7
0792
005A
0ABF
0485
F7A5
FE65
065C
FE27
F1A4
F970
02D9
FEAF
F5A1
04D4
00FD
0A0F
EADE
F50E
027E
FDB8
0321
FE08
04CA
0297
FBEB
03F5
FF0A
0119
054D
00ED
025E
0C65
01E1
0E71
FBF2
FD9A
023F
F794
051F
F264
FF93
FF90
FBA4
059A
FF4F
FE01
FBA5
031F
FD7C
00C2
FCDE
FFF0
FD7E
FE17
039F
FE44
FD41
05E8
FE2E
FDDB
0148
02D4
FFA2
FBBE
FFB3
FCC2
FEE4
0180
FC94
F99D
01E4
F3DB
FC36
FD5E
FA4E
FEE6
032F
0373
01BD
0059
FFF3
FF06
01DF
FF5F
FD61
01C4
FFEE
0659
FB7E
047D
FDAC
FFC3
0235
038B
025C
21C1
0109
1C84
FFC0
FCD8
02DE
02BB
014F
FA5C
FE4F
FD75
FEB9
01B9
FE13
FCAC
0204
020C
FE2F
F9C7
01A4
03D4
F9BD
01B1
EED1
06CB
0D6C
EFB6
FB43
0E3E
E04D
0CA0
0CC0
FFD9
2390
019E
1A64
F6FC
FA9B
0183
EFF7
0226
F9FF
0937
F886
0102
F628
08B5
1A78
F323
FD75
F864
F67F
FF9D
0502
FAFB
03CC
FB5A
FADA
098E
F0D5
0143
FCDD
FEB2
FE27
FC37
07DB
06F0
FB84
FEF6
01A9
097D
0511
FAE8
FECB
FA65
FF36
FDAF
0A29
FCB4
0436
FFC4
12F1
022A
FECA
F9CB
FFC7
FF1F
FA79
0021
01F1
AF48
FF83
FBE0
FFAC
FBF6
FC19
FFE3
FE0F
02A5
01A1
02D5
018B
06F0
F297
FF15
06BD
0251
03BF
0E0F
EFAA
FE0B
FF45
0588
F8AC
0341
0103
FE3A
FCAD
0008
00BE
035E
FCDA
0386
0148
0203
FE8B
FEAD
FFC5
F7E3
00CF
FF0E
FE51
0444
FC83
0342
FE4B
FBFB
FE70
FF9A
03A4
0413
FEB2
FF70
00F2
FCDB
FF47
004E
001B
FB1D
0BCD
FEB0
F996
0752
024E
2B1B
0CBE
0C19
0C93
0455
0C1B
FF11
F72B
FB28
056C
F65B
0E15
05B9
FFD5
FC0A
E54C
03EB
FE4A
0118
F5E1
02F7
F785
02E8
F643
03E5
0825
F732
FE42
D72A
1FA5
182F
FF03
ED8A
FE67
F23E
BC69
0027
CB07
024E
F2C9
FCC6
FB52
04A5
203F
FD28
1538
0256
F43D
20C1
00A5
FCCA
FAA1
1937
058C
186D
0368
F9C0
061E
FEEB
0498
018F
0427
FF2D
025B
F79F
00F6
FDBE
FE71
F7A9
FDA3
ED3B
FFC7
1029
FFAA
FFBC
0231
0601
FE3A
01C6
FF39
05E3
FFD0
04BE
FDAF
00BE
FEB6
0211
FF75
00D7
FB1F
F836
F54A
FB42
1937
F9B8
E8B9
F46B
FDAE
F6A6
0691
F463
FE98
01D3
0DAF
FE2B
048C
0A0E
FB61
FF6C
0831
0191
0DCB
0C73
F227
016C
F998
FBA9
0B89
0B48
F6FD
0D4E
F277
FF80
05E1
FDF0
05B8
F2E6
069E
2DAB
016D
FDE0
04A6
04DA
0B04
0197
FF00
FCDD
FBC2
031C
F553
0623
FD94
0B3B
0289
0835
F9B2
FFF8
075E
0058
04E1
09BC
FE72
FCD9
F698
037E
038D
044C
0F5E
F83E
F670
E5E9
059B
05A2
07B3
FF6B
005E
02A2
10BC
FEF6
FEE5
FEE2
F2DF
0A28
0834
FA91
FF74
116E
075B
FF9A
F93F
FDA4
EF4B
08E6
F2E4
FBF8
FE52
FEB3
2025
E577
F08F
01A0
0ACE
EA8A
ED15
F941
1038
FA02
FBA3
01BD
FDCF
FF4A
02EF
FBD8
FA41
FA52
F0DD
FD9D
EBB3
1078
FFC8
0090
FD6C
00CB
0C8D
0462
F85E
049F
00BD
0490
045E
FC91
FCDB
0323
FD19
AB6C
FDD7
F8B8
0165
F696
0213
022A
023E
FE8F
FC56
02D9
06A6
F603
FAEF
F7D2
FE7E
00DD
00A1
0444
EA82
0809
056B
00FA
01BE
FF7A
FD72
F488
F2DB
0AB0
FE8C
0B00
FD85
F6B0
ECA3
084E
EBCF
F4B3
085A
039C
FA9B
FB87
F3B0
F15B
E88D
FD0E
F357
01B6
F68A
FC3D
F633
02CE
FCC5
12E9
04FF
104F
0E45
E9A7
F636
08D2
F6BE
08E4
0323
EF46
FE39
F6F7
037E
FC5B
0C33
F6AF
FD00
FC1C
F62B
FCBA
0348
02F1
04DD
F1A4
FF7F
EDBB
FD21
FDC1
022B
03D2
FF8B
0531
0097
0231
FB60
F24D
FEF2
FF28
0F1E
0065
DCAA
1184
DF4F
E6B1
02DF
FCF0
01D8
F23C
F5E6
0113
FA47
FF5D
0E8E
F837
FFB2
036C
F7AA
079D
FD24
FEED
F36C
0760
F8C6
FD13
0289
FD29
01B5
0599
FBB0
04AA
0A3E
003C
0161
FBD4
F8EA
EB5E
08C2
0B62
F5D2
FADE
0821
FC1D
0AAE
015F
08AA
F21F
0E26
F952
0E23
FE26
0711
00A3
0FD8
FDD1
F4F5
FE0D
04AE
FECC
F946
0059
FECA
06F3
04DD
041D
FDB3
FBC8
FA3A
327E
000E
0375
050B
FBEB
F222
FEE4
00F1
FF01
01A7
0493
082A
FFD6
F45D
F3EA
004C
F79D
03AB
056F
FFEB
0785
FD9C
030D
04F6
F4F2
F84E
00FA
05C4
FEB8
FD5A
FB97
0031
EE76
03AF
FD32
FC89
04DA
FCCA
1D3B
003F
F16A
FC32
04EA
0003
FB73
0457
0321
0143
0050
051C
0029
FCF4
FFE5
038F
005E
0104
FEB3
014A
07AB
EBD3
0315
0A0F
04B4
0026
E2AE
1689
E0AC
F9D8
01A4
050B
FDB3
F55E
03D3
F928
03FE
057D
FF31
F59E
FE6B
016A
EC4F
0FE9
03E6
F684
0426
0B02
FE08
17B2
0E23
027D
1B53
1856
0B79
17B6
F839
F3F6
BD66
E2CB
FFDD
1302
07E0
F8EE
FF0D
E916
018D
FD85
E9DC
002A
FEEC
1C27
0620
F591
FFE4
0337
FE83
F801
03BF
0CEE
FBB6
1299
0069
010E
0CDD
E687
0610
EB82
08F2
F69F
F277
F621
00CD
FEF2
077B
14F5
03AD
E5D6
017A
F9EF
045F
02EA
0804
10DC
045D
0582
0FB8
EC57
03A0
FBA3
14C3
EF76
F1C1
E258
0E80
FCB2
0110
028C
02C4
FF67
FBFD
0599
EA6F
038E
FCCA
016F
0116
FFC8
0713
FB64
0ACF
01E2
00E1
0128
FCA7
031D
0105
0132
002B
FFB0
01E6
F74E
FEC7
FF4B
FFDE
FD12
FFF0
FF37
00BF
0151
FBB1
04CF
03EF
FB1E
2999
F989
079D
FD05
FA46
FB81
0383
050D
FB01
FDB5
05E4
FFFE
00A2
FDE1
0638
069D
F88B
08F7
FAD7
068F
02B7
0065
01A3
078F
FB2F
FA2C
13F2
0353
0888
D827
05DD
FD14
E4EE
0B30
F776
F3F1
069C
DC71
007F
0258
FF38
E836
0355
1993
00A7
EB1D
077A
0C5E
EC3E
E48F
FDB5
FC4E
07DD
04F9
F846
06F0
EAFC
190A
0FDE
0B5B
F037
09BD
F316
FCAC
0C28
F0AA
0049
E99A
0042
017A
FF28
03C7
FF41
0326
0887
F930
01EA
09E2
FD84
13C0
C33B
0594
003C
FB73
FF2B
09EC
0E99
DB20
0706
18A3
FAB5
0963
0387
F9E3
0844
FB0B
E8AB
FC06
0520
F1BB
0672
1272
0111
02D9
FDEF
FF81
084A
20A8
FB87
F0C1
FB79
10BD
0B55
0401
FD19
F80D
056F
D8FE
0542
095C
FC55
0375
F2EF
F0D4
FF00
F4EF
0C09
F9F8
D274
E0C6
F8F0
FC6E
F33C
10C7
0691
2618
FFE1
0268
FE10
055F
FA12
095F
0287
EBE9
EF19
F73E
02BE
F7C6
08E1
DB86
0CB3
1ABF
F9A2
0BEF
F926
FD23
0361
00D6
FAB9
FC59
1295
FF08
0314
023B
FFD2
00DF
FB90
FF90
F130
040D
FF1C
0024
FD2C
02DC
FA62
FE5B
00CA
02F5
065B
FFDE
0248
FFFA
FD96
00A1
0313
0027
0541
006B
03C0
FB75
F5C9
0D3C
1FB4
0086
0382
051A
FD6F
F150
04EF
02F2
08DB
0359
F873
FC70
0F8A
F73D
0476
FCEC
081C
02C7
194D
D2FE
0061
01A2
F9EA
0A79
0249
FD2E
FA29
00D1
0B21
0A81
1942
08D5
E181
DA10
0B2A
F2C9
FE5A
F20A
FF46
F8B6
00E1
FF3F
1086
FA65
F3E4
EAB2
FC88
1802
F916
FFFF
0122
FB3C
F21B
0A16
084D
F00B
145C
0A24
FC4A
F5CD
F8A4
0629
00A4
FC3C
31D5
00E5
077E
FA67
015B
0314
F8B2
04F7
038B
F58C
060A
FBD5
EF24
0585
FCE2
0555
FA24
FFA5
FA63
0DFF
00C3
FE21
007F
0718
0041
FDC8
F288
0DF0
F730
F9F0
FF36
E21C
E39E
FD66
0C47
057A
11C2
FCC2
FE70
0A92
0840
F5DB
22F8
FB2F
F563
F31E
02AD
EA26
ECEA
103A
007C
F972
159D
00D4
F862
FB03
0789
F44C
033B
0622
0892
FCB2
020B
058D
0B8D
0F42
07E9
FDC3
05D1
FDA3
FF6B
FEB2
01E3
0173
00B5
022A
045F
0BF2
0483
0071
FDF4
02B1
FB23
008B
F6B3
FBA8
03DC
013F
FCD9
F612
FB20
15FE
F69C
F8F3
1610
1270
E0D0
0DDF
00C7
11CC
0E83
0428
014C
F452
FB6D
025F
FA2D
FB7E
001E
12E4
0858
0B4F
ED8F
F908
00B1
F5D9
11AF
F95F
F8B0
084E
048A
F647
F105
FB35
FFDC
EE18
015E
09A1
032D
F1D8
FFD5
12B9
FB55
EDBA
FCA0
FC6C
0030
17D0
08F9
114F
F345
1760
FF8F
FF6B
FCB2
0A61
0293
F8DC
F99A
03C3
EA52
05D1
020E
1439
FFEE
FC00
FE5C
03A2
011C
FE45
EC33
FE52
FDEF
FDEA
FE14
FF3A
FB7E
FD85
11FC
FCC0
FF34
FDF7
FE5C
FBDA
F706
005B
FCE8
FDBE
FECB
03ED
00E3
FC70
04ED
FE23
00BC
FD62
0034
0319
FC56
FEDB
FDE6
02BC
DB98
031D
017C
00C4
FA16
00E4
0C4E
01A1
E9F6
FF43
0227
033F
058E
FDE0
0A6C
0232
FD07
0A86
F6C3
00AD
FFD0
010F
FFC9
FFFC
FFD5
FE55
04F3
F178
FDFB
F03C
0359
FED6
01BE
F893
01A1
FC38
FCB8
FBD8
03AE
FDF3
FEBC
FF2C
032D
F2E3
0D24
FFF2
F2A4
F99F
FD4A
FEB0
F688
1292
FED4
FFD3
F72C
FF74
F820
021B
FE8F
039B
FFAC
02E4
024F
0742
D185
02FC
F978
FEA6
F833
06ED
FD7D
0246
06F7
0458
F95B
FB35
ECB3
03D0
00B1
FFDD
0291
0336
FA93
06C6
FCF9
01C5
032D
F97F
FD61
FA1C
0131
0269
F9A8
FDB7
042C
03E7
2774
0393
02D1
F547
FBBE
01B4
F579
0792
F11A
FAE3
05F0
0353
FC4C
FD19
03B9
F728
FE54
00AE
F9A7
1826
FC03
FC3F
FB87
FEA6
F55C
FFF5
0E81
F743
F9DD
ECC3
190A
FE9D
B5EB
0D01
02CE
0A9A
06A5
E2DF
FE6E
0CE1
FF48
EC82
0B05
F254
0065
038E
064C
F7C3
0329
FEA7
049D
EF27
DE1D
EC71
F0BE
0E7B
0887
12B7
087A
0A95
0ADD
1E0C
0679
04E0
FC38
F016
F8C3
089B
F8CC
0BE9
02F1
F58E
02CD
EACD
0E0B
E401
FDAE
F8F6
FF0F
E97A
F761
FEEE
FF2F
FDBD
0638
F75E
FCB6
02F5
F676
0357
02AE
094C
05D0
FFFD
0D5E
FF74
10E8
F65F
FEC4
F3BA
000D
F763
FB8C
0298
04F1
FE42
FD66
00BF
00F2
07D7
0393
EDE8
01EC
FF82
06C7
031F
01AA
FE73
02A0
002B
FFE6
002B
004E
023C
FE87
028A
0092
FDAE
ED49
FF42
FF60
01CE
FE45
017A
FF9B
0065
00D6
FEDF
0170
00F0
FE6C
FF87
053E
FC77
FEFA
02C6
FF6E
FEB3
FFBD
FF85
FEF9
FF3C
FE5B
0139
001C
03E1
FE57
00FB
FEFC
FF52
E495
FE7E
FF51
FEC0
0176
03C3
FEB9
FFB4
0079
FEE7
0080
FF62
01BB
03B7
F950
FC62
FEDF
0106
007A
FF3C
0138
0228
FF76
0023
FF9F
0064
00C4
FC48
022F
03CA
0191
0102
1DFF
02C8
0040
FF8C
002E
FE1C
01B8
004A
FD32
0190
FE28
007F
FC95
FD94
0997
0121
0215
009B
FDEA
059D
0210
FEF9
FF98
FF80
FB49
FECA
036A
FE47
0263
F49F
FAF7
01AB
00C3
011A
FD75
0295
FF05
00D3
0042
0623
0130
FBD0
0420
FB6E
0095
FBCB
FEF9
03E9
FFB5
FEA0
FFC5
016F
FDC0
002C
FED9
0544
FA94
FE79
FF79
0039
FE94
00F5
000E
FFA0
EB4B
0237
0005
FEF1
FF54
004C
00BB
FF16
0010
01A5
FFC1
FFE2
03A3
FE84
FD70
FF4C
FEBB
0180
FF7A
00F7
FE62
011D
0076
FEFC
016C
005B
FCAB
00A7
0083
FFA2
0098
FE38
ED41
FE20
03C2
05F6
FE88
00AA
00BB
FE2A
004F
0033
0209
FAAF
F7B4
0511
0252
022F
0216
0130
01D6
00E4
FBE7
020E
0497
0273
FBC1
F7F2
013F
01DD
FD03
FCFC
01F9
FE81
D3DF
FFA6
FCB2
FF69
FF14
FE58
FFC2
0177
02DF
0437
FD96
FF1E
F5D4
01C8
003E
0229
0012
044A
FF34
0176
FFDD
FFEE
FE21
FD0C
0392
0241
FE9D
0181
015A
FFE9
0035
0113
001E
0533
00C1
FE70
FDF1
021A
008D
007A
FF3A
007B
FEB7
00E5
0169
FC50
FD90
0127
FF9F
FFE2
01B5
FECC
00A4
FD89
FF84
FD90
0059
004E
FF60
FF2D
0127
FC69
FF0A
0190
F94E
00E6
FDAB
012C
01C4
004D
FE7C
00FC
009D
00B5
FDB9
FFEB
0132
02E6
FC21
FDCD
013A
01A7
FFDE
FF68
0181
FF51
FC26
0231
021D
0176
01FB
0103
FEDE
FA1C
FEF1
0041
EB38
0468
FD71
FED3
0185
FCEB
0162
FEA7
FF40
0308
0186
FEDE
018D
FFF3
FE40
00A5
03A6
001F
0076
00BB
0002
005C
0122
FA6D
005A
FE19
FF89
04E9
FDC1
028D
FF95
026F
C3DA
02E7
0141
FEE1
00B9
01C6
FFE8
023B
006A
0183
FBEA
FEA9
FD3D
FC52
FCC9
FBBD
FD54
01A1
01AB
F6BA
FE89
FFCE
019F
FDA7
0353
01E3
0036
FE63
00E6
01AD
FFBC
FF55
0570
02B0
FEBB
FEAA
FEFF
FFAF
FFC3
0170
FE58
FD8C
FFC7
031F
01F2
FC7D
FE3C
FFD5
FDF4
FFEF
FFC6
017A
0108
FFC3
0109
FF1F
00FD
FF6C
FF2F
05F5
FEED
01A4
FE61
014E
E223
FE14
0093
0004
0292
0353
FECF
FED5
FFFA
FE6C
00F6
FFB8
039B
03BA
FA69
FC1D
FF4D
00DD
0068
FF31
0117
01FF
FE48
00B8
FFF3
00DC
0016
0402
001B
04D0
FDCD
FFB0
EED6
FB10
FE89
0150
0260
011E
FFCF
FEBD
008F
0171
FFB5
017A
FBCA
035C
FE02
FE79
00A9
FEB7
0093
FE2D
01D7
00D2
FE88
015B
00DC
FF5D
FEED
00A0
05FF
F633
FF36
FEC0
3606
EFC5
FC7B
013D
0056
05D5
00C7
02FE
01A7
F8C5
0835
01F2
010E
F7FD
00FA
FF54
FBC7
FB8C
FE6B
08D8
05F4
FE05
FFBC
FD47
FF61
01B0
FF56
FD68
0228
0369
FBE4
00CA
E3F6
FF28
0423
04D0
01AA
002B
001A
00A7
050E
FF46
FC68
F836
F20B
0128
01C2
019F
04DB
FC4F
023F
00BF
0049
0044
04A7
FBAE
FE07
FC20
FEC5
01B7
04BD
F8BB
01A9
02AD
D83F
02BB
03E7
025C
0448
017E
FF21
FDEC
0208
FDC5
051D
FE55
F69C
031D
047E
0029
FEB3
02FB
0011
FC8F
0169
FC7A
FD83
FEAD
FABC
0059
04EF
01F3
F8B3
FF14
FDE4
FECD
FD84
FCE8
FBA3
FD5A
FC07
F99A
0053
FFCD
0248
FF67
02A2
055E
1256
07D0
FE3C
FDEF
FB1A
007E
FFD9
013E
FCAC
FFFB
0555
062F
02C7
00C5
FFA9
04A1
005F
0552
00E2
0684
18B4
00F3
0458
FFC2
011E
FF42
FECC
FE9E
FE64
017E
FFF0
0336
05E5
017D
0397
FCBA
FFC1
FFB1
FCF0
FE3F
01A3
FCF8
F894
028F
FE95
03C4
FFEB
FE85
047E
FF32
FFCD
FA43
03FE
01CA
FF26
FD98
FE68
0306
0030
FDE4
0002
FF99
0144
FB09
FD1B
FC46
FF7C
015F
FDBB
0053
039B
09E7
FD61
03F8
046A
FB92
0173
FE7A
0159
F953
0360
FB60
02D4
0203
09B5
FFDD
0043
FF70
FFA0
FD32
002C
FE85
FEEB
FD76
FF0E
FE8A
FF63
FD0F
01F0
FE32
0701
01C5
FF83
FEF7
FFE4
FCE3
0175
02AF
FFC5
FF50
00B5
0054
0033
FCE7
00E1
003E
3780
FBE1
FBFA
FD65
028E
FF1E
00CC
FBBE
013D
041F
02BA
0461
FFB0
036E
0581
04B0
00A7
0187
FE20
0604
FEE4
000D
FC85
0243
017A
004A
02BB
01A1
FF07
FE43
FEF1
FA1E
CCA9
FEA0
FBAB
FFB1
03DD
FC79
007A
FC96
02AB
03EE
FEE3
FF8B
F812
FE71
03A1
0653
038A
FFCB
FFE9
F918
0112
007D
FE72
02C5
FDEF
FFF4
025A
FF04
FC36
FC32
FE10
003C
E157
0133
01C6
039C
FF94
FF1F
01A6
FE7D
009B
FE4D
007F
FC82
FBD9
02C9
F9F9
FCD4
00E5
FDC0
00C0
0076
FCFB
000B
032F
FE98
0104
FECC
FEFC
0248
FF6F
020E
01F3
0080
F46D
FFFB
FF6B
FF97
FF88
0308
00EB
FF53
FD7B
FF39
FE28
FCD4
FE5D
FDAA
0067
0158
02C2
010B
010E
FF23
0008
00B3
0016
00A3
FE98
00AA
00A7
FFC1
01FC
FC2A
FFB3
FEA3
27C1
FBDF
00EF
0028
0210
FE63
003F
00C2
FFF7
FE01
003B
FEE7
FF5B
0173
0159
FE9A
023A
FD95
FF15
04DA
013E
FF4E
014A
FF3B
FF51
FDF2
FF8D
FFAF
02E5
FC11
0226
010E
ECFF
0090
FFC0
00D1
0195
0024
FEA3
FC3A
02E3
0274
01E9
012B
F9C1
0051
02ED
0170
0040
0021
FEA1
FEEE
027A
FF30
FAE6
FF30
FCE7
0048
042F
FD8F
FF35
FF5A
FFF5
00EF
1506
012A
019B
00DF
FB3C
FCAD
FF7F
FDE9
FD50
0070
0302
FFC3
02AC
0064
0679
FDD0
00EF
02BD
FFB4
0358
FE3A
FFCA
0021
0207
FA20
01A7
FF2A
0269
FF19
019B
018C
00E9
F155
0097
FE7A
0058
02E9
FEFC
FF91
013F
0323
FFA7
0326
008F
01CF
FF3A
FC19
FFFC
FE09
FE6E
FEBC
FC80
FEBD
FEE3
FF90
00DE
FF98
FEE4
FA81
FD8C
02D5
F935
0177
FF34
E4BF
FEFC
FF77
0402
FF04
039D
0147
FFA7
FF36
0208
FF4F
FEA6
F8DE
FEC2
08F4
0238
01F0
FFA1
FFBB
00BD
03EC
FD95
FF4A
FE0E
FCF1
FF7B
FEA1
01BF
0215
056F
FDCB
043B
F1EE
0301
009F
000F
0351
FDD8
FFA1
FDD2
02B5
0046
FF58
FF77
FEBE
FD87
FFD3
002F
FFC3
FF4C
0049
FEB2
0271
005B
FDD9
FEA9
FE69
002B
00E4
FE70
FF0D
0190
027F
00BC
02C1
0057
00FB
FB9F
FFFF
FC5C
0015
0110
0016
0235
FDE5
0353
0173
FDC1
05D5
FEFE
FC43
009B
FE32
006C
FFA2
0104
FFDD
01B7
009C
01E2
FDCD
04D8
01F8
F925
FCBA
FE4F
ECAE
FDC5
04F9
0520
00E5
FDE5
0002
FDFF
0386
FD9C
052A
0359
08BF
019A
F422
01A7
02E9
0054
00E1
FFD1
F923
FEA8
FC10
03C8
FD8C
FF16
0108
FF5E
FF47
0000
FE7B
0295
F697
FBC8
FF56
FF52
FFAC
000F
FEC3
017D
0137
FF7C
FEFF
0192
FE91
010D
FDFE
FECB
FF27
FF4C
FFD1
FDA4
01D7
009E
0060
005E
010E
00FC
FEDB
FED6
FF92
FE68
FFF1
01BA
E58C
FE24
0216
0154
0016
00AB
0112
0045
FFA8
0039
0018
02AD
022B
FD6F
FDAC
FCB7
FF44
FE12
0012
02D1
01F4
0052
0007
FF0D
FFC2
005D
FEF6
0479
FDC5
0A29
FBF3
039B
2D47
FFF8
FCDC
FB93
0474
F75F
FF2D
0092
0168
0195
FBF7
08BE
029C
0ACB
023F
FE63
FC8F
052F
FDA1
074B
042D
02FB
FB0B
056B
0886
FFA7
FC54
01E7
FF78
FDA6
033F
000F
FBCD
016E
FEDF
FF1B
FF88
016A
0036
00C5
FE4B
0187
FF1B
0225
00A1
FEF9
FEF6
0257
FF67
0016
004D
FEB6
FEC2
0015
00A3
FE68
016F
FFC7
01CE
FCE9
FE50
FE70
FDF4
FF0C
E837
02A1
FD31
0295
FF29
0042
0125
01A3
00D0
FCA9
FF61
02A0
019B
FFB6
0123
FE7F
FE37
001E
FED8
FD0E
0122
FE9D
015A
00E0
0136
004C
FD27
FD71
0121
FEDE
01FD
0081
F0ED
01DA
FFF3
FF52
FDF8
0357
FFB0
FF4E
FFC2
0284
FEE6
0111
0379
FCC0
F856
FEA6
FF24
FEBC
005C
FDFF
0049
007B
00BB
FC55
FF27
0052
FCC5
FA06
0076
1C5A
0249
FA9D
007B
02F0
0430
0093
FF07
04A8
00AA
0147
FECB
FDC4
0409
F9DE
043C
FD3D
FC10
FDE3
00FB
048A
00CE
FF3F
FE7F
FAD5
02F7
FA90
FF83
FE32
00A0
FF30
FDD6
0265
FDF0
FF54
FAF4
0376
FE25
FD5F
007B
FEF8
00E6
FF55
FDE6
0103
001A
FFDF
041C
FF97
FCD2
0047
0085
0096
FFC9
0036
FD2F
00B3
02A4
FFE8
02B4
FFE7
FA72
FFE5
00E9
FD75
0331
FCA2
2981
FED3
0407
00A9
FC95
01C0
02A2
FC38
FD6D
FED4
FF9E
FF24
0718
FDBE
FE83
01AD
01F3
FAF4
FFF9
0863
00AE
FE0A
004B
00E4
01FF
FFCF
00E2
032D
FEEC
042E
FDC1
FFAB
E6CC
FBE6
FE74
000E
02C1
014F
FF76
FEAC
00BA
012F
FFBE
00CC
F9E9
034A
FADF
FD95
00CF
FE5C
00E6
FF43
019A
00F3
FE96
0023
0152
FFE7
00E8
FF74
FE6A
FEC5
0015
FDC1
EDC4
FF3C
02A9
0029
FF28
004A
0085
013A
FE57
FDCF
FF51
FEB7
FE22
0053
0011
FD7C
015D
FF9A
00F4
FE2E
FF72
FF80
FFA0
FFE0
0213
FFEA
FE8C
02CB
00BC
0112
0020
FC30
FAF7
FB88
FECA
001E
0120
01A8
0117
046B
FD39
FD55
FC11
0111
FE67
0091
0355
FFC8
00CA
0176
0142
0470
00F6
FF3B
03B9
0478
00EF
FE14
FB6D
0748
FCDD
FA9C
FF25
048F
D424
02A1
FE54
FE4D
037F
F80A
FF08
0146
0158
0095
02AF
006F
FD52
01F7
00C0
06C0
FFC7
FF28
01A6
FBFE
FF29
06EB
0081
FE3E
0113
FFB7
FF6C
FD3F
04E5
FE8F
02F0
027D
EFB2
FD77
03F0
0045
FEB1
FF02
01F2
FDE7
FFC2
FD90
FF1F
0083
FE79
FD1C
045C
FF1A
FEA1
01A6
FF44
FCAF
041D
FF26
00CB
0241
FAE9
FF2D
0607
FC91
FF59
00ED
FE1C
0122
F46D
0351
01F3
FD91
FF91
FE18
0025
FFB2
01D3
FF9B
FC8B
FDAA
0226
042A
FE3E
FEA5
01E5
01BE
0107
01ED
FF05
00C9
00C9
FE31
FBCF
FFF7
FEC0
0095
0179
0346
FF0F
0155
1A8B
017C
FFAA
FFC1
011E
027F
FFD6
FE4A
FF35
FFD4
FF00
FE46
FB0C
FFA2
05D2
0084
FFF4
FFBB
0142
FFFE
FFC3
0081
0375
036A
FF48
FDD9
FEA2
0237
FDF7
017A
021A
FEF1
1B6F
01C5
01EA
03E1
FFDB
FF30
00A0
FF91
FFF1
0066
00E8
0154
FC39
FCB4
057B
FE14
FE46
FD2E
FE33
0463
FF73
FE0F
FD88
00BD
FEFA
01C1
FEFF
FED2
0199
035B
0044
FFCA
3780
FDE1
0063
0230
0169
019B
FFC3
FF4C
FF9B
FEE9
FEF1
FCF5
00B7
005B
06D5
FEEB
01E9
FFCF
FCC9
0642
FF22
FE27
0049
0536
FDA5
000A
FEE4
024E
FCC0
FD52
FF2D
FF14
F882
FD05
FF14
0395
00EE
02B5
014A
001C
042A
FDDC
01F9
FF59
F727
FF25
FC26
0448
FAFA
FA01
01E8
0004
01B2
0344
046E
FF79
FB6F
FA90
0111
03EB
01FA
042E
FDB1
FF88
FA24
007E
01CC
FE6F
01AC
FFD4
FFA2
00B5
FF8B
0156
FE3A
FF40
0157
006D
FE8A
0198
008D
007E
01A7
01CA
0028
008B
0071
00FE
FB6B
FDA4
00CA
031D
0028
0559
0234
FEBD
FA6B
0065
FF75
FBE4
FE6E
FF7B
FFD0
FFA5
0022
0334
0044
FEC7
02AF
FD0A
03E3
FE34
FAEA
00A8
FFAC
FDD7
00EB
0244
FF56
0111
0163
FFA7
FDF3
FDEC
034C
00FE
FF0D
FFF9
000E
FE4A
FFFA
FF5B
FE60
FFEA
FF1D
FF2B
FFB1
0140
FF7D
008C
FF3E
0033
FB4B
FFE7
0057
FEA6
FFC5
00C9
016D
FF89
FDA8
008A
03A6
FEF8
003E
FBB6
01FF
053D
FDA9
01D4
D4FD
02F8
FFD0
FE96
0005
0029
FE06
033A
FF69
FFFD
FBB5
FE12
F900
037A
FA4A
0307
0421
00DC
02F1
F621
FFBD
00B8
022C
FC84
0023
FDC7
FB34
FACB
FD1B
00DC
02B7
0010
FF60
01D3
FFC3
FFDE
00E0
0618
0042
FBF1
FD9F
0358
FD17
0027
0077
FFD2
FB64
016B
022E
FDC9
01EF
05E4
FF66
FF7E
019B
FE82
031D
009B
FE2F
005B
FFFD
03A4
028E
0180
E3C0
0305
02F3
00BB
023B
03E5
007B
FE2A
00A9
FF87
0081
FBC8
009B
FE30
FE80
FDD5
FC8B
FEA7
00AA
FFF0
FF8F
FFD5
0381
001F
FE00
FE74
0071
FBAD
0175
0166
FED8
01C4
F11F
05C5
FE30
FFDA
00A0
FDE7
006C
FD78
FFCB
0116
019E
01E2
020C
0174
F6E0
0200
02C4
03DA
FEEB
FD11
FE14
FF6C
FE9B
006F
FE97
FF95
FEAA
F801
F9DF
005B
0159
FE1E
CF96
00A1
0136
FDED
FFDC
FE48
0070
015F
02F0
03E4
FE9D
0680
FAAC
009F
FB2D
00B5
01E6
FF05
FFB1
FEE7
FF25
FF73
FFFC
FB9B
034E
023C
FF8C
00FD
0283
F9B5
0043
0342
02FB
00F9
FF89
001A
FF35
03E7
FF4A
FFD3
0053
0180
0107
037A
016E
FFC5
FEDE
001B
0065
009D
FF90
FDD9
0062
0002
FAB9
F883
FCA7
041A
01AA
FE8D
FF29
FDF3
0084
00B8
0096
00C5
FEAC
FC76
FE77
006C
0011
0026
FF8E
0010
FE4B
FE5C
0368
FF02
FC90
00B0
FDFE
FFE6
0196
FBB0
0164
007C
01FE
FEE6
0318
FFF0
FFEF
0174
0020
0248
FD27
00CD
F9D9
FFA1
0084
FFC2
FFA3
00CA
0068
02AC
FEAD
0132
0087
054A
00E4
FF6A
0805
03D9
FE27
0019
FF80
FCCD
FFE1
FE1B
0099
FFD7
FDA6
009A
FF8F
FEA4
00FD
F37F
FEF9
FA29
E6E0
0040
FA49
0023
0047
08B5
0104
00DA
026E
FEC8
FF40
FFB9
F8AB
F96E
F407
06DD
FF91
0101
01E8
02C9
FFAE
FF91
002F
0023
FDFA
00B2
