FBC1F171
0F96F6EF
02810A65
E3B908A9
0D3BFDC4
13361187
01080CAB
10010A66
1B8D07FE
06B80408
FA75158B
E90400C6
EFDFFE0E
002DEA2F
1FCC0DF6
062D01F2
03A60E79
10F40AD7
F76F131F
1097F8BE
146111CF
FBD701F8
0952140B
0DD0F144
0CB227E9
205AEDF9
FFDE0A16
FA810B26
05EE0BB1
00DB2605
F5F9EB43
09100AA8
0732F3BF
F931F9AF
FFCDFFD6
0262FFAC
F32202A8
F71AFAD3
0615037F
0139FB4E
08E100D2
FB9F00DF
FCEDFB1A
0587EFDA
FBACFC1F
DBA202EE
FD42F989
079CFF78
E991F474
F64EFE42
011000E7
F91CF762
FF7C130F
E4D9098F
F44DD902
FB70EE78
FC2BFB47
FF3E00DE
F7B5FD13
073DFB2C
0399EFF5
F9D5F583
F06D101E
FFE00267
059EFC2F
018FFEB7
0312E00C
B9D0F924
EEF3FB47
0AB5FC4D
E6F40F16
F4AB0364
FBD8E9F0
FE2BFA60
0CA80BBE
F80BF816
0330FE64
FFE1F7CA
F4D8E8E2
F808F7AF
0A2EEF67
04181310
F328454D
02961694
F17A2D49
234D1A39
04A4306A
01440204
FC890DD0
0579FDBA
03DDFD24
FDD5FD7C
FCDC066F
01A801C6
F97EE010
0209FDD5
245CFCC4
044AFF7A
FD5C10E2
FCFF0913
04CA0696
04860C83
DD68DC45
FA380833
F6E60469
0756FB32
07CCF0CE
0860093C
0DDF0D0B
030A0FAF
FF9E026A
03A9F62A
F8A409E4
0B003BB5
FD2009F3
04C1D4E6
0C64E0C0
01912288
03F0FEAF
08120D24
032100E9
024103A6
01890AA4
162F0C8A
03FDFFCF
01190122
FD6F0E5B
04E8F884
E8D0E1DC
FC99FC4C
F9A8175C
E51CED5E
ECAF06DD
0323F681
10A11B9C
FF3B05CF
FFDBECF9
FB01FD52
EC170150
FB6FF98A
00B7001E
EC9D1406
FEF3069E
E9BA05E4
06C2139A
FD59F74B
E5011C19
FCEC15D8
0252E2F3
FBCF1323
FD37F7CC
F9E01A6C
FEF5F551
FAF50142
0177FFE1
064F00E4
03CFEE96
057CF22C
092A031E
0530FD55
D046FA86
05EDFABF
FF7E0378
10A1FE89
0878FC2C
FD31FFD7
17874287
F79F0183
FCD3FEAD
070CF33F
0A2AFD5A
02140517
FD6B02D0
F93EF391
FA250410
FDE8F11E
FCB5F9CB
05D9208D
03CB029F
02B7DB48
F144E5EC
0419E67A
050200C9
0090F2F3
092FEC64
F80B027D
008D023A
0A130D0B
FC4C097D
02EBF774
0BDB02EB
0702F069
098A136A
0A030321
02ECFC92
DD1BF10B
FBD807B8
DE9D076B
1AADF852
F34602FD
0F76C795
FD73F6B5
0C4208E6
054A0138
E745F579
FDAE1941
FE09FD12
FE9309A8
F2EFF37D
0630FC67
0BA21DE6
06CCF61D
F187E70D
F42CF64D
0AD0F676
0443F562
FC8CF3EC
FD770A66
EA870362
FA1DF874
FEFD1227
0643EDE6
1A290729
01B2E850
0ED3F32D
FB600DA1
0A1820E5
DBC4F554
F77BF5FC
E84EF12E
F70EFC3C
FCCAFB4E
F8CD02D6
FB990082
081BFE2C
FEB2F9DD
E9BAFEE8
F381CF72
17F40780
E242FEDD
F2D8019B
F98BFA92
E4101F27
F9EEE2E0
F948E0DC
EB7B1393
FD6BF9C4
FBA10079
FCF406D3
F15D0100
FF85FB49
EF88EFF4
FEB2EC41
FE0D03C2
F8CAFDA5
FCEAFFDD
07B502B6
0323FE0C
014509C1
FDD0FDB8
F776FF8E
04520296
FCBC01FD
048C02EE
051EE2DC
F596030A
F25201CE
FD6B2142
DECAF121
F98E077F
0A400792
FE2202CB
05E30944
FFDC03E8
02B0F748
01C1FAA3
016606BF
033B00B9
FCCBF573
F6D5F8F8
F7750397
FF6B037F
0513FDFD
FBF708D6
00CAFAAD
0271FE04
0964FFC3
FF3DF7FE
F9A002E7
F8D10265
FF04DE37
FFB8F30B
FCE00817
FBB0FC01
1A91046B
F195FDA9
0347EF32
FCB30469
0273FB5E
FE4413DE
FF7FFBF7
043EDD32
14DA0791
FC0A06CD
0878005B
FCB4DD51
FB1E028C
FC6E0031
01E43B59
E246E97D
01E3EC05
FD09F10C
0D5401BF
F2FB0EB3
FFECFDB5
07B3EFC2
0018F423
FFEBFC03
08FC0A64
0653FD4A
0638FA90
FDC8F5FE
FDF00A26
01990471
F653FB92
004E00A1
005BFEB2
0555FE0A
0A9906FE
FF21F7EC
FB31FC28
FC79F925
0297F328
E5FC0264
FB6BF9EC
02270988
09F4F81E
FAA9FD24
FCCEFA51
FF63FE08
F90F13F8
EDE7F523
FA90E4BB
F5B1F627
0789FCEC
FEBCF911
065D0411
02B807C2
05EEF7A6
04B206E8
FB4B0981
FDD3F8A6
18C4FCDE
FB3DF811
FCF1086C
0930FE73
0A18FF04
F7E30581
0972E673
01400253
11B303AE
0475FEA2
FA8AFF64
EC3CE63B
E9250D4A
0FA0F9CD
FE310356
E2310126
038DEF0C
0567F8C6
05C5F476
FA55108B
F1B7F2B4
0062F329
FDACFE08
FEE9E42A
02BCFFDB
FA80FC1D
FE5203F1
12372831
F465056C
FA6CF445
D79AFA7F
0A05F4D6
F17A0459
F84CFEFE
F8D61590
F427F7B9
EFA70147
F102FCD6
040812CF
049FFDAA
09470B72
0013F803
022FFD5B
FF84FAF3
EB74F4B0
EFC215B4
0BF7FB4E
F12A07A3
1F800548
F8FC041E
F328F206
FE8CF620
003D02F6
F0D1FA82
F751F68F
F38DE3E8
00BAF602
FEF3F6F7
FDD50712
068F090D
04F9F204
0085F83F
FD610BD6
FF72F7EA
07AFEE23
F465F899
F9BBFEE4
F31DF959
F434FEC7
F9ABFB7A
FDDEFF68
F7D6FAFD
F82502ED
FCFFF923
EC0000E0
F9190CF6
1712ED3E
EF26FE41
01DD1CA5
FB0300AA
04E00110
FA35E608
F585FE10
F956029F
FE7BF4DB
E89DF753
007AF68A
08EEDDF3
0028ECE3
FAAAFD92
FCC6FE5E
FA440E1F
FC01F031
FC66F617
F036090F
012004FC
FF0F1684
FED10F3D
FCA012DF
FDC6FE0B
0AED02B8
45290975
F5D2F5F7
05B7010E
FF4C154B
FCC20072
01F8FCA8
09A8064F
F81C07E0
081E0337
003B0964
044A0404
080AF30D
02630D7F
06BFFE62
015FFE34
04C1000F
FAB80350
FEE7FCEA
FAE70BE7
02781C8B
FBC0FFAB
0855061B
FE501630
FEF6FE1C
03620A30
053A097B
03C801A5
E99F2952
FCDC05EC
F758EB6D
FE54F4A5
10B3F67E
082A021E
F97405F6
E9FCF944
0885F1ED
FDB70220
E14BFD61
F840F2F8
F4970F39
00F8EC2C
0D26F83C
ED3EEC4D
FAD31068
F7F9FD76
E3AB00CF
FBC8EE62
FBDDF610
0052FD16
FE630EC6
FA492D43
EFC105C6
FF29F057
FE0102AE
FF6BF047
F7DFFA75
F029FEAD
08F2F9B4
FE38029F
F85E2136
F677FB3F
FFCAE78E
1387E4ED
1213F137
131AEE3A
F65D0089
FA4DFCF6
EBBEF85E
08B4FE55
F94F0C6B
0557FAA8
ECCB067C
FBB312BD
05A81982
E71605FC
0387F124
FF1BE4D8
EDD80028
F62FEB91
F14A20C5
C76D075C
F067EF22
0EEEF981
F69C012F
FF19F065
F28705E3
F8870DD2
E1310268
FA53E6F6
F671EB46
F7F914EF
F9DBC37C
EAC402E1
EA6AFED7
03B9E841
DF5302BC
E130FBC1
F7A9F76B
F93EFA1B
F9D5E8D8
EB38F284
04FFDA2B
D9B6F9EB
FE60D601
04F3F0C6
F28ED8BE
F4B8F173
F40CF7A4
EC58FBDE
FBF50AEA
EFE0EC81
F274F017
1D0501E9
F0F6DAB2
FA73F3BF
F6C9FE84
EBB2F0A7
E36BFD93
01B7CE10
F3A4D6D6
E73D019A
ECFEFBFD
F000C0EC
1666F6BF
0804F61A
028CEF6C
468C0919
12C4FF80
D965FD8B
DEEEF82E
FBFDFF6C
024BF7FF
0221FA10
FC300381
065B0D62
02B7FCDB
F023FF6B
FC90FF6B
FE60031A
032E038A
05EDE0C7
0F4BAF20
04AD15D4
F0561920
06E8128F
05AAFD86
FDF2EAC5
03C5FAD7
F952099A
FEC8000F
F2FF0A73
F94603D2
03C40470
0FF1FA32
01FBF230
0469FD29
00BD0397
096FFDB0
CE77F58A
0E6701C1
EF80028B
09FFF762
F8DB04E3
FCE61951
0225F9B7
024705C1
04E5F22C
09D812FD
09B916AA
FAAEFDF8
DFF806E9
F8810704
04EEFED4
E81145E4
FF7E0A1E
F9CAF7D4
FB4EEAF9
0A900001
0B820CBC
063BFF56
FECB071A
FD4A000D
FF5C0056
FB35EFC6
064F2129
E7DCFF57
F6F206F8
F416E978
FD2EFB63
0CD5F993
39F1F724
01F104D7
FC3CF580
F66D02EF
F7050152
F8C60AB3
FC0CFB6B
114DFD36
F92CF084
0B730152
1587FCF1
0394F5A4
CFC00434
F77EF92A
026103AC
E466C295
F89D0CC2
F169F0D3
08940E36
01A50D99
0CE1F550
FED3F15C
026A056D
ED85FD23
0131FAA4
F957F589
F5C51F9A
05A6FCB1
F9F70312
FEBA0C9D
00A6F66C
F967000D
088A17E7
F2BCFDCC
D39F0166
F898028A
018A0318
F4A51A0C
F970FE81
F5EDFBC5
F7CC0FE8
02CCF06D
FCED122F
04F5EB0C
EC5E0486
F15003A8
03B20B86
0AF5D0DD
FE9D085F
F070247D
1812FC6D
009229E1
FC1000F3
041E0097
FE2A0BFC
003B0173
F5882381
051FDF0A
04F9037D
0215FE11
FFC0F810
FA24CE8C
F27AED57
069E06DC
F103F9C6
25A0FE52
11720164
F21FFA5E
F083FF8F
FCE6F844
F0CCFBE1
FCDAED33
04ABFF5B
FB921273
FE8900A7
F7232855
1FDAED46
08A9F3DA
03890049
2446F7FE
FC460454
0C08FD03
F470F03D
FCD5DE93
0348F863
F2AE2349
EE7F02ED
0550FBA6
06FB0C70
F1CC015F
EF4C1F58
D8E20DCA
0C6A1BF6
2BABE863
FFE2FAC1
01AEFC2D
1A6CF9C9
E9DFFA78
1F4FF335
3A28DB7E
F6EE0044
F2BBE8AA
FE14FBD5
0E3203D8
FD4FFF04
039AF2B4
F75EF52C
01DAF9C2
F124FA30
01BDF99A
FE6C11E8
EB0FE60B
FAE60796
F9B8F8FA
1039D628
F97B1A61
01CE0480
F8D1FC56
02F2F83C
F837FF40
FC9EF06B
FDB8FF3A
F813064B
1A19EDF0
FDCE015C
FCEDEFB3
F9D80781
FF790213
EF84FFD3
FF38EFC8
0450FCE0
F2D602AD
ECF7F913
EC14F0CE
FE26EC2C
E78C00BC
F9DA1353
122FF392
E9DEFD69
FF4E0352
F6E8FBAD
F0EAFDE1
F944FA8E
F300F178
FB4DEE64
F3B9F460
F1B1F6E1
FB38E551
03BB00A5
0C750B7B
FA1AEDB7
E9C7FF81
FD1FFB35
F719FB03
F5EBFFF4
F752F63E
F5C4F7DF
09391657
00BEF079
F8DC0860
0198F94C
0370FF58
123A0785
E159E7DE
0241FBB2
0709FDD8
0246FFCB
F602F673
FD66F5AD
FF0D06CA
FB4000F3
FD2CFB8C
FCCD0B0E
F64B08C4
FC07084A
FA5B0D7F
FF3AF16D
F8660248
F3281209
0275F7DC
FB3F04C4
0716FEFB
FC61FD5E
0A41FFA5
0391FE00
0519FE63
077D06F8
169D0AA8
023BFA22
191608D6
032C02F4
05DE02D6
0EE9F910
0087FDD3
14C100BA
FBC9EF1E
FCB00217
0BBBF8A2
FDA6FE42
0868FD04
FC57F942
F22BF8A2
F166FD87
FBACFE0B
FBF8FF39
FB06F8EA
04C6EAED
0277E5D2
0335128B
F1D9EF35
046D145D
049306D8
FCB1F1D6
FFF2F5A2
FE9D01A7
F7A2F9FF
00330921
00D4058C
0156EFC3
1E1C06FA
06FEF615
EB410142
0D2807F0
FF32FB2E
0AB41511
120A0168
155D178B
0E2A0C09
012103C8
FD9CFE32
0EE4FC9C
06E0F3AD
0B52079C
060115EF
F144F432
0585FF42
044AFCEB
FA9AFC8C
12B7E752
0D92002E
0B552B53
09A52322
10A8FACD
0460E7EC
07E71A73
F66E1A15
FE5AFC1E
F99F0B08
EFA519D2
071107F9
09190083
EF1A0E73
057EECC8
F71A35F6
0A85E91D
02950409
F43B0D0C
0EDCF953
38B20CD3
FCB500BE
03A30144
EE830AF3
04CE0320
082C0750
0A0E09A9
04D10957
06A2FDC0
05D1FF84
FA3902F6
EEEFFADF
0256F689
07180B93
06D10E11
FFEF0386
096FEB89
0030F606
FF3F36A2
08F320A5
02F1FACF
053D0536
028B1333
053612A8
03E5FC10
0441F6FB
FC8B0157
08481354
01B709B3
0ADFF96C
F8011769
1122F20F
1151005B
032CFF1E
1D0C018E
F41400C5
0136F9D6
068CFEE6
EDB60912
F5290392
F03B0A23
D6530EA1
1257FD21
03070344
028FF4E9
0AB20119
01CC03EF
04B7E79F
F3EE039E
FD06FEF9
067B27D3
05B002B1
02EEF044
F7C8F761
00FF00E1
FD1F0ECA
F9CC081F
FA7FFC02
0A450132
FDAEF8CC
07E40BC3
0BFD0684
19D1FA94
1CB608BF
F1D1078C
FD84E953
F89203F2
05CFF87E
FFD4FFA1
E59DFBF2
FBD2F890
08FB1D67
08760928
F4B4FBDB
EF4105A9
08E61370
072F162A
0429DEE7
059401FE
024C0E2F
1430FF2B
0CCBED5C
0C0A10E2
FEE72313
FA850532
017EF4B4
FF1D052F
FA9C0FA8
01C3F662
21B20566
00A50934
015D2C7B
FCEDFE33
F96E57FD
10490FB4
0B8AFA49
0712F3CD
FAFAFF70
F5E8FF7D
FE1CFC0C
0B400B97
0C881A29
0911F2F6
0A960E57
F4550074
F8C6E933
0E240978
1064ED30
01F103AE
0CCA0510
FFD0F8AB
F690F6E2
F147F4BE
F5571EF3
FF830D60
0CEA3305
00DF0C4B
FBD501FF
0574FF37
EEAF07F0
FD6FF60A
0C66DD73
03DB1F7F
F8390B44
01140326
09FEF9D1
FA2807D2
EC3DF02C
DA7FF47A
FC2DFA92
FD10044A
EA3013F6
F5E5FC20
0722F67F
ED0A10C1
03DE0D4C
010405E1
083BE86D
EE9D041F
FEBAE916
0F2A0106
F8DB0639
06F70243
F28DF827
F6E10048
FAB2FD1D
FFA80B38
EE4DF38A
0A4A055B
272F03AE
031415FB
EE58040F
FF340049
F3D1F900
FF4CFA87
FAB7F595
041EFD99
0D390392
0341FFE7
F6C70BFE
F3DE045A
030502B7
F87B060A
F75AE9E6
F79BFAD7
FA0CF7FD
0010F39B
031EFDA5
F99BFD61
022AEF59
2442FC2B
1CFD038C
091000E0
FA73FC44
0031FCB4
E9C103AC
FFD6021C
FC85FF89
0595F9B7
FAF4F066
048D0B9E
0A2F02AA
FC990742
FA5C01C1
FDD003AD
F614FB29
FFBCFAB1
FCAEFFB4
03CFFFC7
FEA7FDFE
F4520130
1919FFB7
DF9207D2
07EFFC77
0A57055E
FE35FF85
F1ECD858
FEF00C3B
02890847
059FC022
FF74F0D2
FC8206EF
E5E61220
F6360907
FC6CEC8E
E6FC09D7
08D3F639
E75EFDD4
EFA3FF03
FC7CFDC4
FB220202
E88A0B32
095C034B
026F0AA1
0F4E14CD
0423F15B
FFF507EB
13DAFDA0
0882FD59
01311429
EE840439
F3B2FD6E
FC930ED5
FDF2ED77
F76DF4EE
FD3EFB91
0256F828
046AF070
090DFBC9
FB4814F1
0352F9E8
FA971FC8
07B0FEDC
FC85E9A8
F1521327
F88B04FD
EDC70206
FFA1FE8F
EF54FB60
029B0270
1BF50118
02A9010A
089EFA1A
FF8B1C33
EF3E0829
005B0072
FFB2FB70
FA49F7FD
F39E0569
02D90841
17EA1FD0
F9E7F953
07DCFD78
0C20FC0C
FE6BF401
FF2DFB56
F203FFE0
FD9AFDEC
040F073F
FB56FA21
E03A035D
052CF5CF
03D10CB3
07C74AC9
107BF8E9
FAA305EF
0AAA0B1A
035DF824
01670491
012F0E91
03E40AD2
F31AFF5F
14B8FCE3
044823E7
FDC00651
0400F97C
03D8F8F9
043515AE
F826F9BE
0B87F568
E897FDA3
0DAC1277
0359063F
FD6CF939
FF95FA10
02B6FF19
FAAB13D6
EDF6EECD
05DA0913
017D07A3
F732F608
082FFDC4
FE47F962
F736F5C0
064AF71E
F78FE41A
0585FCCB
08ED0327
F8B423E7
05F20417
0B09F97A
00E2FED2
FD24FA1E
0417F9AE
F340FEC3
DD4AF89D
03D6F796
FB19F965
02A8DAB6
04EBF59C
0650130B
28D30395
F1BCE92C
06FEF9AB
01BE0504
FE630965
DCACFE79
F979F65A
FF12135E
1907F8A7
36A30931
0023FC8B
01241006
FDE5FB15
FD7413B9
05A0FE15
F30BFB3F
F9DCD640
FFBBFA7E
01CAD385
E8590889
0062FF88
00AD056E
FB4D02E2
F336FC8A
F988F72F
18EF01E3
00E8F412
025AF90C
0359FC06
F851F711
F6020485
0891FAE9
D0AB0533
251DFE5B
F80F0AB8
F82509DD
0410F232
FAE903CC
0BA8010E
0ACDEB61
05E503D5
F8291D14
01090461
FCB700DB
FEC9132E
00E41691
FD13FA7B
F9C2FF7E
0DC41CE5
FF80FB89
0B9BEE8A
F84D02CD
0B8208B3
FB400CD3
FBBFFF99
0944083D
F8BEFB15
FF64F933
0947E6B8
F20811CA
E716F5D4
055F0469
EDEDFBBA
061AFF12
FCBDF67E
F63A0296
0384FC18
0756F904
FB6EEB4C
03B0000E
0DEA032F
FB35F990
F82D0A90
E545FF27
0584FCD8
02EB0789
FEF0E2DC
F4C00795
F9C1F1B6
FC3AF59F
0887F87D
F9F8FA79
F83CF7FC
2128FE43
DEAFFF79
0B6506B4
F4EEFDFC
0115FE67
E65306F7
FFD50236
FD8206C4
09BDE78B
F694F267
0655092A
10FD0090
017E037D
FAC1FFEE
FEB6031B
FBD0F4A7
03CAF9C4
FE261251
0B800138
FFC9F8CD
FF92FAC7
FAFDFD4F
F5F4FC5D
FC74FAED
0B05BB49
0006FDEE
F37D025D
059A1EF9
F8A40160
FAB0F67E
FDABF43A
02EF0037
F777FEAB
023FFD5C
16B107B7
051800A6
F5B8065E
FCA7FE82
02EEFFF3
F5FAFDE5
13EE0EF7
FCEB19F2
EA7307F6
F0D90F69
0C59EF65
0B700DD4
0A0602B1
011BF948
EEB5EF34
08A608E2
041003F5
F9C1F2E2
0755F8B6
1841FDFB
29370D1D
05560601
049F027C
F8C40510
FB72FBEF
FCC30491
0DC405EA
065D1239
0003FB89
04CC0908
0D07F4C3
F4B802C9
08F80895
085F026C
05360C3A
F9EA03E2
14BE08F5
F661EBDA
FFD6F75D
04702D13
FD33FDEC
FBDFFA4D
FB86267E
FA6D0A5E
F86C0290
033CF0FD
022C1FE6
FA14032D
09C60246
F619FA39
037BE95F
FB620387
D1BFF2D5
F95CF978
FA2A0A5E
00A8F42E
04DAFCD1
08CAE99B
F5C0F284
F6CFFED8
FB27FA46
F40B1170
F380FCBA
FA27F65D
FF04F3D5
ECDFFD76
F6B6FD51
ED61FEC9
F0B6FC06
E64DF5DD
FFACFE87
F9EB18DD
EABD046E
02A80247
096DECE9
19E8F643
F5D5F6BD
FA9D13BD
F256FABC
FE9E097F
DD3E0498
F97906A3
FFA808E0
F62BFED6
FDBF07E9
0218FDA6
FE4D0E6E
04BAFE60
F5EE001B
036FD5DD
FD7EFF76
F5BC0032
036CFDF9
FC9DF9B2
08F40A6B
076AF9AB
13B10356
05EA0059
21D0FE18
00BC0129
0091FB25
2F9AF5F9
00F805E3
FDD00765
140CF448
FD1F0268
035EE5B2
02AE059E
FEA2F896
F7CD01FC
F2E0FDD8
F7550F99
FB59F82F
FA7EF85E
FDFEF3DC
F8B5F8A4
FD46F1B2
F6B2F8FE
0443FE58
FACFFE02
FF41F91B
FAD1F3F7
FE830189
013CFB85
1A770864
FA2AFB04
06040557
040F05EF
0C5AFB16
F60D06CC
F84CF769
F83EFBEE
FD96F7E2
F6CD1E7D
01E6FC95
03050223
FE66035D
080CF9AB
FF500997
FFC8066E
0230FA4D
FB44FFD3
045E02D1
FE33FB7A
0428F78F
F6CE0864
FA4101CF
FA7900A2
EDCD2D8F
0C150019
0657057A
FC9CF8AA
032FFDD5
02F8F5AE
042B0550
F48DF7E3
039DFAC7
0067FE44
F83CF4DD
0F3F0A78
F47C02EA
0A580069
08130433
080E02AF
F65E0970
037AFD95
12E60000
04410128
040C1D4D
0664FC42
FA87E2F1
F7DE0AB3
F3D0069D
08F404AD
EEB8F8C1
FC8105CA
DB45FB0A
002F02A6
FB99EC6E
DBC9017E
04E70F76
FCAAFAB3
02BDF516
FB38F4B2
FB1CFD0C
F62DE45A
0394FAFE
000DFDFC
FC5604F2
FB68132F
FEE203B7
02DDED02
0064F50A
F541FF51
1331FDA5
0C16FC87
FE22FFA0
DF30011C
FC9A071A
066DEB21
FA18F9FB
FE570A47
FC27E9CC
F2B50E8E
F827F7C3
F1190B69
0701FE8D
FB4E1FF4
FB8AFA57
F76FFF40
02D5ECB3
EE4D0B61
098BFAAA
FFBDF337
038BF830
E63EF9C6
0823F831
1488FD97
0BAD0D54
080AF238
0E35FD97
08B7F57C
1820FD9A
02AAF0B9
FCA9F629
EE8AFDF1
0C15F1E1
EF300250
0280013A
020A10A6
FCA10ED9
FE31F012
128EEF64
DFB0F005
03D307E6
0D4D0428
0D9FF519
E80B076C
0B37097C
F88706D4
03E60CD5
E07BFD45
036FFA69
F7B8FA4A
DF000BFC
FADCF8E1
F8310603
F6BBFF5A
E1210CFA
0770FF1A
04E20025
F210284F
F4FE01C6
FB35E349
D22D09E7
FC0B0D88
FED7F6D3
0B770338
179CF166
EBA30317
0894FB3B
FCEFEC33
1651FE03
000F3634
123B041B
008D0268
02251A66
13CFDFA9
098E01B8
EEC1DF9E
09BDF223
FF74FC13
02C30077
08E0FF2C
FFBEE8B3
FD4A293F
FE97FC92
037CFC39
F81D008A
FB5FFE35
03B7002A
057600F5
F2C903CD
F766FC12
F60F0035
FF82F471
E919027C
0204FF65
F26DF9C6
1DF0FF40
0ADCF682
0A81FF43
F291017A
0B4D0950
0E29FDBB
057F02CA
12F6FB33
0B27FF29
FE621461
FC80F702
08B3F05F
0495EF16
F86AF309
FB80F31E
FD640316
F4BDFCA5
FFE8EB53
F877FA6C
0CABF891
FD7803AC
FBA5F0E7
0860FC70
01F8F10B
E9BE0A9B
FBCCED29
E6B00B1B
0BCDFAB6
F36F0722
E2AAF073
008808BB
F5E4F2E3
E5DBF7B5
00D9F474
FABBFAB6
E368F5A9
FFB11105
F87A047A
FBF9F6F6
144AEFD2
0B61060A
FE1E13A0
E40DFEA6
0FAEEF7A
EA9CFF48
036BFD05
FBAFF23D
0304F725
03C50312
116DDF85
060A1228
E767FA55
F817FEE8
036A092E
0B45F1E8
F6FF03DC
E65EF9F3
15AAF4F8
074D037D
FEDFF496
F465F980
356B038A
03F71813
0CBBFEB2
DF7AF900
FF7EF3F3
F41108D5
FE2FFE83
F80E0591
F0D2FD00
FBCCE74D
FF61117F
EDCEFAB9
029AF99B
FE9EE73E
F99E029E
F7E6E251
FFFEFBEF
01DF0AE6
17DAFCEF
0FB6F63A
F4A60F70
F25CF276
13D1072D
FD20FD50
FBAFF97B
FC31F8BE
11E80D65
0508FBA8
FBDF03DF
F3AD2FC3
FE4EF7EA
F06C11C1
F923158A
031C03CC
EE3604A4
0DA5FF84
022C01BA
FFA9009E
E2F502F5
0A71F57B
F98EF180
0092F5CA
14B6F396
ED5C0B81
0779EF7D
014D0ECF
0599FB72
F3280ABF
F6ECFF7D
FDA7F9BE
E02CFA35
18C20066
FE4F041B
072FE747
FCFCE24C
FA86037E
039804D5
03E00479
FAAAFA8B
01C113D3
12470719
FE2C0774
F959FC2E
FD74FDF7
109AEED6
FCB10405
ED88F4B5
F850FA3E
0542FE0B
08530131
FCC5FD27
FEE20DEB
0C3EF536
F435EE31
084701EE
01C3FBF3
07311877
EF3F16AE
03810208
F9B7C19D
F378F4FE
FC71099B
F8DAFE66
F4F2041C
000D08D4
05EEFF0D
FF9DF83C
FDBEFA65
FD7E005C
F2550252
FCAE03E1
F5FE0622
FA800492
0425E12C
012EF935
01D00972
04B01212
FEEFFAB9
041AF437
EB540582
EBE0FCD6
FD170AC0
DEF8FF27
07F60747
FC010D48
FF630683
E8A7048F
FC24098C
F837F820
DF9BFEEB
017CF4E1
06F1FECB
1611C0EC
FF7C0FB3
D9A002BF
002F03C0
038A02BB
F30A04AA
2B761E70
FB91FEDE
FB5905E5
049F053C
0A54FEC1
08751CF9
04BA01A9
FEBE01AF
032B0231
F73007A1
09FCFA2B
FD9BFE3A
0033F925
FF110431
E627FAB8
02B0004E
FF220276
F5D4F246
F7CE0E9A
094CF58B
1F8FFAE0
FDBA01C6
F56BF3B2
F7E50120
F2710956
F63B02BA
0348F85F
FFCFEE53
FDAB00D8
028C00D9
F633EBF0
F43A0D53
195A19DA
FCC400DD
008BE272
02CA0536
06FD04E5
064A37C3
009B0339
FC2F0580
F5BFFF66
F951FF2A
E8B5F927
FCC3FFE4
09B9FC65
FD4FFC9C
CDC1FB5B
0679FF1B
0493FC51
FC9BECA5
F8B703AC
065DFAAE
12BCF856
FE4F0911
FEEB020E
F86303A7
F50B0110
FEBB05A2
003FF95D
0D8A27EA
1B42FF1D
00EBFC91
09691797
0E40F7BA
0FA70423
052E056C
FF040242
FF8C062B
E0FEFCAC
FF2D15CD
FFECFC90
0C36F024
042601E9
09120CF7
FBAAFC1E
FFE50174
0938FC3F
069CFCF5
F98FFEDA
1CDEFE91
02DE06D5
0BDFFF3A
F7F7FE58
09E703D4
163FFEB4
FEF4F142
FE82FD8D
FEBB15EC
0A58F887
09231E2C
017BF241
FB1717B0
17A40106
072E0378
042311E5
F7AE04F8
00EF0088
00FCFF51
00BAFA8E
0542FF63
FAEFF806
00D101DA
049807B6
FC8A17A7
0024FC11
0165E939
1538FFFF
099CFFFE
F0F7FA3C
05750879
C65F02DB
F0F8F5AB
F913FB31
14DB0182
136A0E20
F309DEAB
0316F9B4
FDBDFD33
04FAE954
EAF4EFA5
F72F0644
F918F2E4
FDE510CE
0213F844
13560193
0A8A0055
01D310BE
16CAFD7D
DE860963
FE6B01F8
FA19023C
053B05B8
FAFC00F3
0684F35D
F0B5FDDE
00B7F892
FDCD051D
01BCFD18
070F0039
FE2704D3
EC97FB82
F2B60026
088EFBC6
FE35FF5A
190DFE3B
D556FC63
00350BA0
04C5FE5A
EFFA0116
F32C0310
FDC1FD05
D35EFABA
11B1F981
FF521BA0
FC18FA31
F8F5FCDE
FF6EFBA7
18EA048F
09AAF9BC
F9CAEFE2
0541DF52
FBBF01D5
F7DE0862
01A9F5A3
FC4EE3FC
0219006A
00BAF9CB
004BFB6C
056CFD8E
FCDF0F72
0B3E0093
008EFEBE
1466F1CA
0FDB0078
F939FDD6
0D40FD9A
084BFF17
F5DD36E6
F121EC2E
FA8D0566
F5331865
F992FFE1
FEAB217E
03550AF6
022502CC
F9A0FBD7
F7F71150
03080C52
FD42FE0A
08DF033C
F53DE6EA
13DBFAD5
E796EDC6
07D6017E
F8A004F4
E7F62E59
FF310047
F45FFA45
FEA60DBC
FAE00B05
0224FB8E
FC790C97
E9A60859
F9581915
0441E4A0
F220F182
FB86F661
08F7F34A
F467FAA5
F83905B7
078B0542
F405F6F0
FD1B02B7
F779FBA1
0111E740
08DBE556
F934FB97
07010839
ED6C00EC
FE02FEA1
FEE80155
FB87F8B8
0025E98D
0172061E
FAE21550
FA64FF9D
031E01BA
05440929
0344FB5A
00BFFB78
045C09DF
FF4611CB
F5290A1E
081E00ED
063F0ACE
F54F0015
FBD1FBBA
00AFFAF4
0924FFA3
05E508A4
FD65FFB8
029C2EFC
074FF5AB
FCBBF6D1
F991095A
0FBEE7DD
07790923
F608FE01
006EFE67
F624F69A
F7C7F5CE
