F19302BE
009CFF63
F93DFBDE
FF4502F7
FBB0015C
F914FE46
E2A80213
FC7209D3
CD1D027C
FFF8FF77
033502FD
08AEF90C
E845F573
000DF2F2
07B9D5EB
F9280594
EE3F01B0
FD3FF3A5
FE6805E4
0A97FBAC
F8F70174
038BFC29
FEE2010A
EF2E019C
0219FE27
0113FCD0
0B63FB33
00901C0F
FF84FEE1
FAE90094
FBA2F7B3
F4FB07E3
08A9EBB9
FA39FBAC
0278FD0B
00F90172
081601A3
F50CFF2C
FCB102BA
FCEFF42E
FFC8F52A
01AFFCF3
251C026B
F8DFFF6C
165DF4DA
00BBF3CD
FD9EEB6E
F190FA9A
E217EF71
0123FFBE
FA72E191
120EFF99
F8F2031A
FF2CFFED
0F270080
F9B3FB0A
00BBFEF3
0121ED54
0321EBF9
F0D2FD2E
FECD0150
083005A2
0C24F514
041906EB
FEB2EFCE
0673EB17
12B7FA14
0369FFD8
04D6FFAA
F42DF3AA
047FFC11
FA1DF9AE
13FCFE35
0089F8E6
02270277
1015F8DD
0AC5FF7C
03400770
FCB5FB33
FEABF880
FABC0273
F419F8F3
FC3F2817
F91DFDDA
00230695
0349FC05
F99001C0
F57D03AF
01F903E1
FE1DF5F2
FFEBFCF0
08A304D1
0225010E
055300F9
FA1102EB
012800FE
0D0704BE
05D903C5
028C05FB
05110143
0052020B
FF0918AD
056FF4E2
0239FA78
F22DFAFA
078701B0
00980396
082D0324
137A0AFA
FFCC075D
DDD509AF
065BFB9D
0BCAF14B
F7FC10DF
090DF6F7
14A7051E
FAA6F2BA
06250560
06C9034F
027A06F1
0A2C0623
0439F336
01E7F7C1
0140FA75
046EFF7B
08F308CE
EE49F450
F35DF796
F9890B5D
FEABF2C5
034AFE20
FC63FDB9
FF770739
FF3FFD95
FB750F69
FF3A03E9
F9DDFE08
0885FA85
FE47FF75
FD9B03ED
0C2509AB
FFC2F186
E5B91AE7
FFB0E40A
045AFAED
027D0511
008004B7
0BF6FF0A
063107B0
FD950121
01A8F8E8
FD1A09FC
0184FFD0
FFB0F7D7
FEFE05DC
EF16E4F5
FBCEF814
037A0687
FF0DF497
04CB0A63
EE6F0903
F9E90298
FBDB042E
FCB5FF64
013900D1
0D7BFE68
FE4DF032
0167FC7C
FD59FB66
018BFFDD
0ECEFA51
FB11FD51
042EFFE2
FE47F261
0B75EEED
0DC41A3E
171AFC33
F45A0B4B
04ABFACF
F705FEBE
F972069D
FAC3048B
EC94F53F
F6D0FF77
FD61FCF4
F9BAD88A
0035091D
064804D4
FD73FF32
FF8BFFFD
F8F7FBAD
F9FB150F
004F0440
FBB106BF
FFD40787
00C10198
04FDFC1C
0044F820
FFDE01B2
E9930339
002B0004
FE3EF66F
016A023E
021A00D2
04C6FF18
077E0068
0292FA21
01CCF3DB
03E7097F
05F80AC6
F3FFFEBC
025CEAF8
FC7D002E
FCC5FF26
040E0253
FEBFFF2D
FFB924C6
09E0034A
03960461
FC710433
FFC102D9
067D026A
03DB08A4
F7BB037E
FFBEF83B
FAC70888
03C6066E
011F0374
095FFCB3
FBD3064E
FE7DFBD0
043F0818
EDA20079
001EFD7D
0306F7D0
0A8C04C4
0B4506E6
F97901FE
E88B0BE8
0238FA1D
06BBFDE8
F7DB0BBB
FE71FA2E
016404F1
04C50642
04730C1D
012605ED
09D1FCAB
05E1FBB8
02740744
13410769
FFEBFB06
000EF038
0EEFFAD3
0461F149
04E3FE0E
0433DEC3
FC2AFD9C
F612FAEF
00920391
0242FE1D
1A69F354
F87DE731
FC47FDE1
FFA306F9
016DF914
02ECFE23
01E9F6FE
007FFF62
FFDAF139
F3500EC5
06E801C5
0411EA11
ED1501FC
FB7E0598
1286FE21
0BBEF48C
004A003A
EF11016D
F2200197
02C302F6
0022FF69
FEDDFA13
0643E343
FF91F9F7
078DFF47
066CF464
F0D1F3EE
00220E27
00B50C69
01AAFC59
036CFDEC
0499FCDE
F22BF1B6
F7E5F02F
FCCD1A00
06FF0586
FCBFFC3C
0587FDAC
068D0661
F614043A
FCB8F4BF
04C4F82C
052BEF9F
F843EEDF
048DF1B8
FEC6EE9B
003E029B
F9800A65
025BFD17
FAF70D89
03B01270
FE2702A5
0280FC47
F9800FF0
160FD872
030AFC56
001F03FA
007BF800
0D000D02
080C16F1
FAC6F3C2
F9BB01F2
FD7C02D9
FD29FD4B
0266F865
F66DFC94
00401BF0
F5FEFADA
FEAFFD8E
F3510031
FECEF514
167300A6
FD850771
FFF3E1CA
0233107A
03BCED32
FAB6043B
FF4D0979
ED8EFE01
FE4EF7AD
FE59FF43
EDD4F6E7
06E3F74E
011A02DE
FF9207CB
FA9CFD0E
F3FFC360
FD64FC67
01ECF6CF
0162FF21
F621EE8A
11810538
FF25089D
F575FCB4
00CC0029
FAE2FDF9
0D3BF655
FF08E1AE
00C2EC3F
E3290828
FF4E00C7
064501E6
FC3FFC38
0535FD51
FE9C00AF
0650E574
E49B030F
FF8DEF53
04AE0380
04801030
0EF8FF4B
F1EAF707
00740129
FBA8194F
0FD0FB9E
FF3D02A9
FCC6EE20
0F781D0E
F67E01DA
00F1FDA4
FE560505
F846F6B5
0E2AF69A
0F9CF847
008600DD
FBE9FDA8
04E605EF
FDB603B5
ECECFE8E
0605ED48
0091E86E
F9E306D0
053B00FF
FFF70255
069AFC83
00BE0A34
FDEEF2AB
E90CF6FB
F9790EE4
05F91D84
0C6D0290
FFAA0B01
EC7703DC
FF9CF3B0
051B0097
F521F764
08C5072F
02B9014C
03CBFFEA
F5BC014D
0CFEF6E1
03D6FC18
0962035A
0335FA77
FA7A0DDD
FF95058D
EE740261
04A408BE
FACD0329
151506C4
FF390E09
F7A30081
04CC029A
02440096
FEFB075A
0191F7DF
05CDF827
FD8BFD1E
03D100AF
0AA6FDE0
0040FB5F
FCFE02E9
01FFFB9F
09B4FD7B
033D00FD
FBEA024E
FBAE0261
FFBCFAC0
FF590864
FFB2F8E6
FC590402
FB1DFFEF
016B02D5
E64530CB
0756F2EA
0434FD0C
10A6FDC4
053CF424
FB8206D0
FCAD0239
038BFE42
01A602B3
F7C70A22
078A06C1
00A90456
F3B701D8
0331FC4A
F400FA33
0183FDD2
02A30DDB
FB05F892
F0301E2D
0C1CFC42
F3270E28
09710649
FB76D099
E2E50369
0363FAFB
FEEF02F1
0E050B76
FE33F918
FEB6FC47
043EF882
E99F0499
15E700DF
037DF925
06C707AC
FCD0F4AD
FFECF64A
0ABBFC18
02D400E9
FDC5004A
0516FD41
0BB4FE05
FAB00187
00410430
FF9D078B
E602FF71
0155FEB9
005F00E6
046FF90F
FC4EFD43
01C307FB
FFAAEDDD
1D901145
E491ED54
0335FE02
04BDCF72
F563FECD
0502F7D9
02A301E9
F89B0AC8
002603A4
02E7FF85
0157F4F8
11DDF14A
F9FF00E3
033B03FA
03E6044C
0542FA0A
F9A3F7A0
FF520640
F983000B
05F50956
094CF6E4
056CFB21
0837048C
0972FE2D
1412F992
FA28005C
FAE80B11
FF88FE44
061BFBCD
05880AF2
F683021D
065FFEF3
FCA904DE
0F110598
000A0B5C
033800E4
0553067D
FE960036
06060823
02AAFCE2
04FA0600
04A6F894
0ACD0319
0E070251
024CF59B
07B9FF6B
03B2058A
0015FB92
01A4FDB9
FE480481
0B3E14CF
05520569
FD210525
0502FF69
0992F5E4
FF3002C7
FF8D0CE7
FD6D0986
029902CD
F6F7FF1B
008EF428
FFB1FD16
02FA0443
F03703EC
0B26ED1E
F45BEFBD
F102021A
F7FAF438
0766FFD2
EB1DF86A
0037F915
0AE2E381
FDBA0E13
FB5501C9
FF6709BF
12C51572
FFEC093C
FD8D00C8
0721FAC5
F96EECB8
FFE4039F
021E0011
FF1FFDEC
0078027B
DC4F165D
09491C2E
034FFD6C
018AFFCA
FD760278
01CC00B9
008DFCDA
00890961
06B4F49B
FF520013
04EAFE1F
04CCFBB9
FCCFFCC3
0153F350
03540970
01E300F3
FC7D019B
FA510505
0373FE6D
FB090116
FDF2FDE8
011EFFEE
0D57FF75
FC4304DE
02A6FA54
106FF97E
0D5FFC19
FE72FFB2
05DAFF4F
025B03E3
06D1FE67
014B09D7
01CBF5FA
0352FF14
FF6FFE75
FC9603CB
D9F7FD9F
FA5CFDCD
00BEDF60
00D4CF5D
05DAFD32
01C5F79F
F295FFC8
FACFFD69
028B0416
049AF95E
069D07BE
08A805C3
FFD0F378
005703B5
04BC0191
0001FDF0
0210FE0F
00E3D453
0149FEAF
03FEFC65
03180355
06D50328
FA97F9EB
FF68027D
05E50135
005DF70C
FF17F2F8
003B0711
F565FD2C
02C106A5
0473022A
FA8A0A67
0B5FF4DA
F5110215
06630576
FFDCF5EA
08130EC9
04D81565
F2B3FEBE
EBB4FCB9
052B05F3
F85A07C6
01F1FB63
02130389
0C8E06D5
F97406D7
FF5306B7
000FF424
FC1AFE02
0142F6BF
FBC10128
0E250465
F7AB0234
F103F3CB
02510395
FA24F9B5
FB80F69A
FD8C1AEE
02791BC6
080CFF9D
0013FCB6
03FD013C
0CCF0567
F487FE37
01B3FC8A
FFA4FD87
0274FA0A
10C10102
00A405AD
FFB10667
FDC20223
EE31E464
F18DEB1E
FE730328
E65E09DE
FE9DFC8F
EF3D016D
0B0CFC24
FF9602BE
FBEA09DD
ECE2F8BA
FDE8FECA
01700A45
03A3F500
0C95166F
FF03005F
068A09AA
0732FC23
F89B2295
FDDEF605
021FF3C6
FF1601E5
01950752
06C2FE17
FD64038D
0D87002E
FF4B01C4
ECDEFEA2
FD070440
FC0F0247
F308054D
001806F3
0030F86B
05BCF540
003705CB
F73DFEAD
FEBEFE3B
0493FA1A
F3FE0178
FD71FCFF
053CFDD4
FA560261
FF8EF61C
F5D4F947
03C9010F
F990FE99
FFC30178
03CC0701
FB5E004D
FB1202E6
0B9D0303
FF0701E2
FB9DFE55
FB470857
03551284
049EFE1D
0547FE39
0BDF00D0
084300C8
FF70FA67
FDA5F87C
FAA70BBF
FFDEFD46
027EECD7
38F7FDA2
FD6DFE31
FDA8003C
01F4F958
0267FC39
F53E0158
019C0E8A
FF30FF43
FD95107C
FFE800E5
FD33FDCD
FED5ED51
138AFEBB
055FFF4B
FDF3FC3D
FD1A0BBA
EC1300A4
F5AEFE31
F0F80AD5
01AAFD53
F835FE91
FCF2F0AC
FAEEFEB1
F88BFE97
0334017A
F53506A1
028801F0
02FB005A
FDECF0E0
00DF04F8
05650312
FC7B33A5
08C6FCFE
FF28FF11
06ACFA8B
FE65FCB3
FD18085B
FEBFF3DF
FB340459
FE150004
F595D173
FD1B017D
FF040327
FBCEFF4B
FC82011D
FF3300D3
FCA7FFF3
FD17FB5E
FEEEF8BE
FAD2F751
052EFA74
F560ED00
0562F063
FDC608BF
FF690C30
0C13FCD4
F50F0153
ECDFF11D
09A8F659
DC2AF836
FDB401FC
FBEC084E
FD32FDD4
F87CFCFB
F5ACF506
0680E6A7
FAE6DCFB
E2D4F11A
FDA511C2
FFADDB2A
F9F50843
FDB7F13B
0147023D
F29B050F
F857F6C2
F5E1F4CE
074EFAE9
06A1F1F9
F806EF8B
FEB600C5
00720FC6
FCAC063A
1310F75E
0515FAD0
F9250411
055D0580
0BB5F4E6
FA24EF58
FE24088D
EC36023B
F9DD01E5
0432FF1D
F767F6D9
0604FC60
0C07FC2D
F5A8091F
028101E6
F620FEFB
05BCFBD1
F456FB3D
02E30C9A
EE92EEF0
02A20664
02B20822
FC100678
FF0CFE96
061803A8
FEECF60A
FB81043F
078407B4
FDD3026E
0BE0FEFA
1457FF54
05770932
04D6F791
F804F61C
003DEEF7
0EA6FEC0
FFA60238
FF83008A
F24B0047
F55CDC9D
0486FB8F
F3DD022C
0113FD60
0921FDB4
FBF2FF83
F127FC96
0439F490
D066DDD2
0383EFF3
F2A2F229
F9EAF86A
F8DB07EA
069FFE10
045AFE34
FB1FFC5B
FDFB0B7A
F844F566
FF8A04F5
FCADFF6F
FB4CFBAC
13CFF5A8
FE7BFB37
FEFCF1DF
0A59EC86
0616EB02
F89A1B03
00D9109C
F90200A5
FE750463
01C3FFB8
F11DFABE
FD97F823
FB95F8E4
331EF929
FEC2FE00
F9F00384
FFE4FED6
F664F9E0
037FF74D
0DFB0869
0B69FA63
E4E4F3CB
FB650539
01E30CF2
EF060007
04800764
FDCB0210
F9ACF0BB
E242F9DB
00DB01F6
FBC9EE5A
FE310354
F03FEF26
FDC60041
FF63F84D
F48DFB41
FAECFE69
04B6DA98
FB200127
E6EEFDF3
FD0201D1
FDBC0129
F9FD06DE
FF330C90
FED4150B
0FB4FEE4
0050FCF2
1794FA34
FE10006D
04DD034C
00C80439
02B3F3E4
EC20F6AA
F3DF046A
015E063D
FE0300E0
F673FFE2
0D39EB01
FA6E0086
156F0034
030504FB
0002FEB1
F9FFFD52
FF15119D
0517EA17
FDD1015E
02230576
EF2FF195
F85AED6B
015EFDDF
0565FE1D
FAE1F547
07EEFBE2
FF2E0371
025BF94F
013BFC66
F9CF081B
02DFFD03
029C2D0E
FED2EA35
FB730CAD
FD470403
F7F0FAEC
07B700C2
02A6036A
FBB502CA
01420B87
E6910848
FE46F8A6
FC42FE06
011CFDB3
FAD60839
F75000AB
0443F7D5
12C6007B
064AFF24
00FEFDB2
023F149F
0C79F5B1
FF10FDEA
02A70469
03D3F5F4
FB15F6ED
01C308BC
F9D615D3
FC07F777
0295065E
119EFC02
F0A9FAB8
0408018B
FCA5ED23
FA41E875
EFA4017C
002316C1
FBDB00BC
09B8FAA1
004B0269
F90DF6EC
04CFFC40
FE8A0842
FCFCFAEE
FDE7FD19
F967F7F9
F9A6047F
FF16FEAA
FCD700B7
FB640227
FF9400EF
FB1CFFD1
FF5EFD00
F60D066C
FCB2FAD2
05720339
FD32FE61
0875F93B
01F5FFD3
0708003C
09E0FDCD
FB47F5A8
F15A0382
FE30F34A
FBDB0002
FE62055D
FD0C0472
0E660044
FC7AFD21
0335F2E3
089E0B77
F7460A22
18F9F7B1
F2D70610
0B210C76
E93200DF
0C650145
0B9A0135
F3D6039B
F822FE8E
033DFFFC
07F40BD5
032313EA
01361AF1
04910426
007BFFBD
F94BFE66
F0DCFAB0
0179F02B
015CE71C
F88AFFBD
FDDCF666
FA930047
0807F543
F79707C4
0176FA2F
181D0404
021901A0
002EFFCA
079EFB74
00A1FF05
01F20228
F697EFCC
FD6E12CC
09AAE86C
FF610328
FD690A8E
FE8BFAA2
008F0B46
FE22FC98
FA1B023D
048BF9EF
078304FA
0183068B
08070666
EE3AFACA
FD54FA22
FEF4F569
FCF5FA05
F4E8F11C
01D50626
0419FBED
FCA4104F
F7FE0209
074AFDB3
F8AFF0AA
E834FB6E
0268FE14
F9C2F100
FCB003B2
01B00340
0627F3EF
0620F7FE
FD51F989
091AF937
F28BE50B
E2E8EE85
FEFE05D4
FDBCEED7
FE54F8AD
F8ED05CD
F834FC59
FA7C01F5
FE61FFE7
FC1BF9A6
F5840C3B
EFB80540
F7CBF548
F98702D7
F4EEF390
0DFE034A
F425F0A2
FFC1FF9F
FF370318
FF010BA0
01D3E0F7
07B4F6F6
FFFAFD8F
09C70053
FD16FC50
07C4FFA6
F7A9093E
0827F39B
0C97FA54
FB8BF5B4
08C201FF
1282FC86
05C309A3
058EFCB7
FFEBF684
0C08001C
020E13D6
FFDB03BD
FAAC0334
0137026C
02CE02E5
FB390DE0
F6B40303
02C0FF8E
0278FB9B
02F40622
00B00201
05840F3E
F9D7050C
F176F3AB
F9AE17AD
00150734
01E402C9
032F0377
FD33F86D
004A00BE
05000A9B
01A8FA9F
03A0069D
030B0114
07DDFF7D
13F213C6
0164EFC3
F50D11D9
0485E9B9
01410144
0FEFF44C
06C0F441
F26B01E5
FEC0ED4E
044A04F6
FD1505C2
FD3B0847
FE4DFBCA
FF6FEE97
09FDFC71
F579028E
023DF946
01E40002
016FF323
0333FA9D
0843F568
F9B4EEAD
FB9AFF4F
FE22FA20
F8AEFDF5
1432F4D9
F720FBF5
FD6F129D
297BFAB6
FF41FDDC
0300FEBD
FA1CFB40
FB58FAD6
FCF80727
01C0FFB0
0320EF9A
FB84F352
0319053E
FFDB1779
01B1FEC5
04710043
FD35FFFA
FD5AF4C0
FF45FCF8
0455FDB6
FFEFFF19
0183FB17
F3B7E596
FCA1003A
0196F535
FF800030
F42DFD7C
FE20FAF0
039FE14D
0AC900B2
01D9057E
00A3FCF9
0B150101
F77FE881
F96E13F9
1CA2F30C
0105F863
05D2FEE1
09DC01DA
F83C0168
FF4AF94C
FAD207DA
0787DB1B
FC260461
076D011C
01D1203D
F71000CC
FDA4FA25
05270216
F71C028A
FFEEEEA5
FC7100FA
FE950218
064BF37D
0D1304C1
0055FDA5
0811021F
F8C304F7
FC2DF129
FDA2EAC3
00C6F70B
FECE0379
02480168
F88B031E
04C1049A
14DC00CB
F785F74C
E853F9DC
0477FCA6
FAD2FA58
0EA5013A
F6F611E7
FD42F694
EE690F69
02EDF579
FBA01E78
FE6AF55F
042FF237
F9FD0104
FFC3FCED
058C01D2
FFFE0403
023AF5CA
0720FF75
00DBFB5D
EA14FB7D
FA770C92
0273F89E
0272F85E
FB20F250
F2EF0202
F4BAE1F5
0084FB38
F31AFEAB
FCB70144
F6AFFF2D
F2B5FD99
FB19003A
FEFEEEBB
EEE5FE9A
00D1FB29
F2A302AB
0623F935
CF99FBEA
FED2F20D
0A3211D9
F907ECF9
F073F945
08E10D69
016BFA9C
1200FE04
0CE4EAF3
FE71FEC3
FB71FB01
F8F01EB9
0093FF47
FDB50C58
F626F76E
F91509F1
FD82FE9B
0175050E
F6F6FA67
F0FEF7E8
FE2E01A3
0984FCAA
FDA6FBCC
12C507FB
031F0EE5
0371FA9A
0A9105FC
F842FD88
FA91FE75
F516FBC2
FEAAF321
EB4A04FF
0A6A077D
F6AA0122
015F0198
FED4FC39
016D0317
0115F7F7
08D904C0
FF67FD7F
FF5DFC28
E582FD19
FDC3FD81
03F8FD36
FD700AEE
06C201CB
FD8DFE1C
FE23039A
F14C0114
004515DB
FC4DF599
F4490138
0475FDB1
F4B5F729
06CE0ACB
FFDBDCCC
FBC106FC
047AF785
FCD00224
FC0F09B6
0BA8F898
0147FCB6
F57E22BE
F76223A9
F1B7EFEA
04BC0645
0E2C0C31
0C1CFAD6
FEA801C9
F5130090
02BCFF87
01F902FD
055FF5DE
FBA51157
077E0550
02C5FFB2
01C7F46E
F02E04CF
033B0318
042505EE
FBAA0334
1083FCC9
FB2CFD72
0426FB35
FA1B0E7E
F8A1ED5B
F50E01F6
05280538
01F101E0
F67CF816
FDC40AD1
0318046F
EB2BF460
029101B7
F945FAE2
01D2FC6D
0BA1014A
FFE5FE4A
F923F0A8
1542EE60
F790E0B5
025103FF
0C17E931
E0B700D3
F4A700DA
04B206B4
F15E06C2
F7ADFFF5
0517FEF6
FF79FD3F
0EED0175
D907FBE0
038CFE70
03BE0108
19FFF798
F371FE68
0046FEAA
EF76FAF2
00DCFEAE
02EAFF93
07EA0041
04C107CB
125DFE2C
F71AFD0F
FDF802FB
FC161F63
014D10EB
FACD0504
06240536
10D10312
FCD4FF3B
01400B28
FD9C02B2
08A305AD
010D024C
0167F78B
05D7FFC1
FCD6ECA4
0156FC5C
FFD0015D
FF40061F
FD4C0361
00EA0174
04AA06DE
0322F64C
FF3E118E
046804DF
FF93031E
1852E5FB
08D32014
0E2004E5
FE5E0564
051DFF31
1786FDC4
F32013D5
00C7FBEF
01A7FF0E
FE4B01A5
02BAFCB4
FD1908CD
F9BD01A2
018FEF4D
0BECE934
0C48FC5B
11C10425
F9FBFF31
00E2F83C
050CFBEF
FA4B0D8C
FFEAFCAB
0A9F0564
DFD80B28
00A8024B
FCF3FF01
FCC40486
FCAAF503
FCF70287
FA8EFA7C
FF32F924
F34CE223
0AC803E3
F7C8F0E6
FB150030
03FD02C1
045101FF
E429FD41
00EB09DD
0555EDFA
254804EF
01980336
0203FE68
0265048F
DB210186
FB970818
F0AB0057
01D8FEB6
1589016A
F6D60D17
01B70857
0461036D
DB6504FE
08E2045F
0C5AF2C1
0CD600D5
FD61F955
09AEF94E
0988F4B4
F257F4C4
03C6FA53
0A6C08F1
FAB6FCF6
076B0492
00CBFBD9
0113F498
FBF7FE15
FE4D00B2
03DEFDF8
F61C03E6
09A6FE77
F79C0043
0BA00392
FF1DFE92
FC71FFEE
F218FAC4
F556FA79
FFA405F0
FE740A04
0023FD7D
0055FEAA
FB6F0297
018EF726
FBA9FFBA
F769FDF0
FD90FD7C
FC5D0332
FE06FD68
F6C7F95C
FBCE0063
0116FC75
ED070525
005D01D1
00F10655
01D6014B
09F308E7
F5580624
FECA1FB2
04140546
F7DDFCA5
00D0FF62
F201F1F4
0788FB16
0454E9ED
015CFFCB
FE22FFB1
F64B02A1
FFE3FA47
EDD2FE84
FAD8FB81
05B314E4
037AF079
16E0FB1E
0373FB0C
F93402F8
ED8EFDD8
FA2AFB94
F392FC89
074002D2
051CEFFA
FF6706B7
FBCD00A1
01220281
0557F93A
F82FFF52
F4EBF75A
FCCBFC6F
018F07C7
0673FFFC
17BB06A0
FF890C50
FC66FA96
F719FB2E
F6270313
0EC8F704
07B30E02
001B0792
000EFD7F
069F0564
F42D063D
F8BC0912
15CCFF5E
0E910236
F9E5FD0D
026609C5
FD4A0CBA
0A15FC75
FD31FFC8
1155FB7D
0569FC25
05F4FA6A
FE74FA04
00CDFAD0
F863FB57
F2AEFC60
03EF0061
036903F5
FA52F997
169BED73
249DFC24
F535EE39
01880E36
066A0023
033FFBF2
FA9B02DB
F2F2FE70
E8DEF9A1
033BF70D
1A3F0D40
000A033D
0260FEE3
FDEFEC1F
F77EFC65
02DB0C26
19A91DD3
009806D6
EE49F99D
FF8A0895
066F00A4
19E0FF2D
E54E057A
FD9F0073
0211FABF
E800D37A
082C0229
F9BF112C
F72D07CA
0951CAFE
01EC069E
FC4FFDFE
F8EDF6ED
F422FEDD
0728025B
EF39042A
FD00FC65
EB451645
14BC08C3
08DE12B4
FCEEFE7B
FD4A0D4A
F204FA66
08760613
FB9DFC14
FB22FDD8
0140F65A
EBE3FF54
F98B00F7
0484E8AE
FBE60779
F74009B2
FFA2F42F
0010053B
FF1B01B2
F85F02AC
FD5B00D9
F5E4FE82
FCB7025E
FF860BF5
FBE9031C
FBFB007B
F631DC86
F1E8EFB1
FE19F2A0
1B78FFEA
FF7C0100
FE73FC64
022E0B5F
FA54EEA7
F38DE07F
00F5FE21
FABC044E
08FFFFAA
F8F6FD10
068A02BE
FF18FDFB
FBC7FF21
03B1018C
0199FFE5
09C9FE6C
0277FCB2
FD6B0643
03EC020E
E21301FA
FF930787
FFC0FD64
0F2E01FC
FF4AFFE8
01B202DE
02150136
EA01014A
FD4E0004
00660395
1DDA147E
F3350829
FD5DFABB
0180FECE
002302DD
00DB0327
024C1013
044AFEC6
02750324
FF2CFEAC
F4B7013C
DCF9FFEB
0585FDB5
0349E312
FF9CE4EF
0A8C036D
01D502C5
06B8FD5F
0A46FEFF
FF8CFE53
FFC4FA94
027A0804
FB9D0513
0028EA9F
FBF3FF77
0726FDB5
FB7A018A
00830105
0099E7F2
08670219
07C9FDA2
00FFFDF6
032AFEF9
038BFB8A
F94CFC77
027E00E1
FDD6FCB6
FF93030E
FF6ED60D
FF58049D
FF9D00E8
0208FF43
0028FAF7
1A4704B9
FB13FD95
FD06D160
FEB9EDD7
075A079E
059A13E1
F4C7FFC0
090EF996
036BFB7D
FD0D013D
FF800751
FC09FECF
02100865
FD29FCAD
F76EF464
FD2500E8
FE860038
FCF4FEA8
02E0FFE2
02CBFF3A
FE860259
FFECFF2B
00B4FDBD
FB4DFDE6
05B8FE9D
FE080510
01E100F9
041B01F2
009AFB19
024DFF47
F92FFD4B
FBE310EF
FE7B2379
C755FEF5
010EFFB8
FAC0FDEB
0474FF63
FE7805F4
013A0E69
F8EF16D9
E1AFFEE0
F84CF808
0A67FF93
00DBFF5A
0526FF63
0E6A09C7
022DFF71
FD4809D9
FCE1F3BC
02230656
023DF14A
0D220776
FA48F452
FF78FE74
025206C1
F4C4F800
016E0364
FF56FDB7
007800EA
FE21043D
0CA6EF85
01B21013
017402AD
046400D6
0C2F007C
FDB3FC6D
D10406A7
FF79FABA
046BFD2A
04E002B7
013D0187
0100053F
031C0129
05E40920
01B4039A
F2C20607
00620B28
024B0252
115A01BA
03A00217
018DFE0A
0073062F
0547019F
03EB0040
FE34FF05
E08AF35A
FF69FAC5
FFEC0455
05120471
FA30FDD6
FB0CFD4B
FD351D7C
030FFBEB
FC4D010F
0159F97E
03E3FF09
F6A6FF1F
FE8AFDF8
0210F6C6
FE03FB2D
F13FFEED
FE7E1883
FF0AFE1F
03A0FFF4
F8F5FA5C
051EF833
FE97FE4A
041803F8
FFE60A5B
FE42013D
03D6E213
FD29FF20
0028FC8B
02E3F292
0540FF85
F6C600A7
002AFD07
025AF9A7
0084095E
FBDFFA08
F76E01EF
0136155E
FCAFF009
F1000137
0117FFE7
028DFDDD
FA44FA2D
07F6F55E
01F5F7E8
FE37F1FD
FBB502EB
09C4FE05
F8F0FB44
02C20113
0267E2F1
0703EAFE
079CF795
0E29F700
04620077
FCEDD9C4
E513FE06
2A4E0384
FFD900BF
179404D5
EC3200F7
FF20FEAE
FF391DBE
004907D3
FA1E1998
002C0476
00740565
ED75FE94
07B705A7
FA1FFD60
0892FD58
FA5C0C91
FD5A0E2E
FA15000B
FF8FFED7
1296FFB0
26B80062
FF9EFFA5
FC0C0E00
FCE00F21
EA76FF0B
FD1C1931
06FE016B
04B100F9
FCE2FB2D
FDC9F1E7
FC7DFE76
F4D40165
02BDE7D0
FC1FFDF2
05580644
FFD5016E
011F01E9
012206B7
FEAFFA25
F5A9FFC1
FDA90009
FEABFBE3
FFC01926
FF81F541
FD9B044A
F3F11351
01C3028B
0960FFD5
FCCC026B
FD25FF52
EF3E0664
ED9A1724
0124EE75
0C11F1BC
00DA0441
FABD015A
FB010C1C
0358F77B
FCC0005F
FE6EF9E2
08C3FE03
FC1FFE54
072E05A4
02BC1A8D
F7020110
F98C08EF
FDFAFEB6
069101D6
2686F63C
0267FCA8
0115F2ED
F5D204F9
0AA109A9
FEECFE5A
F8CBFFCD
F24AFFB3
07F2F7B1
FEC904A2
11D6F100
F7E3FA8D
FAA924D4
F906FFEE
05C40EC5
FA3A0553
029EFF43
F98304CD
FC040876
FA04FAAB
E76511EF
F9550CFF
FC7700E2
FB96081A
FAA7FB5E
FE4CF376
029AE9A1
FFFAFD3D
00AC10E7
091C04C9
FA56FC60
005202BF
01B2002D
032DFAA6
E421049C
0517FE70
F520064C
FE8DFC39
0A9A1C71
0566EC66
0268FDF9
07C2E9CE
0478EDDF
F2610148
FEE303FC
FAB90009
0450F776
F77AF07C
0061EA4F
CCFA067E
FFEBFE91
F8E2FFE1
0D0C030F
E5B50188
FBB0003E
0B7504D0
FCEEE4ED
FA9F0350
0CE401BC
020F1F03
1314FEDE
F745112E
0260FFD2
FCBE0979
F39A027C
02EE0359
FFB70949
01A5F82E
FF3DEB1B
FF48FF79
F7DAFF2D
FE4EF7E2
F753FD7B
E1D40EC8
00B30CF3
F58C010B
FD6906AF
FC93FD25
E47C0485
0D7A0120
FA9B0BAB
01BF027C
FFB6FDDE
095A0100
00C7048C
F8DB0130
003A016C
005C00BD
0AA0DA1E
35F5FB56
FC9CFC04
0479F221
ECB5FF27
E06CF8BE
03260039
FDAE141D
F6340B24
02B103E6
FF070138
0EC8FF2A
EFBEF7AD
FE36FF74
F77AF937
ED66FCF6
FB1FFEFE
FFA80050
0064E7D7
FD490879
FDDDFB5A
FF71011D
043E08E3
03F9F78C
0457F2D0
F7B6C995
000E0282
FFB8028B
059C00F8
FC5B03AE
0130D3F0
04821071
EFC4FDA1
DCA6101E
FECFFF4A
03E9F1CC
FC6CFE90
046904B8
FDC800DB
F73E0187
FCD20800
0362FCC0
FACCFAC6
F8310441
F13AFD47
FBEBFCDF
FE49F0B4
03D1FE43
F695D9AD
FC77FF5E
0586069F
FFFA018A
FC54F084
F90C0276
0267FE8E
E663023E
F7AAFE69
0FEC0367
0238F720
FEAFFB0B
FA42FDA5
FCA6F5ED
FD4A013F
03D80902
0628F3C0
1A34E87B
049CF90F
F9D116B9
0101F75B
034F02DF
FD88FAA8
0832FE15
0CD90415
05CD0597
FF5C01E5
0B8E06B9
0489041B
F88BFE37
FA96FB29
011309DA
F0A1FACC
EE4DE25B
03381475
F1FF01E5
0156005F
FEE1FE9E
F78AFDBB
FEFAFB76
FF81F13E
0F68F854
014E01D7
FEF501FA
0372F8E8
0F6B063A
03AD045A
FE4BEA9F
003902B2
F4A802AA
E6A706B1
01C7FA2D
EDDA005E
E389065C
FF36FF12
F3D10ACA
0F150653
01ADFD22
FE7F14EA
0459DD78
F28EEA6C
020B0293
015A027C
FC7DFD9A
019AEE28
FC06FB1D
0705FFBF
FE430250
066EFCA0
0FA31955
0BF0F7A0
F5BDF9E9
FE2FFFC7
0C35FEAD
0AD0FF2A
041FE933
00D00932
F5E10086
EF5201E9
FC051657
F99AF8EF
02180027
FCF3056D
FD16F28D
0D22060F
0C2F02A8
F8E007C2
07F6FA9A
02F4FEA3
FE0C0994
10B6FA37
09ADF9EB
02CE0514
01C709CB
E2CA10A9
0993F67F
F8DDF95E
FBC8FA08
067F0958
01DC013F
FEB7F789
0388053A
0DBCF980
E9390FB0
0466FE09
F513FEC2
04220089
0148FF14
0741FB73
0112F7AC
019E0582
FB8F0329
00E3F8DB
FD81E516
FF8CFEE7
F7F1FFAC
1366FF12
06DC01E5
FAA4FF4F
06BCF8E9
04920277
04EDFFB3
FF7D0304
14BE02FC
073AF527
FDCEFC40
01FCFC18
0067F416
FBFDFEFC
F63E0FD9
0772F2DC
008E05D2
0461053A
0344FF81
00B90183
E698FE1A
08BDFC34
04A9F980
FF13065F
F725034E
09F90208
FF1F0D45
03B2FDD6
0DB6E904
F0F2F0BC
00923ADA
FC56F9A8
0056E30D
014B02F5
F0E6F6F9
05B9FDBE
F19B053D
FD48FB6C
01F9067C
04E6019F
D86EFC23
EF9410EC
023700DF
FCEB09FB
F4FBE437
007BFEB8
EB1EF1D3
FDBF03D8
029A04B1
00400543
020FFED7
192BF9BB
07B9121D
009CEC85
161E086A
005EFFAE
154BFE34
006407FB
079EFEAF
00680A9B
FEC1F754
07C9FB56
0B1903AF
0BF600CA
F803FF70
F9B304FE
0E6EF733
FF23015A
DE67FDD7
F7BA0667
FD1EFFEF
0179FEE7
08250A29
0740EE6F
FF05FA61
08E90664
02DDFAF7
08A3DEE5
FB9805DE
039105AD
02310102
0357F929
037AFEF5
F974FD76
F24BFC96
014D076D
FC3B06B3
01CF03A4
FA790266
0C0CF92A
073D01C7
043E0775
FAB7FB23
095FF228
EF95DF18
0595F6C7
FF5DFECB
046AFE4B
1626FFCE
024100D2
FE740692
FAEA11CD
05FC03DA
002CF707
0F8A07C9
0962F650
02B9004C
011BF53F
FBA1F84F
F5CE0459
F3FEF6C6
F5B6090B
FA0208A6
07F0032D
1060FA45
089E0825
FC68040E
015BFC12
D4400485
F77B045A
01660822
F55AF93B
EDECF197
0323FCE4
06181200
037214CF
107001E2
087BFC93
08070AAB
F7C1FF88
FF52032A
057603A0
FCF7FABD
FE690643
FECBF468
0335FBC2
FEC202B5
F8C00704
09A3014D
F94F0C47
062D0F7E
08CDFA29
FAECFF22
F42EFF1F
084D0B13
0481F90F
0743F8DD
029D08C5
F601FB88
0E0E0291
03F7FFDF
FACD1048
005D1290
06A7FF4E
0A2609DF
FF6A0012
015EFF61
F84000EC
00760DA2
0557FD10
024CFBF9
06D10757
03D5FD6D
082403E5
078C00DC
FF9F024E
06A5F35C
0AC3FFB3
003A012F
0607F8D7
0242F3FF
0822F9F4
FFADE71F
04AA05E2
FC9B1589
FA8807A5
08890271
006604AB
F877FFC5
F69CF91E
EBABFED4
047FF61E
EE320AF2
023A01D1
FD99FDBF
007D03AE
043AFDCE
FBB50B9C
ED000386
F7302293
DDFD069C
081407CA
01EB035E
FC8B04D5
E65FFDF8
FF44038C
00ED0A5A
E25DEAD2
F794FDCF
F70AEBCE
FAD30B54
000B0F57
00B7FB98
0841FCD8
F308F131
FF450091
FC5DF400
F436029E
F94705DE
FBB40578
FAB8FFDD
F369FB06
0A221193
FCDD0A7D
032B0E4D
FD5B0186
ED51FE63
FD04008A
0C8900DA
FE2FB8B9
025101ED
F7070955
EBF1016D
FE79FDBF
F6DAF93E
F7BC0430
0DD5F7D2
F9D3FF52
EC0EFCFF
03FDEE08
FE6B03C0
FBCDF668
13B7F12D
07DF0F5B
FD32FE98
000BFD3A
FFCDF699
FEC2EE1A
022EF77C
03FF0401
0C0304F8
FBD9FEEF
FED10535
091AFB3D
EFF8F2C0
F94407A4
FF480198
0201F80D
FA4BFA77
0276F7C2
FBF9F764
00F1103A
F8CB0F9D
FEA4E95B
FB27F74E
063DF7ED
FB5B0F28
0ACCF65E
049EFE1A
FAFBFA3A
0831F563
FD50FD83
02BE061F
FAE60077
F8DAFEBD
0D60F96B
FA9BFD63
F8E1F324
02D0F03B
F0000F46
F8EDF67C
018FF2F8
F9350316
FC5C0162
05030085
EC6EFE9C
F946FCE4
00D3F9D3
EB83FEBB
FF30FDEE
F83B034B
FF46F9FC
F016F758
FC1D007E
053F0C3A
0F00E242
FB8BF87D
051DFBDF
FCFC0501
1D97FE5E
F4E600DF
FBDEFD88
FFD8FC30
F6890C44
01E50242
FF6AFD6C
0182FBF8
FC35F660
FD3A011D
F7F7F5AC
FB50F70D
F9E7018D
FC4EF97A
00D6EF59
F80CFAA7
00B0FD51
02E2FCBC
F2C2F023
07540E9C
FF5EEE47
1C2C0794
FE05FE60
FA00FBD9
FF00FFE5
F264FC8E
FE2FEC90
F200E552
DD80FFB4
FA1EF1CF
01AB0601
02B8FF0B
0E420078
0CA20AA8
FF7BFFE1
F4E10AAF
F05C10DA
02DC0286
00D40388
08D2FF80
F0BAEB70
013DFF12
FF28F91B
0356FA72
0566176B
FBC1FEF7
03F40490
065406CD
E690F300
1E33FC19
F7BF002B
FEF8F27B
05970414
00480254
002208B3
01A4F671
F75EF300
F078FCFB
FE7D03F6
0B68F3B3
FC90090C
F1B001CA
06FDFF2C
01D7FF1C
04060475
0B40FBFB
FB6F028D
046A045B
FF870834
0423F132
04B0FAAB
F99EF819
0DC20B66
E9DAE803
0807FBDD
051E0D6F
F08DF7D1
FD6E021A
0259FF12
FD8F0748
006F073C
F4C9046E
007100D5
01B20192
0FA2FBE4
FBF60273
0212FB05
FE0AF983
0094FA60
035A021A
10BAFFF6
F344FACC
045F0960
FEC2FEA6
FF66FB2E
01C8FDAC
FBC6E461
01120123
050AFE7E
FC2805E1
FB3EFFDD
F88D2ABA
FF00FEA0
F868014C
FF24FB93
000CFB8F
FE7101C1
029B0324
012F0211
FA7B006F
08AEF7E8
FB39034F
FBBEFFB9
ECB8FE73
0E760CFD
F4E4078A
F80EFF91
FFC31D4A
F802FE84
025809DC
1AA60496
01A2F6C5
004A0311
131102B3
FA0C0FC3
FAA4FAA4
0933FA56
060BF352
01A4FC81
076700DE
FA06FF9D
0538F019
098D093B
28C20BB8
F335031A
F50F0310
FBBC03D9
F64DF7B4
F05CDE4B
0B93F707
07F50887
FC6A1706
006CDFF4
12D800C3
0381FAE5
038DFFD6
F6DB08F4
FB8DFF0C
082C1150
1B1211C0
01B8FF9D
F358FF39
FABFFA66
E0910346
F9DCEF86
FE6FDD48
FF61FCA0
E98F0ABF
ECD804D2
FD7C0E4A
0806FD4F
0DA60211
FC1CFE44
FAC80D92
019EF8F6
022EFA40
FFB0FC97
FA5F0474
01D50769
014B00A3
FD68045B
FCD60180
F922008E
F5EEF4F8
0577F804
F9B90163
FFADFE37
0088016B
0370F046
0BB4E58D
FF1E0561
E9F7FD4E
01DCFDEA
0484FE94
06AA00BB
FE6301DA
001BFA73
F5CADB64
1A17DA37
F4A3FBEA
0DDDF743
049402B8
19F5FE4D
F4C406F3
028EFEAD
F80F01B6
FF9A045A
017A01F2
FD59FBBF
0422040E
095CF305
006CFC33
FC87FBD7
F638F4C8
FF9F0489
FC12E97D
F864E916
FA71003D
FF5C01F2
FCFB03B6
F6460042
F571F80A
FF85F3BE
FAA80DA0
009C0157
FB2203C2
04170BF9
0D4C0C4E
FCE4FD0C
03A8F48D
033D2989
02191F1E
0022F474
FD50FF17
FB08006E
FAADFBE7
FB6E01B2
FCB1063B
FD0CF1D7
FFA2FAC8
012AFDDD
F6960498
05CD01F7
FD120718
F433F952
FC4FFB1C
02B6FB98
FC2900D5
01DEFFA5
FF41046F
FD18FFAA
004C0637
07F7FF8A
FB39FF7C
0455F898
F32DFB7F
0775012E
FC4CF5BD
0E1D16A9
0E8B0FD3
F699F865
EF5BF700
F70BF801
FF021BDE
FBF0FE0A
062BD8D2
FF71082C
FD9BFD08
051C04FB
F7F8FE10
FC65FD3E
04F9FC7C
05850284
E062FB70
F69F08F2
F95BF5A4
04CE02AA
FEF0E844
F62CFE13
008C0101
07CF0218
FFE6FDAD
073EF1EC
08AEFEE5
0223FE35
03AF02BC
06FE02A1
0269FEC1
FFB308ED
FE83F3EE
04B70794
0753EF53
F722FEB4
0E1301D2
FB47075F
FF5F0C01
03F70184
FB2D028D
020AFF66
0109003C
02B80C28
002C0167
FFC400AE
047B0118
0B1C01AD
027BFE39
00540175
02010B82
06840B9F
0048FCC2
0634021F
025A0FE6
FC880149
FAA701C1
0244F947
082B040A
0369DE84
F8C4099F
FDD80F56
FC00FCAB
FD7D000B
05A4FC12
FAC8F59D
0AD7FFAF
048BFA21
0A93F77F
FD65F080
09000497
F325EE68
FD0EFFC9
FE9AFA53
FC61F80E
FE4AFA2A
041A0062
071E0316
020903AF
FF380C07
FBCDFAC8
0515F268
FFD0FF5E
FCA80675
F96CFDF4
01460BA5
F58E04D2
FE95024F
FDEF0246
0261069A
FF2FFE76
F113FF45
0ED1F17F
FFDAF076
FCCD04CA
FD4000F9
06EEFFAD
0A1A0A5F
F54F03CE
FADDFA2B
0CE624C8
0520FA43
F7D4D5F4
04D3FB44
FAB3F1CE
EFA50342
02F901D8
03610224
0021FC4F
1609F409
FBA4F736
02CA0FC2
0C6FFFAF
13FD048D
02AB0398
04080447
0C44FC21
FF53E6B9
FC750A3F
02270B43
FE0700B4
FD38FF71
00AEFE72
F74F0331
056602DA
FCDF0166
0683F711
FDD7FC74
FFD0FE69
0C87FC75
F0C1F5BF
FA6109FD
FBBBF60C
01601E34
F1E5F711
02A5FB02
FE28F9E7
07ECFDB9
F9AAFE8B
FEBAFD9F
037CFCE2
F915017F
016504FA
00F8085A
FEC5F701
0C4FFF2B
FC8B0159
FB36F0A5
FF46FF78
F6E11A44
1A03064D
F932FF2C
255E0072
FEA6FF5D
EE3D082F
E3B5FBF9
10030623
06FBFD44
FD69F861
044B0605
005DF994
FE1BF7D5
06F30266
FE221630
0BD1018C
FCEF09BF
07C3EDEA
FDB8F6EA
F8FC1081
0068FFD3
09A8FDD0
FEE1010A
FD2FFB5F
01D7FC3B
035A049B
0109FE64
1204FBC6
021208D7
FE22F603
01650362
F7CEF344
0AB20071
064BF859
02A9DF66
F577050B
FD45FEB9
FC58FE93
F37E020E
F11B0E4F
0173F0A0
F36DF640
00D2FE03
06BF0101
03B2060C
EB7C05B0
FDC9FA22
FBF4E53C
F94025DD
F7900E64
FF8DFC3F
F74FFBB5
F27C00DC
010BFB75
FF96FD70
F39E0A56
F7360D45
02120184
03F1FDCA
04D9F39F
19FBE54E
FCC9FDFC
01570178
F88BFAD5
FD8EED10
034A0378
0C57022D
FE5CEBFA
FEE90768
0A12F9F4
FE4B001B
F852009A
139E0462
04F2FDC9
FA8BF77B
FDEBE08D
05B6F6B9
0208F884
E858FD7F
062CFC98
FCC2FC68
06BA01FA
0127FD94
F96F0A39
02AEFA31
FC0002DF
FFC2173F
FE9800A1
FF9CFF00
FC420789
FBB4FE80
FE8FFF34
FF420021
FF12FFC2
0324F870
000700E9
0238FEC9
FFDF1D26
FC86F054
DD6EFA9C
FFCC035A
FA240196
11BDF507
0B1101C0
FCF1FF5E
136902B1
00F2FD9F
EA31008B
0910F7B8
06F6FFBD
00BB101F
03EEFE05
045DF4E4
F88D05D4
094C0288
FE89F67C
FF2EFFC3
03DB0730
FE16FFF5
1B290D01
E2BCF886
00830285
FCC9F8E3
0DC2E91A
0D6303B5
FF310084
FE38FB39
033A08B4
007CF442
FFF00165
03A7FCF4
03C4EF93
06D20290
0302FCAA
FEADF9C2
13A70105
137B0342
F2EFFE0D
FBD6046C
057E38E2
FFDDF9B2
FA630F66
E90E01B3
F8FAFAFF
0656045E
FAC7FF1E
03990626
FD890508
03680D7F
017D0251
02BAFC52
047B0181
F77DFCBC
028A0E41
059CFC6A
FD19FE31
01CC010F
FE781557
F92A02DA
0187FE8F
FFEA02B2
FF2BFC55
00580471
0123FE58
FF640026
EE470267
01940272
20E5FC96
FDFCF7A4
0BD4013B
057500EB
F936F99C
04780143
F6B6091B
FD68FBF6
ECBEF7B0
030AF79F
F4D41A5B
031BF03C
01F3EE05
F9A6FF05
F9E10051
017DFBF1
F62B060A
01B0E9DC
FFE3FF81
011AF989
EC100008
F9360542
012DFBFF
F9D7FC66
F9C6FB4F
0BEC0210
076B1672
FD7408D5
FC26F982
0000FC41
FE2A027A
0B6BFFDC
F633F69F
01430B06
1ACCFD69
01F8FB6D
0194FFAE
FEC0FBC6
F09CF67F
FE8DFDB2
FA110350
0473EE0C
1366FDFA
FADEF892
F9890FEB
0047FEA5
00EDFC8C
FD4BFE5F
0250F570
019306D8
05140344
0232F7D2
F5B2FCF3
F633F4F3
FE67FD69
0070FDE0
0275F896
FA7EF065
FBEF0577
0933FD5D
084DF964
FE51FEF9
FF5403EC
FE61FCEA
0A0CFDC1
05A2FA88
05A8FFE6
048C0108
00EDFFF8
0A38F9AA
FE3701F1
047AF35C
F70C010A
FA0EFFA5
F5730822
07E9F695
FFB414C8
F226FCF6
FFEE009B
0082FA0F
042404A7
0723FEDF
075D032B
02E80306
033CFD4C
0AF0024F
FC51FE5A
FB61F330
0151F8FF
EBCEF39B
FB05FEEB
04C6FB6F
FEF406B8
FACCF7AE
F2F7012B
03A50764
075203D3
F46FF061
ECA9F7FB
FF22FB57
FE8605C5
FFF40822
04E2081A
FFC2049D
FA5DFEA3
FC0BF62D
FAAE0B57
03CEF93A
F200E145
05D6FB0A
FA1F0133
F5EEFC06
F9D20998
FED7E82D
039EF879
FAC2FF6C
E18404A3
F6190272
F78B03BE
F761F7E9
FBD21020
026AFEBB
0A72D94D
05150468
FBCD0126
021CFCE2
FF4AFEEC
0664094F
06D410FC
FD83F730
01E1F687
015000DE
E3C3FDFC
017AF69A
0FE701F5
02F007BB
FCD2E6A7
FD060046
F532F022
F5DDFF68
0175E672
FF9F013A
FADA051B
023500C2
F78CFF87
05841003
0025018B
0224FD79
04F211CF
1CBBE880
026B00FF
00B80AAB
050AF7E7
FCC1FE87
FF05EB4F
FD040452
FD7E0659
010C01C4
04B4FB43
F932FFF8
06EBEF2C
FD41F01E
E2560DA2
FE350569
F6640298
047EFD6B
1F9B038F
00620CC7
0667EC31
F2420535
FC13F9B6
FE3D046B
FC85D973
F90E0487
1FCEF750
FC2D0346
FF5E0A51
E2D0F5F4
FDE20056
01C4FFC8
FB06067F
F1BB021A
001D02A2
03E8FC6B
FE33F9F2
040B02CF
0BA5FB34
FA270D26
EE270370
01AA01BE
FE0900C5
EEC107BB
094FF2E5
0056044E
E9C8FAB2
FF280552
082EFF1D
FE780914
F00BFED5
FC8D0D15
F589ED3D
F26EDC2B
F78B0776
F052F6F8
FE67F373
F3A4FF02
EF0C05A7
027A0140
F717F2F9
ED71F46A
04E7FF2B
053A071A
0B380826
1A261D36
00F3FFC5
FB0DF871
F8F7FCD4
02A1E521
040D0A50
FC08068D
FF68EEFA
0598EE17
0616FD44
0285FDF0
F35F0646
FE80FECC
013E0476
FB97ED3B
05220584
08FBFD45
FD4D21FB
0933008E
EE9D07AC
01360357
022A03E5
04A6FBF8
06F600D6
FC4BFAFC
006F0683
FC16F809
0658FD50
FE8C011E
02E90D8D
F742FF3D
044EFCA1
016AFBCA
0A4904D2
015B03A8
0A9000FE
FA15FEB9
07911133
FF0D1F8D
EFAE0449
02E0027E
040D0422
F911FA34
F3180590
06A602A1
1CD1F60F
0365FF1D
008E017C
FC8C05C8
00380F49
FADEE093
F682E4FF
0BB606E1
FA72FCF8
07BB01DD
0469EF78
0B710550
F541EAFC
02B10489
F283F936
FE6BEF92
017FFC7B
02B60946
0845045A
FC71EFB3
00E601AC
05910930
0C44FA6D
052414B1
00EAE527
00D0E7A6
F64CFF89
04AAFFB0
0677FED5
0CE1F808
0191070C
0013F267
00C2009D
009A03DB
083803AE
0B5FF1E6
FB88FF0C
0949F6F5
E692F0B5
FE33FB50
108BF528
006306CB
0AC2F976
F6FEFEE1
08200E5E
07AAFF40
FB58FFF3
0B76FB41
FD2F05F2
FF2AF345
FEFFFE8D
044C138D
050DFFCD
058AFAB0
F4E2F954
FD4CFCB6
0304F960
FC430A91
061AFFF8
FCFEFDC1
06B3FF20
F66BFCA4
F5D1FB47
007E02EB
DEE5FFAF
FEF50183
F9750563
F7D60463
02A9FEEF
02DEFCBA
094BED1F
F9A6012C
FDEAFB91
0460085E
FE58F5E2
F83D01CA
05EF03CF
FBC7FF7A
FD380161
FE00FC44
F13DFF8E
FEF7FFD0
002C08E1
F95BF2F1
FDFC019E
026FFDE3
029E0018
0B4CFDB4
FB3A0213
001BFE7B
018E1877
02F908E1
0396FFCA
FF5AFEC3
F44601A4
CD2801B3
F509FD8F
02F1155F
012AFC45
EAA0EF6B
06D1EA7D
EB33F9EF
FF6CFE6F
F9F103A9
F9170CD7
FFBB0486
08ECFAD1
FECD0C43
FEDF00D2
04C11458
FF0A00D2
FFB900DE
FED30187
0A83FF24
0147FD3E
0394FC28
01D6FAC2
FA6F0803
00450567
05D3FD6C
FF7E0936
0436F279
04B0FEC0
026A00A7
00FC04BA
F669FA1C
EAF011F8
004409C1
0312FED5
057EFE9A
04EA0500
06B3EE2E
FAF5F5B0
07B2F228
0238F204
0D1DFAFF
F616EAA4
FBD4FAF9
FE78F613
1BDEFB1E
02DC03E5
007EFC92
0D5A01BE
038EFB1A
008001DC
FDC1F465
07B9FBD5
FB1DE892
03D6F9B5
01FFFF19
0250FD40
FD0AF6CB
FE32EEF8
F791EC91
02D106CB
FE34059D
05A80176
030504C7
F08504F5
FC9700E2
07BEFA95
0290FD81
FD7D0277
F4060080
FB3113C2
000F0154
0969107B
FBA9F01B
002FEB1C
F9F60003
FF2EFC63
0A49FBBC
06410246
03F1FCC1
0750FD32
09CEFBEB
F399FEFE
04ABFB6F
01CDFF24
FFFBFFE5
0280FC52
FFCCF5F9
02F4EF0B
03F2F9F8
025A0044
048BFE20
FDAF0400
F5CBE940
009124B1
FA9AF735
00420079
0D5F006E
F21C023D
1A0F09C0
022D0E32
08DF02DE
07630191
0860003C
F999FFA9
06320819
02FC05C0
01C3FA45
FA24FA77
FC6E0795
01DEFB38
F6C204D3
00BD03A5
FF40025C
05E10017
035B075E
047E030D
014AFA8A
F77EF01A
FC060179
014C010F
F93703E7
FC06FEE5
02F3E977
1641011C
047B048C
03DBFE65
0A8007B5
02ABEA11
0133FF68
F4F50216
0000022B
FBE2FE86
017E0AFF
1314045E
FEDDF11A
008FEDC3
F78600C4
E1D8F6C4
FE4808E5
057C128A
D2FB0476
E5750989
0666019C
122C0903
F9D6124B
FF7D0086
03FEFF45
05E80055
0539E651
059202B3
026EFE5E
025FF530
FDE90CA3
EF44F00B
FCA80B8C
00920001
0091FB86
F360050F
F605FF70
FE8011D3
00C21764
125B03A4
05B9FEC7
0078FF18
05CEF76C
F1AEFC05
FD1B0448
036BF397
ED6408AA
FD0CF85C
03510653
00AA07EC
07560098
FD2407BC
FEFBFDEF
0ADF00B0
FF28F884
044BFF5B
00ED05F5
0317FE40
F309E9E2
0007FF55
FF9FF65D
042A004C
F2C015B1
FC2501AB
038DF010
FBF4FF18
01150198
04A80099
F5FDF96C
0F390816
FEBE10B8
D332FF4B
FFF9FD27
06D8FF19
02B706BB
1B31FF1D
FF9B083B
FA72E993
FFCE08A2
0602061B
F8DFF74E
FFCC14C8
F15700A0
07221076
044AFE01
FEB5F46D
E63603F7
01970102
030D01B4
F6B4126C
F63DE3F1
00BBFF00
FDF60063
FBDDF90C
04E1F7C0
0235FEE8
07BBFFBB
035C0972
18000145
E3FB0576
FF13FD09
F937FFCA
020503C6
FF5EFCB0
F3030BFD
FE93056D
0DACFEAC
FC4FF8C6
024BFE72
0A47FDDF
03C9FDA5
FBA10225
010DFDB5
07FBFE37
001903B1
FF7100CC
CE5C06B4
02CEFFCC
FF310375
FFD9F9A6
193BFEFB
FFE4FFFC
055E0109
0B07ECE5
0197F21C
FF93030A
0AD6FD99
02A3FF32
F99506EC
02D4F530
007D05F1
FFCEFB78
FF8DFFC9
F669F3CE
FC800571
F8C30400
FEC0F4CC
07C4FA1C
FC28FBE6
01E1001C
F9BEFF9E
0F6A0047
0932F236
F478F2DE
FD83130F
FC48F1DE
037F0255
FE240617
FC6B01F5
FCBC043B
00A5041B
04C7041D
051F0416
0CD608FA
0550F8DD
0109FF22
01C906DE
1043F59C
01B4F4E6
0A96FF6D
0423FB83
04720334
001AFF63
0525FEE0
E8BAFC06
F8F3FC8D
FEBBE356
047EF799
FE7EFD07
0B64FF83
08FF09B8
D296FB05
FDC00865
0D20E416
0A2C094C
D960FFF8
FE92FEC6
03E2FB5C
FB69FF6B
F13C04F8
04D20092
F5AB08F8
F9650B68
054B0312
02C9E2BC
EAA8F74A
0953180A
FEAAFE93
FE23FCE9
01C3F742
F43913CB
0C66DF97
FAA60566
F897FEFA
01AC003E
FF51031B
0636F8AB
F234DD74
06D20ECC
E683089E
FFB100D1
029400C9
FDC90783
029A048D
FE6DFA42
F332FCD2
FD93DD31
0EC6F875
108B03AD
FD93F7CB
E5620009
14F41491
FDE502AA
F006FED1
0D850A33
059B0725
FCA10B2F
FAA9E652
F71AF9A8
FE7E02EE
04300442
F3AAF8C6
FF12FCA0
0601FD47
F95403D6
FD5204BD
F9F3EA16
0BD006FB
FCA5F932
F1970178
EA87FE22
F8C4FAB9
04E5E90A
0034F92B
0DD30C39
09A910C7
F979FF63
F0A00B53
02AAF45C
03750CAA
FBFC0B11
F704F329
FB65F64A
FEB203C7
FB660127
00600031
047DFE5A
02D6FC44
06B101AE
146C06B1
FA27FF67
F572EF9E
084DE81F
FE87FD60
0275FD8A
1315EB10
FCA108EF
04A70400
0195FF50
08AEFE2E
F1FE042C
F19302F6
07540857
EC1CFAE4
FE5203C9
FB08FCC9
0563F8E0
157F08B3
FF24FAA9
F0A70C06
F9370FB9
01A1EA28
09C1F937
006ADD86
EF5500AD
08C9FF97
FDA70460
F23EFD08
095CFF14
FF4406CE
0168FA91
0719074A
0ABBFCF1
00F6F79D
003C0847
FDF3EBF7
FC7708C2
FB6602A3
F46B01E0
FF3303C0
0F49039C
036EE8AD
07FC1366
0F3EFCAD
000F09DA
FDF902C7
EDD3051E
FC1006E5
F947F08B
FE3D0348
04D40239
FC68FB7A
F95DFBA2
FE89FB78
026AFF99
012DFE58
03560289
02E80255
0EFE03CE
034A054A
F2340610
032DFDE7
06000064
FCECFEC5
01A0F7C0
0A2212EC
0B5C077B
FA39F154
0D87F927
FB39EF09
F0BFF4DF
0283FCEC
FE4B1A70
05D8F530
0132DFFC
0120FFFC
F5CFFE45
E522FABF
F781F2FB
FA90EAF9
F64200DF
EC9CEFD2
0703050C
F6990BB8
03570679
004102B0
F4F110E9
0088EDEA
075F034B
09C5F5D7
0010FD4D
068D0256
0933FCB6
0B600888
FDC0FC7F
EA84054C
0D320D78
FD670318
0AC3FBDA
056BDA72
04180040
04DAFC16
FFB10138
F2C5FEFC
FCC0FCC3
023C0215
030E04D3
E2DCFAF1
FD570844
098BFD30
009CFA0C
00710466
00400576
FC2300B0
0210EC5A
F85CFBB6
03031AE6
F15E0F22
00ABF9AF
F9E4028B
E459F9E1
F276FD0F
FDA3FC97
15240123
19F0032C
FFBD079B
FEF5FA35
EE9C02AE
0393F370
FC16FD76
FD6BF5BC
F041F58B
F60D0819
0280FFC3
F76A0AD6
06D6077A
FF88FA9C
02B4FE38
04D402BF
FD87FFED
FD32F965
0A4704F6
FE00FEFC
FAD4014C
09D40E55
06BC006F
F4FEFFB5
082C112D
0102EDD8
12A6EF93
04CA056E
041E138E
FC440380
01F3FC04
FF620946
FDFEFF60
F7ABFA39
061DFD13
0028FF78
124603C7
035BFB4D
FA67FA91
02450510
FEEDFC4C
F0DFF502
FFBFFDF4
FC2801B9
FE73071E
EA1AF47B
FD9DD4E6
03EBFFB2
026BFDA9
12040292
FF84FD34
193508B9
FFE8027C
0EB900EC
00E904AC
00A5FF06
FFFE0B5D
02140170
06FC08A0
0068F2F6
086F02F0
040607C0
0530086F
F713020C
04080162
01480134
02830623
158B028C
064AFFC0
FE4F00D0
09B30485
0A4503B5
019E0722
FF1002D9
052D0C40
003A14DA
F9BEFF27
F7F8022E
FD6A00ED
EE4A05D3
F6EB0007
FB19F420
0067FFEE
FF34F956
FA3FFB99
FDE5003B
F6B2FCC3
F575FE7C
FE52F73E
F5F4ED32
02A604E8
09DCFC2D
F903024D
FE08FD6E
F04FF6DC
FB7CFBCA
FDDFF8A7
FF7206F9
03840727
FEFFFB13
FB10F6F0
0B43F4DD
F87BFF96
FAD4F965
FB42F5F1
F59A0E2B
00190A6B
01D9F2E2
F915037B
FABA0BB5
F45303A5
FB24FE4D
10D00447
F8F00673
10A2FBD4
00B2FCB0
FE32FD31
0F51FBCF
0410F948
F6E40BFD
FDB904B2
F0850117
0497FCE2
FE09F4FE
FD680351
0234F9C1
F39F0441
0069F88A
061CFB50
0394FACC
00BF0010
FC8E0199
FC69FA30
F9C504C4
FF5AF9CF
F757F532
F8D0FE5B
F0A4FEBE
F7E7097E
FA1CD931
FD30FE1E
FB95FA80
FD5905AE
073102A2
F15402FA
FD4EE101
D13301CB
07B5FA94
FED6FBBE
F96108C2
F9F9FF3A
FDD1092E
FE19F657
0D43DD40
17CDED90
0049068D
FBA20E87
E14700ED
08120E03
F8F101DF
FBCBFFD1
16ED01A7
05F2FFF0
0361F9F5
02F10143
F8C9F693
FB0CF8BC
FF890081
F2CCF22A
04081616
02B3FDD4
F8980150
00A00496
154A03F3
1B00046C
0158FE5E
01A8FF84
0152042C
0092007B
21A8FC50
00B7FC35
0B87F486
0205FF6D
0386FD7F
03B1FA95
FAEEF89F
002FF44B
007F0662
F907FD9C
FB36072C
FB650498
181B00E8
FCF6FFBF
FE68FE7A
01E1FFF2
F2B30044
FED203A2
0466F9DB
EE0EEB06
093DFA52
000DFD72
065EFD57
