FE9E
EBEC
F711
F3DD
EE08
F182
FB66
F980
125B
FECA
FFC4
0596
F31E
F180
FEBC
021F
08A0
0B8C
F46F
F926
FD1A
F377
2D0D
FC74
0169
FB6B
E20B
ED06
0015
FF14
FEA9
FB32
EC86
0087
0300
0695
DD9E
FAA5
FE17
F306
018B
EAA0
FCC1
0231
FA2C
E840
E8CE
0092
FDF9
0016
0205
06BC
FE10
F3E3
F448
FAF3
06BF
093C
189A
FC13
FBB4
FC6F
FC2C
0827
FB7E
085D
0105
011C
0B6E
08D3
17D8
F742
01C0
0A46
0397
FB58
0216
FF05
081F
0A76
F96D
0C4D
072C
092D
EEA9
F541
EE54
1129
FAE7
FF6E
F13B
F0B0
042A
F639
0EBA
F89B
F452
0982
FCB6
0653
FF6A
DE8C
0746
F97B
F855
F392
09A8
0B84
EFE0
FB70
0F53
FE8D
F473
0C96
039D
E2B0
3C38
FBDD
E17E
F1AE
EDC6
FD33
EF31
E7FB
17F4
153F
1871
050D
F440
FF76
051D
F35D
FD45
0258
01CA
FD16
FF01
000F
01E8
01CD
FD56
02A2
FD58
E819
FB81
FC5A
E99D
FF85
1154
0295
0B90
03D9
EAF0
089B
F247
000A
0686
011D
072C
0823
F918
F9B6
DDAD
F96A
07E3
EA1F
FCE5
0972
F043
1BC1
0539
FB9C
08C4
065F
0525
13E0
03BA
083C
0EBB
F6EC
FB81
044C
FB8D
F995
F7C4
0150
F5D1
082A
0CF7
F809
01FB
09CD
FB4C
FA7B
F7C9
FFE4
F30C
10F0
F945
06BC
F98E
08A0
0026
E7B0
0B56
1140
E8AC
EF62
FDE7
FBDF
1C60
0757
EFF2
068D
0667
1061
DFDB
0382
F6F1
FCB5
F8C6
F6F2
ED36
06E0
03FA
0238
F456
F912
FC26
DA7C
EF9E
F264
E741
0937
F928
D69A
FAED
04E8
F598
DAC8
FFC7
E64E
1F5B
EDE0
FAF5
FCDC
ED8D
F50C
FE75
F660
0B48
FFB0
0D2B
F698
03B3
FC53
FF45
0F57
E95F
FB23
F0E8
EBEF
F7A0
091F
00B5
01AE
F4F4
E5DA
FCE1
F59D
E486
EC8B
FAF7
F907
E32D
EDCB
F74D
F698
FA0B
08BB
E378
01B3
F00B
040D
F724
07B8
07BF
0A24
009E
FB7E
EBBA
062D
FB41
EBA5
FB32
F915
0458
F0AC
14E9
1D3A
02AC
FC77
FAC6
ECE7
F165
FE5C
F514
0EC2
0F56
FE05
023A
FA66
0615
ED6A
FEA3
FC1E
078D
F7B3
F201
E55D
F908
0908
F62B
00C4
09DB
0411
FDAB
FB18
030B
04C4
FEC3
FE91
E9B0
08AA
F939
F72F
03BA
F7F9
FDEB
0B94
01CE
054B
F4F1
FD56
03CA
FCA4
FCC1
F41A
01F1
F429
039D
F262
00F9
0730
FD64
151E
E74A
FFC2
02A1
086E
03F1
F8AC
048B
F02B
F7EF
0ED4
01F6
FA18
0778
F4E3
FF3B
044F
F05D
F604
F2E1
F723
F233
FEA2
FF72
0275
F76E
056D
E2DA
0FE8
081B
F26F
0A52
F70D
F5CF
FF32
02E1
28CA
FA00
F099
0371
2203
F35E
0ECE
16E5
0227
FEC5
15D8
EFCD
FC14
E02E
01E3
FE6B
03F8
FE25
FA86
E841
198F
F380
0462
F4A2
0B39
F49D
069A
EDB9
F8D1
F51B
0847
08EF
F697
0956
037C
EF40
0655
0A09
1012
106B
0578
FCA6
E373
DED4
F2A4
0251
F184
E8C8
FA3D
EFEE
FCAE
124B
054D
F648
F091
01E0
2303
FEB1
F72C
FA1D
009D
0724
D0FB
FDC1
011B
ED75
F05C
FE7C
10EC
FA9C
FE6F
F83E
10A5
FDC7
153E
E3ED
FE9E
0867
07B2
FF77
F903
E653
F4D0
0DDF
FD43
004E
F94A
DD06
1BB1
09EF
02EB
EEC6
FD1E
035C
DF92
ECA9
1747
1356
0A04
F50F
FE31
0F1F
0E6F
0232
071E
F03E
14FC
F357
EBA5
0C26
F2F2
FAEC
F4B1
F5AF
EB23
1284
FBBF
E04B
FB5E
105D
CB62
EA2C
FEEA
F200
0A60
EC85
F880
F667
F913
F3E3
FF33
0D6F
FCD7
03F9
141E
FF3C
F44A
FD31
1126
EDA3
F4FD
FCFF
2657
FC0C
F480
F965
0264
F953
0417
0279
0966
F19F
EA9E
FC9A
0341
EEF5
03F6
069B
F521
CA3C
0204
F935
E465
EDCB
F58A
E2FD
FC65
0B08
F356
FB26
104D
EC04
046C
0887
F998
04BD
FFF5
F909
D83C
0614
0729
0947
05EC
F58A
F43C
0342
F804
F5FE
F776
0617
0445
F6C2
FD10
EDBA
EC84
07EF
0BE4
F94F
009E
04A5
FDE3
FEDA
08E4
F605
FB8C
158B
FB31
F8F5
07BF
FB9B
F8C9
FC18
FA07
0879
F90F
F599
0690
05B2
F71C
EB63
1349
0705
F7E0
F4CA
02D5
0F49
F215
FA31
F54E
0C1F
0009
20BE
F2DE
F718
0624
F838
03EE
140F
0CFE
036B
F4F6
EEC8
FFFC
02A6
FABE
F0C5
FF77
FE46
DC88
F8D9
1065
FAC3
080B
EFFB
00CB
FCAF
F9BE
F412
FF1A
F7EE
FDC6
F2E5
0754
FCFC
0AE0
01B4
FE6D
03CB
F7D4
F938
FB35
FDE7
EF6C
0145
00DB
E985
FDE3
F96B
F3E5
F767
EA5C
01DE
F56E
0C7C
FD58
0B7B
080D
FCDB
FD42
FFCE
F918
FF84
F5BB
ECD0
069E
0F6A
0423
0167
E7EE
08BC
FE03
F8DD
0AA6
F024
035E
0442
069D
FA8B
F651
F750
FD96
F4A8
F7C2
070C
07C2
0D69
FC30
FDDA
E882
FEF9
DFAA
EC8D
F408
F22F
07AD
00BF
0ADF
00BD
F2CA
0ABC
03F0
1B1C
EE65
F9FF
EF1F
FD2C
0254
F811
0657
18F9
1767
FB44
FC86
F2D4
0212
01EF
FCF0
0667
F2C4
EBAD
EF84
F20B
063B
E52E
1BB5
06BF
E497
0056
EC82
0054
FBDC
FFEE
049C
0A16
FF23
E35D
0B40
EDE3
1FC3
EB1F
FD4A
EA6F
E87B
EAE0
145A
05BB
E6A0
012D
0CB9
FFA6
E7DC
00AB
0EFE
FDE2
038E
FA80
FDC4
04DF
1B1B
F91E
06E3
E430
ED64
E2C1
E23D
EC20
0266
FC6F
ED69
0F38
0422
F9C8
0481
024E
0672
0B3E
F9DB
F590
F54F
03C7
1237
ED76
0DD2
08EB
FE4B
EF8A
FF45
042D
EE91
0476
F407
F2CE
0D11
FCFC
F51E
F50F
F86F
EC39
EE86
FC51
0C93
0610
0DB1
FC98
E5FD
064F
000F
F337
EEB2
0289
EAD9
EC44
00E2
F5BF
0143
F215
FBFA
03B7
0A5F
00E9
FA39
FD63
F7BF
1F4B
FB69
FDE1
08AA
FB04
F20E
F1E5
05CA
2196
022B
00AE
EB1D
FA27
F5FC
0611
F78B
038A
F3C1
ED9A
0256
EA04
00EA
003B
EC0B
F888
18D0
DF6C
F2CC
E6E3
F5E2
EB29
FC3A
F835
0C26
FA4F
126C
0A99
03D3
094E
E30E
F358
D91C
08F3
EDA8
080C
F5E6
0AAA
E629
00A9
FC31
F43B
FBFF
F832
0C10
FAFD
F5AF
0508
0B37
0BF5
FDEE
0538
F5A5
077E
1E1F
10CE
EF4C
FE87
187B
0269
00A7
F8B4
1333
070A
1893
F92B
FB45
F375
03B7
018F
EC73
F651
0750
0944
028A
0E6B
0831
FD61
0C3F
042C
1D53
03D1
01AB
0500
06F2
0318
0528
02F6
FD32
FA23
FD6C
FB86
EC87
F365
049C
EE79
F95E
041B
F5DE
F0B1
F05B
E11B
06E7
EE8A
FF4D
F263
0397
02C1
FD86
F976
0BE8
FBA2
E6A1
01D5
FC10
DD67
001C
EE84
0EEC
EDE3
0EB0
FB2D
FCD6
054A
0E94
F4A4
FDEA
FF9F
EEB8
013B
0D7B
F503
F18C
FB26
0206
0385
F36C
F9FB
E66A
0753
F6C4
1531
FBC3
01DD
0555
0138
1AD6
06C9
0D9F
0D9F
1E24
F9F4
0A75
0BD9
073B
EF73
E7A6
062E
E6AB
EF00
F8A4
F0A0
F5AA
FB80
13B6
F44B
0E92
F81E
058A
F427
F9B5
1D0E
0111
F8A9
131B
F9C1
F84C
F2F6
FBAD
1ADF
0C3B
0978
031F
EE19
F7C3
FFB8
FD0B
00BF
0ABA
09F0
0B75
1009
018D
FBC3
0273
0E59
FA5C
002E
0F9A
FED7
FA0B
091C
F5BC
0355
FC90
11CE
FCB4
000D
03D4
00E3
F5A3
F78A
ED97
07EA
06B2
1965
F249
FFE2
0D02
FEDD
0F8E
03BB
ED17
F2A7
FA63
F291
FA7B
FAA4
02D0
F82C
FC20
02B0
EB6E
0015
1F19
FD48
03CB
145E
1B30
FB2F
FF07
08A1
0A26
1108
1120
0163
F67C
1EDF
03C9
00D4
087A
F8E6
FFFE
F812
0422
FE0C
FE80
FEFD
06CB
F960
F989
FECD
EC42
0305
1258
18AE
FB4F
1228
FD08
0532
10C7
FB6F
0671
0635
FFF9
2C25
F436
FBAF
EEA4
019A
0010
F69C
04E8
F79F
FE4E
04AD
F40C
ED57
0533
F030
FB53
FB1D
F2FE
FAB6
F939
2FBD
F83D
F1AD
F85C
08B5
FF14
F882
ED1E
0155
EFCA
02B9
09FF
ED6E
FFD0
0D3F
DFEF
F29C
FEE3
F4E9
EDA4
FE9E
10E2
EF93
E9DB
2175
F569
F313
F369
F23C
F977
16DD
E96F
F9FB
0325
EE94
F31F
FDC7
FB82
E9E4
FD1D
09EC
1C71
04C2
E201
1356
FAC8
F3EA
FD16
F551
F739
FE59
F942
036A
0CE5
DF45
1E6D
DE5E
3D5C
0BC4
F3AC
01FA
FF6F
0CC4
02A6
1195
D915
E38D
F3F1
0C7D
1013
E79A
1D1A
EB84
EB65
FBF1
F655
004A
FF44
0779
E005
009E
FE5C
FDE4
F33F
03EA
0314
0173
FCCE
F170
EBEF
F9DB
07A6
0879
02D4
F3C4
FD42
FFF5
E94B
FE89
FF8F
04AF
FBBA
E95E
F52F
F650
0633
0D37
F8AC
F9B4
F6BD
F6E9
13D1
0A07
1B7A
F134
FDD4
E1E4
E7E7
FC0C
0E55
F215
F560
FC2E
FEE5
0A1E
F48B
FE2A
F908
0D30
0AFF
0EB3
2787
E9AE
F2FF
FE06
E821
017E
01DE
0D1D
FBCA
0A37
02B1
0293
F498
085D
E18A
FF89
01DF
F8F3
F246
034D
0662
0540
0FB3
F54D
F3D8
0DC4
0A04
F8E0
E381
0556
F41B
F5B6
0343
FD5B
0980
00CF
F379
EC09
FF40
03F8
E673
F8C4
01F7
E2C6
0B7D
F672
F680
F05A
132C
165A
F99B
0138
EF32
0366
F46A
06BF
116F
FD88
E781
17EC
FEF6
F3F0
0905
FB3C
FCAB
0815
02F0
0466
EA4F
FA09
0212
F543
FD9F
025B
17A0
083A
0E76
02A7
EC15
037B
0F13
02FD
045E
02FC
078B
EFAC
0048
FD1C
01CB
00AE
079D
0732
FC34
0682
0A5B
07DC
EF5C
12C8
0141
0BD1
0C0E
F7A9
FDE3
FCBA
EEA8
ED47
0897
F62E
00D2
076C
F018
FE2E
0066
0326
004C
0865
0FF2
F390
FAB4
FB15
F2FF
FCC4
F2D2
15FE
0ABA
023C
0187
11C1
03D7
F867
0C60
E4B7
0738
D8D0
EE26
F5FD
F30F
1DE4
ED18
FD12
0BDD
0261
07F1
F7CD
F34B
FED4
ED00
0364
F94E
F1F9
0357
EF79
EBAA
0704
F01D
E0B6
EA39
FB77
F169
E291
EBD3
0AAC
FB49
0BC0
1F30
099C
FA5B
068F
FE76
EDBE
F512
F6C7
FDE0
EC16
1316
ECBC
FCDC
F37C
EF13
FD71
FC52
EF0A
F147
FC19
0A37
F1CA
F56E
FEF8
0232
F245
0C74
164B
11CF
F813
FB4A
ED8D
EFB8
F65C
EEDB
FE56
F8A0
F82B
F2F2
F513
F16A
0A24
F5DF
FCEB
ECFD
FD5F
FCBB
EA72
0B68
E029
FAF1
048F
0455
0125
FEB9
F860
FE69
FD7E
FBBC
08F1
F419
F50B
F375
E208
F0F2
FC7E
F424
F878
0672
ECBB
05C2
E6B3
F27F
1BA3
FCDA
FE55
F934
EB21
0219
F00C
EEA4
01F5
EF98
F60C
FC17
F198
0017
FBD0
017B
F970
E81B
F9B8
1C10
0275
04B7
F068
FF7E
F856
F0D0
FE36
F7F9
FB27
0172
F770
FEE7
FDE1
008C
FA3A
09D9
FE61
F3DA
03BC
F5B4
F2E0
FBC4
F6E9
0767
FAF4
0348
F386
FD5D
01B9
03E2
F4DE
F561
0232
FA89
FAEE
F512
0235
E898
08C3
FD83
F73A
065B
F701
03FF
F5ED
0243
023C
0423
019F
FEBA
09A1
F5BD
F425
FAD3
0399
FBCA
FEC8
FC57
FB08
F8D1
FA78
1739
EF95
0509
094E
0168
F187
F184
FAA6
07F6
0D37
F563
02B4
045D
0778
FB0E
02A2
081B
FBDB
F562
0191
113B
FB1B
E49A
D581
F4A7
0811
0364
FDEA
0D2F
1E64
EA32
02CD
091A
FA93
FB58
16E8
0BBF
F92C
F665
E912
E375
0A6A
F418
FB9A
0DA7
0066
03A9
1D07
F5F8
09E9
FB5E
0189
15FC
F052
0A09
FA19
E6C0
E3F7
1227
FFE7
0025
E445
0E84
FBBD
E53C
FD51
147F
0B5F
006F
FBCF
FE96
11A6
0418
F890
1309
07C8
FA26
FFBE
EBA2
0227
F665
145E
F8E8
006C
0E60
0644
003E
F755
04B9
0085
F8F4
E7BE
F577
13F4
04C7
F9E6
0817
0CE4
011B
FA1F
0764
10AA
04A6
FB3C
0310
0A7C
0C26
44F8
12D7
F4BD
2297
FCC5
F87A
F64F
F378
042F
1D24
F3A0
0474
0795
F886
019D
02BE
0218
01CC
040C
F48B
F5A2
F2E7
0707
18F5
0658
081F
1119
FCF0
1AD5
FD02
025E
0054
1292
0A90
00F9
FAE2
FCFB
0048
ED85
F028
FFB0
DC90
E8D1
1339
0129
FC56
FB66
1236
F231
0D2A
0869
FAC5
0146
F52F
ED53
098E
0013
F81D
ED97
060E
0722
F5D0
F0D2
09B3
05A7
F83C
00E1
0F23
FC07
0449
F84D
064C
0027
0C4E
F7B5
F216
D797
F039
1ACB
199A
0F00
0898
1103
F29E
00F4
FCB4
078B
FD4D
0233
FE54
F870
F3C0
F850
EF89
F95D
E15B
08F0
EDD8
F9B3
0B66
F236
0375
FF57
03CC
0979
FB36
F33E
F203
1999
1548
F9A9
0900
14E1
13B0
CEA4
EC73
1AE2
08F8
010E
ECF3
0832
074D
0023
F28F
F3EC
079B
044C
0238
14C9
03DA
EF28
0551
0116
004D
F1ED
1776
EC56
F9F6
01E4
DF86
015C
1B6B
07BA
012A
FF2C
0A0D
FB1E
00AC
F0F5
FCF9
EF8F
F88C
12AF
03B0
F821
04C4
F9A7
1047
EEE2
10BE
0218
0FE2
F67B
F14D
0046
0D10
1245
0D8A
FC6A
ECD3
137A
01DC
D878
E898
EB45
0447
2E8E
1006
1747
0093
F918
FC83
EE64
0952
04CA
02F0
DDBA
01E6
0E72
197D
0A7C
ECD6
F984
D75F
E8A0
F4A8
02BF
02CE
FDC8
DCA9
0783
FEBF
E412
E389
0864
FB2C
F38E
F728
0316
FE0D
ED17
0895
FC50
F902
07DC
F670
FD45
FF88
F6BC
047C
02AB
F8CA
F9BD
FE39
FFFE
16EF
03BE
F3CB
08F2
F0BF
EFBE
E407
03A6
F8D6
F36B
ED1A
E366
FB37
EEA7
F28B
FCC1
04BE
0664
F617
01AF
FF17
075F
F235
05DD
FBC5
FC88
0502
11D3
FA77
ECD5
0932
0ECE
FC9A
0248
081E
010F
0CBE
0109
F2F4
F28B
EF6F
F365
0A7F
FEA8
FCAF
ED98
FEE5
F5A3
F9FD
D964
FA42
036F
ECDD
0742
18F5
FC74
D9EB
0C06
FD18
039F
F0F6
0CB5
F8F2
F489
0268
F742
EDF4
D3CD
0A56
FB50
032A
FCDC
0789
0DF0
08AA
1923
FE37
0191
01C6
034E
0209
0CEB
2AD7
0593
FFA7
F654
F674
09AC
0477
05F3
08B0
FF3E
FDE5
F638
E96D
FF80
0224
F7BE
1741
050E
120F
E29D
EF3C
FF33
0018
0109
FA43
F60B
E639
0A00
F5EE
FF65
F3B3
0449
F28C
0F18
F350
F8CC
FF98
F9E3
0A8B
FE54
D5F7
F5AB
1E9A
0792
EE24
0D65
FF6E
020B
F3DF
FB4B
1646
050F
066E
FC77
0BFB
0827
0290
1810
FD9F
FBE2
0465
FE0F
FEFC
FBE7
FA2A
0158
14D7
3660
1579
EF19
E7ED
F80E
00E6
FBC2
F2D9
043C
0765
066E
F06F
E5CA
FAAC
EF12
EB5B
EDE9
F403
0CAA
12BB
FEEE
FD12
EEB8
F745
EAE1
FA5F
FD99
FC33
0014
062E
0597
E682
FDCF
00E9
0159
FEED
00CC
F94F
026F
FE66
FB64
FA23
0FBC
FAA4
FACB
0B7C
0322
FCA2
F965
F726
02C4
0012
020B
FBC2
EEC4
FDE8
058E
01B3
FE78
FB65
FDF5
0D9D
09C2
0004
FC67
FBB3
F7EE
0973
F9D9
F909
093E
F102
F293
F3A5
1999
0058
F3A5
F4AE
FB5E
FB54
0468
EFE2
0261
05E6
01FE
FF7D
FF7F
EF56
24F7
EC6C
FC67
F548
FF7E
FF74
0453
096C
01CA
04EB
07F2
F3BE
05E0
0210
FD72
E6E9
FC07
F3DE
FA6F
0293
F54E
00DC
0B78
F352
2178
087C
0065
0AEC
1CD3
05AD
11D5
FD92
FBD1
0652
F11E
F2D1
FC91
0129
FFBB
F5C0
077F
0B64
FFFB
0B03
EB8F
F81D
1457
EB5A
0B4E
F8AC
07C7
08D9
FE37
FE2E
094D
0CB8
F2E0
0393
FF60
0E12
F6A6
F92B
0372
FB3F
178F
1C2A
F651
F1A9
F943
1498
F395
EE94
EB02
F5D6
FE9D
FDB8
DA9E
038F
1472
F3BC
0175
FA61
03D3
EA2B
0929
0102
FA86
FD2A
0297
1617
0364
FA1A
055E
FA5F
0E76
0CAD
F4FD
053F
0519
FF5D
DED3
060C
FBD7
0382
D844
05A6
010C
FA7D
F826
2627
0479
068A
ECA9
F41A
FC5F
EACA
EFB8
EB7A
F82C
F8FF
020D
F45C
0042
EBFA
FB65
F6AE
F1E9
F97E
E95D
1E08
FC04
F9DE
F782
0506
E0A3
0060
FF04
0277
0921
F992
E7AC
07B1
0309
E37C
05D4
0911
0744
0995
FF8F
F561
F12A
05B4
12D8
08B8
FB43
F6B2
F015
F62F
10AD
FFD6
F54A
0191
E245
08B6
097C
F9FB
069A
F82E
03EA
F6BC
EB9D
FA76
0145
F3B5
FF88
1F99
00F7
FD4E
F8D6
070F
0004
E999
FA6F
EA95
062A
07A8
E0D5
F51B
F468
15F0
F606
F72E
0DB2
F289
03B7
0317
F6CE
F57F
D5AE
0070
F2CB
E4E3
F524
0840
0FC2
F377
04B0
F435
0157
0ABC
03CA
1607
F4E9
F393
012D
0FA8
07DA
0731
0453
FDBC
E4C2
017C
F5B6
001C
0149
FEBF
FB00
088C
FBFE
047C
00B1
FA8D
FFAE
02BB
01DD
104F
EC48
EC5D
F79E
0A0E
F777
FD91
EF6B
FFD3
FB82
FE29
13E6
EFF4
1C41
0B21
F265
1EAD
FA78
069A
EEE9
ED34
F292
F1C0
FD08
02CE
0C12
055B
019E
02A2
FCC8
E09C
EF77
030F
FFE9
F561
EE7B
F5C8
FF28
FD73
FE31
000B
FF5B
F847
0EBA
F7C9
FE97
181E
028B
003F
FF83
F669
1AFC
0EF5
FADC
0DDA
0B0C
FDD9
FD17
FAB3
F8F5
EA28
F165
DB0F
1127
0E65
FBE3
F534
FED0
1449
F88A
08BF
2195
F7B8
00A7
FC61
0579
F423
EA3C
1051
1443
0BEA
00BB
0039
FAAC
065E
FEF3
0BED
FB30
FB37
F958
E784
E4E9
F1DB
F122
1E2A
FCE6
FF15
01E4
F800
F3BD
FE9C
04CC
05EC
EAF5
F567
E5AD
FA95
0887
F38D
00A1
07A5
02B3
F16A
EAF6
0189
FF4A
0DB1
042D
FFC2
05BC
0585
090F
F63B
FB90
0627
1CBE
F93B
F462
FDE9
0453
05D5
FDBC
F625
EA68
F6DA
F008
04E8
F2C0
0158
1EF8
F772
0FD8
015E
0B08
F35F
FBA3
F256
F69D
EAA9
1DE8
F8DB
0788
008E
F212
F66A
03C9
DE10
07DA
D7F6
00C4
F6D0
F3A4
F2B4
FA68
0BEC
F5F6
0395
F79C
01FE
0FC8
EF7F
0A59
0212
F8C7
063D
0785
FB30
F95A
01F6
08AF
F5A0
EFB8
0340
F4B3
F2E1
CE9B
15C0
0D2B
0854
1159
0956
E1D2
0797
004E
FFE6
FF4E
0921
F1AB
000B
11DB
E528
09C4
03AB
EECD
074A
0C1C
FB54
FF71
FA71
0214
0812
0C64
F3F8
1715
F4F5
FC6D
FBBA
0796
FDBA
05E6
0988
FA32
EFB1
0BAF
F903
FEC1
FB34
F87C
FC1A
0891
11CD
F942
EFAA
030C
F83E
F8F8
019A
152D
EB28
FB1B
ECCA
E183
08F7
1EA4
F8C2
06E4
136D
F307
FD72
0FF0
F00B
FD41
F634
04D0
1517
FCD9
FA54
A527
035F
057E
0557
FA42
0CF8
EEC6
01A9
01B7
0246
10A9
F5F5
EB14
F818
06BF
0CDB
F98C
F9D7
03E2
FACC
F848
EF5E
F550
F45F
F04F
0920
043D
E6FE
00BB
0617
F555
015C
F0B8
EFE2
F7CC
EAAB
0258
F8CF
0CF3
FBEC
FAB2
163E
F83C
F8C7
1C1E
E316
0306
0A6A
D86A
01F5
D623
013D
F67F
00FA
EBFC
FADF
053D
F9C6
05BE
16E2
F5E6
C4DF
1553
F9E7
DEA6
FF4E
0C99
0A91
E51E
FD27
FCEA
F876
0B7B
063A
D90E
F88B
FEDF
020D
180B
FDA9
C793
0073
040A
F88A
041E
FD4B
EB3F
0CD3
FF47
F75A
1A45
065B
08AA
EFF0
F6C1
FC15
FA29
060F
E3DA
EE2D
02E1
F8A2
E74F
EBF7
ED40
F08D
00E1
04AB
FDF4
03DE
FE9C
F234
FED0
FF68
F13C
FF8C
066A
ECB6
F557
F108
F09B
00A1
F774
FA24
F4E3
00EA
F90F
F724
FC6B
00F7
03EC
DE83
F3A1
0055
EC9E
ECE1
FECE
FF4B
F957
FC76
F0FC
FF7D
F792
F023
FD06
F12D
F8E5
F6AB
E708
FFE4
FE73
FA30
F4AE
F480
F332
F69C
FB5E
F43C
0022
00F7
FCF6
FACB
05ED
0B62
FAEF
F61C
F357
05F8
0507
0586
026D
FFB6
FCB9
F015
0171
0846
FC51
0194
0D83
F84B
F6D8
00A4
F094
0C3F
FE96
FA57
F8AD
0986
173D
017F
0427
04B3
EAD9
FAD7
0421
FD61
1410
0993
0E9A
F50A
03B4
F735
0A9F
0B53
FFA9
F5B9
ED04
0FAF
F661
0E62
0E70
0D49
EDA4
F152
1289
FB63
0930
03B7
10D5
FD41
05D7
FFA6
0BDD
F306
E979
EE95
FF08
3A8F
0C83
F83A
EC00
0429
F2EF
F05B
F99C
EBDD
082E
FAAD
FDDE
FF1E
FE25
F0FF
E0AA
038A
FFE1
0281
0FC9
F633
FC84
0069
0CB1
099A
EB33
FD9D
EDE4
FBDB
02FA
F94C
0384
E562
EEA9
FE3D
F183
2538
EDA0
F21E
FCD9
0021
2132
F430
FA29
017F
FF2A
F8FF
E66F
0C14
00FA
FDCC
FB9E
081E
264B
F6DF
E957
F13C
FD60
FB28
FFD0
0D08
037A
06AF
DAA4
FFF5
0C81
F00C
F7EB
031E
01E9
06FB
FBF8
F967
FFEA
0C83
FFF4
0230
0279
F539
F508
FFF9
FB82
F209
011A
141A
EBF1
0106
FB59
FD23
FECB
FF1F
0057
00D6
032C
FC9F
0629
E805
FC3C
FFC5
ED91
F112
FF23
F567
FE01
075A
0A49
001E
FDA1
0245
0BBD
1B40
F895
EEFA
FDD1
F68B
FDE9
0660
F7B3
ED27
EDF5
05DC
EEBB
EC8C
13E1
FD2D
0C4A
FD6D
F03D
0B6B
003B
F186
F37B
2046
FFA7
05C7
F36D
FF09
0029
F798
FC5B
F49D
1428
D860
F515
F438
EFB2
0C05
003B
0B90
E6E8
EF8D
FD45
0F35
F3C1
F4B1
F633
EDBB
00DD
FEAF
F70E
0838
F88C
EC88
FE95
0CE0
0392
FE86
E7AE
120F
03D2
F1C4
F61B
F942
F256
1298
FBA4
F7F8
0B98
F2C5
F330
0752
F82D
F7C8
F794
0B77
FDB2
EF17
F610
0A77
0A73
F96E
F86A
02CB
FB6C
E58E
0C01
FD5A
F455
1442
FD8B
0E3A
0C05
FE7A
00A4
E8A0
079F
0094
E800
F47F
F499
F0BB
1213
FE52
0237
F628
0194
FCA2
F138
F1CA
0028
FD1C
200B
F61A
FDAA
F7E9
0300
EE7A
F30E
0170
FE08
DA02
F2C2
0942
E5D3
0B76
039B
E30A
0F2A
FE17
264E
EE26
FBE7
F9F0
13F4
05FD
E87D
E9B1
E275
0E1D
E6B8
01B5
0F04
F969
0324
05C7
0C1A
FFC3
01E3
FFD4
0C61
F47C
F1A1
0115
F632
FA5D
FBBC
0AF1
00F6
F9FF
0E87
F581
F85E
F579
EFDE
DB5F
FCA7
F710
D9CA
EF94
F4F9
05A5
EFFE
E9F3
07A1
07C7
F865
FD97
009E
FF08
0CAB
05E3
F99B
F764
06EB
FF28
018F
035B
FA81
0584
EF2D
0000
0F2E
09F6
E58B
FF72
016F
EC38
F6D6
F16A
0D56
00B2
EF66
FEDE
0AEA
E879
F947
EBE7
F6B5
18FE
044D
E66D
09FF
F79F
F4F0
3255
000E
F49F
00C4
EA00
FB8F
0090
02ED
F797
0DC5
F132
F8C7
F908
F631
1D39
03DA
F165
FB26
0859
EACE
0571
3092
FD31
EF11
1421
0B6C
FFE2
FF7B
FA3A
0B48
ED4A
FD9A
049A
0554
FB0C
F255
FF4C
1978
0B0A
0441
02E0
0E2B
EFA3
FA44
FC9C
0C90
F38F
01FE
EBBE
1170
FDC5
0BE6
F5B3
F7E7
EE7C
FBFF
098A
FB71
0F85
F5EA
1A99
0196
0C4E
0169
FF88
EFAF
0CDA
0E6D
0588
FA8C
1460
0363
FB78
02E5
01A7
E8E2
FDA9
F33A
FD62
1258
F447
E877
FF05
1FBA
E23F
D2B0
FFCE
0210
F515
1375
F4B4
F265
02DD
049B
F2F1
0C23
E4B5
E8C7
ED01
046C
0007
FE2F
F5EE
F791
054F
03FC
F588
F0A1
022C
04AB
0069
07C2
1F6F
183D
04D5
1D49
E0C1
0D52
F610
09BA
FE37
F068
0083
0AB7
F837
03BF
16CA
074B
F543
002D
F728
021C
FEC1
F2A0
FCBE
017A
020B
E809
FC35
F1E6
FB4D
FDBC
FB77
0F8C
220E
E360
E976
00A4
04A3
02B8
0D61
FD9E
F9A4
F2E8
F8CD
05FF
02D4
0522
0ADA
F75F
0111
FC72
FBD2
09CD
057A
F842
FAED
FDF4
05B6
FFE8
0644
EF60
F654
19B5
0AFE
F54E
03EA
E5EA
056D
2E9D
FA25
EB70
19DA
DC4D
0169
EE62
1733
E10A
D28C
0EC3
E6AD
0035
FEE3
F5B4
00A6
002E
00F5
FC5D
EE26
0176
F735
1B58
0C40
E7CF
03CE
FF95
08D8
F6F4
0ADE
1456
F8E5
EACE
0DC6
08EE
F599
EE7C
0E71
1152
0F6F
08CE
01F8
F2E5
E4EA
F52E
DC2D
0F66
F7A6
D101
F9BF
E3D6
0E36
0797
F4AE
F4B1
F7BB
F5BC
04E5
018B
056F
0419
EEAB
F4B0
0E78
EB79
EF1E
08F2
E380
0AE4
F2F8
FD01
FC6E
0AB7
025A
FE13
F82D
F7FC
FD09
04B6
F514
08C8
FF89
01D7
F611
FCD9
E5B0
FF9B
EAA9
FF7C
F890
090D
076B
FD7A
FD28
0F7F
10B5
0976
04E9
15D0
FFA4
F99D
0C37
0663
0929
DF70
FC5C
FB01
0B80
0869
0DA3
06FF
F8EB
0921
0714
160D
FBDD
FF91
0B18
F80F
2585
DEEE
FC44
F16A
F68E
F260
FFFD
0FD8
01D8
FB95
0000
E732
F7C8
FD51
FB62
FFC0
EE48
F54E
171E
03C0
DD07
08EB
14B7
08A4
FC4E
ED90
03AF
BBE4
FBD1
F5F3
151E
ED79
0279
3414
F563
F343
0C30
1ED4
F5F8
E249
FA7D
FB01
0C34
F129
1330
F354
079E
EB60
E9F8
0844
0DA6
0489
1668
0D0C
00BF
07AA
F9FA
0F94
FD64
ECD7
0058
05F3
06C8
2DE8
0852
FA7A
FB00
05AC
FE7E
F82E
FD9B
F795
03FA
0545
F7B7
FDAE
F586
02BF
FFCA
FC4E
F440
04FF
0103
003D
FBCE
F770
0854
FBBA
F53F
F42F
FDD0
FD7E
F95D
002B
334E
01F5
FA5E
FDF3
00D9
FE75
0505
09E4
F0E5
08EE
F234
0AA1
FF06
F805
051E
FBA6
062A
02DF
0F2A
FF8F
FA2D
011A
FA9D
F68D
EF00
069E
F031
F763
FC3A
FDAF
05FF
05D5
F87E
017A
1617
1F79
E6DB
073F
F816
0AF7
F879
0480
FDA7
0E98
FE60
FDF6
FF82
045D
F8D3
FA80
FCEC
EA4D
F2BF
067F
FD65
0A93
F75A
F6BF
FBC2
14E1
F071
0254
08AF
FF0F
12CE
FB8A
F23C
0285
F76D
01A6
0A30
0347
FED7
01C0
1065
FC7B
01A3
FA4F
F841
04B4
F51C
1AF3
03EB
FE8D
037F
1E27
05A2
FF38
0407
FA33
0990
FAE9
FD13
F5AF
09D6
FDDB
0790
0E3E
12D8
0194
FFCA
FBB5
FE1C
018F
FD64
078D
081B
060B
1CC5
0D46
EED8
FA76
F564
EDC0
0ECE
0502
FA02
FDC8
FD28
11D5
0900
F4C2
0BA1
F1B0
0A52
F8A7
FABA
05B6
ECE5
0CA2
00E9
F1E9
EDC3
F861
016D
FA25
131F
013F
F680
F502
F6FA
2659
0C58
F5EA
F799
FDB3
0001
FD66
FBD8
12AF
E279
FC4F
FD65
1D2C
EF34
F777
0BE8
FEF2
0491
02F6
EFDB
FCF9
F6FD
02EB
0F6E
EE45
F4BD
E921
F762
0206
FAA2
05FE
E8ED
022A
EF4F
FCF7
111F
FEF8
F104
2432
084E
026C
F80C
05E4
E927
F51E
13DA
0224
F981
14C2
05C6
05CD
09CD
06E3
F9E2
1C1F
0866
0539
07AA
0811
005C
12B5
FAE5
FAC6
0C45
E368
1B82
03FC
1262
FD15
F72A
09F5
0EA5
F92C
F82D
EBA7
0FDC
F09A
F531
08A9
031B
10A5
E811
FF8E
FC38
01A5
0926
F85C
056E
154A
0439
EF82
049D
FC22
F95D
F49A
F712
F76E
F6AD
0178
FA11
F8AA
FF3D
E37E
F0F6
FEAE
EA2C
EE84
F0B6
EF2E
EECD
F8F3
FF84
F0BF
EEE6
FFBF
F883
FCFE
EC88
E0F0
FC13
F90A
019B
FF88
FECB
E0D0
FF9E
F4AF
E998
FA12
FD40
F551
FEF0
F08F
0A65
0368
03E6
003C
EE25
F543
E78F
ECCD
E0ED
FF56
FD84
00E9
F794
015A
0782
FE93
F40C
F39C
FA5D
FF20
F4C7
F663
F828
F48E
F841
FDCA
FDDC
F20C
0565
01C1
F037
F998
F0AC
F569
20F7
0E73
F4D4
03B4
F87D
0444
08AF
04E9
00FB
004D
FCD5
02FF
1062
F0E2
00BD
EBD8
069E
05A2
F830
EB1F
F6DA
F252
000D
F4FB
E7BA
E88F
F7A2
056A
FAFB
0924
03A7
08F5
F55D
0663
0E5D
0BAA
F929
F561
FC41
E6C0
04EB
025F
F599
F018
F12C
16E8
EF37
0321
FAA0
F750
01A0
F47E
26BB
FD57
F3E0
F913
0188
FC2E
07A2
E4FF
0630
09B3
FCE2
045C
D2C5
FB3C
E7DD
E12C
FF02
0B61
0BBD
115E
EDDE
F042
0693
FCCF
E516
ED79
0045
FF16
0AEE
F8F7
F7E4
13E2
F8F0
F3E0
00C1
F966
EB89
FF10
E9C0
E722
E2E0
FC63
F46D
0414
E8BB
1223
E786
0AE0
F76D
E134
0D31
EF9C
F9B8
F0A5
155E
F576
075D
00CC
EA5C
FB0F
E169
0305
F513
E9C4
13C8
1DB1
EE9B
155D
E686
F509
07F9
FDCC
02A6
0041
F19B
07D1
EFDA
0C50
039A
0B47
1B08
F86D
E4D7
F40C
EF3E
EA4B
FCAC
FD9B
FF62
F4CA
F7CA
F5C5
00F1
0176
F675
F389
F78D
F22E
0B49
FFE7
072B
F989
EB85
01A4
EA2E
F306
FFB9
F98A
F703
F6EF
051A
02A2
FAD9
F64C
E087
00C5
15BC
0305
FB51
056A
0802
0C69
0D53
28AA
1521
FD6F
04A8
08B3
0CB6
07E3
0209
FA08
F91C
031C
0291
