FF95FED4
F9B804F7
F8D901FC
02D00702
F78EFF33
FBB1F601
024F0785
046EFBA5
0144038E
F99008A5
1E03F4AF
F422F661
F895FB34
03C60256
05DD0408
FFA403B6
FD62F980
EB630198
F62BFD70
13BE043A
FA36F1E3
FEDAFFCB
04CD049E
117B082B
04F00127
014DFA3B
0380F8F0
02A306CB
FBEDFB99
0190161F
F1800EAB
F9C4FF08
EDEDFC5F
F6B4F658
ECB90D1E
014603D0
EA2B02B4
F8A0FBDA
FEFCEE50
0654FE21
01FDFC76
07780794
02F1F62C
EFD100C9
FF86F356
0200F9A5
F737FDAC
F3A1FD15
F08CEFD3
0134FB06
F8830899
1658F739
06C60E40
01F903A6
03E5031C
00910603
FF86F19C
04AEFC3F
025EFC97
06670655
F66AFF02
FAF2F836
E131EFFF
E9CEF1AD
F7E5F7C5
F5B0FA8B
E7DD0235
0167FA8B
00110455
FA13EB26
F6A6056A
F5B2076A
05FFFC6C
005303F9
F992FDBC
F8EDFEE7
00090A28
F2B7111F
02B80315
059FFD12
152CF7F8
F787FC5C
16F90312
FEFDFCFD
FEDA06F3
EAD6FEFB
05A802FA
FB620B2B
F37602D1
001103AA
FFA8062F
FF35F2EC
0719F3C5
FCC302A8
FDEB018E
FECAFE39
09A5F5C4
0057FEA5
F09602B6
03D5FE60
F99402FD
FEB90801
0020EE85
03F1F9AB
F5BB074A
FBC3F334
F257FFCA
F529FADF
FB96E991
ECADFC06
02AC0006
F0D005A0
FDD8FE30
EF7FF774
FD4D05CE
0FF20092
FF9603BA
FDF0040C
0743FD92
03830023
04D3FF85
00D10031
FF59051B
012ECD87
FF48F849
01B5FA6A
2174069D
F841FFC5
F745FDBD
0A1AF510
F59501EB
16AA0620
FD9F0709
FF380CB0
F4B4028C
0048F1D1
0F39F79C
F1DEF58B
1C11039F
F35B0CAD
0055EE5B
04F01FF4
0685FBCF
0755027E
FDABFED4
FB790B25
F05EFB81
F9010322
00BCFB4B
EE22022A
FD3303D1
F759FBD9
FD2FFB84
060001E2
012C0B76
06A8FA77
FE420B14
059100FF
F20DE5F6
F702087F
FF2E07D9
018AF3CD
F1D30355
0541F765
09D6F4C0
FC76F9D5
048BFD31
090AFD52
0702087A
FFB7046C
F7E6EDF0
0C3BF15A
FF46FF70
08BBF560
0E2DF12A
FAE701FE
04C20650
F8D1060A
FFA20255
09550516
0783FBE1
EC62FE0E
F92009C5
048EF821
FC3D050C
0221FD08
0C4B04F4
F509FDC5
FDE216E1
EF92F534
EE4BFDAD
027A061D
02C4F6EA
048E03BB
FAF5FDEF
FCF30DBB
FF07034D
F76CFBAF
FC5BFC90
FE7100EA
FF29FA07
0475FF0C
08EE04CB
02A5FF87
0D760443
FE7CF860
FE1B008E
FFCB0224
FB1D0895
009C02EA
03B203F4
F954FD1E
00CA020A
F2D80223
0BBD08A8
FDB3F317
07BF00FA
FE59017F
E6810104
FCB8F2AC
FE33FB98
0FD2FA0C
05900179
FEA60718
0002FAFD
0166FF02
EC6002AB
06FB051E
0A0F0ACB
FEC6F986
FC70F5A1
019309A4
0F61FE93
F99A01A7
FB76045E
0842016D
FC6EF2EC
F920F934
081E02F2
070C0594
F8300196
0C6C04E5
F71AFFC8
F7560207
F12BFD31
0190EF8D
004B059E
FE7DFE23
043E001C
FDE4FB01
FB4204C8
09060227
F12E0127
F866FC2B
FFF604F5
F536FFCF
0072FDC0
F6CEF5A5
F270FBBC
EE4DF8C0
F44BFD33
017BFCB5
FC12FC72
03AD069F
0041052D
0439FFF2
F7A70876
F12DF905
00A1086E
0405FB78
FF070269
F9E90862
F6DC0110
15ADF4BF
FA8E05EB
01D30699
05F5FE65
FFD500D6
FE12F51B
05E80103
07780451
00D9FEAD
02F3FE31
FD99F121
078AED05
048D0404
0EC1FCA3
09EF061B
06B2F4D1
F5B7FA1F
F55007DD
F5CB03BF
F4310392
0872F2AB
0F2EFB9C
067C06E4
0446FFD7
F7F9FB55
F4CDF8E6
F105FABD
FE1FEC5C
F723FBCC
FBA4FC03
0A9808A7
030AFF22
1B5016BE
FAC6002D
FE6B0576
00940100
0CDCFAC9
000D01C4
051E0F9B
FAE5FCDF
0C7CFDEB
FEE0F19F
03DDEF78
08E7F3B0
FB74F880
DBA40551
F805FDBD
0322F334
0CBA0320
F489FB87
00A60BF3
008B0522
F6EBF4F4
0015072F
FCAD0038
FD56FA98
0281FBD0
04BEFDCB
0053F9A0
0DF7F5E1
FEF9F964
F7BB0230
FEEFFB32
F76C05AE
062BFFC8
02D90702
F3D50627
02D105ED
F23A0340
0A9207B2
041DFB2B
04800288
FEBEFD70
E67AF952
FC36F155
FEDC09D4
075F002C
0907FCF4
07FE03D8
051AFA21
0576FFF1
FDDE0049
FF060021
F61107C0
011EF284
F5A4FE81
FFC70605
FD0AF7D0
F435F029
F9DCFEAA
F97A02E8
FA4E1D9A
FE12E728
F9780120
F559035F
F4E00358
EC5EF6FB
F84F049B
F5D9FC7F
0C50F044
0C9509D7
FD4B0010
FB4F022E
F892E208
01DCFFCD
0115F89A
FBB5FA98
07F901A9
F96BFD3C
FAAB0791
F8B602B3
04FFFF0B
FBB3F7A8
F4E2FDE8
0333FDBF
F5700158
064A027F
0435E8F8
07CC0446
FF4301D1
037AEB6E
E698FB65
00BF0253
FF10F7F6
F08EFD10
04AA0092
041EF23F
F5C00675
00F6EBB1
0A2B0778
070602D0
0514FFB0
03B90082
049DFB45
FAF20239
06F6FFB6
FE2204D0
FF42FACD
0227F458
F7A0F059
F952EF2F
DBE2098A
020F0704
FB98F69E
F88E0933
D076FD96
FC57FEF0
0311FBE2
FA18164C
0206F9C6
F5B7FB8F
FCB0FC9B
F9F6F5F8
F668F6C8
ECE3FD50
01AB040B
F5A60008
FCAAFE5A
EC020889
0CFCFCB0
F736F863
F395039A
114CFE12
F7B3F7FC
FC89FEBC
FEB00257
044709D6
032AF8B5
FF70FD37
0135F3B5
FD3114C0
02F1F85E
F3890F7F
EBB2FBB3
F44C008B
FD9CFF29
FBE0FEE5
01EAFF56
FE1EFF2D
036D0019
02ACEB40
03390B06
F985FEBC
FA71FA6F
00930CCA
00EC0324
05A2FA4B
FAB500FB
0636FF80
FF04008E
0A01F3CC
F423FF0A
F7CF055F
F13C05F6
FC0602A9
F793017F
D83000BF
FD94F2D3
0190FF33
08B7FF49
FFA1FBB4
FFF817E3
FF39FD08
02D9F07B
06550BC2
FCBEF51F
FDC7FFF4
FB4706CB
FDC2FBB8
F2D60021
F942FCC9
F9E002FD
FB53F166
0736095B
F92D0536
01B7FBAD
027408E9
078EF9D4
0123011C
018810B2
FE1B0868
0099043C
0A37F350
021EFB3E
019DFE8E
0BA70232
F2D602C2
F9DA02A4
D3D1FE80
02BFFD18
FEA50E2F
FD68FFA7
FE3BFD74
03780596
FEB5F8DB
09C5F2AA
FED40258
FCFDFBB4
FD16022C
035DF641
F78FF1B0
0DDE01B6
FBEEFE23
02D6FED5
00FF08A3
FC2AF7F5
FEDAFBF1
0704F75E
00B0FB51
FC33F83A
07E1056F
063EFE93
04D403CE
FF3E0725
F268EC2F
005B0240
1D260B21
00AEFECB
02A5042F
0349FD8A
DCFD010F
F84AF8A8
0748F9BA
03EBF615
0052FE74
0075F4CB
01120984
0491F611
EF1F003E
013B004D
F777FE0C
F5CD0066
F92DF878
10720377
FF47FF25
0409040A
FD84F925
00A8003D
FB63FD8B
F5CFFC0E
010200F9
0269FAEF
FF5901A9
0518F99C
FB1B036F
FC6CFAD4
002A00A4
04E9FF6D
FEB8FEEE
004C0321
F9650031
FD0D02E9
F06100A4
FEBC0287
02B4040A
FF4DFD13
FEE7FFC7
FE08FFA7
032AE971
F32021C6
FEBAFBF5
FCACF1BD
05E704EC
01C70307
05F204C6
FD570421
0343076D
01E3FF35
002BC674
F17A03EF
FA7BFF29
FF790AA4
024AF832
0419047C
0048FBFB
0A91FBBB
01C9FF05
FD08FD84
FA570B77
F71F04C4
F7E6ED2D
065AFED4
0B410278
FA84016C
C9A000FC
03F2EE1C
0135FDC2
FE64FB7C
052102F5
02300129
01F60662
02630A34
0241F2B4
0B20F9DB
F737FF19
FA9CFBE7
074F0095
ED7807C3
0EADFA28
FF07F834
F52AF942
F90401D7
FB14FBF1
FBB8FB00
FEA8F1AC
0770FFB6
F266022B
01090547
F6B8FC22
FE720236
F36806A4
035601EB
D934F61B
00E8FE6D
FC63002B
FF4B0B66
F86D05C6
FF92F657
080E062A
012D0820
00B1FCB2
033C0CBC
02840482
FD5C0C84
FD650767
F01103CA
FEBBFC3B
FC21EEDD
FD2100C3
0C9201C1
03A100B9
FD68FD6E
01200AB5
F91A005E
FD1202FF
066B0519
049EFCC8
DF90F59B
EF6200C1
FE2C0218
FD3CF901
01C002BF
F5031126
011A0291
D80AF2BF
00D1055B
0AD2FF8F
F8D5FFED
054404B3
01CEFC85
055301CC
017008D4
FFED0327
001CFCF4
FF92F5A7
F33CF32F
09DDF5D9
E642F0F6
02FCFF2B
FFEEFC61
FDB5F753
F2510169
FC87FE3B
0439085F
F8780038
F921F7F9
FEE400BA
09AEF828
FC4FF3E6
0394EF47
07E10A48
FF8E0AFC
FF31EBA2
FEFEFE59
F40E009C
FAB7001A
FE1CFE0E
F58DFCEA
F676FDCA
04DBF6B5
F818FDEF
061000C3
F0A2026C
0310E02F
04B703FD
006804B0
00310804
0A7CFE3E
FBC2FC79
F7E5FEB6
F4DD0268
F97E10A9
0CAEF982
F26BFE4B
FD160930
00590181
0582FBB6
008EFFB8
06F30545
0A2CFA2C
FEE7FDE7
0B2FFD3C
FE50F7FD
02DC0BAC
F804FCA2
FF4BFA8E
F7E8FA4D
F4DEF93D
F9CA001A
09FBFDB9
0A73019D
FFB803F6
01C6FDE4
055E03E6
06500793
FDC1FE1A
F958024C
FC5F0CE8
02C3F679
EB93ED9B
F3F6FE47
EB90EEB0
F24703CB
F8E70107
FF01F97F
038F01B1
001CFF30
0205003D
F9A9F56D
FF65F96B
02F200B4
F601FCF9
004AFE46
FE82FDAF
F913002C
FC28F792
FC98025D
FF4AFEB9
00DD01CB
103F0397
0189085E
F6DDFC28
02DB04E5
F9BDFF97
07C7083B
01F0052C
FE670677
004EFAD8
034B0181
FDC709B6
0059FD09
E8F004B7
00430633
F03BF237
EF9E00A6
FE2B0DC2
F1BC00C1
F8D3FEEA
0456F8D9
01A60BCB
00C6FB08
FCBBFEAE
00EFFD3B
05C201E3
0269FD45
FE42077D
F44D02AB
F9EDF344
F25F082D
FC04FDD4
F5BCF5FD
0B8AFD06
FF0C042D
FE5EFC6F
046CFF7B
FDE706AB
0E52FCC7
FF8A066B
07D70CB1
0C99FF21
020103D8
0341F6B3
FE9AF153
F5120134
FD8F0517
FE620262
00BB012D
FFC50885
FFE9FB4A
E931FD44
FCECFC1D
F5A0FAF8
07F9F363
F628056B
F9E10310
F53702DD
02D3FD65
F949FDC4
F376FE27
FEC806D7
FE13027E
03070066
FC75FC67
FB32FFF3
045D05B1
F9640148
0885014B
FE42FEB3
FA4900D3
005B025F
0466FEA7
FB7A049F
FF4FFC06
0015FD40
FF9DFF7B
F5A5FCF4
03E11100
03D7092C
FC7F01D6
FE2638BB
088EF619
0A2B0277
07D70067
01DB0131
0317055B
036D06BE
FCFDFC8A
07A3FAC0
052002D0
F5180733
0F44FD5D
0672F1E4
041B0466
F958F999
FCD3EFB2
FF690492
FD0EFD40
F7420259
FC47FF72
0145F67B
E579FD93
01330986
F96AFE73
06A50255
0012FF92
0090F8AA
FAB3FD9C
0C690657
02E200E1
F94301A9
05390375
04AB072F
027CFDEC
1A0FFFBB
038FFF5C
001FFE36
03A6F03E
FE6C0869
F9660466
F7A503FA
024BFECA
FE190625
05540698
FE870F44
0601F851
04570533
01780E73
026F0481
F9ECFE31
FF8BFDB3
03E300B6
02A606E8
066EFF88
00C7009E
FAD0FD70
0275FFCB
FCEBFE4E
0283FE54
017B0948
F394FFB1
FF030B0C
F800F9BE
FA99FD89
FA7CF735
00880E88
F5B6019B
F48BFF9D
F79304E3
F4E50EAC
03B4F422
0B7BFF1E
F8E7FA83
0782030F
F5561277
0055FADB
02BFD522
F08CF5EC
09C404F7
E7FB0712
07FFFC2F
FF54FF00
F365122D
F65B0064
F6E304CD
FA11FA00
00E5F3D2
F9ADF3E2
F4FCF32F
FF2200C7
00B5F2B0
FF0B0A8F
F5EFF7CE
00D805F1
E8C4F5A1
04B902CC
08D2FD62
042A0040
011D00CB
08DFFF2C
09DE05A3
F836FAC7
FFF200D4
F7A2FDF2
0DA7FF90
F400FF07
0461012D
05260590
0006F9BE
011B0779
07AE036D
019B07A3
EFE1052A
07C2FBC4
F9C9050F
F13800C8
FD9A040E
02EF047F
02C20146
00D2FA79
0BDCFA0E
F7A9F766
00C8F909
06E6007B
F7AFF985
F76FF770
FAB4FB7E
F69FFD6B
F2630DC6
EEAF03EA
13D20441
03A7FDF8
F471054D
05530EDC
02E6FDF1
F3E8FBA2
F88E02FC
FF21FC94
059B0805
0942001D
01D3FA01
0246F8D3
FD7BF7EE
0DA0F7E0
EC16FE4C
FAC7060E
04C70202
F1630187
052A05FE
F968FF1D
FB8E0905
00F407C1
0830040E
0155FA67
00820338
FCD82144
F06C003D
0174ED72
F84C1770
001DFE5B
FAC3FA79
007DF8B8
FA3FFEF4
FBB40172
05B8012D
FC77CCF8
04DC0872
FC5902B2
F7E60624
04DDFCC5
F5BA017E
01C2F8BB
08ED0D70
0299010D
FB21FC4D
08240345
0996025E
07B706BB
0290FD68
070A01DC
0427F5B6
ACE20245
FF33FF5A
04B1FCAC
FD6E052C
039400B6
01A1FD62
03B205E6
F6E70BF1
00E40632
1524F8BF
003702AB
04A9064A
01CC0146
04AB01A8
FCDC08E7
F5A3FFC0
FF93C953
0D740395
FB4FFF43
FE50072A
00C8FF03
021EFB21
07AAFFE8
0295F623
0524FBDE
FB5F00AD
FFA00237
10BD04D4
0B560873
FC350238
F83802C0
FB1E02DD
C17B02C1
FCD7F4EF
09F901C3
FEC801BF
02620246
01640446
023F0448
0308F617
FA2EFB51
E9E4FD44
F414FFE4
0B0B059C
F6AAF58D
01CF023B
0543FC45
FF01FA94
FE82E4E8
00A1EE3A
F4850162
FBAEFBF6
FF8CFDEC
046C1298
07E4088F
03B60116
F9E907CD
0271FFF5
0FFF005A
F64E02CB
0406FB2C
01E1049B
FBB80040
FD04F0A8
D3DC00D8
0A1EF3FE
0102F791
F9610323
01090147
0075F849
0462FF78
02C3FCD6
F373F9A5
029D05CD
F7F30159
F83F0136
02A1014F
F66D00CC
FE6C0087
00B1FDEB
02B1F759
FBCC0368
FBDC0024
00C206C9
017C016C
FE8901E9
047A0133
FDCC041F
F907FD69
FE24F833
FD9DF8EE
EBAC034F
056F007F
032702AE
EA02FE95
0113FAB5
FE21FEA0
F8E907D0
027AFC1F
FD41F959
FC7F00FF
03CE02D5
01580072
F9E30841
FB11F941
06000C2D
007902FC
0032F407
F717FE16
FE4EFFB2
FD62000A
0620FD46
06EAFD8A
05070493
FA3C048D
0FCB1059
FE78FC88
F708F296
1056FAD5
04ECF871
F256FE14
F307F937
F399E62F
F5A5059B
05F8FBCE
03A0040D
F9B2FE33
01D0FCCA
D3E70215
0301EA65
133E06AE
0F370084
FDFB04E8
F5EFF401
0174F76E
17ED02C1
FCE6089B
07F5062F
FF01FC5B
FB540371
E5E9F9AB
EE880840
0F820590
1751042E
06151351
037D0177
FE92FA0B
F9E70C8E
E45D0E1E
061B1188
019A0330
F82606BA
F71BED4C
ED8410A7
F6EFF479
F82004FB
044700E3
03B3048A
0EE907EA
FCC21278
0BAF06B3
FCD303CB
0043F92F
02E7FF5A
016101A5
067307EB
ECF90FCB
EF3CF087
0B84004C
02DDFFEB
06C60BDF
F51A0120
01C10694
FC4DFDBA
FD2C0570
02CCFC44
F7D7EBD8
F60BF54E
00F2FA0F
FE6B03E5
05581258
FCD4F1C4
F80B004A
071C0B6F
0179FE36
01740243
FEFFFB51
081E0509
F2300EED
FAFBFF13
091902E0
08310E2B
EAE704B6
FEC50350
F80AFF01
0DBA07EC
04E8081E
FF1F062E
0742FB8A
F116F2BD
FB8EFF17
0339E633
F974013B
FA91F194
FA22F6B0
030CFD48
08B9053A
FFE8014E
FC9F1C48
F30E0398
FA7EFD6D
08E2FD1F
0B43014C
022907F2
0125FF32
FBE50094
026BFF93
FE5BFF3A
014DE59D
081300E2
ECC20188
0A3606FE
015EF90C
FD81FEF7
E9090356
03EFF53E
FC0A02F7
096E03FA
06B606EF
02E0FD3B
00860582
FAA719AD
0202FF99
FB8F01FE
FEB506D2
FDEFF75E
0485FF98
FB32FD60
0245FD95
FF6CFE85
F8A0F2BB
F368FB0A
F732FE45
FCAF0B5A
FFBF00BF
05B108CE
FD7EF8E1
0509000A
02E0F4C3
03C6F4D6
FEEEFEFF
F93E02A1
0B36034A
FD7706FF
EDE2063F
01CB0ABD
EFADFE53
FDF40B41
0154F55B
FE4F0063
F86A09E2
06F7FFC9
0367F3F2
FFD1F6A5
0031034C
0001FD66
046505E4
0CF90183
F4D5F14F
06EF0134
017F001C
00100093
0424E9D9
087CF9A8
F7B7087A
FC690226
018A0022
04220456
091703DC
FFECFC3C
F7CF0A10
FF090315
082FF96D
F75001E3
0DDAF777
FD3601B4
FB7FFE01
03DBFBBF
DE5AFF73
FCC7EE49
09A8F6D1
F8010060
01150436
FCFBF6A2
04570383
FE32FC28
F54DFAE5
FDFC0176
EF52FBED
04190144
0364FF12
F2A513D8
02C50CA8
FE63FD62
F536FA3C
F8D33DB2
F91C04D7
FE2F07B4
1774FAF0
039808C5
052009DB
005D07B8
002CFFD8
023203E9
FD250581
EDC40017
F74CFF78
02E9FF66
F016F014
0928FAA9
1754E68E
F5F4067C
00E60672
FF40F0C7
FEA0013D
FDCDFAE9
0213FEA8
EF730138
02200970
FC2010C5
F02F02EF
0331F8C2
03D6FDB3
DB72090E
0186F995
F8A80B10
07B3089A
042E03D6
04CE02BF
FA3DF8BA
07EB00DB
01580116
044AF111
FA8204B1
F15FFDD0
006F010F
07B0FCFD
FC15F70C
F445FC16
02F90320
0BC8FCC6
0024F99B
0F55FFAE
01AD060B
FE19FDE5
005103CD
03EEFD53
05A50050
FF0EFBC0
0EBDFD43
FCFDEF5E
09A50605
F92CFFFE
025201A2
FC39F925
FB68FEBD
F94DFE8C
08F805C5
F92F010E
05BB0253
03F5FA57
0CBEFB6F
0098FB5E
07D6EEBA
F25605E2
02AE03B0
FE0CED70
016AFB94
FEF3FFAC
F64CFC29
063D0227
FFD9FE35
FC15FE9A
03DEF9EF
FAE3F74C
06EA0098
F84C000F
0664E5BF
05210245
02E2012A
0035FE21
05ABF6E1
06090207
035E03C1
02A30000
F75D0A78
FA81FD81
FC39F30C
FC5D077A
06FFFC85
028EF6F9
062D0E1C
FB190042
02D800AE
F831FBBD
F0FB010E
FA1702C4
02C8F97C
078F033F
FFD6FFDC
FE7E0407
FDB702DA
FBCEFE0E
F3CCFD33
F454FD91
018F106F
DCDCFE90
FBADF274
047FFECA
024A09AE
FB250199
FF4EFDB2
0163FC1D
02BB11C3
FAC9FCBC
F0D90A26
000E029B
FD31FE03
00CEFD72
FC20073E
046F0BBA
019FFC70
0567F2B0
01A70C9C
0BEFFCA2
FBA50A2F
F4F70455
FFA0FB43
FEC5F96D
07BB0ACB
FF25FC75
02C20182
0956F622
F58902C0
F9B0018D
030FFEBB
0252FCE7
01600266
F3890354
04CEFB94
0118F97D
F6760258
FCF903F8
F7B5F4A3
FF69FE80
F8941051
0BFA01FB
FF770281
FDC3FD4F
042BF212
FD94FC0A
F4C00760
FBF0F2EA
00D20391
03E3F20B
06CA1454
0104FB70
F573FC5E
F832FF98
085DF7C6
01FD0168
03210B45
FCB4F35D
01B5FB76
FDA3FB3A
E7F4FD2D
F276FAD9
F1A7F846
F42DFFA4
FE9BFF28
0EC4FC3B
0C7EF877
050D0779
0A8BFC70
000E007D
06120086
FDDBF90B
125CF36B
FE93F28B
FC510857
F49106BC
04F50889
021C0218
F892FBE3
F44605AF
EC4706E0
F81FF94E
0A65FE35
F797FB1F
FF62DECF
F226010E
FA980DA2
06A6FF97
FB9E0748
FE1F041E
08ECED1D
F82EFF19
FF5E02A0
F95AE8F3
082DF82A
06DA0A3E
FE68F944
08F11731
FEA601AA
0560FB03
0FC506B4
0854097E
FE4CFEA4
FEFBFF72
01DBF443
F9D3F871
0838FADA
FFC4F8DA
F9F9FB42
FEB3FC9D
09FE09AE
034E0536
04B606C2
F640047E
F03EEDA4
05130726
FFEBFC23
05290022
0A46F7AA
FFDF014C
F88FFE93
0815EFE7
FE7A0006
F028FE6A
0821F97B
ECBEF6F4
EF6EFA10
FEB6FCBC
F84B02A4
11D40B7A
FB38FD14
FF5104A1
00E2F1E3
FC330096
FDEB0172
02DF04AC
F61B13A8
FD23F43C
F4CAEF2E
FF2DFF86
FDB21261
FEFDF797
07CA04A2
0023F89F
F9FF02C6
FFD8F9A4
FACEF4C5
F5C906B4
F863FE1C
0916FA3F
FD9FFCBE
FAB101D4
F7FCF0EA
00DBF449
027504E8
F2DB0F99
0E94079A
F549F6BE
027304B7
0650036B
FE04FC96
05E1017A
055CF738
F5CF0A35
081AFFE6
FF25FC9D
01C30771
FDA7EB66
F902F1D6
F7AD03CF
E40301D2
FBFA033A
FD1CF441
016E0B58
1F4CFB18
FD990029
0382FC5E
FDC8FE10
FDEB014F
0BBC0422
0336FF40
070700BE
FE68FFA9
01A10611
01361C2C
088901C4
03D8FA32
064DFFCF
13A50646
038416DA
FE6BF949
01800342
FC1700E8
0B320237
FFAA0121
00BB0BE5
FB8506C2
0300FF69
0530F231
FDABF942
F993F0D6
0DCEF558
FF08067F
0263FDF0
FB13FC20
FC8C007E
F765FF64
0AEEFCAF
032F020A
F7151176
F80A0A5F
F3AAF706
01A9FAB9
01900142
0623FF27
048CFD2D
019EF4F0
FEA8002C
FDBF0026
F85B0FC7
ED22FD8C
F51EEE44
FD770201
089EFE20
F7B30A35
F1490137
0023F713
05A4F9F6
FFD6037C
007D0114
FF84FE4C
FDEFFBFD
08B90228
01770DC2
EB22094D
014DFE4D
FAF4F518
018F0174
F24E03EA
FFB7FF33
FE52FB8D
00F0082B
155EFAB6
FE83FE41
F491019B
0643EAA1
0396F20C
DC69FE22
FBCD00DA
ED35F9FE
04DC0137
F5300143
0D6AFBAD
F311F31F
FCCF062A
1427FCF7
FFF603EB
07ED0238
02BE005A
00CB0557
00860458
000E01B3
0353FDF8
F9AEE363
FA78F8E1
04F6FB33
E66300C9
02C2014F
03A1DFD9
0B40FA40
0BCD070C
F867003A
06DB0191
043DF658
05E7F89D
05E40587
FEFDFC3A
01E705B8
F925FE7E
0968001D
028ADFFD
EDEBF57D
FF370262
F4EA0CE0
ECA8FF09
06B809DC
F3ACFE56
FD7D07D8
FA240459
1CB40437
F979FDE7
EC4DFCF9
01C1FFF3
0442FFE9
017EEFBC
06120385
035718B3
FE3E0D55
14DEF636
0F0EFFA8
F92E0869
FEF5FFE0
F562FEC1
FE6801FD
0527FFD1
038CCDB5
00AEFA89
FCCC0857
FD44008A
011000C5
063B019A
FE4DFDD4
02F00119
000C04E3
FF16FE9E
FFA8FF7E
013600CC
FABF07A7
FD2BFB51
009EFF78
FE05FEB3
CC3A01A8
FE6BF6A4
0506FD86
FCD6FE70
000F02B9
FE4C06CB
01810389
FE17FED1
FEEA0076
E240F5C4
FFCCFFFC
03AD0BD5
02F3F195
0BE2FC11
F824FD7A
04C3F227
F3530842
0FE401B8
011F01FA
FA100520
FF04023E
FF5D0648
F0170DE5
FAE01654
FEA11A17
04D403C9
FC9302AA
07BA01BF
0130F2D3
09FF04EA
E38CF911
006309C4
0A47024C
FB6805A9
F9B0FF36
04F9049B
FCBAFD08
FB890830
07DEF725
FC3AF210
0A1B04CA
EF810A99
F8CAFE17
0785099F
031BFFDC
D6D80382
F7BE00FC
0839FF50
FCCA0C6E
0994F38D
0B9804BF
0DE40103
02E8FB58
F2DDF8AF
EB7D040E
F7BAE592
058A0350
F79BF764
F6F209E8
EF530282
031FFDFC
FED101D4
FDDFFD31
F7410923
10F6F477
0D5B0FE7
04070078
091E0D0C
FB3EFBAD
02770203
FA591092
0E17F677
FD0B0053
1F7E0793
FA3605CD
FD80F9B1
FD2CF5FA
FF6B01F7
FCB2FC71
FC2307F0
FC3F0228
F8E1FD93
00A6F952
FEDDFB02
FE40FDCE
FAB0FC05
F1CA0089
FE58059D
FD5D0233
FE73FF73
FC57F724
0353F374
EFD2FF0E
05CF0420
F78D0292
FB221583
0B63018B
019FFF0B
FCBF05E6
01E2032B
FC28FADF
F9E2FD65
FC68FC38
FB420C6D
0112F9F9
049DFD45
FC57FD27
0743FBD7
103204D7
FA98FD86
FB42F9BD
0B7800C8
FD19FB7C
FD5A10FB
FCEEF7E3
0041F3AE
F6DDF6E8
05C9FF68
0589007B
010BF409
0AB3089F
FCBFFECE
F75CFF9C
F92BE984
FBEA06A2
059806D4
F98A0CC5
03390E32
04351601
0611013C
FDE10684
FDCE0AD8
FADBFB9A
F4F5F70D
FE51F281
F3F815B0
FADAFFFA
0112FA7D
F514F90F
FB63F9ED
04B5F910
ED2107B8
F8CEF9AC
FE57FC34
055F2889
0604006D
01C2FC0A
F98FFC5B
FF33FB80
F492F9F6
F7B4044B
FBF1EDCA
00EAF229
007C03A6
F5B4F40A
F4F40261
F58D0124
FABD00B7
FF3C00BC
FF55FD88
0BB500E6
FE8B0C0E
FE14FBC7
0361FD4F
FF14FD01
FF57009D
FC48F900
115505F4
0602F224
FB11EF53
FF8D010F
00A4051D
FFEEFA90
007509B5
FEACFEA1
FAE1F83D
024D0805
EFFFFE1D
0394FA70
00D6F48E
041D03C5
E79B04C0
0684FA25
FE6C0CFC
04460B69
FBF0049C
E8BAEE9F
03FB00CE
20B801AA
FD6003B9
FA9E0460
F8ABF762
F2160180
FB090177
FFE1F59E
065EFB9E
0094FE55
FF27FBD8
FDD20D04
FDA1F545
FE0A067D
F367FEBA
FC170002
069AFAD9
0386FE03
01DB0779
F3F3013A
0762FAE3
1494EB06
F3E6FB8D
085AF20B
F6AB0815
F0E40C35
0FE31E0E
F03D07A6
09110973
E8C3FB1D
00C9F5E9
FCDDF96B
0391FDA8
F12EFF5B
EEBBF9CE
F929FA13
F630061D
09F90529
09BDF58F
FD04F7A0
FDC2FC4C
02230116
F94C099A
F95FF86A
F89906AE
FA0C0886
0CBB0A33
FF35FB3B
F928FE77
F4B0F938
0071FBEF
FFDAF839
F5D6FE09
02950964
093800EA
07580403
013EFC9A
F91CFA75
FA3707A1
ED07FB95
057201C5
005BEF81
FFED00DF
F2EBEE3E
EB7701BD
E9BEF16D
00A206CB
124D03D3
01D5FCC4
291201DB
004B12DE
FFC102D1
FBF606A8
0872FC32
0298F5E1
0304FCBE
140DE32D
F702F50E
12170504
F5BE0172
EF7B0BD8
EFFAF922
F09107E7
FB26F96D
EEC4F8F6
0037F124
008507BC
FD3C03D8
FCA8F942
FE56FCF3
0D760832
F4C7FBF8
059603FE
F505FF1D
06CE0288
090EFA78
F6190C78
FA8AFC83
FB4FFB4C
0D05EC7A
03370530
0762FBD0
FD47003B
045002A0
0FC90E28
FB310297
14D1FCE0
078BEBE5
FDDC0947
0FECF215
091AFA58
F24DF894
FDB00F37
092C01E9
FA36FF2C
F9C601E9
F3420405
FCD41161
0033328F
FBD9008B
FCDF0884
FCBE0483
0458018C
0BFEFFF4
F9B1ED10
0232FD2D
0425FB7D
F32F044E
F99DF2BE
F7B3FF3D
0227F1E6
F510FA59
FEF5F548
08970113
00DEF95D
08F5005B
FF18E8C5
0041FDA1
030C05DA
07C5FE6D
0ACA0014
F698FF0B
047D11C2
FAEB0762
FF18F949
053FFD1D
DAC606CD
FBDEFA75
FA0E02B3
09600632
01920901
0020FFF4
0C8C094C
0A5007C9
F8B1F7C3
0510FD6E
FD26F1BA
069CF8B6
01A40664
0055025A
02BD01E9
F3DD022A
08E0FB8F
E3BB0755
F25BF530
0676FFA2
0CD4F9FF
F906F7CC
0959FD0F
0211FF59
0717044C
FC25DDC1
0DE7019B
02C5F3FE
02DB12D4
00A3FD9A
07A50047
FDDC0568
FE2D0350
FB4AFF84
FA25FECB
00A304FE
F5970F61
FE17F473
048FFC7D
FD960724
00C9FBE5
14D00329
00B5F548
024D0306
018904E8
0709FF1E
02E402AF
F24E1031
0171030D
02DF0199
F7610160
00B8006E
FC47FE0D
009DFB54
0488FF67
065B0264
0320E350
FC75F8B3
FA320EB1
052FD34D
04120B08
0DB900E4
FFF6F963
11E20210
FCD4FB62
F29D0022
0B82F843
01DE0E21
F7C40981
08490DA6
12E8FDA3
FD95FFB2
0957F85F
0BCEF596
02AEFEDE
FCF3FA2F
FAA80006
F97F06E7
FF0D0CF2
FB3BFB0A
0024FCBF
EEE301B7
FFD3FFBF
05511615
0DCAFF5C
FCC4F0AC
F5A40BDD
FBA8050D
0D060AEE
0012137A
1617FEA0
050F0AD6
E6F6F53F
E33C03B8
03900608
1580FDCE
1102020A
FF8B02A1
0594021D
00430317
EFF0E020
FF85FBDD
005EF9E0
FB0DF7CC
F24CF345
01B7F976
FEDB0D87
FD9FF654
F515FD00
F5CB0D3A
017400FE
FFA00083
F581FE44
146A0008
02E1FCE9
25C4F90A
FD6E013B
FF80FDEF
FF1202DB
0267002E
033900FD
FF32047D
1871F41E
FA3CF253
F4D3080B
006AFFCF
F850F396
0462F89D
EFFE01E7
04BE00D5
FC31099C
FF94F890
FAC2FE4A
05D5FD56
FA9A077F
FE7A0D18
F821FE10
F9AAFDB8
079A1EFF
FFCAFD9A
02D7FA12
0512F3A4
0801F992
049DF0CA
FF50FCE3
F58FF5B6
01AA02C6
F1F50498
07B2FCC8
012DF94F
FB690A2B
FC54020B
FCB4F9E4
066F2053
FD4DF966
0F0709C4
0895F3F2
ECB9FFE4
0D2402C1
0CF70151
D6ED02CF
F64D0078
0617EFBE
FC0E012D
FFF905B2
FEBC0B1A
FA8EF5CC
1057E99F
ED77FD8B
F921FC3F
FC7AF79E
FAFCFACF
F90FFFAD
F5FFF708
DC9500BE
0082F941
FE650977
049304E6
FDD7FA56
0EC1FBF3
08D6FC52
099AFD7A
FBD8036F
FD7DFC1B
090C07BA
FA21FFBC
120DE083
EF5EF3E9
EB6E06C8
FD93FE62
FBED0197
04C5FFC9
231F0062
FCD4001D
F9900043
00D11EE2
0B14F3C4
01E5FEE0
008809B5
FD4AF6F5
FB170390
08D9F4E9
FCF9119E
0E96EC60
07CC09AB
05EB0955
F55CFDE3
07F9F8C0
FEE9FB1E
FF25031E
0C38FFAE
FA84008E
050E0165
FA590735
00A1067F
000AF911
06E6F9ED
0081F2EE
11BAFC48
F8130224
E000EE44
EEDEFFDD
1121FA8F
FFE0FABB
D803015A
0BEFFFC6
052F01D1
0557109A
088E0461
03C8F976
F880FDB3
017AF412
FA04FB42
0AEEFB27
FFD8083B
FCFEF80A
0837FDEC
FBE00233
028B03F9
F173F1FF
0372FF91
183EFEDD
FC1E0385
0BF602C5
FD79FFF4
FFE40844
014C0734
FC1DFD17
01A0FE8E
FEEDE46B
E4580070
0116FF1D
FF48F28D
F2470615
FAA5F5D3
F881F464
02DAFAC2
0772093B
0171FD75
FADD2485
FF10093F
FA85FC77
078CFEDA
0CE0038A
027C0502
019CFC9C
FD3C0104
01ACE7B5
00C1006F
021CE429
02C3FBEC
EFF303C0
0741055E
FC1CF6B9
F48FF73C
E58A0009
0BE0F25A
06DD0602
09FA0306
FE2E08FA
034DF6C5
FCEA0879
FDEF08B1
FC640165
05510768
F9D60437
F4EB0BED
0960FFC9
FA97FB5B
0364FF1A
0BB8FD8C
017EF8A6
016E0674
0289FE1C
01FB0CF7
151B033B
017904CB
F168101E
008402BD
F843006C
01230107
FBD4FEFB
F10EC81E
F1B6F5DB
F770078A
03A8179D
0B5E0071
07C3044F
FB3AF96D
FD45023D
07C307BD
062DFA1C
E2380225
FA18FF71
0AD2EF89
F46CF08D
F8830091
FF64037E
FE0DFB9A
FFDEFEC3
EC26F976
013901C5
0A9DFB7D
F988D5FD
0344FD17
F64B03BC
07490437
0035F2EF
E8E90955
07460A5D
010B133A
FDADF983
FD00F7F5
EE49075F
DAC609DC
F77A0229
FCFE0112
FB6EFFC3
FB4903E1
EDA90304
0499FB01
0BDE0B2B
02D7FE91
02CB0396
FB4304D4
010921B6
FF8AFE7B
02A4195A
FBDBF9F1
07C90022
FD4602F5
018D02E9
F8FBFCCF
FC74037C
FFA4FF8F
005FD781
FFD7FF5F
FD62FB90
FF9502B7
FF92016E
FB160097
027302FE
065F0374
F9FC0862
F9F5FC42
FFA1F278
F0FAFF00
01EF0697
03540184
ECF1FFE5
0291FEC0
ED8E02BB
03A3FC42
00C0FC4F
0072FEB9
03EE0264
FC6C00C0
038A043D
02E50AAE
01F0FCCF
0BEA09EE
F9E100F0
FC2FF537
08600270
0241FB26
FDECF9A9
F52301FF
016B06EC
02681228
0892FFA2
FBA5FB66
FFFC01F8
F96FFFE4
01B80854
FF9A15FC
FDBFF656
03AB0111
0043006B
FF9BFB81
F9610BF7
011AF418
02950896
0004004D
132BFB9C
093C0986
0645F658
F720FC75
085C059B
0B63041E
0365272D
051BF961
0486F1F4
EEFA0A32
060CFD9F
059F00CF
0DB80211
FB220672
05180799
1E4C111A
F00AEE21
F4E3F7A1
F8CF0915
F7F1040F
F83DFA24
022C0E86
0A780289
FC9B0FE5
F78EFA49
FE0EFD4E
FCEAFF66
F73A013A
F74AF775
0334FFBD
E68B0005
04C9F620
0AEE043E
F9C70454
051AFFE7
FE85F499
F9BDFD7C
FD07F780
FFCAFBEC
F1D7F01F
096401C6
FB320B5E
F5ACFDC7
01CFFAD0
03250021
FF56FE2E
F90A02E6
F41703F1
FD53F6A1
F62BFF23
0096FEAB
FD04FE40
054404CD
01C7FFFD
04B7F92C
FF8EEF73
0038028C
031CFC65
008DFF29
F7F108D5
EC5104B3
02330550
EB7BFE28
0C64FE0D
063BFA45
F868FF36
009802A0
0729F511
F812FD6E
031EFE4F
F7B8F669
F7C9079A
ECC50600
F95EFC73
F6AA048E
0467FF69
F74511D2
E86003C8
F93A0612
F8B2FBDA
02040334
F4FA0FAC
FFC00078
03360246
FB6A08F7
F919F737
FE5FF959
FFA71141
E4040301
0602F919
F728029A
E74EF57F
176CFD33
FBA4F8DD
FAB101CA
FC83125A
178BFF79
03B7FF4D
FA55FFF2
023AF2A0
FF5FFF92
FF4FF10B
00B8E4C5
0FA5FA54
02F9FF99
2A1B0E21
F308008B
F675049D
FACC00EF
FE290632
F1DF0525
0752F5C5
02BAF840
FD62F980
FEE8044F
FCF4F541
FB080906
F7A303F5
F41205D3
0052F532
FCFA00E2
FC43FC99
0594FA2A
FCD4FAC4
F8F9FE83
F9910208
E67BFF2F
0595024F
032F0030
F7C301C5
FD1A0823
FFD0FFB2
FF83FEE5
04C0F9C7
FF6D11DA
F1310FCA
F37D0451
FC110184
0FD402CD
F5BFFE63
F5EF07BC
10B1F701
FAB00790
FE4C0759
057B027A
017105EA
065AF16A
0188FF8D
006B05F3
073E012E
ECDEFBE0
F633EA4F
010BFBFA
FC48FC0D
0F500E83
FB0C0568
0BB4FF3F
0CEA041B
03880643
08F9FE1B
0957FE3F
F4F00C9D
070106A4
F47F0572
FE7DF840
FC48E9EF
03670178
EA8C0073
053E0986
06C404EA
F8CCF8CD
FFB5FA6D
F9740519
0325FF38
FF04047B
FB500457
0819FDB5
0388FDBD
0032F3EB
F2AEFFE3
FF29F5A1
028E01F5
031D03A7
0A830BA6
0424F2CB
0109F7B9
0916F6B1
DBBA026B
FF640462
03A1FE1D
F53901AA
FEF30269
EFB0F971
0011F961
01050A65
028FFB15
006DFCC4
027111DD
02C90A33
023CF843
FDC1F1DA
098CF7AB
03FC0494
FF820C28
FDA2FC35
094900A6
0043028B
002DFA2E
034DD8E1
02B2FD85
F70901CC
FC4B020F
0252FF52
FA9A01B6
0DBEF850
03DC0108
FC8B027C
FFAEFCE2
FDF50004
04ACFF3F
055A05E9
F77D0434
01E800D9
FE2EFB3A
DE8003FD
FFA3F6B1
01C5FFCD
008F048A
FF03010A
FFF0FCAB
033D01F8
FE0EF4FA
FD250298
042AE692
F240046D
F661042E
F4A6FF61
05D2017E
F858F916
FFF8FD70
FEBBD9C2
02CDFA63
FFE500E9
FEA3FBFC
FF8FFACC
E6E0FDD4
E319019E
FD98D257
EDB9E44C
FE89FF5B
F4A40C5C
F1EEFE19
E859FF1C
00140BD5
189FFEBE
FDE4F78F
0DB9021E
FC69070D
0166FC5E
FD800963
02BB027F
001EE8E2
03CAFD0B
FEDBEFA0
FAFCFCDB
26D30F39
EA5C0031
00930B1E
FE2F05B3
F897021D
03D8064B
EDB3FFD4
04E6FD7A
03EBFE28
077E035B
FC2CF02E
0B52FE1B
F238FD35
09660B9D
01E4F7A9
FC640A85
F794081A
0CC1087D
00C00491
FC54FC72
0213FF4F
13DAFE9F
065BFC93
ED34FDDA
03AF0734
04AA01E3
05A707DC
FE95F979
EA90F982
00E106DD
F9450C42
0BD0F2BA
F6E9098F
FEAF04F7
FD2F0B05
0A2F08DA
FE45F920
FBF301B0
F958FE78
00D7109C
08B406F5
FE16FEED
FF350333
F1510025
001805A7
0AACFFBF
F9E5F406
05D4FBEB
0587FE4E
FA95FE39
08FDECE0
04D9018D
092EEDE3
F0F4FB1E
FD01FB49
FEF005B4
05CDFCD9
0B94F7F6
FE6BE651
00A3F6CE
06360521
0ECAFBCA
06C0FA34
01C10328
088B0861
0690091C
FAA2FC93
08E5FF98
13F7085E
FFFCFE8F
FEF205AB
FF43F0B4
F9090021
03290795
015AFEEB
FAD5F0AC
F9ACFA44
FA07FF1E
FBD9FCDD
FF46F8AD
020EFCD9
FB250519
F3760488
E9FD0778
04050166
13CA01B1
FD8C02E4
1929F829
038902C6
0050EF98
04A90536
04AF0460
01D4F741
FE8414E1
0378FCC3
FAF5DB0E
0B7FF324
0A4205AC
FF82FB12
0CA7F9D6
096A095B
FD110184
F9EAFDC2
FBB3FEC2
F871F58B
1258FB90
0464F66A
FF4EF9DE
FDF401A7
124DFB75
FD5B12A5
0404EF2D
025206A8
F638F376
F2390422
F9CAF7A1
052FFD2A
025606B5
052203CB
FA24FC79
FC3D0045
0A38027E
01DDF37A
FF640188
FEAA074A
FDC6FF4A
23510070
003FED02
DD78096E
E1E401E2
FA74F7B6
050AFD82
1099030B
F98505BB
FE8C031D
00F4151C
FAA103E3
07C0FA77
FFF90222
064EFD18
F812F74B
0046FF33
F945F851
00AF0F43
F73BFB3A
0145FD68
EC520235
0A6B0D00
06410344
107EFDBD
FEF0FB23
1246037A
03CFF864
FB44F99B
F81D039F
045CFDCA
024CF16A
02F8022C
0ED6F032
FB6FFD3E
FA941D72
0198FE6C
0C47FDEA
00D7F816
C958FE1C
FE7EF9F5
022F0172
01D110C4
F35DF240
04CF039A
F81EFC08
FFE3FD85
F8D403B4
FD61055F
FCE501A9
029AF80F
FC3201DD
F877F400
FCECFF5A
F97AEFF9
048B0260
154B026E
F298F94A
1759FD68
FE3F07A5
06000172
0084073E
0520FC53
035EF663
000DD7AE
FAF90BC1
F5F9F029
0B8D009B
0168049B
07F5F8B9
FFE5FB16
DDC20697
F911FE86
FFA7FDB7
FFCA1383
FE6CF937
0503FAEE
FFC2FF65
014AEEBC
0749F5D2
E8CC03A0
FC5AFAE0
FCD4FD01
03CC003C
F997FDB7
F4B9FBAE
01C2F5E6
FC650A66
108DFC7C
FA5BF8BE
1CBEFDF2
FF8FFFE8
030A07CE
FE9309D0
00F4FF1D
01E9F895
FF35EF54
0AF5FAB4
FCE6F06A
07F0F81C
FA490366
01F5F9FA
FF5006F6
03D506D9
076EFC3E
0347FC79
0156F787
F9DB02D6
FB6902A7
F987F97B
08ECF491
0385F302
EF9602FC
FCAEF02A
02C30276
FF2DFC7B
FAC7EE79
11D202F1
F0EFFBE9
FBFB01A3
01D801BD
FB7A08E4
F4920A52
FDAEF081
004B0CF9
014707A2
0131005D
000EFD32
FCBE1F12
04C713B4
01E30816
E5001437
0891FDEB
FC2F0056
F488EF03
0E18FE75
F9AD021D
00FBFF13
FF462653
F780FAB7
038DFD7A
0389F89F
02A5FCE5
00FEF6C4
FC5D0115
056505FB
0438F3A9
039607CA
EF59F077
F515FE7C
139E0005
FE13FE09
00E30130
0017FB4B
E5A5001C
022FFA9E
0ABB0484
05B3FE9F
FAEEFF26
01B1F3CB
FD59040A
041FF2F9
F262FEBC
F3D0F927
EF83FFB7
FD4F04DC
FEC5F510
10E3FE39
FBDD0531
0628FD5A
0054F86F
0537019D
FB06FF7C
FD260731
060AFD59
F051FAEE
F57FFD21
07E30F53
F69FF407
FB7AFD9A
0082FE99
FB4804B4
FE0AFCD8
FB1FFFB9
061F02C6
FF57FDC2
CA0D038D
04C7F9D1
03F602BC
00F9FF91
FB7FFEBC
004E039A
FD61FF59
03CBF2DA
FB8FFD35
0276FD97
FB34FABD
02972FD5
FB95F8CC
06C90173
060DFDE7
0435FEE2
04BA07C3
FF230414
F806FAE0
0FE40482
007A0540
F630FB10
1926FC12
0758FDB9
F968FE1E
F676F924
FAC7E830
FD7B0753
FE5A0007
FD24027B
F7BB002B
07C0F8F7
E834FEA8
037DFC53
0155079A
0B5F012A
FC6703AA
F86BF7B8
FE060387
1D88FD95
04C2FEA3
FC6A03F2
F9E10213
EDDDE82D
15DDFE48
F16AFBD4
0B34049C
FCB1F2CE
0241F612
03E7ED82
FE2807AD
FC74ED87
0353008A
F257FA88
EF8FF9A8
F78CEDC5
F6A6F46B
019802D9
F0C3FF60
D73F1291
EF5B01C7
F41A0ADF
FA100833
FE510E7D
02F20460
FFFE044D
FD3702AD
F4E7FEFA
0181FAB7
0517F964
04400E51
EA6DFC89
FEB8FE9E
EAAC0301
F922FBE4
FEA2F996
F687FDFD
ED8701AE
0392FC3B
FDCF0797
0153F73B
02070610
FF49F5E8
FFC2FA4E
FD71096A
F902FECA
485AFD49
01A1DB21
EC6500EB
0372FAFA
0A3709AC
E96AFEBB
FE6DFE1D
0235FC3C
0A46FAD1
FC50FB7C
132B035A
01A8EDA4
09800133
0BEF106A
FCFB052F
0230F422
F91B035E
05C5EED0
F9A5038A
2E12049E
0773046F
F85401C2
F277FEB0
F43A0327
F53CFD24
E785026E
FE5CFA46
0B3CF70C
F559F9F2
00A200AC
01A403A8
0ADA02D4
F84CF9E2
FD76F06F
0C61FE38
FD6105A6
03E2FB25
FE3FFC8D
05E806FF
FC9C052B
FD7DF8B7
FF3603A2
F324F7BB
F747F994
03AFFF29
F989F6BB
FD0401F2
FB090800
044816B0
FE32FA6A
05EEF944
EFC8F8FB
04B209C6
FDFC0A67
0542FA70
F4DA004D
07FF0690
FFF00031
FA03FC6C
FFE80191
0919024B
FE8FF5D1
01210833
FC960090
0222FBA8
F857085C
FEFBF5C1
008C028A
0242F9B3
0942FED5
FEC10429
024EFC72
FED101E0
FE31FF49
DD4FFC55
0062F652
04C6FD3C
F919009A
FE6C0117
FDCFFB34
0069F76D
03090E9D
003C06ED
F78AF9FB
F8CCFF11
0202F98B
FE38FC14
09310B78
F8BA04C4
FEDAF4B5
0B28EB11
FF63ECFA
FF54F514
067E02F0
F575F85B
033BFD65
04E60AC9
F666FD86
020702EB
08940838
EF82FBD0
EA670818
F28DECB4
ECC90827
F55C013E
039EF301
F845FF3C
FF93F339
F8C3FD5D
0445FDE6
FEF702D7
0211F5BE
F9FBE2AA
F433FDBC
0288FDF6
DF1FF9C3
F8C0FF3E
F97208B3
0B73F9D8
E34804A5
FBFA037D
063A02BE
084AFD12
EF91F525
016CF4FA
006DFD15
FA1DFF55
F5FDFEFC
08A8F7D2
FFCE0917
0457045D
01DFFA98
F429FB34
03D2FF60
0319FB09
FE7700B6
0A42FBF0
FD870815
175F0484
F918FB1F
FD2F033F
FE440B99
02350123
034DFA10
00ABF9AC
03E1FCE9
03B0F659
F48CE273
FEEB04F4
FDA3008C
0600064A
F9ADFB86
041F01AD
FC3C0245
FF72F706
FE7E065A
F9B703F7
FE24FFA3
FFE30048
016EFED2
06FB0121
FE54035B
002FF7E9
039502D2
023902D0
FAD10160
FE210308
FDDDFF37
F583FFC6
0890FCDE
07170302
FCFD0115
04F701F4
0215F697
FAEBFEB0
021A0475
FF94013E
E84302CC
FD910166
F0EA01D4
FD32FFE9
070EFED1
0459066E
FD1102DE
FB7D033D
FD8DF6DA
F7B9EF8B
F9BAEFA3
FE8DFA19
FD380A80
05B803B2
0709F960
07C8FC5E
0678FD2A
03FDFBD6
04A4FED5
FB4501C6
F05F076C
0BC6078C
0A07073B
FB0B01CB
03440DD7
E618FB2E
F9CF0A6A
0303F801
FACE083F
F9970C97
089C042A
0671ED22
FFCB08AF
F28A0E55
0685FA1D
08640224
06970453
FEDCF6C6
FC860178
F9B40079
FD5BFE1B
FBEFE8B8
0131FE25
FC19FF3E
00A8029D
0225F85E
01F3F9A8
FE7B0098
0376FB1B
FA0F02AB
F7F4FD30
040D0384
FE4E0013
01AA0BFD
00D3009C
FDDF023D
02A0FE96
ECBC03F5
0700FF62
0324FD09
045D05D7
0190FED3
FB91F742
0709F461
05460628
FA7605AC
08E6FA95
156F02EF
023AF208
026CFF8C
E47805FE
025D067D
007AFEA8
F6771E4A
FC4A0022
F821FCD2
F85E0238
F794EE92
EE28FEDF
DCDEFD3A
FE37F31F
F80EF963
FCA70007
ED1DF7B5
FD6FFCAE
F1F1F89A
00F401F6
11C5FBD4
FAB801CF
FF56F9B4
011002CB
FB81F920
04FB0858
020DFEB0
023EFCF8
FD15FBC9
1397FCD2
FD78FA6E
D26A13BD
FA4EFECA
F1D301FF
F8A8F8A2
06D5FB08
F899029F
FA2705B8
04DDD68B
FE4608BF
0390FD7A
F966025D
FAA70007
FE130277
0D91FD2E
FB42F337
03E4F826
021BF8EB
04F1FE16
0A2200B5
F789FF3A
086A0BAF
FDA7FD47
FBF2F9D1
FC1EFCD1
F57A075C
0D8402C9
00390542
F8220019
FAD20AA6
016FF870
E628D73E
04BCFF5E
36380CA6
0F9500DA
00ABFC3C
FBD7FDC9
EF2AFCE5
06ED0282
FBB2019B
02C213DC
F3200C82
014802CB
038801CE
0918FD56
0F19F80E
06A8FB27
07EF05CE
FCC80260
FA9DFAE2
031FE8BC
04E4FD6F
067E048A
F8D8026F
117BFD8C
FE6B04B9
04330731
FC1402AB
03430493
02D7FC13
075F002B
055AFD74
05F81C3F
0B9E0E20
FF0B048A
1516F1D2
FEF10233
FDA203FC
FED8F715
F5EDFFE6
00830279
FEC6FF65
FE55D43A
FBA906D4
FC0A0419
FF68098E
02F3FF41
0717FF53
F7D8022C
054C0357
03FEFFB1
FEC4FBCD
0091F08F
E5E406E0
035BFF05
0772FB4C
FDB302D2
FA38FF61
D5E301E8
02B4FCB7
FCD900D2
FE90FF00
FC990194
FDB7FDF2
FE7AFB6D
0922033E
00F4FCC8
F831082E
FEADFEE7
082D02C2
FE680B51
FD9A04FE
FE390135
FE2DFC77
FD48EA1D
0293FAA7
FA24FF16
05710605
F52A098C
FE11FB3A
FB4304E3
0238F333
FA980C25
00CD0642
FF47EAEB
E956FF55
F9C8F61F
FDAD034D
F5D702BD
F94FFFC0
F647FDE4
0859FB12
013AF8D3
02DD02CB
FEC30093
FE9BF97B
0412F6B8
034EFE02
F72E11E9
06BD0068
FA3C00B6
0571022F
075C0516
01CB0144
0AEC00E2
E58E0654
FF3A018A
FAD7F103
00B80074
FC051079
087403C8
0500FEAE
11D2F821
FD4A1A23
0BF901F8
FEC608C7
F2CAF59F
0440083A
F654F7E6
FE72FC28
EE81FF74
07830AD9
F3A702AC
060D01EE
FE0DFA95
F87CFDDE
FBD00A5A
F90CFD70
0328F70E
F3D9FA3B
049BFF67
F128FC8F
27F2FB3D
20440AB8
FFDDF6A9
E6E201D6
FCDDFDE0
FCBCFA11
0190FB83
F6AB0412
FC7FFA48
FD68FD3A
FBAEF693
F5E8F79F
03CC07E4
032FF4D6
0CD90042
027803E4
017E11B0
0DCDFFF4
FDFCFDFE
FCEC0996
17C6049F
0372FF53
2DB8FD52
0112FC21
F807FAD9
FC97034D
0154F6B8
04010091
03360102
02C102E5
F95E0065
17B80705
F90403CF
F9ECFAB1
F8B5FE8F
DE64047C
0A3EFB92
F4240571
FEB7EC78
06E5F7EC
06A4006C
FDBFFDD3
FF10FDB7
EB12F69E
F9AB01F4
FA7F0ED4
FBB3042E
FE4CF9CE
05B104AF
F7A50147
0201096B
FFDCFFAE
F8CAFF6E
FF0302FF
0C500286
F80D0306
F815057A
03AF0EAF
05680380
02D4F19F
04A6FE9B
0F6EF84E
004CDFA2
0D121F37
FDF8079F
FC61F983
FAAD02C3
FE22FDA8
FE86F943
131F00B3
FD1AEE19
0128FCEB
037B0172
FDB50398
FFCE0A7E
0526066E
F439FA06
FEE51329
FC2B0279
033603FF
017E02F3
00081A78
050704C0
FB39FE1E
FF47DAAD
02390794
FDE20748
05CBF9F8
012703BA
05BE0184
1798EAC2
DF2EFD63
EEDCFFCD
FBBD00F2
F2FF0025
0C3902C5
F06B072E
F58D002E
00EFF63E
F945040A
F112FFF5
03DA0513
FBB32571
F9EF0AF0
F4F20504
03F3FBC6
FD330123
FAE00449
0543FE7D
0C6CF6BF
0F62FAF6
024AFF65
F13D08DD
F4B1FCCC
0662FAE0
F8FC03A1
04F6FE7A
02DD0E90
11BE0238
FB0CEE7C
03C9F9E2
FC9BFB8F
FB10FB94
FC511E77
F98EF66E
0074ED71
03AEFC23
BD0EFB0D
1804FABD
FC7BF1FA
FBDAFABA
1B3A0AEE
0584FDC9
FB1FF883
FC65F95B
F6CEED89
F7A4FC0D
FD3FFE1E
F995FF82
0543FD71
FDF80782
FC0C18A3
F23B084E
FBADFC05
F91D020D
EFB9063A
E3A0F54E
00D7FA48
00710421
FDAB102F
04A0102D
FD2DFD0B
F5F1FEB0
052A013F
F67DF945
010DF2F9
01E113C1
08AEF94E
FB2AFC9B
F058F29C
0CB4012D
F96407A6
FCA6FC66
01010353
041C018E
F51B03DA
09972215
EE26EBAF
FC3E025B
F8D9043C
0BD403DB
05DFEF24
00AA0AFF
F77BE6EA
FD18F49A
0227FE1F
067AFFDA
E1A60519
0DA8FC54
00E9029F
FFBB0261
03E8EEB9
1CDF0A05
09AB04A8
060B0212
04ACF2DF
FF74FF08
FF1CF12C
02BEFC3B
F8A1F598
05BEEFA8
E169F1CE
F63F01EC
050506A3
02AE055E
028803AC
FF1202A4
024300CD
035FEA9B
0AD7FA1E
FB36FEB5
00F00717
FC23FBBE
F747010C
FCB1F9C7
FE7E02A2
0793FF7B
FA02FA50
F694F400
EC7FFE2D
FB61FD58
FB6E060B
132BFA4C
FD83FDBE
F299FFE6
0002F9D2
048AFAB3
FE3AFFCB
01BA0458
F94C0BB9
03BFF46A
0003FA1C
0595FD29
F4FF0B74
FC6C0012
0A270444
FD58043A
29A6FC58
F71AF7CA
FD3B03E8
F32C16DA
E96804C0
067400E5
0CB0FE4D
FBBA0DA4
ECB1F52A
E9D3083E
0124D979
F7BBF6C0
040CFD15
F2B2FB5D
FF1400E0
EB55FE76
02380CFF
01A7FD35
F918F9A2
FAB80038
FF42F9B5
05B3FA85
FDCB013F
F910019A
F769F9A8
066F0E22
0D50F9E5
01E3F736
FFDF0500
F7D20497
FEBC0AA1
FD1AF954
04CFFBFA
FAEEF552
F6FAFA85
F829EF12
F868F670
FC6717AA
FAEBFF3A
0CAB07F4
0FD5174C
FB5CFBC6
FED30D92
F9A5FE9C
01ABFC14
0C8D06E3
0366FFF5
EE8706C1
01AE0689
E6F00F13
00EAFC0F
DF5BFB41
FE4702C1
F25EF804
FEDFFE54
05EA02D6
00730780
02BAEFF0
0A1EF289
0D410CC5
17410C99
FC1409B9
FAB50F56
0A3BFC60
E8A4FEFF
07C7FB93
F7D902BD
F94E0AFF
013DFAF1
0192D96E
0148FFA1
01B0EFF1
F6DCFBDB
F0320838
05F8F953
F579FCCC
FFEC01E8
FB020F9E
05E906DB
064C0C87
F66BF67E
FE54FFC5
00F00114
FE9205F8
08130958
07300516
FD0CF647
FE3A0620
014FF616
0117F669
12FBF5EA
F46EFBA2
0FA01924
FF2A004C
F67B069D
0042FBC7
0320FBDB
F9EF040A
0672070C
07F4EC44
0137040C
FD4FFDB8
039CFFAA
03AF0419
FC3A0271
FF3600A8
0A17FF68
06B304D3
FD51FC7A
04A6F8BF
06E20345
0149F8E4
F9F5FF20
F67C0085
FC1101F5
F229016D
FC36FD66
F3D60AC3
FD7DF938
0307FDAD
042EF9BD
036E0BE6
ED4D1CCF
FE6EF8DB
FA980110
FF510400
FC46FE5F
0767FD5F
FCBB0954
F824039B
F62EF568
0D6721F0
F4DFF454
EA88EF73
087DFBAF
11460C6C
057C15E0
E849F773
FE310A6D
F6FBE667
0B2F05F6
F260FE3D
F2920632
F542069C
FAF4FE10
F4B3FC36
F71DFF7D
28AAE79B
05C70290
000705D4
003B0DED
08E60113
EA3DF908
FFAB134B
F8490D26
F9C70B40
FB5A0063
0766F7B5
011C0A6A
F401F736
FD7604B7
0965FC5D
FC66016B
053FFABE
0585F9BD
046C001E
FA57FF44
02E10A1F
FD39F49F
FD5F01F9
0660FF2B
01C8F4A7
04C6FC1E
0A88F6AD
FEA7FD9F
FCE2FDA0
F5AFFB00
F943FE68
FA6AF45B
E473FD0A
082BF6A8
0696017A
F95707D7
F9AD00ED
FF70F7B7
0031FA9D
F33FEBD9
0194FCA4
FF310659
FA67042B
0202FF74
0551023A
F062F902
FCAA000F
09E308D4
FB9CFB9B
FE56F3DE
FA0EFC75
FC7FFF7D
EFFC0073
01CE06FE
00FDFD9A
FBF5F052
0301FD29
06BFF697
06D907A0
FBD40B2C
F4F506E5
05AE019C
E287059E
09CCF775
0DB10718
F823016D
09A105F2
064FFBAB
F64FFA72
FEFBF7AD
F988FC21
EB47FCBD
FA8C05E3
022406BC
F9530318
0E7B0177
01130361
FAEAFA9B
02A2020A
FE15FBDE
F5ECF926
0EA7089D
F721056C
0188015B
FD84070A
08F10A04
03E20738
FFD0FA29
0F4704D4
FFA604DB
FF5CFAC7
28C1F63E
041E1E46
0489FE7B
021FFD4C
FFDE0FDD
0FDD00E3
01B20642
02DA0358
F572FDE6
044C01A9
FEC61971
012EFF36
0654F282
010608EC
0CDAF219
0A70F9C7
06660747
0B9402F6
EAE9008F
0A2102ED
055FFE75
03CBDE64
0C550586
01CDFAAC
F93B0248
0013F3B5
DD16FA9D
F7E5FDD2
00C3E1EB
0B6AF678
0658FC5E
F5D8FE9A
0438039F
022FF151
FEDFFE1A
FAC0FE65
F959FD78
FCEF0192
027EFBB4
0084FF44
0839FD6C
F7A201CF
FD981608
FCD5F56E
F4D5F7EF
0183FA77
FD25E0F8
0EB80334
