0026FFFB
0000FFEF
FEA3FD1C
25D001A8
FFCF11DC
FC9B037A
FE9D1204
FF7DFE91
03C8FDAA
FBB1FE61
FE32FB38
FC78FED5
FB82FC3F
FADDFC73
00ACFB2F
FFDAFF2B
FEB8FD7A
FCB2FE41
FE54FCD3
FE1EFBDA
FE8FFE7B
FB82FDD3
FBF3FC0F
FC85FC57
FCB6FBF3
FC2FFB70
FC9EFD13
FC71FC33
FCC6FC39
FCC2FC4C
F969FC7D
FEA2FC4B
FB11FB11
FBD4FA1F
FD77FAAE
FC86FC05
FC7EFDCE
FD9CFB67
FB58FC88
FC6AFBED
FC11FB06
FD2CFEED
FFF9FC45
FFF4FFDF
FD0DFFFE
00EAFCF4
119C2408
035F019B
116CFD88
FDF9FDDF
FDA8FF64
FD6B039D
FBBBFC1D
0063FE0E
FC96FC6F
FCDBFCD6
FC48FC16
FDAAFFF4
FD2B006F
FE71FE07
FD85FDEA
FD7CFE52
FE1FFE67
FE00007A
FCFFFCCB
FD2BFD4F
FC8FFD89
FA92FDAD
FC6AFC26
FD18FD02
FCAFFCA9
FC75FD45
FDCBFD43
FC8BFA60
FB95FFB5
FAB1F9EF
FC0BFC54
FD31FE38
FDEEFD2F
FC3BFCEE
FD29FDD5
FCD1FC92
FC2BFD26
FEE9FCA1
FCECFDC4
FFC9FFFD
00080001
FE67FCE6
20C8FF2B
0204110C
FD460119
FD420EBE
FEE8FD98
0279FD46
FC73FCD6
FD6FFCC5
FC74FFEA
FC99FCC2
FC97FD44
FF71FD00
FF81FDD4
FDFDFCEA
FDE0FF1E
FE3CFE43
FEA5FDF7
00D7FDB4
FDB7FE36
FE29FDAD
FE7BFD93
FECEFD57
FCAFFB60
FD7CFD0D
FD54FDD0
FDE5FD82
FE0EFCE2
FAEAFE6D
FEAFFBF2
FA3DFBF2
FC0AFB6D
FEC2FCE7
FDB6FDD0
FD42FE50
FE3AFCA1
FCE7FD47
FDB7FD7E
FDB4FD39
FE7EFDB6
0000FDBA
00E30121
FE65F082
FFF3F955
01B700B1
FF0CFFE9
FEAFFF71
001FFF8A
0058021E
FF88FFF9
0168006E
FF46FEF3
00DEFFBD
FFB0001C
FF70FF5C
FFF4FFD5
006200B0
FF60004A
0014FF61
0160FFBA
FF8300F3
FFCE0055
FF80FF76
00E4017B
FEE700D8
FF75FEF6
FF87FED1
FEC7FFF6
0001FFC9
FF020017
FF8FFD89
0123FF20
016AFEA9
FF4FFE56
00C5FFC0
FFADFE65
FEA5FF2D
FF8FFFF9
001DFF70
FFC9FF58
01A6FFC1
FF2C0107
005BFFCC
023DFEA8
F2800169
EEE8FE65
01450193
00A80191
0038006E
01400101
017E00FD
FFE200AD
00FEFFEB
FFF500CA
0082001E
004F0090
FF99004A
00C7FFC9
005100A6
00B70077
FF54FF6C
FFD800B1
0149FFFF
FFFF0068
FF9BFFE3
016A004E
0110017C
00600077
FEAC00EF
FFDB0096
000BFF9C
009F00CE
FF2C001B
FFC3FF18
FFB602B4
FF6802F5
00290078
FF9E00C0
0011FF71
0034FFDD
00B0FFBF
FFFE0004
022401C0
00F400D0
0081FFE9
FFCC005D
00190083
0095FEA1
00F4E610
01EE0199
02270172
03B201FA
03020350
00760080
00000070
001E02C2
008800AC
008C0198
015F00AE
008200A4
00850135
FFC802CD
004AFFBF
014CFFFA
006000CC
00C401C7
0018003A
007A00E7
001AFF5A
0077FF20
00C6002B
009600E6
003E0041
006C001C
FFFBFFF3
FF4F0155
0052007A
024F0252
02C301CF
01C40096
FFE20182
00D7001E
00D0FF9A
00710162
0294016E
0057018E
005FFF40
00A0FFF4
00000048
FFFE0007
FFE2FFF6
DF30009C
01D40405
FC85FE9A
FB9EFB5B
FE96FD1F
FCC7FDC3
FDB9FD67
023105D0
FEA00016
FEC4FA66
FC56FC43
FBEEFE33
00FAFC63
0354FEBB
02CFFCAE
FF6C0020
0036FCCD
FDBFFC93
028DFE0F
FE67FE5F
FE40FEB9
FD06F987
FD84FFD4
FF87026E
FEA6FD5B
FBC0FBB2
FBCAFB8B
FEF8FDA9
0D8AFE56
0091FF79
FFD402D7
FFEBFF8E
FF8CFDE3
FE520059
FF18FDC4
01B4012F
FCCEFE52
FE27FF16
01D4006F
FECBFBF2
FFF8FBEE
0000FFD7
00D4FFEC
0370E260
FDF70026
FBFEFCBE
FD53FB48
FDF5FEE8
FD86FCD8
05D3FDAB
FF220291
FA2DFF43
FC32FF1D
FDDFFC21
FC5CFC0C
FDBDFF4D
FC720304
00110366
FCBEFF7A
FD150107
FE8FFDF4
FE90023C
FE37FEAD
FBE3FDA7
00BFFE16
01F2FE31
FD62FF27
FC73FE56
FC4FFC69
FDF9FCC7
FE5FFDBE
FFAF0CA0
034DFDAE
FF56016B
FEB5FF74
FFBCFFA7
FE73FEBB
01EAFF5A
FFF901DA
000DFCBF
00F7FE2F
FB33019E
FC3AFEDE
FFA80002
FFEA0003
E56C01FF
00C60304
FCEAFE10
FB0FFCAA
FE96FDFD
FCF1FEB5
FDFDFD8E
02050641
0083FE85
FFA1FB7B
FC4FFC88
FC50FE0D
FF0EFCAA
0212FD5F
04D2FDB5
FF93FF91
007DFD44
FE43FD80
015DFF14
FFB2FEFD
FCABFD81
FEB3FCF9
FDD20119
FE9D0087
FDF5FCF2
FC2DFCBC
FC75FC9E
FCA2FC2F
0F52FE0F
FBEFFFBF
026802A6
FE82FF68
FF02FF20
FE69FE35
FFEDFE02
00DC0273
FDD6003C
FE610059
009C0266
FECEFB2F
0000FD27
FFE60003
0000FFF3
F34EFF4A
F88AFD99
FBD2077B
FBF0FBB4
06BCFA77
FD0BFDF8
FDD2FBB9
FBE4FA03
F933FB77
FCF7FAEE
FC3AFC7F
FC97FDAF
FDD7FBEF
FE3600D6
FDC1FC38
FC73017C
FAD2FE0D
FC1FFB79
FBDAFEF7
FD9BFABF
FEABFC1F
FE03FDF2
FBC9FD9A
09F00E4A
FCC70806
0422FCCA
FAE70471
F8570294
FA1EFBA7
0169FB5B
FA25FB52
FAD4FD98
0074FC13
FE9AFC0C
FC41FDA8
064C00C3
FAD801F3
08B4FE19
FD1CFF77
FE9CFCC2
0003FBFC
FFF4FFE2
FF410004
FE7EF6BC
0740F9A1
FBC8FBDD
FAE3FC2D
FE9C046D
FBD1FE31
FB97FE55
FAABFBEF
FAFAFA7C
FC94FD16
FDD4FCF4
FC5EFCA0
FFA5FE8B
FCA7FF4B
0178FE34
FE40FD19
FC48FCEA
FEDBFD18
FBABFC55
FEF5FDFE
FFC6FF4D
FD4CFD4C
10D8FC5D
076509F8
FCC6FD5E
03E502D6
02A1FCA7
FC9AF974
FBA0FB73
FC73024B
FF2C0354
FCE2FB93
FD0F000C
FEFEFE82
0392FC62
021604F7
FEF8FC45
01610802
FD18FD83
FC0DFE79
FFDC002F
0007FFF5
F8E6FF38
FA84FF60
FBE004D0
FCA6FBC5
025DFBCA
FE83FF1D
FEA7FC19
FD10FC00
FBD8FB4C
FD43FB78
FD51FCE9
FCCFFDD5
FE96FCBF
FFD7FEA7
FF6FFD01
FD760159
FE79FE75
FDD0FCE6
FD03FF08
FE33FC83
FE1BFF56
FDA5FF5B
FE5EFD72
0A241048
FF2C072B
055EFE48
FE3D048D
FB8D049A
FBE2FF07
0178FB5F
022BFC6E
FC08001A
0079FD13
FE13FD6C
FC9AFFCB
01D502CE
FC770208
07AEFE65
FE010311
FE9DFD04
0000FD00
007C022C
FE68EA80
FF000C6E
00EDFF65
0032003E
FF8CFF83
FFDAFF33
0011FFA7
00220014
FF85FFAB
FF44FF0C
FFAAFF95
FFB8FFA0
0006FFCD
FF64FFDB
FF7500B2
0001FF75
FF48001E
FFCC004C
FFBBFFA5
007B0021
0006FFC8
FFB7FF7F
FF95FF47
FF7FFF7C
00040095
FF91FF6B
FFA8001C
002F0008
0020FFD0
FF19001C
FEF1FF8E
00D701D3
FFE0FF86
FFABFFE6
0017FF80
0065FFE4
003A0013
FF64FF6F
FFD8FF08
0027FFCB
0002FF27
02BD0032
F3F4004E
093EFF34
FF80FF68
FFD90001
FFD8FFA2
FEE3FF73
FFCDFF54
00320022
FF790047
0061FFE4
FF83001F
FF83FFCB
000CFFAC
FFDD0024
0068FF7E
0019FFA7
003D002F
0032FF78
FFA4FFFE
0061FFD4
FFF0004D
FF9AFFFE
FF9EFFCF
FFE8002B
00A9FFC4
FFF7003D
009F0037
FF9C0056
010F0044
00860052
FED9FFBB
00D8FF7D
FF8400A9
005AFFCF
FFFAFFE0
003B0091
000A003D
FFEE0024
0047FF76
004E0027
000A007B
003E0004
FF6204B4
FFA5FA3A
00420912
006F0019
00650059
007700D9
FFE4FFC8
002BFFB1
004B0064
FFF80085
00650099
FFDEFFF3
0032FFDF
0067005E
FFBA0005
FF840076
0077FFDD
FFED003A
FFF8001F
FFF7FFD2
0054005D
00230053
FFAEFF56
0037FFB5
FFA5FFBD
004200BF
003C006C
001800D5
0000FFAA
FFFE00B8
FFA80056
FFC9FF92
00D80175
0007FFC0
FFDE0073
0149FFF9
0098FFED
000C0081
00080088
00100051
00B10005
00050013
00000019
02D6FFE2
FFADFFEE
FC12E9D8
0376027D
00DE0132
015800E7
014D00EF
00C001C6
00320136
01FE02A0
00E800E2
015E004B
010C00E3
01190161
01CC00B5
036E0143
01EA022E
02EB0130
01980121
00FC01D3
021E0200
018201D4
00E20189
0158019E
01BB0262
017A01E2
007700EC
01D800FB
00770234
012001C7
02DE00E2
026100D0
036C02D6
01900198
0054008B
02C5019E
01320075
FFF40125
0147024E
01490255
00EB017D
00320020
FFEB00E0
FFE1035E
E76CFFA5
0193FC94
00B7031C
00A80103
FF860053
00E900AE
00DF00B8
02310026
008C00D0
0067008B
00B30144
013000D5
00B700D0
00690169
02150261
011E0162
00D001BE
015200BE
00FC00BD
00D50139
0069014B
0115009B
01500098
00E900B3
009200F4
00EE006E
01910146
013B0046
007500E3
004A026B
01BF01E9
00E00255
001F00B4
00CD0087
001801F0
006700B7
019B0021
00D30110
00AA00F0
00220084
00BC0033
0324FFF5
FFC8FFEA
FD75E5A0
01800097
00C900B8
FFFA00E5
006CFFA7
00960060
004800A0
00650171
00390039
00DA0089
008D0091
007B00DE
00B60082
00FCFFF2
00D900A9
011F00D7
005A0082
00560113
00DE0050
00940080
00840030
005F00B0
00490084
00640085
00330060
005B0077
FFFC00C6
00B000C5
0162006D
00FF0041
01DC0174
006D008C
0068006A
00A10087
00710000
003A003D
00C000F7
0073003C
003E0073
003B0012
0000004E
0000FFD9
00830036
01320FF0
0139FECD
FF6FFE9C
FF86011F
FF080046
002BFF54
FFF401C9
FEDFFEBF
0050FF52
FFEDFF9C
007BFFE8
007B00DE
FE600064
FD65FE30
FF13FFE6
FF410076
0064003D
FFCEFFDE
FFC6FF02
FFD5FFD4
FF4A0095
000E00EE
FFE7FFB9
FF58000B
FF4DFFF6
FF1100EB
FF710005
017701B7
FF56FEFF
FEF700F0
FE66FF4D
FFDCFF81
0093FFBC
0055FF4A
003B007E
FF87FF18
FFEBFF6A
FFBDFE02
FEA3008F
FF44FF57
000EFF16
000AFFF5
0F6A0035
FE8F00DE
FE570082
00B5FF5C
FF99FF72
FF67FEE1
0196FFEB
FE88FFC5
FF5BFF56
FF6B0014
000FFFF2
00AA0051
00180068
FF2AFDF3
00ABFD12
0094FED0
FFCBFED3
FFC60093
FF52FF6E
FF45FF05
FFECFF4A
00C2FF15
FFBF000B
FF74FFD6
003CFF32
012FFEC2
003FFF2D
0166FF66
FEC60245
0073FF11
FF2DFE63
FF6AFF17
FF5AFF7A
FFC000F8
0064005A
FED5FFFB
FF81FFA4
FDEEFFCB
0063FFF2
FF34FEBE
FF5AFF77
FFB80055
0032FFF5
FFC90FC2
0141FEEB
FF74FE5F
FF970089
FF01FF14
FFB3FF6C
FF87016C
FFCDFEDE
001D0009
0030FF70
005DFFFC
00450077
FF270043
FE840002
FF27012F
FF7C00D5
00D3FFB3
FFD5FFD5
FF8CFF9D
FFCD0008
FF66FEFA
008E00AA
FFFE003B
FFCAFE8E
FEE000A3
FF91018A
FFF1007E
037A0213
FF95FEC7
FE50FF8B
FF04FEB5
FF27FF54
0150FF78
00A20066
FFC60095
FFD3FED2
FF9DFFA8
FFE0FE7F
FF4800BA
FFD1FF89
0000000F
00000010
00080010
FF180227
03C6FB48
FB07F876
FB5DFC34
F8E107FC
FB04FB1E
FEF7FBD0
FBD8F78C
F909F9B6
FA52F939
08CAF912
FAABFB0D
0616FA99
FBD7FBE5
F828FEB7
0051F9BC
FD90F9B2
FBBBFC96
F98CFB2E
FF16FFC1
FC5DF893
FFE6F877
FDD1F7F8
01FEF520
F804FB89
034AFEB6
F987FE44
FFA7F89A
F55AF9F5
F8A8F9A4
F674F856
F997FE46
FC7AF768
FA83FA75
FFCEFE2F
FBABFA97
0007FB6F
F9EFF6B0
FB0BF949
FCF9F902
0011FBB5
000FFFF7
025F0006
FAEEFC2A
F7B204D5
FC43FC8C
08EEFAEC
FB6AF906
FC7AFB76
F860FF2F
FA5CFD41
F8FFFA38
F962FAF0
FB8F09BC
FAE2FB0B
FD94069B
FF0BFDF7
FBC0F920
FB90016C
FDB1FE0F
FCF3FD7B
02D7FBBB
F91F031F
F989FD09
F98400D5
F444FE83
FBA801BC
FF70F8B6
FF3F0582
F93BFA85
FA960154
F9C1F5F6
F89AFA01
FE68F7D8
F8E2F96B
FB04FD85
FED7FB7D
FA75FFAB
FC8AFC46
F963FFBD
FA08FB3D
F9FFFB94
FC86FD45
FFDE0009
00040009
F96D027C
02B8FBD9
FD83F911
FB17FC6E
FA0E0886
FC65FC99
FFB4FCF4
FE7BF9B2
FB22FBE2
FBEFFA2C
0A86F9CA
FBBAFC10
0462FBCE
FE81000A
FAD4FF88
027DFD55
FE7BFE51
FF64FED9
FD1DFE56
02B304BC
0053FB4C
02A6FB4D
0009FB61
01C4F744
FA7AFCAC
0572008B
FC06FFF2
0220FBA9
F8D5FB65
FBABFABB
F82AFA13
F99CFEA4
FE08FA70
FCB4FCBB
FEFBFEE6
FDA0FB89
FF7DFD80
FC52FBEA
FC7EFBD5
FE25FBA8
0000FDC8
000D0014
FFECFFEF
FB29FDD6
FC360003
FCF004B4
FBEEFC8A
0027FD1E
FF14FCB5
FE94FD21
05EDFF71
0E04FD31
1ADC02DE
FFD71B98
FE75076F
FED4FD74
FF47FCC5
FDEFFD51
FDFD0049
004EFD10
FD05FC19
FDA3FE91
FD29FEC7
FF04FE16
FD61FC3B
FCFBFDBA
FD10FEC3
FED0FC35
FB32FC3E
FE89FDB9
005BFCE6
FC46FCCD
FCF9FE05
FCB7FF5E
FC92FE86
FD50FCAD
FD56FDD5
FD60FE40
FE96FCF9
FCEFFC6C
FC1EFC0E
FEC6FCC8
FE8F02FB
FFF7FDE6
FFF90010
FD3AFFF9
FF97FBDF
039DFDD7
FD08FD83
FE72FCFD
FD500067
FD5CFEA9
FFD7FE76
FDA2048A
01D60D6A
1B1819E0
0777FFC3
FE09FE6E
FCF1FF6D
FDF5FF19
FFE4FDA9
FD78FDE6
FC510042
FF37FDA1
FEC7FE03
FEADFDC4
FCECFE8E
FE38FDF4
FE21FDFB
FD7BFE03
FCF8FEDF
FE3BFC1E
FDC3FEA8
FDA2FE3D
FF0BFD01
FF4CFD74
FE61FD62
FD22FD54
FE02FDAF
FE27FDC3
FE05FDAF
FDABFE6A
FCCCFD4E
FD49FD29
0368FED6
FDFFFE85
00270002
FFF8FFFB
FBFBFD56
FEDBFE9C
FDA2021B
FD74FD55
0074FF88
FE2FFDD1
FE43FD92
03AAFF28
0D36FDF0
17BC00AE
FF4B196C
FE900715
FF89FE6E
FE9EFCFC
FDC0FDF4
FE200016
FFB7FD9F
FE1EFCDE
FE6CFF84
FE05FEB7
FE50FF18
FE1AFD3A
FE54FE47
FEB1FE45
FF82FDE6
FC4EFD2B
FF13FE51
FEE0FDDD
FBCEFD90
FD42FF56
FC65FF01
FDAEFDE2
FE00FD36
FDFFFE39
FDDAFE42
FE5CFE17
FD83FE30
FDD1FD91
FE99FDAC
FEA6046E
0000FE1F
00920362
FFD00F04
FDB4EEBC
03770199
01B300B7
02950165
01390205
FF6E0187
FFF4009F
022E03B6
017A032B
016600E2
012F0138
010F00FF
012E0052
012B0234
026C0080
02800038
009CFF8A
00EC00E4
007F0048
00B502DC
00DD00C1
014A00AE
016001F1
00F700E1
015B014A
02210087
00E40113
002F0327
0297012F
021702B2
03910390
01E70098
008101CF
026B00DD
0136FFDD
FF9001C1
020802BB
01780213
00FDFF45
00A000C8
008A016B
0BCC00DF
F0A40049
00D9FED6
00B702F0
006B01DE
01B90240
00360191
003AFF57
0372FFC5
0250019F
00950138
00E50120
00D300C7
003A00AF
01A2009F
000D0069
000F019D
00080193
0095001D
000500B7
01F000BB
00670064
007C0056
019500E1
015500B7
00A90098
008900B4
00E800EC
01ED004A
00D20042
031B01AF
03B9016E
005A03D7
01C90186
00310043
FFC701B0
014A016D
0260FF92
01E00171
FEE1009A
003700CB
01110043
0154FF32
FFD80852
FEDDEF74
01CE0058
014D0057
01690017
011A0106
FF71FF70
FF77FFAA
01390297
013F021E
00C90018
00270062
00520075
0096001E
01200120
00E200FF
00DEFFD4
FF50005D
0097001B
00BCFF9A
00620109
005A005F
010100CC
0095017E
00E500C6
00F6006A
01280082
0051011D
006B016D
01CE00BD
01390280
036302D9
011F002D
FFBC010E
016A003C
01090020
FF4B010D
00E101BE
FFD20167
00A7FF5B
FFCC004B
0000005D
0007FFF1
FFFAFFEE
E098FFE1
FF58F7CC
0155F616
F969F732
F768FA8A
FD8BFB36
FCFBF9EA
FC71F740
F853F72E
FCE3F82C
0375F8CF
004FFB5C
F5DCFD4B
F50AF77E
F8E8F859
FB62FB9D
FA52FA50
FA78FACF
F9D1FBDD
FBECFBA1
FC5FFA24
FC31FC5D
0385FFDA
0050FC81
FE340338
0069FD20
FBFBFE3B
FE44FBAB
EFA0FDD2
F74CF6DA
02B8FA38
F9A0FADF
FE40FB2C
FCA4FE68
FE5FFFC6
FC2AFCAF
FBA1FB54
FFA1FDB7
FC37FA1F
FAB5F628
FFE6FA10
FFF3FFF7
FF8FFFFB
F8CEE534
F6DCFE8D
F8870076
FC7EF9D9
FBA7F837
FAE1FE4E
F82BFDAD
F801FC24
F7B0F928
F9A5FD2B
FB2701E0
FD67FFFD
F81AF857
F96CF6E0
FC2EF9CC
FA69FC00
FAC1FB4A
FC2CFB56
FB53F9E3
FA13FC95
FB9EFBF6
FE7BFB2E
FD6201D5
02A8FE8E
FBF1FC47
FB7FFDE5
FABDFACE
FC66FD74
F61CF096
F997F87E
FAE80742
FB66FA1A
FD74FE87
FDF0FB57
FE14FF7F
FCA2FCFD
FF04FCA3
FA06FF38
F6BAFB7E
FA81FB8E
000EFFE4
FFF5FFE4
E7E4005B
FEA5F9EE
FF8DF7A0
FA2FFA6E
F8DCFDA2
FEB7FC8F
FEDFFBDD
FBA5F8DD
F9B0F850
FD80F7F2
0094FA3F
0002FAD9
FA50FCF2
F95EF90F
FA42FA99
FC75FCED
FCEAFB14
FC60FB15
FAE1FC3B
FCF1FAD9
FC7BFD4E
FD10FBE8
00C9FEAB
FD71FC0A
FC0801A4
FBB3FB94
FA56FAA8
FD20FAED
F4ACFCB0
F8D5F546
057FF899
FA2DFA5D
FF50FA33
FBEAFD77
0010FD18
FDA9FE2D
FD93FCC6
FF14FDFE
FBFDFA9D
FC7BF7E8
0000FAF8
FFFD000D
0008FFFE
F14C021D
FB12FA71
07D1FA49
F8AC025E
F93BFA5D
FC77FBE2
FCC50267
FDA4F9BC
F993FA99
08E8F748
0876F720
FCC7FA48
F9ED0275
FA5B0718
F9A4FAAB
FBB5FEF9
FC8E0131
FC44F9C1
FAC5FC57
FDECFD91
FF0FFA06
FE80FBB4
0307FC61
FA27FDE1
F8B8FC4C
090005D8
FC7CF7A2
FC02F9DD
0479FE92
FBCEFAC3
F8B1FA1C
FBFFFB96
FCD3FBC3
078DFB80
FBF3FD2E
FD9DFB4D
FE3B0572
FAECFB1A
FEFDFBAC
FE0DF924
0004FC67
00000008
02C20008
FA7EEE88
FA8AFB62
01D806CF
F987F974
FBEAF934
02A1FC97
F9CFFCC3
FAA2FD88
F786FA18
F6EC0894
FAA00844
0250FC7F
06BDFAB8
FB50FA80
009EFA19
01E4FC9C
FA37FD8B
FCEFFCE5
FE2CFB17
FA48FED5
FA91FE06
FC2AFE6B
FF96022F
FBFEFA50
06D9F915
F85E0747
FAEAFC19
FEDEFDB8
FA50059E
F9B3FBED
FAC3F9FA
FF4CFC0E
FC1DFE23
FD780290
FB66FC38
0497FD99
FB36FE86
FB86FB74
F975FEAC
FCD5FDF7
000E000A
00060005
F1220386
FBAFFB89
0585FBAD
FA730135
F9BCF9D0
FD12FCB9
FD1F024F
FD93FAE9
FAE7FB52
07EFF828
0710F748
FC61FAEB
FC5401B4
FBC003E9
FB81FC9D
FD55009D
FE920143
FDCCFAD0
FC42FD7F
0054FD99
FF0FFBA1
FE97FC45
013CFC15
FBA1FF08
F9DCFCE2
085E0769
FC7CFABA
FF22FB62
065FFDDA
FCCEFA53
FB89FA51
FB4AFAB0
FEE6FEE5
005CFD0E
FCA6FE13
FDEEFCA8
FE6102BF
FBA8FC08
FEE5FC03
FE63FA5C
0000FE0D
20180006
F496FFDB
0018FE03
0078FD5D
FF49FDB9
FFA7FFCF
FF0AFFBA
FE11FF73
FD77FF43
FF49FEE6
FE50FED5
0031FE8D
FEC00012
FEFDFE93
FF02FE2F
FCC7019B
FE29FC37
FE9BFEDA
FF42FE52
FE3BFF5D
FE5DFE82
FE83FFE1
FE49FE50
FEDEFF26
FF50FE52
FE57FED1
FD12FF8D
FEA1FF0D
FEA1FEB3
FF5CFE03
FF7DFF05
0028FE94
FFE6FD8D
000FFD51
FFB9FE5E
FF25FDF1
FED3FE94
FEECFD8E
FDD2FF91
007DFEF6
FDA0FE4B
FECDFF5E
FFECFDAE
FFCA2018
FE22F76E
FF4BFFCB
001C008F
FF0CFFFD
003F0035
FF2E00AA
FF3BFEB7
FFE9FDAF
FF24FFE3
FF58FEF9
FFD5FFEE
FED2FF1D
FEAFFF27
FEE6FDF6
FD47FCEE
FF0AFEC6
FEBFFFEA
FFB4007D
FF7FFE77
FF42004D
FEEAFF5A
0006FF56
FE7AFF9E
0099FFAD
FFC6FEA0
FF8BFE1E
FF53FF4B
FF51FF0A
FFAA0044
FF43FFCF
FEA6FFB5
FE05FF46
FEDCFF88
FECEFFFC
FF69000A
FECCFEC7
0004FF3F
FFE2FE69
FEDF003B
FF21FE5B
FE21FF5E
1CDCFFC7
F8A5FFA7
FF19F572
00120096
016701BC
019A0040
02E601DB
FFABFF9E
FF16FFA5
FFB600DF
FE85FE9D
FFB4FF7F
FF64FFB7
FF6FFF5E
FEF2FF9F
FFC900DF
FF48FF50
009FFF68
00430007
FFA5005F
0040FFCA
FFFCFF0B
FF79FFA5
FFC2FE9F
FFF7FEE9
FF320165
FE9AFFBC
FEF2FF03
FEA1FF6F
FEDBFE60
FF61FEC8
0143005A
034E01D2
0095FF61
FF9DFFEA
FF69FF26
001FFEC9
FFC20145
00A70063
FF79000C
FF4AFEDC
FFF6FEA7
0000FF33
FFE1004F
FFE0FF9C
020CFB59
FF120098
FFAAFF76
0057013C
0065FF97
0018011B
003D00E6
0199FF1F
0035FFD6
011AFFC7
FFC8FFE9
FFFCFFFF
00310034
016BFF72
0007FF06
FFC30048
00DFFFF7
FFCD00F8
FFE800B4
0056FF3E
0197020B
FF9D0176
003600CD
FFD60126
011200A6
FFA601D2
FFB7FF2C
01D9016F
00950046
0035FF5D
01C70030
00CDFFFB
009200F4
FF10000B
FF990132
00B9FF89
00E1FEC0
00A5FFA8
FFBD0171
00AF0065
0083FFCF
FFF20047
FC580001
00F50016
004B0024
01EE0163
01A301CE
00220228
00510051
00860026
010B005B
00BD010D
FFDA0063
0052008E
00E80010
01A50021
FF03009F
0005FFA9
007600A3
0109FFD9
FFE1004E
005B005C
FF7D004C
015EFFFC
00BF0039
00F0012B
0098009E
00BF012B
FF39008F
01C4FFED
0060FF8C
00C8005C
009800CA
0022FF8B
009500A5
0024FFBD
FFB20072
00530029
01090069
005101F4
0110FFD0
009BFFEE
0025005B
FF2CFEF2
FEE1FBF0
00D6183C
000FFFF6
01C10031
01AE017A
0235014F
0008FFAD
FFD60031
FF3B0039
FFAA004E
FFD500BE
00D4FFB0
00140036
FE8C00A9
FE3C0284
FFA4FDD5
FFF2FF8B
000E0021
FFCE00EB
FFB1FFB9
FF42005B
FDBBFDEC
FED1FD54
FF6EFEBA
FF26005B
FF11FFA9
FE64FF9D
FF00FE1D
FE73016E
FC58FF5E
FFAC0047
FEC7010E
00C1FF9D
FFD3FFA6
00DCFF76
003CFEA4
0025FF7D
016B00CE
FFBAFF4F
FF74FE80
0017FEF8
0000FFA5
E908FFC5
F624FFD9
FE5909D8
00F20073
00CD0087
FFA0FFF2
009F008A
FF0300A9
FE7800D3
0069007F
0062FFAE
FF97FFF0
FFA0007E
FFE0FF90
FFF3FEFA
FF9EFF8C
FF2DFE74
0027015E
01290002
FF82005D
00F4005C
FFD40059
FEBDFE17
001E0040
FFA70001
FFFB0063
FEE30072
003300C5
0047012A
010C008C
FEC1FFAC
FF9BFDD3
FEE6FDCB
0094FEF1
014700AA
00F5FFCF
01ED0144
001CFCFA
FD26015C
01670098
FF5AFF83
0047FF11
FFE70005
FFF8EB78
015CF95C
0093FED7
00830058
004200F6
005D00D1
004D0038
0049FFEC
014FFF8B
002B0045
00DA005C
0082002B
FFDF0028
003E002D
00580087
FFC6008C
003AFF9B
FFE100BC
00980098
00A5000E
003E0051
FFD700B4
FF8200B3
FFBA0068
01280007
008F0029
00820035
000000D9
0019FFB5
FFBB00BD
FFA6FFE8
FFA9FFEC
FF9B0157
002000A7
00090054
005A0065
007500CA
00670052
0092FFFB
FFAF0075
00290090
FFFA0101
038E006F
FFE2001F
00DEFA51
FFBA0074
00C2002D
010A0106
00AD0077
0069001D
002C001F
FF8C00B8
FFDDFFA8
001D0078
00890040
004A0039
FFB20074
FFC2005E
FFE20009
0079FFBC
0024008B
005B0067
000D002B
FFFE0041
00AF0031
0027FF27
003BFF86
FFE3FFE2
FFFD000B
FF9AFFCA
FF78FF71
FF5CFFC9
00D8FF7E
FFE300C5
022F0110
0015002B
FFE2FFBF
FFC2FFD2
003BFFA5
005101C2
013DFFEA
FFCBFFA7
00370041
00860036
0000000C
03CF0063
FFF8FFCC
0682FBE9
FA82FB49
F8DFFC49
FB7FF925
FAA7FADE
FAEEFB03
FAEEFBF7
F99DFC64
FAE9F9B5
FB6AFA68
FA7FFBB9
FB29FAE2
FC42FA26
FBF6F853
F99CFD32
FC55FC40
FC86FBAE
FC17FAFA
FC5DFD3B
FBDAFB27
FC5CFA3B
FBFFFB44
FBDBFBC6
FAFEFC2F
FBDBFC2F
FC31FBA2
FBF1FBC0
FC29FB6C
FAF0FB17
F947FC18
FC05FA03
F903F996
FBD7FA1F
FBFBFCEA
FB5BFCB0
FAFEFA81
FB40FB53
FAFBFAB8
FB96FB48
FBC2FA71
FFBDFC7B
0033FB2F
FDAF0007
F9FD066D
FA44F8F8
FA69FAF2
FB45FBF2
FB57FB0B
FBE2FABC
FAC5FAB5
F9BAF990
F9A2FA1F
FBDCFADE
FACCFA5E
FA5CFACF
FBB2FB6D
FC00FB32
FB3FF8D3
FADAFB5C
FB4EFAEB
FB80FBEC
FA68FA6F
F9BAFB57
F9D7FB0C
FB47FB0A
FADBFB68
FB9DFA92
FAD8FB99
FAFCFBEB
FA02FB8B
F9A0FA4C
FB3EF96F
F947FA58
F965FA5C
FAC5F9CE
FB43FB37
FB5CFACC
F9B2FBE2
FACDFB43
F9E0FAA9
FA52FA9A
FA3BFB43
FB9AFBE3
F6AAFF56
FFF9001C
0A4808FC
F885F98F
FA7AF9D1
FAA1F9F2
FA4BF9C3
FAE9FBB6
FAEBFBE1
F987F962
F959F92C
FAE9F985
FAA6FBEE
FAF2FA9B
FA29FA73
FA5AFB71
F869FA6F
FB5DFAF0
FB3AFAD5
FBB7FB62
FA60FB5E
FABBFB49
FBB3FA2F
FA93F9E7
FB26FAF0
F9DCFADA
FAC3FB67
FB8EFA78
FB23FB27
FA27F991
F92EF914
FA87F9EF
F67EF81D
FA78F957
FB2FFA04
FA2BFB13
FBA9FB8E
FB90F912
F98AFA32
FABDF975
FAE6F9EA
FC00FA29
0000FB17
00040004
00120015
FC0E0139
FA26FF3C
FCB8FE27
FC65FC27
FFD9FCDB
FD87FCBF
FD6DFD70
FD33FDFC
FD50FD94
FD96FC29
FCBEFC3C
FDEBFE31
FCC9FD6F
FCA5FBC4
FB5EFCEA
FF78FE34
FD1CFD67
FC95FEB7
FE0DFCD1
FD8EFD94
00C1FDAA
0866004A
0343074D
000606BF
0381FF72
0972FF0E
0753056F
FFCE1E84
00C904FA
FF00FDA5
0441FC90
FCA2FC58
FDDCFDD5
0045FE93
FDF6FF9B
FD010A60
FC6101B0
FE74FE0A
0323FBA0
FD91FCC2
FFF0FBFD
0012000C
011A0005
FFCE0021
FE2CFC60
FBB3FCEF
FCDFFC7B
FD9DFEDB
FDA2FDE6
FE92FDC2
FD67FE20
FC94FD7B
FC54FE1E
FDF2FCD5
FD72FDD5
FC94FDD2
FE29FD8B
FE04FD3D
FDC5FE7C
FE8BFE10
FDE7FCFD
FE78FE8D
FDF8FD95
FE53FF4F
04F40302
0681FF65
FC98FE26
FC3A0131
FF2EFFDF
1B3803B3
02EEFB5D
FEB10146
FE27FEC5
FD330C92
FE94FCDB
FE8CFDD5
FCFFFE8E
0D54FE28
FF3BFDD0
FFF6FD20
FCA4FE0F
FCBF028D
FB1AFE65
0001FFF3
000D0008
008601CC
FD0EFF00
FCF0FD0B
FC53FB1E
FE6AFCE5
FDDEFE0F
FDDAFDAB
FE2CFD47
FD49FD45
FE40FCB3
FCEEFC82
FDB1FDB4
FDBEFD83
FDCEFCBC
FD94FE32
FE36FE19
FE1AFE28
FD7BFE42
FEDEFDFC
FDD5FEB7
FBD4FCEE
FEFCFB20
FDF80364
FD04049C
FEA3FBDD
F9B6FBDE
0150FCDC
FA541950
FC6B017E
FD26FE82
0B82FDE5
FCDFFD3C
FDBDFE21
FD2DFE61
FDA5FD22
FE380CF4
FBD9FD9C
FE5CFF37
0077FD8C
FE63FC0A
0000FBC7
FFFEFFF9
FFFEFFFD
FB9F00EB
FABBFD35
FCB6FCA1
FCB6FCEA
018BFBD0
FCD6FC88
FDB2FD55
FD77FCC7
FD80FDDC
FC30FC9F
FC84FCDE
FD47FD9F
FE11FCA9
FF76FBD5
FCE6FB7B
FCCD01CF
FD00FE8C
FC57FD38
FE44FE14
FDB9FC12
07E00532
02F90C04
08E001A9
FFCE1E50
03DB0076
FE9400FB
01280129
00EA0503
01E70D72
02EFFCAA
F732FB8B
FC80FF0D
FF4F0028
FCDBFDF7
FD5EFF4E
0212FD7B
FB9D027B
FF83FF01
0086013E
FE65FBED
FFEDFC34
0003FFED
00C7FFFF
FD73FC2C
FD91FC1E
FD0DFD8F
FCA2FD14
FD580104
FDAAFD3D
FC96FE02
FF28FE5D
FD5DFE07
FD79FD1E
FE06FCDA
FD32FD7C
FD26FE9D
FC2C0077
0211FD10
FEAFFD7B
FDF2FE27
FE6FFCEF
FCEDFE5B
05E5FE29
0C74083C
006CFF71
20C00436
FDB4FCF4
FDF0038F
FEA9FADE
04CBFE52
0CE2FDCE
FDAF0200
FB940462
FF2EF514
009FFC53
FEF0FFB9
FFD3FDED
FDAEFE01
01EA0332
0081FC88
02890064
FCDD0046
FC68FF5B
FFFAFFF5
00060002
FBA200F6
FD33FD8B
FE4AFE51
FD6DFD5E
0035FD48
FDD0FE2E
FEA2FE0A
FE84FD15
FE76FE7F
FE18FDF9
FD6EFE09
FE0BFE79
FEF3FDDD
01A3FDCA
FD2FFD99
FE21018A
FF16FEF4
FDF0FE9E
FEBCFF2B
FEB7FDAB
065305CF
FE140C80
00ABFE6A
FBCB1C2C
0150FBDE
F945FB37
FBDEFD5F
FB710173
010E07F4
045CFE51
F7D0FC22
FCDDFE5E
FFC600BC
FDDCFF44
FE490024
01B4FFD3
FE070074
00040382
FF3E023B
FF90FD10
0000FDA2
FFFE0003
FFFF0003
037DFFDA
010CFF30
FEE3001D
FE79FFA1
0029FFAC
0015FDE9
01E7FF45
00A3FE06
FF66FCBD
0074FDDF
FFCCFFC4
FEA6FFBE
00D5FDBA
FE71FEDA
FD2EFFC5
FD9F2158
1ED80387
FF640056
00B8FF46
FE24FF2C
FDA90247
FF8A0311
FEDCFD26
00920648
FEFF007A
FF9F03AD
0146027B
01F3FDAA
013101A8
FFB9FFA0
FE8F005E
FF810284
0C9A00A2
FC930375
FE3DFD28
FEB8FD4F
FD960272
03C5FF5E
004A00B5
04E8FF1D
000401BF
00040003
FFD30001
FFD0034D
00DB019A
FFBBFEF5
FF4EFF83
FEA6002D
FF4D009D
FED30171
FDE80182
FE8D0098
004CFFD5
005B0033
FE82FEC9
FF080115
004FFEF8
2140FDCD
03EAFDB6
013B1E3C
0179011C
004D013E
041901FB
027AFE88
FE1FFF50
03C2FFF9
0071003C
0322FEB0
019DFF04
FEBC0096
00930283
0029018F
0060FFC8
0283FE44
01360002
03C70DB2
FE2EFCDC
FDD6FE87
01E2FF4E
00EAFE25
00850392
FF8400C6
01E005C2
FFEA0006
FFFE0003
01E9FFEB
017F0014
FE9100DA
FF71FF55
FFC3FEDC
0132FF54
0082FF8A
01D5FEF1
01EDFF6D
FF48FECD
FFE40057
FE9C008D
01F8FEBA
FF86FEEC
FDFC0000
FDEF1E00
189003DE
00E8007F
016704A7
0415011C
FF780522
FFB100BD
FFDCFEE0
FF8702B0
FEC800CD
FE1E0214
FF94FFD9
0174FE7A
00C50029
FFC1000F
FD4B0022
00460254
0D760209
FD090244
FED4FE54
FFE2FE41
FE3C00A8
01DB00CB
0098FFBC
036CFFF8
0000019E
FC4EFFBD
001A0001
00EF022C
025CFF8F
005DFE60
FF830003
FEF90095
FEEC0139
FF400105
01A6FE43
00C801B3
0096FFE7
FF6E01A5
0050002C
01B5FF3B
00AA036F
FFDE012B
010F028D
021100C0
01200135
010000C9
012600DB
00350037
0158019A
0097016D
00DC00AA
01260188
01C40245
00CB028F
020201AA
FFF4FFCE
00D4FE5F
FCC2FDD6
0238FF70
02C100E5
01E60149
02500290
00CBFCBB
FE6901A8
01C20178
00FDFFF1
01040096
FFEA00F5
000F2388
FD24082A
00FD0247
0172FFB4
020D007C
015D020F
000F01F6
002D00F3
02070075
FFD5FF4A
010E0004
009F003C
005E009B
011D0063
FFEBFF46
FFD9FE69
FEC3FFB4
FFEF00FA
009BFF5A
FF0C0048
0125FF91
000BFFBE
FD2B0141
FEFFFF87
FF76FF86
FF68FF16
FF33FFF2
FE50FF85
FF58FF0A
FF6BFDCD
019E0145
0329014E
00F105FB
FFF7FFED
FF10FF21
FECEFF62
02C5FFA4
FFA5FFDA
FDD1037A
FFC0FFB1
006B007B
FF9D006E
0641000B
FEC3FFA4
FFCC009D
004A006C
FFF7007A
00BB00EB
008A0059
00D20016
0074005B
FFC0FFE7
001A0021
00360064
004A000C
00440050
FFFB00F1
FF93007C
00430081
0039FF95
FFD8003F
00520063
FFC6FFC7
003500B5
00850097
FF64FFBE
FFE5FF46
FF90FFDB
000FFFED
FFE00023
FFCDFF29
FFB1FFFB
013C00F9
0133FFA0
000800B7
005900A9
FF7300A4
FF6EFFA9
00140024
FFEA0124
0230FF2E
0013FEB8
003C0061
000F003C
0000FFFC
FFF8FFFA
0007FFFF
FFF4FF65
FFC2FDAD
FE4CFDDD
0126FF28
0083FF24
FE02FEC4
FE550022
FEC801D5
0195FFAA
FE230069
FD98FCE5
FEF2FDD3
06170029
05EB002C
FFB73660
FF94FF81
FEB30118
0050FFD5
FF18FF16
0164FEAB
0073FF8B
04A400D7
FD400141
FFCAFB8D
0019FFB9
FDB4FDAB
00B00294
00D7FFE6
FFBBFF43
FE9601CE
000001A4
FED0FE7B
FF3D007C
FFA4007A
FE1F0053
FD1FFE00
0039FD17
02080259
03C2FF71
FF080267
FFF90682
0006FFFF
FF660005
FD4A00B7
FD17FFCD
FD70FD9C
FD240091
FECBFFF2
001BFD22
021CFDC0
0026FF66
011201B2
FD32FDFD
FD81FE79
FF54FEC6
008C064B
351805A4
0074FFAC
0070001C
FFD3FEC4
FF2100D3
FE00FFBF
FF9D0240
0005FF70
01C20530
FCFDFD94
FE62FEF9
FDD2FFA5
00F1FD3A
FFDA00B1
FD5900B9
022F0031
019FFE8E
FD58FED8
0039FE6B
01A2FEB6
011F0048
FDBAFDC7
FC5AFCE1
02E6FF10
FEDC00A5
03530382
05EDFF6F
FFFDFFFA
00030004
01ADFF64
FE99FD13
FD46FCD0
FF98FC40
FEF7FC4A
FCABFE97
FD49FFF1
FFD2019E
02DD00E2
FD72016B
FE1DFD36
FE44FD04
0A58FECC
0762005E
FFFF2D28
FEF70013
FE59FFCC
0089FEC1
FFB8FFD9
0419FECF
FFB80046
0315FDF2
FC6D0143
FE48FD20
FEB7FCFF
FD7FFD7E
FF83FE54
00D7FE35
FE53FC01
FD5501CD
FD890101
FDC7FBEA
FDA1FFCC
FFFD0133
FD4E0083
FD4DFCA9
FDD8FBAD
FFF702C1
0414FF90
0002059A
000004D4
E1280000
024EFFF9
01AD027F
FFB20004
FFD8FFCC
FF3700FD
FFE70032
0082FF56
0000FFC3
FF5500FB
003BFF61
FFCEFFF6
FFEFFFE2
FFADFFF6
FF96FFF5
0002FF1A
FFF6FFE9
000EFFCD
00540080
FFFE0001
00550006
FFCEFF2A
FFB1FFB1
FF8AFF9D
FFA5FFC1
FFAE004F
FFB6FF54
FF52FF7C
FF31FFE4
FEFEFF14
005E0011
001700E6
01EE000A
FF930097
FF7D00A3
FF28FFF7
FFD2FFA2
FF7C005B
00B2FF45
FF97FF38
FFF1FF87
FEF3FF8C
001AFFFA
FFF3E16C
0248012F
FF970229
FF49FFF8
007DFFCF
FFC0FF36
FF82FF65
FFB1005C
00FF0036
0016FFC0
FFEA00A1
FFEBFFB5
0006FFEC
000AFFBB
FEFAFF00
015B0009
FFCFFFB1
000CFF75
000DFFC2
FFFB000E
FF11FFBD
FFDF0012
005D000D
FFD4FFBD
FFF8FF60
FF7EFF9C
FF53003B
000FFFD6
FF5DFF06
0069FF7A
0085006C
FEB4FF49
0023FF45
0053000E
FFFFFF7D
FFDFFF8D
FFB0FFEB
FFE0FF68
FF91FFCF
FF8EFFE0
FFD7FFCF
0015FF04
E498FFE1
00DA0007
00AD0163
FFE4FF7E
FFA3FF7A
FF0F006C
FF45FF83
0010FF7B
002EFF8A
FF9300E8
0070FFF4
FFB8FF8B
FFE8FFB2
FF98FFDC
FF71FFFE
00C3FF00
FFD500AD
FF72FF6A
FF44FF88
FF5DFFB8
FFC1FF43
FF90FF25
000CFF8D
FF390004
FF40FFC0
FF4CFF68
FFDEFF8F
FF3EFF4C
FEC2FF9C
FF79FF31
00ED000F
FF130085
0111FF57
FFF8FFFE
FF51FFFA
FF74FFB9
FFB8FF87
FF42FFB8
FFD6FFF1
FF9FFF01
FFB3FF9B
FF11FF89
0000FFA2
FFFF0008
FFEBFFE7
0523018B
FCBCFE88
FE45FE12
FFB7FD2C
FD97FC10
00540080
FEB4FEE9
01B5FBEA
0617082E
010F02C5
024600D1
FEA70275
FF9700A8
003200B0
FF4E0617
FEC5FF71
02B5FE5A
FF4AFF94
FE7F0068
FFB2FD1F
00640014
FE9600B5
FF530117
00BEFD38
026401B2
006A01D1
03560123
03C600A3
FF410479
FF08FE88
FCF30178
FEE3003C
FECFFD3F
FD67024F
FCFD01C6
FD11FDF7
FE8FFE46
FF4306A3
FE8F02A3
012023A0
FFFF05A9
FFEE000D
014EFFF8
FE9B0493
FDC8FD3E
FD28FDB0
FC71FECC
00BAFD70
FF67FFE5
FC16FEAE
093001D8
02130611
00A0015C
022501CA
004EFE7F
006E0012
045700AB
FFA4FF61
FE4AFE84
FF680183
00B9FF21
FD44FF48
FFD3FF15
0056FFB7
0013FDC4
FD51FE7B
0159FF5D
01130236
0049FFB5
00770332
04FC040B
FE0EFF90
01E3FF0E
004DFBC4
FD16FF86
0283FE1D
0010FD2D
FD4AFD1F
FE67FD6A
06E7FE9B
027FFF0C
2490FE8B
041900C6
002C0013
FFFAFFF7
052B0174
FDEBFEA3
FDAFFE61
FE9DFDC6
FD96FDAD
FF880052
FE4BFFC1
021EFCBC
057F095C
00E500EE
013C0004
FE4D00FD
FF4AFF3C
FFF0FEFD
FF0D01DD
FDC7FF42
FFE1FE22
FE6BFEF7
FF39FFF7
FE05FCFF
FE68FFDC
FDAAFF45
FDC2FEAD
FDF5FDED
0183007C
FF0A0088
0245FFA8
039CFFE2
FFD504C3
FFADFE19
FCD40221
00460033
FDBFFDC6
FD5E0175
FD89FFD5
FDD8FD79
FF66FEF6
FED50612
FF070179
FF9923C8
000001BD
021EFAE8
FEF2FF6E
FDAAE4AC
06140355
01FA00C7
02F40181
026902EC
00340408
FF7B00C5
039F053E
006001D8
03440102
013B0273
012400DF
021E0183
00C20369
00E6012B
0476FF05
017EFF42
02160214
00B000F1
009502AE
024901DD
002A02C2
0292020E
00C200D7
FF650112
01BFFF3A
FDDC0065
0017FF7F
05F5FED3
06040401
064304DE
04E00194
FFAFFFE7
02130232
021F0039
00720240
046A03E6
03A00372
00EE0077
02240198
FB01000E
FF8701DA
D950FF87
03DEFEBD
00EE0504
01DE0208
043003D1
029002FD
00A400A9
068D001F
02E00271
013C0127
0187030B
01080184
01E40119
03B203A2
01A40280
FED001AB
FFD103EA
024F0049
0024025C
021C00D4
028D0170
01A70241
021F00FC
FFF302A1
012A01D0
00CCFF7A
011E02B6
00F6FE6F
0058FFD8
051705AD
0428080E
01E9043B
01B20506
00DAFF08
FF6D0213
03BA01FE
0491FFF9
04BF05E2
01570268
02190149
005B015C
02EDFA40
FFB5FFE1
FF77D758
03E8029C
01A6006F
037601B1
02CF03EB
007700A4
FFAD002C
018D05CB
019202B8
024500A8
013C00C3
010000C5
02910150
024A039F
01A40118
02CFFF4D
FFDE00B7
01AC0237
00A4FFB0
012D0155
0165019C
00D3011E
01930175
016EFF71
000B0155
028A0157
FF130133
002F0218
0481011B
07180517
046603D2
040C0214
FF1301FB
019C0021
0169FF44
FFA1031B
04E30461
00F30368
0083008A
003C011C
0000000D
0015FFC0
00BA008D
F728D340
012D00D9
00E400B9
0024FFA3
00E700A3
001000F3
003C006B
015D0277
005D0036
0070FFF7
002D0001
007D0051
02B30068
044400E8
00320504
011B0132
011300F0
01380138
00E60102
023D0132
00AC0103
012F0172
011C00A3
0179FFA2
009500B0
01EB00B8
008701C1
00FA0078
02BE00C0
00AD028A
FEDA0026
0084005B
005E0048
007901A6
006E0168
00A2005D
00880132
00BF00C1
01090018
00940022
0023012D
FF94FF6A
05B5FB45
FEA6FFCB
FF49FF10
FF24FF7E
FEE3FFC1
FFB7FEE8
00340098
FE04005A
00DD0029
00430046
FFF4FF78
00340041
009F001E
0019FDE0
FEBFFCDC
FFBAFF46
FF0BFF22
FF60FFB4
FF9DFF6B
007CFF92
FFD1FF50
FFA4FF3D
FF78FF2D
FEDCFF43
FF59FF51
FFFDFEED
FEEDFE93
0013004B
0010FF9A
FE60FDEC
FED1FF14
FF9DFF27
FF9DFF9A
0044FFDA
005BFF32
FEBAFF98
FF5DFFE6
FF6D000D
00A8FF8E
FFFCFFFB
FF6CFF76
FFE9002C
FD80FFD0
0021041B
FF7AFEE7
FF5AFF6B
FFE5FF65
FEFBFF49
00AAFFB1
005E004C
0027FEBC
001600B2
FF7B0087
006F002B
00420058
FF2700A2
FE980010
FF210044
FF6BFF86
FF75FF3A
FF65FF17
FFAAFF76
FF9F00DA
FF0EFFD6
FF43FFA2
FF78FF78
FF66FF28
FF21FF6F
FEC8FFEC
0059FEF4
FF780053
FEF6FFB5
FF03FF09
FFAAFF87
FF53FF9C
FFA0FFB1
FF370044
FF6D002E
FF94FF4D
0064FF87
FF5AFF51
FFE2006F
FF5EFFD5
0000FFCE
000B0001
00190004
FD480121
FF7BFE13
01140241
047BFF3C
01B401E0
0501FF32
FE44005F
031C0040
FFE8FE19
0146014C
0074FF65
FF7AFE8D
FFADFE95
02590423
020A01A6
002C0024
01F7024F
FE9F0384
016F0219
000AFF6C
01A10308
01890184
FF9303DD
FFD3FDF4
FDC002C2
0021FFA1
021A0012
FF07FF74
FDC21BBC
01BB0033
0A0E035C
003300E4
00150014
007500CE
FFC00027
00F5FF96
FFD7029B
012DFD9C
FFC60586
FE8702A6
FFF8030B
FFFCFFFE
02140011
FE4AFC04
01BD00C1
FFAB013B
01C8044E
FF0C02E1
00BB04AD
0081FE22
FE2C0220
00F2FEEA
FF5E00A8
FE41000F
FE68FF56
02DFFFCB
010702F6
009002F9
0257FFAE
02AB00DD
021DFE41
0060021D
0117FF86
FFD3FF0C
01B9005D
FD99FEEE
019B0056
FED6FE22
009700D1
00770118
1C84FFF6
FF46FC4C
0283013D
00E50697
008A00BC
01700054
002700CE
FE83FF4B
023800D7
FE97FFA3
05B001AD
019BFEC4
0312FEC7
001D001F
000A0004
FD84027B
00BDFF14
0128018D
0385FFA5
031C0119
04FDFEAB
FE4300CE
012A008D
FE62FE70
FFE0FFC7
FFCFFF7A
FF09FE57
FEA4FE4F
01E60140
0291FFEA
FF94002F
00210128
FE6A0197
025F01C7
FF0F00C0
FEC7FE79
0026FD8C
FE33FF58
0088FD4E
FD620088
0138FE4C
FFC70084
FFA1005E
FDDA1B04
01C9FEBC
05B801BA
00AA008E
00610087
009D0194
FECAFF79
007DFE93
FF1701F6
026EFE51
FF020492
FF32005A
000001A0
18580026
03420026
022AFEE3
00360019
0016FF2C
008600EF
003200FA
004F000C
0040FFD2
00240069
00C7FF55
FFEBFFF9
0042FF76
00020098
FFD80095
FF220079
FF2100B4
0013FFCE
0002FFD2
00C10062
FF9FFFEF
00050060
00900097
0046003A
00E2FFA3
FFDEFFB9
FFEBFF76
FFDE0028
FFF2FFE0
FF18004A
00770052
018F019A
00EE0148
003F0067
FFB300B2
FF84000F
FFD3002F
FFAE00A2
01BFFF89
003F0034
009DFF06
00290060
003A0068
000519B4
005301E2
FFFF0160
FFEA0041
005B003A
014A0098
FFC00003
FFA10064
00370055
FF4EFF93
FFD10016
FF92FFAE
0047FFA1
0093FFB6
0010FF83
000FFF6A
FF42FF1E
FF3FFFEA
001AFF89
FFE8FFF7
FFEAFF78
01070010
001FFFDB
FF58FF9A
FEE1002B
FF7AFF4E
FFC5FF72
FF88FF70
FF8CFF9F
006FFF00
0111FFF1
00B301B2
00D0FF56
00FBFFCF
FF74FF60
FFFFFF3E
0085FFD1
FF3FFF59
FF840171
FEEC0022
FFFB002D
FFC2FFA8
19100000
014EFFF6
0163FF8E
000DFFE7
FFE6FF81
0006FFD5
FF86008B
0014FFC1
0045FF89
FFC6FFF9
FFEDFFB4
FFB3FF7E
FF26FF7C
FF89FFEE
FFC80043
FEC20023
FF85FF45
FF61FF0D
FF12FF64
FFBCFFF7
FF5CFF41
FFB6FF77
FFD200D2
FF57FFDF
FFA9FF95
FF82FED1
FF79FFC9
FF85FFDC
FFCFFF2D
FF3CFF1F
00000041
01810095
FFAA0012
FF8600BD
FEF500AD
FF44FF3C
FFB9FFC6
FF2E0052
0115FF1C
FFEAFF2D
001CFF56
FF550037
0000FF7E
00170002
0006FFFF
038B0098
FA3900B0
FDC6FC2E
FE3006DC
FCF7FE76
FC0DFFAE
FD6EFDAC
FDDBF8F7
FD02FDC5
FC8BFDD2
FD9AFD82
FD5AFE1A
078FFEF9
F8F1FD4A
F8270A44
088EFCDF
FD60FC76
FD77014E
0028FC9D
0086FCA3
05280068
FE02F998
FE86FE3B
FDE8F875
FE6AFD15
FC0FFD7E
FD95FCB4
FCF4FEAF
FB42FB9A
0924FC6C
FA71FCB3
0F3EFBBB
FCD7F6EA
FC3A0081
FA66FFAC
FCB6FCFB
0954FCD3
FDDDFB78
FE22FCE3
FFAFFC47
FFFCFDD2
FFFE001C
007F0004
FE76034E
FB82F97F
06A3FC64
FE12FE14
FDE8FDF8
FDB2FC9D
FA65FD6A
FE01FD05
FD1DFD85
FD53FCD9
FE68FE0F
FE7EFD5E
FE2A0866
04E0F93B
FD8FF98B
FD1F092E
00E1FE04
FD87FF08
FE65FF69
FD12FF13
FA1A01AC
FD7BFDBE
FA00FE12
FDA6FDD2
FD8BFDC3
FD20FC50
FFF1FDBF
FB87FCF5
FB0BFA44
FBD60A4A
FC3BF974
F7CC0F82
FEB2FD7F
FE5FFCA1
FBA3F9F0
FC54FD00
FB5F08FA
FB80FE66
FBF0FE0C
FCA9FF85
0010FFFC
0002FFFF
06F20117
FA14FC76
FC8CFBF5
FDDB06BF
FE0CFCE8
FD4CFD93
FD47FDF9
FCECFBFF
FD50FD29
FD4BFC9E
FE17FD59
FD70FE71
06CBFDF0
FA99FF32
FBCEFCE4
0788FE06
FE4DFD9A
FFDEFFC3
FD55FE3E
FDEFFD85
FC58FBEE
FD5DFC8B
FE10FD72
FD2FFBB1
FDB8FE0F
FD2AFDAC
FDCBFD8A
FD61FEF4
FAEDFC31
0A74FC32
FAA7FBA8
0FCAFD0E
FE1CF8E1
FCF0FD9C
FA16FD89
FDD1FBE8
065BFCDE
FE4CFC94
FE37FAAF
FEC2FC0C
0000FD0F
FFDCFEDA
FFC72660
001400FE
0121FFA5
015500E9
0242006A
009200F3
FF28FF25
FF940016
001A0146
00B6016D
FF4F000E
003EFFA5
00140037
FF40FF6A
FFC3008F
00E6002B
FFB0FFE2
FFF9FFB2
FFC1FF61
FFE8006E
002E0079
006C0053
FFE6FFCF
000D0076
004C0268
0073FF51
FFD6FFCC
00780064
FF920279
FF83012C
FF3A01DC
039504A3
FF94FED8
FF94018F
00CFFF18
017E0083
FF88006D
FF89005B
FFD3FF31
0167FF02
FFC1FFAD
FF7A012D
1310FFE8
03B6FF87
FF1B000C
00B500BB
FF950131
FFD700E6
FE06FFFE
FFE7FE9D
0108FF73
0152FFC4
FFD100D9
FF7DFF18
FFE9FFCE
FF2D0018
006EFE9B
0024FF18
FFFE00E7
FFA0FF57
FF0BFED6
0066FF66
0038FFEE
FE86FFD1
FF38FEFD
00420010
0208FEF2
FEDBFFDF
FF7D0089
FEF2FF88
01A1006F
00A2FF18
0120FFE1
03CAFEA2
FE970284
018EFF2B
FF18FF1E
FFDF00B0
FFDE0144
008FFF06
FF54FE3B
FEB6FF27
FF940129
0073FF27
003A0006
FFB70864
FF8204BF
0066FFBF
010300E1
00BAFFDD
FFBAFF9F
FE6EFD6C
FF18FFCD
FFC6016A
01230180
FF550032
0040FFB3
002B0018
FEDDFF32
FE60005E
00F9FFA7
FF4BFF9E
FDF2FF9A
FF50FEDF
0027FF80
FFAE0043
FE8DFD97
0040FF00
FE4FFFB1
00450118
006BFF58
FFC7FFD7
009AFF7F
FF0400E5
FF92002C
FE83011D
03DE0378
FEF1FE9B
FE8B0117
01A0FF56
012EFF7C
FE7CFFA8
FE2B00E1
FECEFF2B
0144FE86
FEB7FFB4
0000FF51
FFEDE69C
001C019A
0092061E
FFBDFF8F
005A004B
00FAFFB9
FF60FFA6
FFB9FF7F
FFD8FFD9
FF54001A
0023FFC9
FF7A0000
FFE3FFA9
FFB8001E
FFD6FFA8
FFEE009B
FFF2FF62
FF60FFEE
FFCAFFF8
FFEFFFF9
000F0029
FFFE0003
FF57FFA0
FFB5FF20
0043000C
FF8600F0
FFAAFFC7
FEFCFFEC
FFC4FF94
FF6E0055
FE42FF82
FF550154
034201F1
0012FF81
FFAB00AE
0047FF80
00D4FFC8
FF69FF76
FF7B0043
FFAFFF86
FFA3FF8D
FF70FFA7
E54C0020
0124FFFF
05250003
FF9800C5
00480068
FFB70045
FFC900B6
FF24FFAB
FFCDFF83
0037FFA3
FF6BFF29
FFD7FFA4
FFCAFF4C
FFE4FFD1
FF65FFAA
007BFF10
FF2EFF57
FFD1FFB4
FFE0FF49
FFA9FF83
FFEDFF97
FFE9FFCC
FF60FFBA
FF78FEDE
FFB6FF3F
00E1FF66
FF77FEFC
FF82FF75
FF23FED1
FFBDFF65
FF4DFF62
014FFE82
0199FF2B
FF68028C
005E0028
FF46FF9A
FF650011
FF3500D6
0022FF55
FEFCFF24
FF5AFFAC
FF66FF62
FFB0FF43
FFF8E638
00060064
00FE0530
009FFFB9
0023003A
005CFFAF
FFB3FFB5
FF82FEFD
FF83FFCD
FF700035
FFB4FF9D
FF7DFFD4
FFD3FFCB
FFB2FFDC
FF34FF63
FF240058
FFF8FF52
FF64FFBE
FF50FFCF
FF72FFA8
FFE4FF86
FF9D0000
FF05FF5E
FF81FFA4
FF1CFFC6
FEF800BB
FF6AFFCD
FF17FFE3
FF74FF88
FFC2FF6D
FEE3FF60
FF0600FF
01EF012D
000BFF9D
FF80002E
005BFF61
00A8FF55
FF43FF44
FF490044
FFA5FF60
FF94FF97
FF3BFF7D
0000FF54
FF850018
0028FFED
01220243
0169FF5C
01AEFFAC
FE9D0193
FF0E0122
FFDBFF5C
FEF6002C
FEAF0018
FEC6FF34
0062FF78
FFF50060
006CFFF0
FE9BFFF6
FEF3FE5A
FEE3FE88
FE42FE9D
FF3DFFD5
FF240041
FF8CFE83
FF680087
FFC5007F
FF37FF3C
FF52FECA
FE690092
FFB9FF88
FF49FED4
FE93FE0D
FFEDFFDE
FF3DFF58
00CF00BF
FF20FE6E
FF6CFFAE
FF2D0051
FED3FF3E
FFC4FF02
FE60FF44
004CFE7B
FFB8FDB3
FE21003F
FE4FFFC6
0015FE5F
FFEC000F
067D0045
FEA4005D
FE3702F3
FFD500E0
FFDDFDE3
FF21FDDA
0006FF85
FEF1FEA4
FEEAFECA
FEF0FF27
00A3003E
FFEFFF92
FF1C0067
FF3BFE61
FE59FE4D
0080FED1
0010FF16
0047010E
FF8DFF58
FF9A0154
FF25FFCD
0003FEF3
FE76FF11
00DCFE99
FF84FE72
FF5AFF25
FE99FE3E
0112FED4
FF1601B4
FFBCFF3C
FD49FF0F
FEFAFC47
FF7EFF41
FFCD00E1
0019003C
FD390098
FF0CFF64
FE4EFDFB
FF32001C
FEF6FE73
FE83FEEF
0816FFE4
0117004F
FEA1C360
FF790078
014900BF
00D6FF89
0110013A
008B0064
00480051
00640136
0000FF80
FFEB0030
FFEF0037
00540028
0028005B
FFF400AA
FFED0055
009F0041
00560080
00600072
006F006F
0078000E
008E0031
005DFF8F
0027FFDD
0023FFDB
FFE10021
FFCDFFB1
FFCC001F
FF24FD76
FF4DFEDB
004000F6
07D601DC
00580035
0052FF8F
FFE30015
00900035
00710159
00360092
002D0009
00710044
00780006
0000005F
EA980038
F9D3FFC2
00ADFFFA
019A008A
0066FF72
009E0033
FFF1FEB9
FF5D0094
00B000BC
007B00A3
00DE014F
008F0021
00DC00C5
008C0050
016100AC
FFC20195
004E00CA
FFD600B8
008EFFA7
00830093
000C003F
00A80101
00D700B1
004900F6
FFE5002A
00B30100
0058FFFF
00BE0099
FFC200B9
009600EB
0016FF75
0041007D
0030FF56
01A1FFC2
00470069
00E00082
0138004C
00010012
00040189
00D3010D
00C90038
013900E3
001BFF7B
FFD7EBB8
0083FC8D
0065FF13
FF1F01B8
0042003A
FE6A00C2
0039FFF5
005BFFAD
000D0068
01330098
FF6E00AA
007D0080
0031009F
0098006E
01390276
00740118
005A0078
FFBF002A
004A001E
00540081
0146FFF4
005200B8
00AC0064
00DB00A1
FEE90060
0070012E
00D4007B
0162013B
01350036
002600ED
0022005F
FEE40000
FFDBFEBF
FF9C016E
00C9000C
008F00BC
000C0053
00B0FFF9
00EF0015
FFDD0055
00B300F3
FF9D0108
EF04FFFE
FDA3FFDA
FF6C00DA
0141000F
0041FFDE
00FA00B4
0042FF51
FFE70035
FFDD0016
0072FFCA
0078009F
003B0078
0079001A
003E000B
012B007D
002700AD
004CFF4F
006B000D
FFDE0014
0093000B
FFF9002E
004500A0
00850060
00BE00FA
00550089
0135FF1D
00C70047
011F0097
004C00CB
00E4012E
00590109
001CFFF6
FE15FF2E
0060FFD4
FFC7FFC7
00CC005E
FFE0006F
0010000D
001BFFF4
003100D8
0096FFBE
00960093
0000FFB4
FFF4000A
FFFB0002
FFAC006C
FEFC00DA
FE780349
FCF2FDE3
00BCFF09
FECAFEA6
0000FF2A
FD6C0011
FEA9FDD2
FEAF010D
FF98FDA6
FDEAFDFB
FF24FD79
FED7FD69
FFFDFF20
0B94FF8C
FF382438
FCF5FE2F
1368FE86
01211090
FCA9FCBA
FD6BFE62
FFA8FFF4
FDCDFC08
FE74FD82
FD72FD84
FCA5FDAC
FDCCFEC9
FFD3FFC0
FCD10061
FD780032
FC53FE11
FE5AFDCF
FDB4FE70
FD82FF76
FE79FCC3
FDBAFE7A
FF1CFFBE
FB50FF7B
FE33FDF3
000AFECB
0005FFF3
008CFFFD
00610115
0380FF8A
FE5DFF18
FF1CFD79
FFA700EA
FF76FF7C
FF9800BC
FE9DFE42
013EFE86
FE86FF3F
FE8C0032
FDE3FE11
FE000010
0040FF29
00DF0005
22580B04
FEB8000E
FEFCFDB0
119812F4
FE4C009B
FE36FC47
0008FD75
FC9FFFEE
FDAFFE9A
FDC5FE9B
FD85FDA9
FE02FE1D
FF5AFDC1
000BFE8A
0059FDE5
FE10FE26
FEA8FCEB
FF12FE45
FF4BFDDD
FCD0FDCD
FEA8FE37
0093FD6B
FFA3FEDB
FE22FB68
FF09FE6E
FFE70009
FFFE0003
013D00D3
FF2BFEC5
FF460254
FDF0FE8A
00B1FF0D
0069003B
0162FFD4
FE3DFFF5
FDE9FE87
FF190179
006CFFCA
FE36FEE0
0118FE67
FEF8FDC3
00960168
0A12019B
002D1E50
FDD0FEA0
1170FFB5
00471154
FC97016A
FD93FE73
FEAEFF0C
FEBFFCA9
FE98FE17
FE80FE47
FEBAFDAB
FE1DFDBD
FDEEFF49
FDB7000B
FDE3009F
FDD1FE6B
FE5FFF1D
FDDD0025
FE16FF49
FE85FD09
FD67FED6
FE99011A
FC6AFFEE
FF0BFE96
0000FFB0
FFFD0007
FFFFFFF4
FD17FDFA
012701E7
FF7BFE36
00D10091
00F2FFCD
FD6AFEF9
FDD2FFBD
020F0104
FF58FC2F
FDDC0097
FB14FE01
FD43FDA9
FEFEFDDE
00C0009E
031F0026
01A9FD85
FEB9FE44
FECD0123
0015FD46
FDC5FE76
FDEE00DA
03FCFF19
00F6FF1D
FDC6FFC5
01B5000C
FE24FEE7
001900F5
00A900C2
00D102A6
FF65FF3F
002701D2
00AB00C7
02DB04B0
06F005B6
01DDFFE0
FD6EFF05
0371FFDE
01F734A0
0655FED5
00160113
00090525
FFFDFFF3
FE58FFFC
01F1FCA6
FE140004
00FCFEAE
004800C4
FF66000C
003CFD29
020BFFC3
FD830065
FEDDFF7B
FE2EFE26
FDD5FBE8
FE17FDA2
00FC0088
013E013E
FE92047B
FF56016E
010BFED3
FDC2FFA4
FEF400C4
0239FE60
0005FE4B
FEDE020E
00D9FEC3
FF8EFDE8
FE7A00AD
00A7FEE1
FEA3FEA2
01FBFEDC
FF9801F8
02ABFFDB
016701B8
04EC026E
0481FF8D
006E0728
FF4E0260
FF76FF30
33000452
001E02BA
02A30332
049E0008
FFF80013
FFFFFFFE
FC56FE5B
004401E9
FED6FE16
FF8C00CE
FF4400AE
FD55FEC2
00AB007F
FE360218
FF31FE07
FDE5FDD3
FCBDFE00
FE23FDB6
015EFDF0
0237008B
056D01C4
003AFF50
FE90002C
FF46FFB8
006EFE29
FE92FFB0
FE140516
005A0157
FD8CFFDE
FE2A019A
0013FE3C
FEA5FE4C
FD3C01C2
FD80FD4D
03D20081
FF75FFA6
01DE0329
039300F4
FDAD03CC
053C012E
028A0104
FFAEFEF8
04FAFECB
017C2D38
012F00D0
FFDE02C6
00000216
000B0000
00050004
00C1FF96
0096FFE4
02680294
FFD5FED7
FF59FEB2
FFD5FEF1
FEE6FFD4
FE6E00B0
0060FEDF
0045FE2A
FDDFFEC6
FF03FE7E
0117FFD7
FEC1FF14
FD2600C0
1994FF92
01E11DDC
01B41230
FF5DFF8C
00DFFDE1
FE8A0048
00BB0034
FD13FF9B
FE76010F
FE8FFE28
FE62FDD5
FE6BFCD7
FDC2FD7A
FBE7FF7D
FF4FFE7E
FE61FF2B
FE57FFD2
FF5DFEF2
FFC7FC78
FD81FE31
FED8FDD4
FE33FF95
FE93FEDE
0F86FE81
FFEC0074
000102F2
0001000D
FF870004
FFD1FFE5
026700B3
FE1E01C9
FFC3FF76
FF6BFF48
0063FF9A
0068FF35
FF68FE67
FEFE00EE
FFA40007
FEBCFECE
FFC9FEBE
002D0115
0116FF1A
FEC9FDDE
1CF017CC
114C009E
FF2E0174
FEC40000
00570037
FFE8FE71
FF5CFFF7
004CFCEB
FE52FE18
FE09FE63
FCEFFE40
FD9BFE51
016DFDC3
FED3FCD5
FFF50014
003CFF6C
FF87FF94
FC3EFE21
FD62FEEC
FEAEFDEC
FFA2FF09
0040FEFC
FE9AFF28
00990EC4
033CFFE6
001DFFFA
0003FFFF
0023FF66
00ABFF62
012B01EE
FFC7FE56
FF7F00B0
FF2C0045
FF0200B0
FE8C0052
0046FF30
FF1CFFA2
FF6D0006
FE8CFEAB
009DFFCC
FF03FFF1
FED00087
1510FE35
FFC51A14
016C0FE8
017FFF56
FFF0FF4E
FE42FEF9
FF13FEBF
FD0DFF42
FDF6FEFA
FE96FE83
FE9AFE1B
FE71FD28
FE75FD16
FD010240
007CFEF5
00330092
00410023
FE23FF7E
FE73FD58
FE76FDD3
FF1BFF23
FFB70003
FFA20181
0CE2FEA4
0040FFE6
00000363
FFE3FFFB
0003FFFC
F6BAFD94
FC69FC9D
FCFBFCD0
FD26FD5D
FD25FCE8
FD39FDC6
FEE5FDE7
0848FBAC
FC03FFBB
0FF2FE75
FE11FAD0
FC42FFE5
FE5AFCC8
FD7DFD31
FD1901D4
FD9DFD85
FE52FD8F
FDE0FD8E
FBB9FED9
FDFEFD33
FF36FDA2
FE18FCCA
00B2FE4D
04AAF7E6
053B0918
0CD80285
FDCE036F
0756FEB6
FB4801F7
FC3FFD9E
FD7BFD18
FC5DFD3D
FE37FCD3
FCF7FE13
FE0FFD71
FE6EFBC1
FD06FCF0
FC24FDA6
FD5400B6
FE910A48
0002FF10
FFF8FFF7
FD0D0000
FD88F750
FD54FCDD
FD89FCAE
FC84FD2A
FE20FCFD
FE17FD55
FBE0FEDF
00740A42
FF46FB97
FAAB1088
0032FDD7
FCCEFCDA
FE1BFE0E
01CEFCD0
FDC9FC90
FD9AFDE5
FD950064
FF02FDF5
FDD1FC2E
FDB5FD61
FC8FFE36
FE96FD36
F5C8006B
0AFE05D7
03C70506
05240F2E
FB0EFC3E
011B08EC
FD7FFAC7
FC3AFC6B
FD1DFC6C
FC8BFC3E
FDD8FEBC
FD8CFCD9
FBA8FE12
FC57FE4B
FC92FCA4
0008FCB6
09AAFD7D
FF98FEB5
FFD30009
FFFCFFF6
F690FD01
FD8CFE2D
FCF1FDC9
FD42FDB4
FCDFFC9B
FE13FE8B
FEBAFE27
0C28FBE4
FB3700D1
10C0FF83
FD84FADD
FD740057
FEBDFD62
FDDBFE2C
FCB002ED
FDD4FE02
01FFFDC0
FE5BFDC1
FD34FFAE
FDD6FE5F
FE14FEE4
FDC5FC56
00C2FEFC
0706F2E4
05560C96
114806A1
FCED063B
0ADCFAE6
F925FFE6
FD7AFD3D
FB8EFB65
FCC9FD4A
FF17FC3A
FD57FE7A
FE45FEB4
FE5BFC4B
FCD5FC5B
FD55FCE7
FDD00036
FEED0972
0000FFC7
FFC0FFEA
00240010
10880414
F322F8D9
FC82F889
FB07F893
F91EF6A0
FAF0FDA0
FB58FA66
FC74F65C
FA89FDCE
F958F9A0
FA81FAD4
FA35FCA0
F8E4FAAC
F5A2F8EC
F758FB41
FC5DFB18
FB49FC2B
FBBFFA37
FB19FD37
FB4CF94E
FB5FFD31
FA79F865
F96CF9DC
FA30F3BC
F809FF8C
FDF7F989
FCC1FCAB
FD8CFF86
F504F712
F8E4F74A
F67CFA0F
F981F947
FC5FF648
FBBAF9EC
FB8DFD82
FB97F9B3
FA31FAF1
FEFCF7DE
FD11FA3C
FD69FA33
FFEDFF54
0001001A
04C20021
F9FC0E02
F8C9F770
F931FCBE
F85EFBD1
FD59F9FC
FA95FB07
F79CFB58
FE07FCA6
F9BFFB60
FB3DF95C
FC5CFA7A
FA64FA7A
F9AEFB9D
FD90F966
FC26F858
FBF1FC1D
FACDFBAD
FDE3FC8B
FACBFBB5
FD17FC64
F992FADF
FAD9FB09
F48EFA6F
FF20FAE6
FA21F81A
FE44FE47
0138FE78
F726FDE9
F841F77A
F9E0F928
F8F6F98D
F827FA61
FCCEFD09
FF39FC2D
F9FAFBB6
FB86FBB2
FA1CFA05
FABAFE89
FACAFDD9
FF27FD98
0052FFDB
000DFFFF
121005ED
F8D8FC19
FD64FA1D
FD01FBC2
FC31F9D0
FBAEFD00
FBEAFB57
FCB4F8D6
FC58FE56
F9BFFC64
FB07FBB1
FB06FC8C
FB79FB2A
FA6CFA80
F960FD55
FCBAFC52
FC49FC09
FCDFFBA2
FC1AFD0D
FC12FC7F
FB87FC23
FB16FA48
FBDAFB8A
FB98F62E
F864FF52
FD01FAE1
FFCDFEF5
FD5003DB
F879F772
FA82F7A8
F834F93D
FD77F96D
FCEEF87B
FD2BFE70
FC3FFFA0
FC39FA44
FAACFC0D
FE34FB7F
FE93FB5C
FDBEFB8E
0000FEC2
00050002
FFFF0000
FE31FE5B
FD7EFDA9
FE33FCF7
FFB3FD5D
FD4DFCC4
FF2A0083
FED9FF4D
0460FEC1
FFEF0159
FE02022A
FF01FFCC
FE86FEB3
FD77FE8C
02B60286
FF490358
FE5AFEB6
FFA7FFA8
FDF3FD97
FFB50000
FE6AFE88
06DC03F6
FF09046B
0215FEA2
FECAFF5C
FDCB01FA
00ED00D0
FDC5FDC0
FE9FFCF2
0040FFDF
FDE9035F
FFF9FFD1
006300F3
FF09FD4C
FED3FF4D
FFC9FD7D
04B7FFD1
0017FF7A
006BFF03
FF0A2E78
018A00B7
0012043A
FFFBFFFE
FE5DFFFE
FE34FDFF
FDBBFD78
FD2DFE80
FD1FFF8F
009DFDE8
FF82FF78
FED2FEA3
01FD04B4
0131FFE7
0032FE5D
FE20FF08
FEC8FF40
011AFDFF
02F502F3
FEE7FECC
FFBFFEBB
FECA0021
0049FE09
FE320012
0458FE85
054F06F3
FEC0FFC8
00F102F3
01F0FFA7
0101FDDD
FE6A015F
FD4DFEE3
01B2FEDD
029F0034
FFD50064
0079FF6A
FE1C0068
FF44006F
FE8AFE06
FF00FF6A
00B10339
004DFEE1
2FF80181
0140FEC2
04E3004A
001F0011
FFFEFFFF
FE40FE5E
FD0DFECD
FEE8FEDF
FFA5FDA0
FF5BFD97
0033FF8A
FE8CFF8A
0213FF05
FFEB01F7
FE910067
FFE30035
FFB7FE1B
FE63FF2E
01C1FDC2
FE29031D
FEFAFECF
008BFF65
FE03FF06
00090051
FEA1FDD4
050B023E
FECF0319
FF68FD68
FF8A011F
FDDC0145
00A1000E
FF25FEC2
FF36FDBF
012502F9
0584025E
013DFFFB
FF9EFFE7
013EFF23
FE07FEEF
FF27FF11
010EFF06
FF7200F2
01CAFFCE
FE2E29C0
FF7D00DF
000003BF
0028FFE9
FFE6001D
FE10037D
F73EF59A
F7ACF6EC
F586F76A
F390F72C
F77AF9D4
F98BFC66
F56EF7F8
F5EEF4EC
FA80F646
F7F0FA71
F798F826
F7DAF7B0
F720F87E
F432FA25
FB6AFBAD
F8F0F7F8
FB9FF8BF
F74EFC7D
FA99FA0D
F990F71A
FD16FAE4
FC7CFF61
F947FA27
FF29F864
FC9FFB96
FB41F8AA
FD6DFC4B
F74EFB9A
F738F5B6
F25EF20A
F712F48C
FA4BF6FA
FBDEF9F4
FA10FB6F
FA63F7BA
F7AEFB4C
F6F8FA10
F9C8F917
F99DF576
004DF99A
0013FFE0
FF8E0018
F7480BAC
F7E2F6C8
F938F9F1
F7EAF756
FABDF628
FD00F84E
F841F9E8
F69CF6EE
F744F668
FB1AFADE
F8D7F89F
F898F867
F7FEF7C0
F6ECF6A6
F9AAF568
F872FBE9
FA00F8EA
F9CEFA7A
FA07F7CE
F736F8BB
F9B5F9EB
FC3BF9FF
FDDCFAE0
F852F868
F96AFC89
F77CF932
F84FF8E7
FA22F907
F76AF60E
F4AAF99B
F65E01B9
F8B9F798
F8B1F9C3
F952F996
FA7EFAD7
FA6FFA8B
FA94F91B
F8A9F7C6
F67EF9EA
F955FA93
008B0079
FFF1FFFA
059CFC1F
F9B9F927
FAF3F9DD
F895FB16
F848F93C
F9B5FB75
FAC7FD96
F8D3F9D0
F76CF807
FBB8FA2C
FA6AFC18
F9DDF9A0
FA3FF9BE
F96EFA36
F780F877
FC77FA8A
FAB0F9E2
FB83FB4C
F985FADE
FA18FCBD
FACAF8DA
F9D4FA63
FB0CFB1C
F884FEB5
FC40F9D3
FAFCFA22
F856F8DF
F8EFF748
F7F2F896
FB11F924
05B5F5C8
F9F3F7FA
FAB3F8AE
F9E0F999
FBFCFB0B
FB69FB08
F954FA7E
F949FA69
FA8EF831
FBB6F821
0000FA40
0009FFFB
FFFE0001
FF4AFF53
FF740114
FCD8FDE4
FE1EFCD9
FDB6FE29
015B003F
FFE5FD81
FDD4FF66
FC8DFED9
FCA3FD83
FCF9FD10
FCAAFC60
0098FCBA
0277FDF5
FD8200A2
FF18FB79
FD1FFE07
FDB1FBFD
FF8EFEE6
FD97FBF6
05F43698
FE8C09E4
FF690276
FF9C01A1
FE6A0141
FD02FF17
FE0F0018
FCE7FEBA
FFACFFE2
03CEFFC4
031EFD11
004FFB28
FD6AFD5E
FED9FC84
01010054
03FAFE0F
FFDB005F
00D7024F
FE1603EA
0208FF8D
000203A8
FFFF0004
FF2A0001
02AA0098
FE3D001E
FD32FD1C
FEBBFDAE
FE5AFE38
FD4C00AC
FFECFECB
0046FE27
FDBCFDC8
FD37FD4A
FCD7FD53
FCADFD07
FEB20144
01F4040E
FE3DFDD1
FF38FFB7
FC19FE09
FFC1FE6D
FC8300E6
35A8FD90
09C004CE
0454FFF7
00DC0132
007A0112
FD28FE95
FFA1FE0D
FEF8FE0A
006AFB99
FF0FFF2E
FCD90398
FB960273
FEFDFFB3
FEBDFD7C
006EFF79
FD8C01A1
00DF04A9
040101C6
042DFF0F
FFD1FE0C
03D0016C
000AFFF0
FFFE0002
FFF3FF2D
FFEA0551
FDEDFE93
FDE0FDCC
FEE2FEAB
0054FE48
FE92FDD8
FDF5FFCB
0012016B
FE70FE10
FDD2FE1E
FE16FDBC
00D2FDE6
0508FE7B
FE2201E3
FFC40000
FFAC00AF
0033FD4F
018F001F
FE92FD1E
06372B98
FFEB0948
011704FA
0249FF82
FFA3FFF4
FF14FCFA
FE4FFFD0
FD0DFFD5
001A014F
0319FEC0
029DFD03
0068FD08
FDD20012
005B0021
0048008D
01B1FDB4
07760279
FDED03DD
FFC8033A
00DC01B3
00000166
000F0002
00020003
FDFF00F2
FF33FDC9
FD8FFEF6
FE68FEDD
0005FEA9
0177FF1A
0082FF24
0166011D
04CD0804
101CFFA6
020D05C8
00472370
FDCD00EF
FE37FF5B
0107FD78
FFCC00D5
0191FFF8
FEE1FD09
0010FE9C
FE490302
FE8200CF
FE29FEE7
FE6AFF53
00710041
FE1A0080
02F9005F
FF9300A7
FFF00070
FC5AFF70
FEC6FFA9
FA44FF5B
01D2013F
FE3FFE64
FF1EFDDA
FE64FF81
FF190055
FEA4005F
FE1EFCB6
FE3AFFCF
FF3AFDBD
0001FEDA
00050013
01270003
FF5AFCDD
FF320090
FE30FDB3
FEC9FD6C
FE77001C
FED40058
0234FFDC
07F30207
007F04D8
0637101C
23200203
011FFFF7
FF9EFDA1
FDD7FE53
00D40154
FEE9FF8B
FD000115
FE9EFEE8
015FFF72
0076FEAF
FF23FEC4
FFA1FE99
0038FEB4
004D002D
FFFBFEE3
005401ED
0195FFB3
00830068
0082FE59
000DFF66
0091FB36
FF160111
FE69FE62
FF61FF5A
0069FE9A
0165FEEC
FD27FE6F
FFD1FE43
FDEEFDF4
FEAAFF0E
0019000E
00030002
FC810157
015AFFDB
FDB0FF64
FDC3FE27
FFD6FEDC
FF14FE41
FEDCFE8F
028C0207
052307B1
104401E0
016C0584
FF072148
FE1A00F2
FDC8FF74
00B7FE0A
FF340032
FFBDFE63
FEEAFD35
FF4DFE7B
FEE3007F
FF03FFDA
FEA3FED9
FEF0FF92
FFBF005D
FF170002
0225FF68
FF4BFF56
00F80214
FF520096
00270107
FC3D009C
FF9DFF76
FE68FEED
FF75FE37
FE88FEA1
FEB3FF9C
FE1C01D0
FE71FD9E
FE3AFF91
FEE1FE06
0000FE87
0014FFFA
FFF7FFF9
FD13FECC
FDF4FCC9
FEA50091
FE4CFF7D
FEA0FE84
FE3DFD90
FEFDFDA1
0189FF1F
FFF9FFD5
FE74FFEC
FDE1FF29
FE80FE3F
FE17FDB3
FEC1006E
0134FF07
FF16FEC0
00D3FFC8
038BFF82
FE8AFCFD
00ED00D3
004DFF17
121401BB
1AA80F3E
FECFFFBB
FEDEFFFC
001A0014
0072FFF4
008DFDBB
FC6B0033
FFFDFF54
047DFF30
FFB9FE6A
009B00FF
FFA6FD30
FF030081
FE9D0113
FFA5FF6C
003FFC53
19140043
048AFEFB
FFFD0FF4
FFFA0020
FEC60001
FC4AFE23
0045FE90
FF72FED3
FEFDFE36
FE4BFE69
FDFCFE49
FF81FF23
FF130180
FFC5FFAA
FF56FE98
FE42FDAC
FDD1FE37
0082FE7E
FF90FEC1
FECD0187
FF4FFF39
FF7EFDEB
FDFC03E0
FFB7FE5B
FF9000F6
029F00BC
106C137C
007E1B08
FF2FFF6C
FF23FF68
FFB4FEB4
FF03003A
0055007B
FFE5FDBF
FF490003
FEF204E3
00D2FF58
FE2701E4
02A20024
0271FFFF
01DDFF74
FE59005A
FFC900C5
FF70189C
0F4A04D2
000BFFFC
0004FFFB
FD5BFF1B
FF20FD39
FEB00024
FE6EFEEF
FE7BFE84
FE6EFED5
FF32FE34
01B6001E
FF20FEAB
FEACFF53
FD85FEEF
FDD7FE5B
FF24FE31
011C0017
011F00BF
0016FE46
FD6CFE59
0450FF97
FF5FFEB3
0140FE87
0321011E
11540511
17480EDE
FF1D00EA
FF26FE6F
FD4CFDFE
FEE0FF54
FF43FEBF
FFED0101
00C30082
0358FF21
FF34FF79
014F0186
0052FF22
008D0236
FFC30400
008D031B
00F9003D
1638FFC6
038DFFE6
00000D96
E2D00053
07F30036
033C0585
FE0DFF37
FE0100C2
FE1FFE5A
FEB6FE52
FF4AFD75
FF19FDFD
FDABFEEA
FEADFE04
FDDDFFB2
FEADFE17
FE5BFE49
FCE6FE9C
FFA6FD91
FFA7FFA0
FE6FFE85
FE5FFF30
FE52FDD1
FF27FF57
FE65FD2E
FE8BFE98
FE43FE6F
FD1CFE84
FE8AFEC9
FED2FDBD
FD8CFD7F
FE37FDF4
FD96FE75
FEA2FE8F
FD73FEEF
FEB90005
FD6DFF1C
FE1FFE62
FDC6FED6
FE26FECB
FDF1FF36
FEC6FE19
FD36FE9A
FF2FFE3D
FD97FE96
008CFF4D
FFE7E424
06220499
FE960011
FFF0FD3C
FE53FDA8
FD72FD54
FD91FE16
FDE5FE7F
FF30FEF1
FE29FD5E
FF13FEB2
FDEAFE07
FE3DFE83
FE29FE46
FD0FFED0
00D600BF
FE33FF8A
FF33FD56
FDEFFD96
FDCEFE60
FDEFFE0C
FE80FE82
FE1BFE1C
FE22FDCB
FE63FD14
FD99FE63
FD83FE7A
FDFEFDA6
FE15FDF3
FE36FD26
FEE4FF2F
FF9CFC94
FEB6FE99
FE4BFD29
FE52FE12
FDC9FE0E
FE75FE12
FE3BFDBD
FD47FDE9
FE51FD89
FE43FE7F
FF16FD6C
E3DC001F
033FFFDA
00300804
FC0EFD13
FC8AFD6B
FBA3FD7C
FC23FBC0
FDAAFD72
FE12FDB3
FD64FD30
FEA5FE4A
FDBFFDBD
FDD8FDE7
FDAFFDB8
FE1CFD73
FE1EFBF2
FECEFE48
FC6DFDD6
FD58FD72
FD3AFDB1
FD34FD58
FD31FD9D
FDF4FDED
FD37FE61
FCAEFDB6
FDAEFCFE
FDC4FD83
FD65FDB7
FDF0FDE7
FDD0FE69
FE72FE1E
FBDCFCD9
FBC6FD18
FCEBFD8F
FE0BFDE2
FD2EFDF0
FD7EFDAF
FD90FC31
FC74FDD1
FDCBFCBA
FD98FE8E
FD36FE07
0000FDC3
00140009
FFFA0004
F6860039
F166FCCB
00FEF8B7
FE06F686
FCDEF482
FD3E0004
F902F9DE
FDB3F2F6
F8A8F93C
F99EFE21
FA8CF921
FC1EFA0B
FBBEF962
FA1BFC19
003CF806
0318F92B
F81DFBE9
FAA2F65C
FD0CFABE
FB73F96E
FB09FACA
FA70F93B
FBCFFBF2
FC27FB85
FB9900F5
FF6DFAD0
001AFDEB
F5CAFBF1
ED20FBE4
F4B0F2E0
F67AF9F9
FBD9FBDC
FB0FF860
FA86F7E0
F967F6E2
FB38FDF3
FA96FCE2
F89CF8E5
F90DF656
FB4DF75E
0010F986
0008FFD5
FFA70009
FD95F6E2
F917F414
F69E01EC
F430FD33
008CFE4D
F9E0FDD0
F5FAF95A
F9C6FD0F
FF20F807
F896F8F9
FA60F947
F9A3FBD7
F987FA1E
F94DF8E9
FA460069
FBEB020B
F78AF99F
FC05FC9C
F876FD6F
FA6DFBE8
F867FB8A
FCAFFBDE
FC88FEAC
0140FC9B
FB57FB88
FEC6012C
FCDA0085
FB47F6C0
F2CEEFEC
F94BF4FA
FBFBF73E
F8CDFC18
F967FB0F
F88FFBDD
FE97FA85
FE66FCD5
FA06FA58
F796F907
F756F999
FA05FBC0
FFC2000D
00050001
F61EFF81
F5B2FEFC
02EFFC0C
FE0CF738
FFBFF558
FEBA0072
FA44FA9B
FC8CF748
F84CF9F0
F8EC00A7
F910F8B8
FC4DFB11
FA2BFA5E
F955F9D2
FEDEFB7E
032BFB1E
FB62FD51
FE1EF8E3
FD81FCD9
FCEFFA0C
FCA5F9D1
FDF9F8F8
0019FD89
FDBCFC26
FD0201FA
0222FC60
025DFF8D
F819FEEC
F3D8FBEC
F77AF39A
F5CCF9FB
FCB4FD1D
FB9AF9BE
FBFDFA68
FB90F9FE
FD51000B
FC77FE80
FA30FACD
FAA0F910
FC64F83C
0000FAD1
FFF70004
FFFC0004
FE9C001A
012100C5
308001E7
042804C3
01020484
FF84FFD9
004E0095
FF03001C
FF480038
000A00ED
FE21FFD2
FEA2FF02
0039FE9C
FFB6027F
00270024
0223FF9B
FFD5023B
0441FFD9
03D6008A
0260036D
FF9DFE94
0287FED7
FD85FF0E
009FFFB8
FF72FDF0
FD05FD80
FEBEFDC2
FEADFEB9
FD01FEFD
FECFFF5D
00C90094
01A1000F
00AA024C
017E007F
00420014
FF95001B
FE53015A
01150206
0704FF12
00AFFE46
000D029A
FFFEFFF4
001AFFF8
00DAFFAF
00F602B3
045130F0
01B5030F
FFA8FFFD
00BEFF28
00B30088
FF64FF65
FFDBFEC4
FFA7FE5B
FF23FE05
FF17FDF3
0307FF19
FED6FE0E
FEB6FF6D
01080131
FE85FF20
FF3E0273
03490311
FEA7FFD2
FE80FF29
FEC20220
FFA2FD3B
FE56011A
FDEBFF53
FE65FD71
FEA6FE89
FFCBFEE4
FFD3FCC4
0050FE44
003E011D
01D9022E
FFF10050
FF1E00E1
008F002D
016DFFC1
015CFEC9
FEC30334
FE8707A9
027F0075
FFE40003
FFFB0004
FF060041
0432010A
2EF8008C
026B055C
FFB801DC
FEBBFF3E
005B0083
FF480122
FE61FE6D
FDE9FF35
FDF8FF57
FD87FEC3
FD82FEC7
FC6D0359
FED8FE44
00D1FE65
FEA60056
00D9FDDF
026BFE9D
FE900309
FE72FE5A
0227FDD4
FEB0FFBF
FFF4FF6F
FF24FE45
FD91FE0E
FE8AFE24
FEDAFE87
FC270022
FD9BFF6F
011C0043
02D20048
0021009B
00D2FFB3
FFC6FF53
FFB800A8
FF7F0103
037E0054
07F9FDF6
0017FE1F
000002A3
FFFD0002
00080007
032F0061
FB0BFE59
FB83FEDE
FB8BFE54
FE95FEED
0002FBDF
FE3FFC9C
00B1FC13
2EA00C00
016B033D
004503B9
FDBC03B8
FEBD00E0
FFC3FF65
FF05FF8B
FE9A05CD
FEFAFF28
FBBEFCAA
FF81013E
FE8CFF0F
FD4600BF
FC52FCA1
FDD2FE56
FF36FE28
FCFFFDBE
FC59FCCE
FEEAFE9C
FEC4FFEC
00B8FD9D
FEED001D
FDD0014F
FD03FD7A
FE3EFECB
FD8E00A2
FD530019
FD2CFEE6
FCE7FF41
FC49FE6D
FD71FBD1
FF890694
0001FDC4
0005000B
00850003
FE5A023F
FF39FD97
FE33FC1B
00F9FB37
FC3AFEFE
FC95FE63
FB9AFDF4
0BE20101
02B72EA0
03820175
02BD0082
FFE8FDF2
FEC1FFAA
FF14FEC1
04F5FEB1
FE02FD22
FCD4FDE0
0183FCBF
FE0BFF25
FEDCFD85
FC31FCFB
FE35FCB3
FC8AFDFE
FD7DFE0D
FC7BFD64
FDF6FCCF
FEE6FEC1
FC8FFE10
0023FF7A
00F2FC34
FD25FE93
FD8EFCDB
FE8AFD73
FDAAFC5D
FE0DFDAF
FF54FCF1
FC78FD0A
FAF5FBEE
0575FD24
FCFBFEBC
000E0002
00030004
02C400BA
0034FF95
FC4CFF5C
FB09FDE1
001C01D3
FC52FCC2
FD6AFCB9
0123FCB8
2D10098C
010B00D9
006002E4
FD9A00ED
0026FE80
FD36FD08
FE82FDDD
FD6C03D2
FD5DFD79
FCF8FD26
FE3AFE9B
FC89FD65
FCE0FE5C
FD2EFC0A
FDE2FDFE
FCD5FCA2
FCE9FD0F
FC74FC4E
FF17FD53
FD65FDAE
FF89FB0F
FA2B0058
FD9400D0
FDB3FC97
FCE9FCF8
FBC1FD38
FDD6FCED
FD0EFD71
FD46FF1A
FC18FC80
FCD8FBB5
FDD50392
0000FCCE
0015FCD7
FFAC008D
004CFB48
02330128
0035002D
FF64000B
FFE4008A
FFCD0174
FF80FFE4
017E00DC
00450068
00F4FFD3
FFED00C0
0054FFBC
007AFFBD
FFCE004C
009E00B9
00C80039
00E2FF47
001A007D
FFFD007F
00420070
01420188
00330183
006500BD
0067FFD3
FFBF0089
00EF001A
0001011C
008D0017
01090029
00BEFF77
FF41FF6C
00780016
01210053
007D00A6
001F00FF
FFD9FF94
FFF80067
0120013C
00250047
FFE20053
138C0046
0313FFAD
F5BCFFFB
0227FE4A
01BC0164
013001F4
030C0272
0061022F
FFD20018
02BEFFB6
00570075
0153003C
0095008B
001A0096
00A1004C
016100FD
0064001A
FEF7005B
FFF4019F
0111FF48
FF5200B9
00A00007
FF9E007D
FE7000A5
00500094
FFC900A4
FFD4005A
FF60FF97
FFF00079
FFDFFF6C
FFA4FE65
020B01D2
023402D5
0085061C
015D00E8
FF82FF39
FEF2007A
01C900B1
0114FFA4
014C0234
FF60FFF6
00520086
004A0014
00341730
FFBC0080
FFFDFB80
00D300DF
016F00DD
0214005F
017C01A5
FFFBFFBE
FF97FFF2
001E0184
00920079
00610089
008E0052
0049004A
00380080
FFC90180
00790026
00A0FF87
FFA80038
005500E6
FFFDFFAA
00160039
00560015
00340000
004A001B
0030006F
FFFC0008
00620009
FFC40005
FF87009E
00DD0082
013D01AA
023201E6
00F30040
FF720131
0090FFD8
00B2FF95
FFAF00A5
011B00AD
0008009D
0015FFAC
FFF70013
00000000
FFF70002
FFFCFFF6
FFCDFE15
02AFFF73
FE34FE33
FDAEFEFC
FE0DFE44
FF01FEB7
FE0F0065
FFDBFCEE
01070094
FFE7FDDA
00B4FEDE
FE2EFF65
FE07FFE5
FF0FFF26
FC680034
FDA6FEBF
0236FE6E
FE7CFDB9
FE2602A6
FDF8FD63
FF89013B
02660190
015EFCB8
FF2FFE96
04E4027D
00D801CE
13E000C2
30C801EE
00FF03D1
FE76FF1F
FDF9FE92
FE1BFFB1
FF50FE0C
FCC2017C
FE8E0295
FD88FEB4
FE26FC9C
FF11F983
00C70029
0194023D
00000559
FFFBFFFA
FE17FFFF
FF380137
FE0F0178
FFF6FE3C
FE62FE02
FE4FFE18
FF9BFEA6
FE70FE40
0070FF30
FDF20140
FF50FEFA
FF2C00A6
FFC8FE59
FF9BFE69
00F2FF17
FF9AFD71
FE77FE51
FDBD0293
03D2FEBB
FE40FE70
00C5FDF9
022500E1
FDB80295
01CB00E5
0308FFB8
012F0515
00EAFF6A
02781304
038C2CB0
FFA10091
FF72FE16
000100B3
FEA3FF21
02C3FE5E
0264FD45
017BFF32
FE2EFDCA
FD22FEF3
0082FDE6
024A0008
034501DA
FFE30004
0005FFFF
00FFFE37
0014FEC0
FE08FE04
FDC4FF22
FDDCFE9E
FE7FFDE0
FE16FED3
FE52FEB3
013C001A
FE2DFDF9
FFE9FF78
FE4DFEC5
FE1EFED5
FE66FF37
FDCE01D4
FE75FF96
0132FE68
FEA9FE03
FE8C0428
FE5BFEA7
02A80031
005801B4
FF36FE67
FF8C0239
03570299
FDEE00A7
10D00127
28B000C8
00F3022F
FE14FFA3
00A6FF6B
FF21FFBA
FDD9FF2B
FDB3026E
FF6EFFE8
FE2A0229
FF55FEC2
FD4DFF1A
FE500017
0092029F
00000167
0024FFB7
00470009
0271FB53
FE94FFFF
FEB2FF3A
0013FF74
FE9AFFF0
004100E1
000A0071
018FFF36
0146025A
0092005E
003C0012
0017005D
000A0018
0005FFC6
000201DF
0051001C
00CBFFFC
FFF80071
FFBD005D
00360013
015F013E
015C0201
0203014E
0162001F
01B001D4
03D70140
013C02C6
0177010A
00CE0201
005AFF0B
FE13FDF0
00200050
0189003D
0028003D
0023018B
FFD8FEFD
005FFFF4
00C30140
00F300C0
FFD1010D
FE70012A
2AA00090
0D8E0160
FFAEFED8
0135013B
01700141
FFDF009F
FEDE00DD
0025FF38
00A3FFB3
FFB3FEF6
000DFFC4
FF8BFF71
0034004B
FFDAFFEF
010EFE8F
FD78FE0C
FF9400D2
FFF2FF2F
FF7CFF45
FFC9FF4A
0008FFE4
FD7FFFB7
FD8EFD91
FE73FDF5
00A8FE54
FE73FE72
FE66FEB0
FD2CFCFB
00C5FF9D
FF3CFE0E
00ECFE90
02A6FE33
FF4A025D
002C00E8
FE5CFEFF
FE6100F2
005901AD
0049FF70
FDF7FFE8
FE8CFF7A
FE3DFF94
FF8CFF31
005400E1
0012FD88
FE9407CA
00BBFFB5
00D100D5
FEF20007
FF8DFEC8
FEF5FE9B
FF88FFFD
FF9AFFB0
003C003E
FF52FFC6
FFD8FF60
0016FFEF
FF00FFD8
FEB70082
00F6FEE7
FF19FF85
FF1EFFC2
FF66FF33
FFFEFFBE
FFAB0006
FECFFEEE
FF09FF84
FE9FFF69
FF310095
FFEFFEC6
FE87FF2F
0086FE21
FFA3011E
FFD7009F
FE4EFFAD
FFAA0187
FFD9FEE8
FF0CFFF7
0151FF3D
0126FF5B
FF2EFF90
FE7A0053
FF59FE9C
000FFF41
FF1EFE9A
0000FF7F
00040002
0001FFF8
FFFEFF8D
FE56FE77
FFA4FEE2
009DFF4C
FE7101C2
FF2AFDE3
0054FE94
FE2AFE1E
FD6D0024
FEA9FDE1
FDCBFE62
FDF0FE00
FCFAFE9B
00CAFF6F
01BE0047
006EFCC2
FEADFE25
FF42FFB1
FDF2FDA9
FD840170
014205C3
FF65020A
FFD40011
FFFEFF74
0053013C
FF97022A
FE09FF92
00D300FB
02C001E9
011B014B
032303CA
040703D9
FCDF0281
FE77FBB2
08C4FF53
029A04BD
2F3004F5
FF56FF84
FEEF01AF
022CFF51
00020912
00010003
FF4E0001
FD10FF96
FD5EFDD6
0033FF03
02B001B4
FE28FDAB
FF00FEFF
FF3C0079
FFF7FD9F
FD4AFCC5
FE02FE38
FDEDFD5A
FDCAFDAA
0037FD67
013E007E
FD3C027B
FD6E0019
FF94FE06
FE2A0003
01FEFEE1
047FFE0F
029C00E0
FF21FFA0
FCE0FE77
FF16FEC6
007FFE79
FECFFE63
FF86FDDE
FEF6FF35
008802D4
02CD004F
03C701CC
03DB03F6
FC86FDA4
019DFE55
04110733
02710198
024F30F8
01E2FFB7
FE90FDE6
07CA0145
0009FFFF
0001FFFF
FF1FFF65
FD3FFCBD
FEF1FD5D
021E0035
FD880241
FF04FE18
002EFF16
FD60FF83
FD52FFD4
FDE5FD72
FD1CFDC5
FDF7FDF8
FCFBFD5D
FE9DFFF1
0343004D
FF70FD7A
FE15FE1C
FF8BFF21
FE7CFE3C
FE600092
00C101FC
FD890203
FD67FD36
FDB4FAE7
FD53FDCD
FD6CFE41
FD7FFD56
FCEBFCEB
02FCFE04
0039FF7F
00F50156
03EA037F
FE010475
FD8DFC68
065401C7
00DA036B
303001AB
FF4B028F
FD8901DD
FF69FE8A
00000487
FF1DFF8B
000AFFEE
FD51E2CC
00F500B6
01860057
01F0FF9F
010B003B
00AD013F
006F0116
022E0275
00F20144
01910049
00C800D0
01180180
032600EC
02EF0090
008501D9
01FC0117
01B30101
01EF01EF
00D901CB
022B0192
00F30093
019B015E
02330154
00E600A9
00BD014B
02410148
006D01CE
00CE006C
0133007E
0331012C
03A201BE
01AE010C
00B6FFFD
02BE01A8
00CA011A
002B00B1
027E02A3
011F01AC
00FF002C
004D0015
FFFD0130
FFC4FF1B
E5180017
006FFD3F
008D01DD
016801E9
00C5021E
00C00106
011300B6
023E0080
00BC011C
00AC010E
01020139
01830127
014100E4
010B01D0
01FE01D6
007A003A
00A30123
017100A3
00940147
015A0095
002A0134
00BC003A
00800093
001600BF
007E0015
0092000A
00EB00EF
FFB6FFEE
0023002A
027C0154
027C023A
015E057F
00BD021E
00BB0081
00990139
00C60128
020F0017
FFDF028A
FFD000BB
FFEF009D
00EF001F
FEEBFF9F
00080002
FE99E5CC
01BA0020
016D009C
0187012A
008A00C5
009D0033
002300E3
00BC01CF
00B30093
00F700B8
00F000B6
009F0126
004B00F6
001900E7
003100B7
00850057
0035006E
00550106
00630006
006800E7
FFE70027
0021010B
0005002B
FFC4FFEC
FFC5007D
002F0054
FFAD0063
0070FF4A
00FE0004
01290217
04390225
01780159
005C013A
0038005D
00F9002A
000400B2
019E0174
008DFFCE
00560005
0001FFCD
00000046
FD21FFE4
0019000E
049CFFAB
06110596
0496066F
059F04D7
061705C1
05740397
04FD038A
051504C5
058806D9
03510407
04EE0574
047D03A2
053D04AA
03040361
054D0446
044602C4
024F0378
03D40251
060504A5
045A01E4
042C0425
042D0500
052F05D1
058205AC
034A0455
03C00368
04370381
045605C7
04E005B3
04D105F1
055406C8
04BA0683
043F03E7
04DE0457
021B039D
FFFE06CB
04520529
041703D1
036407C6
0301051D
000804B2
FFF103BA
0147FFF7
068004AB
06820564
049B04BC
05530526
035905C8
0343051C
065C04FE
067604E7
05300606
05A90389
032D04AE
04800420
04CF05C8
03AF02F2
02DE068C
03AB0348
01DB01D5
039602F8
030205B5
04140417
0540041D
044302F6
061B03D7
035E04DD
0254022D
020D033A
041F0277
05C60297
061F069D
067D04B9
05E70820
04750507
029102C9
020403F9
063701DF
05130030
03AE03CB
06E80463
057C0326
04970277
0455001D
FFFF0004
052DFEEC
068C0636
0386068F
045B0390
04C60494
03E0021C
03D80268
04E806AD
062305A8
02EC0562
03D304BB
02490239
047702E8
0339051F
06B50206
01CE0247
00CB02A2
00C400E5
04B90259
02850393
0278033D
0189043D
01D9027E
03C105A4
015E0238
02480198
00D70074
01C202F2
08200535
04A8057D
0944066D
045C04D2
01A103E7
02BD00A3
010C00D0
007B04DB
036D0471
041E030A
02AD061B
014504A3
00000329
FFF70006
FFFFFFFF
EF00049B
FCD700D8
FEE0F84B
FD5908CE
FFECF913
FBD5FBE2
FBC5015A
FBCE01D2
FB9BF998
040E041D
F801F9DB
FA6B02F8
FD5F0199
FC270536
FA00FB4E
FC9EFE03
FC1FFC21
FE58FABD
FBF6FC45
FBBBF937
FAF1FBD8
FABAF977
FAD1FA7F
FA5CF46C
FA79FF08
F9EAFB9F
FA8CFC31
0150028E
F59CFD12
01A6016E
F9A6015B
070AF835
FBF1F5FA
0498FB1A
FD12FA64
FBC10066
F6920352
FE9DF84B
FD50F8F8
FD92F9AF
000CFC47
0000FFF2
04D2FFFE
00BCEF70
F756FB91
0703FD14
F928FC73
FB580084
01D0FBC6
0109FB62
F8B0FA82
037AFA22
F98503DC
02F9F78E
016AFA74
0354FD56
FB7DFB98
FEA9F9EB
FC64FC2D
FAA5FC73
FCC1FDE7
FAEEFC67
FB4BFB16
F9E7FB8B
FAF3FBEE
F57AFBAA
FF4BFB29
FB80FB57
FCE5FAB6
0116FA9D
FD9C020B
0101F4AE
008E00E9
F7D4F8A6
F4F6072F
FB96FCEA
FAE003DD
FFCFFCF8
0321FD0B
F937F634
F986FE7E
F9A7FD18
FC83FD99
FFC9FFEF
00000002
ED8C04D2
FC0A0043
FBDFF7DA
FB48048C
FFA5F974
FC08FBE8
FB100210
FAE80054
F895F801
03AF01DC
F7ECF97E
FABE02CA
FF1200F9
FD970180
FA62FCB0
FCAAFE9F
FD2AFCA9
FE7EFAF2
FCBCFD8F
FB6DFC44
FCA0FBE2
FC77FA9A
FC5AFB6C
FBB5F680
FB5EFF7A
FBA6FB23
FA62FD42
031B00B4
F500FD79
00BFFF64
F815FF20
0631F839
FD70F3F8
0358FC80
FCCBFB52
FDF5FE67
F7300328
FE86FA11
FCADFAC1
FDA3F9EF
0000FCED
E7E80024
00CA0040
FC5FEEA0
024602BE
0032010A
0031FF7F
01B7006B
0022011C
FF5DFFA2
00F90504
016100B5
00DA0048
005DFFCD
00240072
008BFFDD
0368FFFF
0221024B
0275FFA6
0106000F
00D10037
014800A2
0043007F
00AA00DB
00B9016D
019502D1
011B0100
FFED0099
0177FFAE
FF0A0180
FFDC002B
028EFF31
01040257
05160334
FFD00150
FFE9FFFF
025D010D
00430013
FE63024D
0107031F
00C40163
00890194
FF6FFF5B
FFE00004
002BE4BC
EE2C008A
0197FD31
00020312
00040030
001E003E
006F00B6
FF90004A
0361FFCB
009B0024
00BF00F5
000F00E2
005D00B4
0045FFF6
00820113
01AB0220
FF6C0184
FFF100F6
0079FF9D
FF890098
006C001A
0016000E
010900D4
01B1FFA8
00B30007
FFE30088
FF9FFFD4
00F500AF
FFFCFE7F
FFB3FF6C
01A802F2
021B0197
00E00321
00A800DD
0004FF6E
FF6900FF
010F004F
01ECFE88
008901B2
00200050
FFEDFFC2
0019FF13
E06000F7
008BFFE8
FEC8EDD8
01D70005
FFC0FF07
FFE00013
FFCE0027
FFC2FF9A
FF6FFF55
00120220
00F100FC
0061FFCB
0033FFCF
FFB6FFF2
00A30012
017D005A
00980089
0052FF41
FF11FFB0
000A004D
FFBAFEEA
FFFC0013
00F6002C
FF9D00D0
000D010D
0020007E
FFE7FFCC
0060FFAF
FE9E006C
000800C2
020A0071
01D50123
016500A0
011E0033
FF2B0098
002DFFB1
FFB3FF67
FED1FFDB
01200158
FFB90059
FF4DFF9F
FF23002E
0000FFC5
FFEAFFEB
0014FFE5
DDB8010B
F54AFC40
F8D6F92B
024AF780
FEDDFE07
FD23FE54
FBECFDE8
F710FAF3
F879F732
F838F7C0
FD01000A
FD2DFF07
F857F680
F908FA87
FD41F9C9
FCA9FB9C
FAD9F941
FB0EFDEC
FDBAFA53
FDA0FE11
F98CF6EE
FB38F57E
F710F8A9
FD32FCF2
FCB5FAFB
F9D5FC57
FE76FAAB
FAE5FA07
FC71FF58
FFC5FBBD
F79AF71C
FF62FF25
F9F6F977
FA53F975
FDD3FA43
FD65FB78
FD33FA0D
FE58FC0B
F96CFB18
FB9EF7BA
FFFDFA7E
FFE9FFB4
00900012
FC52E4B4
F942F5E0
F7C2F8A0
FCC1008A
FEA6FE35
FE35FDC8
FBEAFC3C
F6BAF778
F728F87D
FFCCF8F8
FEBFFC9E
F726FD4E
FA8BF7CE
FAE2F929
FCE1FE10
FA5BFD70
FD93FC38
FBCEFC08
FD61FD19
F823FEB0
F662F9D8
F9EFFBD5
FBC5F8A9
FC75FDE7
FD37FCE4
FB2BFB17
F9E6FE54
FE32FB80
FCC6FB2B
F74AFF7A
FF30F914
F96AFE41
FAB7FB0E
FB05FB7D
FC81FCAF
F9FCFDA8
FAFAFCFE
FA3AFE3B
F82EFA1B
FB01FC3F
FFC80000
0018FFF7
E9F4FEED
F977FC70
F951F96A
0041F981
FE6FFDCC
FED7FECE
FD01FE87
F8F9FCDF
F939F6E4
FA4BF7BE
FCF0FFA4
FD6AFEC4
FACDF859
FB63FAD7
FEA5FCC0
FDEDFDD3
FD4AFBC8
FD44FD46
FD18FDE4
FEE8FC31
FAC1F9F1
FC06F8DB
FA7EFB92
FD42FD78
FD39FCCF
FB75FCDC
FD56FB89
FB6DF982
FA17FC44
FF2FFDF5
F90AF835
FD59FEE2
FC21F96C
FD68FC1A
FCE7FC67
FE2DFCA0
FC95FB61
FE5DFAF8
FB07FB73
FD0DF978
0000FC17
FFE1FE06
FF8DFF3D
004DFEC4
00DF007D
FEF80019
FEE6FE86
FE78FFB2
00150161
FFE4007F
01A7FF11
007D00B2
00A4002C
FF880044
00800054
0020FFFD
FF56FEB9
00020092
001E0099
01CCFFC8
000A0089
FF9C0074
00580001
009100BA
0083020F
0085FFF5
00F0001A
00D10135
018401AF
005C01C2
01EE0025
FFF90057
0008FED5
FEA4FE72
FFBC0039
029E00D9
FFCC00C3
FFA20232
00AEFEC4
FF21FF32
0171FF3E
006B00C6
000A0069
1F440058
0A96FF8C
027D006D
00D7FDD0
00F00005
011101BF
014001E9
FFCB01B6
0050FFFD
014DFFF8
0011FFBB
00A60035
0045001E
008B0097
00860047
01A2FF8B
FF52FF1D
FF8F0043
00410076
00E4FFA0
FF8C005D
0088FFF0
FEA60052
FD48FF46
FFBDFFEC
002D0047
0003FFD3
FF77FF9E
FEE5FFF8
0041FF91
FF0CFEAF
01D2FF02
01F20063
00390476
00DF00AF
FF23FF7F
FF0700B7
014D00D7
01230010
FF22011E
FF2BFFBF
FFA0002A
0014000F
FF5FFDB9
006500D3
FF3001F5
00080045
01170061
0064FFD2
006AFF8A
FFF7FFA5
FFF80048
FFAAFFDF
00580020
00010047
0073000F
0042004F
FFA80080
FF3900F9
0082FFAB
0021FFC6
FFFA0033
00200078
0010FFF1
00280036
FFE2FFA0
FFE6FFB0
0000FFBC
FFD1007A
000AFFF2
FFF1FFF8
000EFF45
FFA900D1
00380036
FFBA0032
FF4F00F3
0044FFE4
FFB30086
00E7FFB5
00B0FF9A
FFFF0018
0002007D
FFD3FFAA
0019FFBE
0007FF83
0000FFEB
FFF4FFFE
001A0003
FDA20054
FF9DFFC1
FF51FDDA
00BA016C
01BB0096
0E7A0225
0A30FEE7
FECCFF30
00750073
FE1DFF08
FF11FF9B
FF46FEF0
FCE5FF00
FD5BFE61
0119FF88
FF1600A1
FF5A006B
FE86FEDD
00D2FF83
FF32FFB7
07E60946
000C0A4E
02BEFEA6
FEBCFD05
FE70FEA0
FF4BFF0D
FF6AFE87
FF0AFEE8
FC080195
033AFE4F
FF8FFE59
FE9B0F96
001AFE84
0028009F
014BFE39
FE8FFFA5
FE8801E4
00AA0102
010A0EFC
FEE5FDCF
0005038C
000CFFFF
0070000F
FF3EFB17
FE39FE8F
0119FFBC
003500AF
02D80061
FF450EC6
FF2F0AB2
FF40FED3
FF3A0055
FF16FE1A
FE9EFF54
FE6EFF24
FDC0FD1D
FF70FCED
0038005A
00ADFEAC
FEA5FFA8
FF81FE91
FF570043
0A36FEF5
09FA09C2
FEF0FFB3
FBFE02BE
FFD0FDF2
FFCEFE11
FE36FEC1
FE2EFEF6
FFF0FF2E
FE00FBF9
FE680149
0FD004A7
FCBEFE68
FF84FFFA
FE5AFF7F
0011011C
FFD4FF02
FD77FE9D
0E36002C
FDDC0122
039FFEB9
0013FFFA
000F000B
F918010A
FD31FEA8
FF39FEA1
FFD10004
FF6DFF3B
0E920444
0C08FFC4
FFBAFEFA
0015FEBF
FE3DFF14
FF33FED8
FEF1FE89
FE12FE1C
FDFEFDA5
0056FF50
FE8C0031
00810094
FE16FEA3
00A7FF78
FECCFF42
0EEA0FC2
FF6F115C
01BEFF65
FDE8FDED
FED40065
FEFF0058
FF09FE51
FFA1FDD2
FAFDFF55
FE9CFD0B
FF42FDA3
FE840FD4
0044FAC4
FF81FFDB
00930001
0041FF03
FDE3FE53
0102FE24
00D0132C
FF06FF88
0000023E
002EE844
FFF004B1
FF9206E2
FE7DFEE3
FF6AFF95
FFB7FF12
FF7FFF64
FEEAFE4A
FF2AFEBD
FEA5FF6F
FF47FEC7
FE66FF4D
FF13FF0D
FEF0FF23
FE8BFF19
FE3AFE80
FED0FED5
FEBFFED7
FE7EFE95
FED6FF0F
FED2FEE9
FE8DFEB8
FE94FE70
FF1DFEAC
FEE4FEEC
FEABFF01
FEE8FEF6
FE2EFE95
FEE8FE5D
FE94FEAF
FEBDFEF1
FEF10029
0056001A
FE80FF3D
FEDFFF65
FEFBFEF8
FEAFFE90
FE80FF45
FF62FF20
FE83FEC2
FF23FE86
FEDBFEF7
ECCCFEC9
03390076
0310FFE3
FED2FF5F
FF21FEFC
FF0CFF0B
FF52FF2C
FE69FF6C
FEB8FEAF
FF62FEFA
FEAFFE9F
FF29FEF7
FEF8FE7E
FF22FF11
FEC4FEE7
FF22FF17
FE97FF1F
FEFFFEE3
FEAFFF03
FEFFFEDF
FEDFFED3
FF22FF23
FE0CFEF5
FE65FE36
FE70FE89
FF48FEB0
FEF5FE94
FE82FEF6
FE5AFE65
FE7BFE6F
FEDCFED6
FFC7FE56
FF43FE78
FF12FFAE
FF30FEBF
FEB9FF0C
FE84FEB0
FEE7FEE0
FF26FEB8
FE93FEFE
FE69FEB6
FEDFFEC7
FE76FEDB
0085F9D0
FF52FFA4
FF0C1214
FDACFDCC
FD61FD9A
FCC7FDE0
FD77FD1B
FE7AFE9D
FEDAFE6D
FE77FCD4
FE5AFE02
FE65FDDB
FDFFFE25
FE3FFE51
FEB5FE15
FF4FFDEF
FEB7FE49
FDF9FEAC
FEEFFE39
FE41FE56
FEBAFE9E
FE5BFE1B
FEB9FF96
FE07FF2C
FE59FE89
FDF2FE6C
FE78FE8B
FE42FEBE
FE40FE4C
FF8DFDDF
FEE3FEB8
FD6BFD01
FA83FCD9
FE75FE6D
FED7FDEF
FDC4FE70
FE06FED2
FE88FDEA
FDA5FDED
FECDFDF4
FDD6FF6A
FE60FEF0
0000FDFF
FFF6FFDC
FFF6FFFE
FF6FEB7C
02F0001B
00F70141
012600DD
00C9FFE8
00570110
008100C8
02FE0158
01C20139
0121017F
01A3FFF7
00ED0108
03CD00FF
026F00DD
01590139
014E0117
01690095
01F90114
002C00CD
01410242
00AB0186
00940164
00C50071
00FF0009
009900C9
012B0136
00B001C9
0187027F
01610026
023B041D
05490264
010C0108
00A9007D
00E6019C
00F7010D
007C00B4
01DE01C2
01390045
00990014
00CB00F6
003500A8
FFFEFFFD
EBE8FFF3
FFFDFF77
019C01EF
015F0163
007A01DE
00C2009B
00A20058
018D006A
00BB0159
01530160
000500BF
00F10166
00DB00EF
00F202FE
00D90273
0156010A
006E00B5
00AE00B8
00D601ED
01BA005D
008E010D
01540085
00C100DA
FFF100D6
00AE00C7
00DE008D
00FE0091
0226006B
00270141
03E501A7
025B0114
0114043F
0084009F
012E0080
00E200AE
00C200A9
01580065
006201EA
007B00CF
007B0072
007000B3
001C0066
FFE4000E
FEE7EC28
01F8FFFA
01020175
019E0161
0028007F
004C007B
00640061
006300DB
0049FFCB
00970112
0117FFD9
00C3008F
0289008A
028300AE
008C01D1
008A0128
0051004C
01650046
006500B3
00E50160
004FFFC9
00900078
009700A8
0074FFD0
FFE00038
FFBC002E
FFF0004F
008D0123
017CFF7E
00750346
034001FB
005A009F
0033FFDF
0077007A
0058001B
003A0076
012900C7
00A1FFF4
003E0023
0088FF9C
0000000B
0001FFF9
00000001
FFFB0040
FDDEFD3E
FEF0007E
FE07FE66
FEDEFF08
00B0FFBA
FECEFE59
FFAF02B4
FEF3FEB7
FFF80193
0044FE3D
00C4FDEA
02D9FF66
FEF9FE77
FD97FD59
FD0F005D
0B9CFEDE
0BB6FDAA
013D2F70
FEB0FDE1
012301A2
FD4BFED8
FCE2FC6F
00D5FCAC
FE70FCA7
FD7BFC1D
017FFC77
FF09FD42
FD21FF79
FDB2FD34
FC05FC85
FCD1FE32
FF29FD5F
FD06FE41
FDB3021E
FE1BFD83
FD9AFD32
FFE30011
0110FF05
02E1FF0F
FFFBFA1C
00000008
006A0001
FE110004
007300AA
FF4C0019
FFCDFEBC
FF9DFF0D
FE8D01AD
0271FEAD
FF2CFF3D
015AFF26
FE2AFF8B
FDAF0039
FF850199
FFCC02FC
FD64FE9D
002AFDB6
0010FE75
FE900BB0
2C880C9E
FEBF033C
011500A2
FF9C0170
FCE3FD8F
FDBFFDAF
FD22015D
FCEDFE96
FDB0FE0D
FE6E0147
FF69FFFE
FD3AFE1A
FCD4FE20
FE16FD1F
FE32FD82
FF5EFEBA
0180FDD0
FDCDFDED
FD9FFE82
FF93FE1C
FF6100DF
FFAC0114
FB7B0380
00130004
FFFF0002
00BF00A2
008DFEB9
00A000C6
FEF0FFAE
FF65FFCB
021A0057
FE80FE99
FF3901FE
FE5FFF30
FEFB00CA
FFD3FEE5
0185FE07
0440FF84
018D014C
FEDA00A6
FF970118
09C40105
0B00FFCB
059320D0
0197FFEC
01700210
FE570046
FE29FDFE
0333FED9
FED4FE19
FE99FE06
006FFF56
0082FEC0
FE27FFAC
FEAEFE24
FDDEFD94
FF61FE12
FE7BFF1B
FEACFF61
FE510016
FF43FE9A
FEC4FE51
FF8CFFCB
011CFFC4
02ADFFAD
0000FDC2
FFE7FFEE
00030007
ECF8034F
F6EAFA26
FBF3FA2D
FBF3FB88
FC27F94F
FE13FF85
001DFCE3
0409F9DB
F908F8A6
01BEFB54
FB31FCCF
FAE9FF91
FD01FDF0
FB66FD84
FD0E0413
F8D9FB8D
0272FFA0
FC00FEA2
0298FF21
FC7FFC3B
FCB00872
F99AFC17
0052FD95
FD56F676
F68EFE7A
038DFA74
FC5D0298
07A9F744
F4D0F530
FA6CFA96
FC74FA3C
F94FFB2D
FFA2F89E
FA02FDAE
FCD90151
FCE9FA7A
FA18FAAD
0322F8B0
FABD0481
FEB0044F
FFF0FE72
0000FFE5
02F3FFFE
FBA2F0E6
FB2EF9F5
FC68FC03
FB53FC7D
0014FCFB
FDA4FE7E
FBD4FFE8
F9340453
FC2CFA4A
FCDC0121
FF58FB75
FDD8FB9C
FEF2FE18
03FCFBA0
FEECFE02
0154FAD4
FE2804E3
00C4FC73
FD0102DC
0A34FD63
FD0CFDBC
FDC8FA74
F7780128
FF7FFE2D
FAE5F734
038E051A
F7CCFD5B
F60806E6
FC05F62A
FB72FA78
FB9BFDF4
F9E2FA39
FFE7011F
020DFB2B
FBDDFD3E
FC40FDD8
FA78FAD2
05760333
05B0FBCC
FFD2FF7D
0004FFF9
00030001
F7BC0236
FD9FFDFC
FD58FD70
FDE6FDF3
FE01FD71
FFFF005C
FFF9FF0C
0302FE9B
FB96FACE
0129FD90
FC6EFD54
FCEDFFF6
0053FEAE
FD44FF03
FEFC041D
FD7100FB
04DB02A9
FE2CFEF7
027E023D
FEA5FE51
FE9F0A30
FCDEFBF8
0119FEC2
004FFBBC
F9B300E8
0582FC03
FE2B02CC
0532FBF8
FB6DF90B
FC10FEE9
0382FDF8
FD10FD21
012DFD20
FD1500D3
FE9900D9
FF0AFE95
FF64FEC4
0235FDDC
FD5D041E
002006CB
000000CC
00010025
000A0012
FA600221
01EBFEBF
FEB3FE8E
FE6AFE58
FE22FF04
FEBAFD88
FDE3FE21
00320131
01A003FA
FEE4FEEE
FDE0FE25
FE99FF98
FEADFDFA
0077FFF3
0343FF5F
FE93FE9A
FF66FF14
FE10FF68
FF1AFE24
FE3200E8
FDE10009
FFB7FC3C
FE4200A1
0003FD32
FF81FFD7
FDC3FDCD
FF15FECD
FDCAFF01
01EE03A2
FF1606E5
064925B0
FD9EFE8B
015F01BA
009FFF6D
FF16FDF3
FD7EFD73
FF530067
FF2A033E
021CFE9C
FDFA02C3
000B015F
000EFFFE
01E50003
FE70F8C3
FDEA014B
FE94FEBA
FEEEFDE7
FD41FE93
FDCBFE6D
004EFDCA
030A0035
FEBF0113
FDB0FE9E
FE81FD89
FD61FE2B
FE95FF51
FF65009C
FEAF03B7
FF07FE07
FF45FF01
FE5BFE1C
0050FEB3
FF68FE44
FCCBFE41
FFC7FEB5
FE37FDA0
FF42FFD4
FDBE002B
FF1AFE88
FF72FEDB
041AFD87
069E004C
25C0FF12
FDBA06E5
012FFDC2
FEF9FF3A
FD5B0299
FD16FF71
00F3FDC2
0488FF05
FF06FE23
014900CD
00CAFDE9
FFECFFF8
FFFD0004
F950019D
00B0FD5F
FE19FD83
FD40FE3D
FE8BFE70
FDEFFCE4
FD7CFD60
FF77001D
00570139
FE3EFDF6
FD1AFCCA
FD92FD8C
FFE8FCBC
00A5FE52
04B3FF9C
FDABFE43
FE1CFE4C
FDCCFE78
FE63FE2D
FE32FF4B
FCC8FE18
FD90FC13
FC76FEA2
FEEDFE85
FFD3FDC9
FD78FD1D
FEB5FE96
FD88FFFA
FFEB04C6
FECD0658
08262568
FE28FD54
FD91022A
0136FE15
FF07FC90
FDBCFD07
FE8400BA
FD55062A
FF45FEBB
FDEE0068
0000FF05
FFF40004
0007FFF7
001FFF5D
FEC7FEA1
FD15FEA4
FE26FE66
FECFFED6
00D8FD25
FFB0FE32
01F4FE96
FE7CFFEF
FE84FE16
FE64FE86
FE5BFFAB
FFA6FEA1
0007FCF0
FD90FF39
FE5002F7
006AFD79
FFC1FD31
FE4301A1
FD860089
FF620056
0316FF7E
003602AA
34500123
03290C04
03E3055F
056701CE
FF0801B9
FFA9FFD1
FD97FFCC
04920047
FD55FE0A
FE5BFF2B
FED10090
FEABFFAB
FE4EFE86
FE5EFF72
00360148
0007FF38
00E60172
0000FC61
FFFD0005
FF3A0007
FFD2008B
FF59FF07
FE99FD3E
0034FDF4
FD9FFF74
FE370227
FE87FF41
002C020D
FE4BFF12
FEF9FEBC
0015FF21
FEC1FE8F
FD94FFF4
FEDDFFFB
025EFDDE
FD9DFEA2
FD8D0015
01EE0002
0086FE85
0061FE01
00B3FF5C
02F1030B
03C00046
0A223378
037B046E
0121036A
02A1056E
009AFEBA
FFD9FF84
FFE2FF9B
FE200173
FF1BFD9F
0154FED5
FEF1FF23
FE6BFEFD
FF88FE5D
010CFDF0
FFE4FF58
01CD0023
FD3800C2
0006FFED
000A0005
FF21FF3B
FEF8FFE2
FD4FFFB4
FDFBFE8A
FF9C0155
02B1FDD5
FE98FE29
013FFEC1
FF190065
FEDEFED7
FFA6FF24
FE72FFEB
FF15FEE8
FF15FE33
FDBFFE35
FE3600D3
FFA2FDB6
FFFBFE14
FECA02AD
FDD5002A
FDFA0084
013E00E0
00B60331
3010047F
04B30852
018300B5
056FFFF5
FDC1027D
FFCA0196
019EFFC5
014BFFB3
FDC8FE6A
FF7DFE49
FF4C01C4
FED7FD5E
FE85FE17
FDB5FEFF
FE7EFF87
FF51005A
FFE5017D
0000FE69
006D012D
FF9EF308
0017FE94
02060208
000C00FB
FFFC0032
00A4013A
00AC026D
00C70134
02AF013F
00BE00EE
0119009A
001B00F7
011B008D
010A0142
0108FFDF
0082010B
013300A0
022D00A9
008D0112
00AE0129
007F003F
0162015A
00BD01A9
0013FF49
00E0FFF7
006F00D1
01100102
00570108
007CFF8A
0188FFE5
0219001A
012B0098
FFEA00CB
01130044
FFDF0070
0076005E
00A200B2
00F30049
01D900AC
00FF014A
00F600A0
0157005B
F3C0FFCB
FCC4FFC3
0102FEDC
0089017D
FFCD011C
008D0178
00E60108
00DD0081
008F0098
014F0199
006100F1
009A00DE
00AD0082
011D00C4
011D013D
01520144
00BA007C
00C40123
0150011D
00CF00FF
008800C0
013C00BD
01A7011D
00F40195
FF7E0178
01410173
01790120
01D401FC
00E700E6
005E010D
00900104
008D0119
007FFE67
00D40047
00E2009B
00C600A9
00480093
0113007B
018D0087
00CD010B
0067010D
00FB00C1
FFE8FF4A
FFE9FC12
FFCBFA60
013500BF
014400C6
01AC00F1
010A00AF
00510038
002C0095
001C0066
004D00C5
008000C6
00D40084
0080009F
00C700B9
002A015E
004E0023
00B7006A
006E00A4
009000ED
003F0060
006C0085
00A90004
009B0031
009F0008
00800073
00B2006F
00D30090
0008005E
00530153
000F007D
0046009B
FD050116
008D002D
004100C4
00C30056
009D0042
0054FFFB
000900F6
005000B0
006F0001
007F0024
00000048
01E9F7BE
FEE8FF51
FEF1CC20
06BC0449
02150079
027D0140
02C80311
FFCD03F4
FFE000B7
047E06A3
0283048E
025201BC
0184018A
00F50128
0489017E
03DB03B5
02090315
045EFFE1
01E5FF35
02330222
00AB0188
00EC0364
028703AE
02B802F1
04CC035F
027CFF43
FFAA01EE
05A00134
FF4A038E
007701E1
07950059
06C1046A
05BC03DA
03DA01DF
00000120
024F027F
01C70124
FE7B033F
0597047F
03B50438
01ABFFA3
018A0136
FA3F0110
FFD40183
DCE0FF15
0296FDF2
FFF806D6
01BF01AA
01C30285
01680183
001EFF8C
0556FFC9
030401BC
00C401AC
00A201DC
01070142
014300A8
0281037D
01490274
FF3D01FE
FF98029D
01420047
FFEE0195
033A007D
01740050
02300113
027700A1
FF6401F6
003C013F
00A3FF00
01080221
01C1FED9
00020031
04010509
042C048F
012D05C2
0155038C
00CBFF75
FFC5021D
021C01AF
036BFE5C
032204DE
FF2401BD
FFDC005F
00640039
FFFCF930
FF77FF83
FE67E314
03D900D9
0165FFB2
022A011A
008C015B
FF4BFF9B
FED8FF46
00950367
0127026D
00E7FFBC
0012FFCC
004A0037
01E50092
01910160
00C50154
0175FEC5
FF010024
00D400D5
FFCFFEEA
0025019B
00E500C2
009501A3
01010249
00A6FEDD
FFC3FFE5
0108FFFC
FF260026
001D0238
03CE0030
03750299
04180331
020F0065
FE980119
0190FFE2
00AFFF50
FE7B013C
02AA0247
FF88021B
FFB7FF11
FF5AFF7F
0000FFA1
00030000
0005FFFC
0157FFE1
FD20FE4F
FE8FFDEE
FDACFE3C
FDF4FD70
FDFCFDF4
FD3CFEDB
FDFF01E0
FF71FEEC
FE62FEDF
FD04FCA9
FE9DFEAE
FFDBFEF6
FF48FD19
FFCDFE25
FF8CFEC5
0D3CFE47
080600AF
010C0790
3410FD39
0073FD8E
0361FD27
FBBDF98C
0070FEF2
FEB9FC4B
FD5CFE40
FDE3FBDD
FDA0FE8C
0163FDB1
0148FEC6
FCE2FDDA
FCFFFE30
FEE2FE06
FE89FFFC
FD4BFE4F
FE3CFCD9
FF15FC0F
03A7FD19
04D8FC65
0190FEC1
FFFE0298
FFFF000C
FFD50004
FF7801B8
FEE1FE83
0013FE77
FEA2FEAE
FE74FF3A
FF33FE3C
02E5FDB3
FEFBFF34
FF66FED8
FD46FF31
FEABFD57
FF13FE8A
FE08000A
0041FF6A
FE380042
FE6AFF60
01250690
067D0812
FE9600F1
FDD13280
FD860121
FA600590
FF36FD6B
FCDFFF8D
FE77FE1D
FC9FFD2E
FE19FD7A
FD4DFDFB
FF69FFEC
FE140038
FE08FDE4
FFBDFF26
FF26FE8E
FE81FF1F
FD4BFDF4
FC9EFE6D
FE0EFFA0
FD6000BB
FEA404A7
039D0256
0017FFFF
0002FFFE
012CFFE4
FFBFFF9B
FEDDFF13
FFAF012C
0033FF92
FE95FEE0
FE53FF4D
FFDC036A
FE57FF0A
FF410046
FE02FE01
FEA7FF0A
FEA0FF1A
008B0034
FFF60428
FF6EFDC0
03C0FEB2
0786013B
0090022A
2D700020
0291FDF1
064CFE87
007FFB58
FE6BFFEC
FDDEFD85
FD61FF44
FE2FFCDA
FE44FD94
FFA8FDD2
FF22FFE9
FE10FEA3
013AFDFD
FEAC012C
FF32FECD
FEC20041
FF0BFDE1
009DFD95
FFCCFF35
040DFE22
01FDFF1F
000003F2
0362002E
FFE2FFD8
04DAFFA7
03B80552
04BE0659
05010546
04CF04E1
055B0376
05290374
04330495
051005CC
035D0508
049F058B
0470032C
0576047D
02A20405
056F0438
038B02EA
022E03B3
043F0353
04FB0493
04C70204
049004FF
03F905A0
053D0493
04DA0625
03CA0479
0334030E
0477027F
041D0547
04DF055F
0393058E
0671070B
03FF0585
049404B8
0460044C
025203EF
FFFE05B1
039B046D
04190348
034B0608
02330516
FFDC0466
0018FC08
FE99001A
05FE0487
06D105E0
04E104C8
059604B4
033D057A
02F30493
05AD04C8
052703DF
04FE0522
051502F1
02AC03F9
03D0038B
04480551
03FE038E
02AC068C
035B02D3
020401B0
037402F7
02E404E8
042A03FE
049C03CE
03A70332
052403B9
033F0495
01EB022A
015B0296
0309028D
04A00227
057B0590
06DB047D
056506EC
0485048C
026602BB
025703EE
05CD01F8
0455001F
037E039C
05ED040B
04B40328
04870201
FB01FFE0
0002FFEB
04560273
063D0536
035E05C5
03AB03A5
0467044F
034701FD
03DC023B
03CF0548
051D0493
025504D5
034C0451
01E901F0
03E00262
035A0472
066D0293
01840253
00DB0273
00BE0118
045F0248
02700347
0299034D
01BD03DD
01A30235
034D0503
013301FC
01AE0154
00E5001A
017B0226
061B03DE
03B604AB
061305E6
0417048B
01AF03C8
02B200E0
012B0146
0078044B
02E903C0
03E4030C
028E05B4
014103E4
0000030F
FFBDE204
0040F640
01900609
FEC6FE95
FD7DFE9C
FCC6FE80
FE11FE11
FF6EFEEE
FED9FE24
FDE4FE0F
FE5BFD71
FEF9FEE5
FE7BFE4F
FDECFDFA
FEC2FEA8
FF1BFEA5
FE05FDD3
FE50FE64
FF15FF03
FEBAFEB1
FED6FE55
FE89FE01
FEBFFEDF
FD82FDC4
FDDDFDDF
FE37FDFB
FD7DFDB2
FD95FE4F
FDCAFDB4
FE4AFD07
FE3FFE28
FECBFD65
FD58FC5E
FEFDFF1A
FE22FDE6
FD3EFDFB
FE0CFECA
FE39FE19
FE7DFD92
FEC9FD13
FD3EFF86
FE14FE84
E224FCFF
F74CFF9F
01E3002F
FF1300A7
FEF0FEDF
FEC0FDE7
FE7FFDA0
FFA2FDFE
FE6CFF97
FE2DFF23
FDDDFEA1
FEE8FEB7
FE92FEDB
FE1CFE99
FEF2FE67
FE41FEF1
FEBCFF27
FE4CFE65
FEF2FE8C
FF01FF94
FE73FED0
FE52FECD
FFCCFEB0
FF2FFFAD
FECFFE9C
FE0BFED6
FE4FFEA7
FEBFFDF9
FE9BFEC6
FD5DFE94
FEB7FF04
FD98FFBE
FCA8FF3D
FF1CFD50
FD92FF21
FEF6FE9E
FF70FD9F
FE8BFDD9
FDC3FEA0
FE78FEFD
0032FF43
FF1DFDDD
FDEFFE83
FFABEC68
000DFAB3
01D2F2A8
00C600C5
00A8010E
020900D7
017A0231
FFEF0021
FF50FFAE
FF2701BF
FF04FEDC
FF480093
00550003
FFAAFF75
FF8E0017
FEEF0061
FEE0FF70
0049FF29
0031FFC9
FFA9006E
FF2FFFAB
FF71FFDE
FFB8FF43
FFC1FEFB
0004FF39
FF90FF74
FF22FF90
FF37FF14
FF3EFF1C
FE85FEC6
0020FEEF
00FF0114
033F001A
001AFFEF
FF74FFA1
FF5BFF8F
FF4FFF29
FFE900B4
0112FFCB
FFB50039
FF90FF03
FFFAFF36
0000FF90
0000001B
0005FFFD
FC0DFE86
0019FCE8
FEEAFC99
FEEAFD97
FD6EFE47
FC91FF26
FE2CFEC7
FE2600BF
FCCE073A
FCFFFC34
FC8AFD47
FD07FE8D
FEFEFD3E
000EFE7F
03B1FE34
FCD7FC96
FE9DFEBC
FF29FDE6
FC3CFC97
FE43FD02
FDE0FF4F
FBC9FECF
FD4FFD99
FC3CFD37
FC08FDA3
FD52FE5E
FC0BFC73
FC73FC10
01F5004B
FF1A0727
00AE0010
1BC8FEA7
01531FE8
07F7FED6
08B8FF7B
02C601E3
02F800DF
018DFF2D
FEAAFFD9
FE70FE08
000CFDB5
00020000
FEADFFFD
FDF3FBF0
FD5BFFE0
FE31FEE6
FEE9FF74
FFBBFE00
FE68FC9E
011AFE38
071EFD41
FC48FC85
FD51FCDC
FE86FC79
FD35FD2C
FF95FDAB
FD67FF97
FD110333
FEABFCF1
FE01FE3A
FD11FE88
FDA6FC4E
FDA9FDEC
FCEAFD8F
FDBDFCB5
FD8AFDBD
FDB8FC1C
FDB9FBB6
FCEAFDC5
FBCBFC96
0051FC77
079801FA
00D7FEF2
FF2D00D8
21101ACC
FDC2FEF3
000A028F
02830701
00AF0100
FF110314
FE7AFF74
FD03FE2F
FD80FE7E
001A000E
0001FFFF
FC3EFED4
FFB6FE66
FE5AFD6E
FF44FE42
FE75FEE9
FD26FFEF
FDCFFE18
FD56009B
FC48074A
FCB6FC82
FC99FD59
FD36FE75
FD53FCF6
FF78FFCA
0260FC9F
FD6AFD4F
FDF6FE70
FE33FDF4
FC9CFD46
FDB6FE02
FDE6FCDA
FDA2FCEB
FDD0FDD2
FC99FD96
FC25FDC6
FDD1FD82
FD20FD77
FCDDFC1D
00CCFFE0
FF430773
00510154
166CFF2D
FF2D1EC0
0119FE51
050CFF0A
003D0219
0296001A
FEA0FF9C
FDF2FD54
FE61FD34
0000FD7E
FFF2FFF7
00060009
FEC80102
FDBAFE6C
FF09FCF2
FE1AFEDF
FD6C00C2
FCBD0337
FEE4FE99
00A8FC19
0038FC04
FD09FE3A
FD84FE30
FCA9FE90
FEB6FD8F
FFCBFD68
006BFC11
FD1EFDB9
FE1AFDD3
FDE6FD84
FCF1FD53
FD38FD03
FD83FEAF
FD40001C
FCCEFC65
FC770057
FC86FDD0
FE13FCD9
FBACFE49
FD2BFBE9
FD94FBDB
FD9BFCEE
FE64FD78
1784FFDC
FEFD04F8
FEBBFECE
13DC098E
079D0106
0144FBD4
09080818
FE0FFFD5
005AFDDC
FFEEFD73
00090008
019B000F
FED0FC5E
FD09FD31
FEB4FEEC
003EFE05
03A4FD6A
FF0BFCF1
FBB5FF3A
FAFBFF13
FD75FF06
FDEBFD36
FE97FD27
FDB8FCEF
FF1DFEFE
FC2FFF4D
FEAF0019
FE2DFDA3
FD68FE6F
FD8CFE4C
FD33FCEC
FD9AFDC2
FF9DFD81
FD5AFE02
0061FDCD
FE1CFBEC
FD55FD4B
FEC9FE80
FC22FC21
FC08FD19
FE22FDA6
FD70FC98
004FFF7E
060E1810
FEF9FFAC
0B50FF31
00C414B0
FE89087C
0B2E00E2
FF1B0B14
FD89FD9D
FD4D0049
FFED0008
0010000B
FA6D02BD
FD27FEC0
FEA9FD12
FD5DFE81
FD2EFF4F
FD3F035F
FFE7FF8D
FDBFFC6D
FDDBFA48
FD78FCB1
FD60FDDF
FD53FE6B
FF5DFDB4
004CFFB0
00B1FCC1
FE05FF67
FEACFE5B
FE8AFDBD
FD34FE57
FE0BFDF1
FDD6FEFB
FDD00004
FDD7FD92
FBD002F3
FD97FE05
FD5BFD1A
FBF6FEC5
FCE4FC87
FE28FCBE
FBB5FF30
FED8FDAC
184800B3
003E0718
005AFEAB
13CC0B96
063C00A8
01710014
0B120D06
FD38FE9D
FFC1FDA6
0000FDA2
FFFAFFFF
FFF8FFF3
000F00FB
F972057D
FC56FC79
FC0AFADD
0493F8A5
FF75FC09
FC0DFC5E
0AFC022D
0ADAF68C
FC48F9DD
FDA8FC66
FB9AFC1E
00C4FB5F
FB2EF98B
FC6DF8D9
0737FE91
FDBAFE2F
051C07B8
04260382
FD4F05EE
FA34FA20
0147F935
FC90F8B8
F9C5F786
F92CFB74
F9A8F857
FDAD0064
F9F5FA81
F7ECFA9A
F96CF72E
F6DAF906
FA1EFB99
FBD7FA50
FB8EF9EA
FDF8F98A
FD26FBB0
FB14FADF
F97DF78E
FAC2F997
FBFFFA4E
FFFBF9AE
FFF5FFD3
00D6FFFD
04A102A5
FD94F9DA
F9D3FBB3
F968FADB
FCC40440
FCEFFF5A
0314FC41
F7220B16
FAEB0A28
FCADFC17
FC4DFE26
FBA7FC0F
F8CFFE6A
FB2DF9CC
FCE8FC2B
FD3A04B0
0838FD94
FFAE03E9
023E00DB
FB33FC36
FAFEFBC5
FA780220
FA3EFDA7
FC87FA13
FA88FAB3
0202FA0B
FB62FDCB
FC17FBAA
F915F846
F9A7FB5A
FC67F7F4
FB00FBD4
FC86FCF6
FBD9FCA5
FC55FD51
FBAFFD70
F95DFC29
FACFFB66
FB28FBD5
FB31FCA1
FFC50006
FFFBFFF6
042F005F
FBDC02E3
FB5DFD08
FAF3FABD
04BEFAC8
FEB4FD6A
FD02FD8D
0C7A02A8
094AF841
FC5AFB8C
FE61FC6D
FD00FC96
FCD0FC38
FBE8F930
FC67FD41
0503FDE2
FE29FE2D
0384089A
001EFEF2
FCF302C8
FD00FD10
0371FC78
FF33FDBC
FB9AFBC6
FBF3FD5B
FBFFFC50
FD7D04CF
FCF3FC67
F8B8FC88
FBCAFA74
F91EF9F3
FCE5FD23
FDCEFC3D
FDA1FD8A
FDDFFD86
FE17FCF1
FCC8FCFB
FC79FBFC
FC99FC30
FDA3FBFC
0000FC8F
FFEC0002
FFF9FFFE
FF99FE89
0099FFE6
007FFE1A
0B443038
009A0A62
FEB803BB
0148021B
FF4D019E
FEE2FD90
FCEFFF2A
FE5AFF3E
FDB6FD57
FECAFD22
0195FF90
FE99FF7B
FE1DFCC4
FE50FE0A
FF0AFE87
FF1DFD6F
FFE3FFF4
FFCFFF23
FD67FCFB
FE2FFCEF
FD2AFD46
FE59FD05
FDF2FDE0
FF84FD91
FD82FDBE
FF3BFE67
FFACFC5B
FB88FE70
FFDDFDAE
FD5FFD47
FE81FE03
012E0108
FE08FF13
00FDFD77
0203FFDB
FC7CFDFB
FD78FE19
FFFBFF2A
0000FFF9
FE71FFFB
FEE8FD09
FD380302
31D000B3
0B9A0B02
004701B1
00FAFE3C
0087012B
FE03FF0F
FE24FEF5
FE21FCCD
FD98FEC7
FD84FDC9
FE17FF16
FE2F012C
FD70FE8A
FEB2FF27
FEE5FEAA
FDCBFED4
FFC5FEB4
FED8FEF2
FDC3FFC0
FD4BFDC6
FCBFFEC5
FDA4FD9B
FDF4FE03
FE0AFDE4
FCABFDFC
FDF7FDBE
FC89FF17
FE87FDAC
FE10FB71
FEC10004
FE60FDC6
00B8FEE2
FF4B00D5
FCB5FE2F
FF590138
FEE0009E
FE2FFD42
FEE7FDCC
FFF8FFF6
FFFD0000
FC1DFEAC
03A1FD8B
002AFCE0
09F43078
012E0B24
FDC3FE88
005A0042
FDFEFECD
FE51FE5F
FCBEFCBA
FDC9FD3A
FDCAFD89
FD48FD28
FDE4FCDD
FDD7FE4F
FE13FDD0
FE8BFE6D
FE59FE9E
FE0EFE04
FEAFFE41
FF67FE4C
FDC1FE1E
FE90FD46
FDABFC85
FDB6FDB2
FE07FDF2
FDBBFDFF
FD95FBDA
FDC2FDE3
FC14FCB8
FB0AFDD5
FF74FDB5
FDD3FF2A
FE37FDE9
FFBFFFC5
FE7AFEB5
00C9FC11
FFBEFFBC
FD7FFE9F
FE16FE07
0000FDC7
0007FFF6
00010012
F77001FC
0542F99F
FA4404C3
F851F9F6
F94DFE8A
FF5BFC2D
FD83FC05
FA3101BE
F978FBD4
FC6D0B06
FBDDFA47
0A70FB1B
F84AF99B
FA69FADB
F8C0FBA8
FA58FC31
FC62FCDE
FBE4FCE5
FD0EFBC3
FAD3FE58
FBFCFA5A
FC17FBCA
FDFFFC86
019DFE1C
FBDDFB6E
FB8CFC21
FBCAFD51
FAF8FAA5
F95AFBC9
FF2D0218
04A9F772
FB23FBB7
FC3CFB73
FB09FC48
FCC3FB77
FD74FB67
FA3CFA2D
FEF5FDB6
FCA5FB7F
FD43FB83
FFF7FC65
000A000C
01B9FFFF
F911F3F6
048309E8
F96DFA2C
0004F8E6
FC8FF9E7
FC55FEFF
00E8FD24
FB4CFA01
0BC4F8D1
FA86FCA9
FB87FC0E
FA410A7C
00C2F8DC
FC22F99B
FD50F942
FCD3FB64
FD0EFD9B
FD05FC90
FFBBFE83
FB65FB8E
FBCAFBEC
FC88FBD1
FCD7FCC4
FAD503EA
FAFEFC10
FDB7FBBC
FB0DFB4B
FAAFFBD2
02CEF74C
F674FDAB
FBF70135
FA7EFB21
FD3BFD16
FCA3FC16
FAF7FD3D
FAF0FD6D
FD09FA6B
FB24005C
FB89FD13
FD26FDBA
00010007
FFF90004
F3AE01E1
0CA4F977
FA3003A4
F96DF8E6
FA83FEDC
FF1EFCD5
FCBCFC75
FA8200CF
F942FBE1
FD150C2E
FC03FB0A
09F2FC03
F9F3FAC3
FA7701B8
FA24FCC0
FC3EFDC2
FDB8FD48
FD58FD97
FFCBFD7E
FC480177
FCE4FC75
FC24FC00
FC76FCAE
057DF99D
FB9AFA9C
FB3FFAEB
FB3CFE68
FC0BFACC
F666FA60
FD7C041F
01F5F69E
FAFCFC26
FD4EFB39
FC99FD81
FD85FD3C
FD9FFB68
FB2CFB8E
013DFD6B
FD63FB12
FDECFB82
0000FD70
00AAFFF9
F4480049
00C0017B
03DF0243
019800BA
0270012B
01910050
00160251
FFEC011D
03450331
00EA017B
01EE00D5
006D01F5
015000C3
006E00B8
FF7A0169
0080FFD2
02CC00C8
01D800D5
01180202
015F015A
01260251
00780102
00D40089
00EF00D8
003301CE
FFC20156
00F20129
00C300F5
00D500C6
005A0024
020BFFC8
0432010E
009DFFFB
01310063
017600D0
01F8FFEA
00D9007A
FFB1035B
017A01F2
00B1FFF5
01C500A7
FFC30061
001A0082
FE59F382
010BFEC3
00250258
00EE0146
004201D3
0103018F
00D1008B
018A001C
017501A3
008700DE
00EC017F
00D20093
012D00E1
012B0148
00B50138
00CB00D3
00A8017D
01E60123
014D00FE
018300D7
01590129
00E000EB
01770142
00140137
019B0123
01770093
01940274
011100F1
0030014B
00000129
00D50245
0071FFD0
00A800EC
00BE00A3
0074011C
00DE00D7
01390077
019F00EB
0051010A
00A400A5
008A012A
01EFFFCA
F8B70011
FFA5FB0B
01290037
01120028
01710175
01510074
00830067
003E008F
008A009B
007400BA
00D10042
00810075
008500AC
00CC00D6
008B00D4
0071006A
00F60057
007C00C3
00DA0168
008C0079
005A00F9
010100B3
00EF0038
00E400C0
0087007F
007E00D3
015100E2
004B00DA
009A0126
00550064
0139FFCB
FE3400EA
00A2007A
00440088
00A1004F
00550046
006300CF
01050050
007600CC
0064003C
009C0058
00000072
FFF80000
0004FFF9
FDB1FFB4
FA450077
FEEAFDC6
FEE901A9
FE7F0693
005D0346
FD2C26B0
FF67FD37
FE27FD9D
FDC3FF50
0289FE89
FE3CFEF6
FA94FE51
FE3101F8
0932026D
FE62005E
00060145
FE77019A
FE58FF31
FE98FF56
FD9FFD0F
FD30FF84
FDBBFEB2
FE81FC91
01E3FD2E
FE5D0C1E
FFEDFE05
0027FDE6
FBF400A6
FEF2FF03
FD7BFEAE
00E4FFCC
FEBC0255
FE98FEA2
00CDFF33
0B40FE8B
031AFC70
FCBD037E
FD85FFCA
FFE4FE63
000100B0
FFFBFFFD
FFD70006
FFD9FCCD
FDE1FB66
00EC011A
04F4FF10
03A4FFB4
25A00034
FE89FD80
FE1DFF3D
FF14FE52
FE6DFE44
FF3701BA
FEA2FED1
01A5FB1A
0229FEB1
002A0872
0139FEFF
00F6FFFC
FF7FFEED
FF82FED0
FF3FFEE9
FFF8FE3C
FF5DFE25
FDA0FE71
FD20FE86
0BE2025D
FEDFFE29
FCF3FFFC
00D00083
FF3DFD8E
FF2F0066
000AFD52
0156000A
FF40FFB6
FFC8FE6B
FEFB00E0
FD9E0771
03350276
0082FC37
FEEDFDB8
00C3FF47
FFF5FFFA
0003FFFF
FDD8001D
FCB0FF9E
019CFE28
FFD50144
001F03B6
FFE5032C
FEA42298
FED6FFEF
FE4AFE42
FF00FF36
014BFE85
FF5EFF7B
FC1AFF12
FEA80270
0623011D
FF440094
0008011C
FF4900A1
FEDAFF63
FF0D0018
FEC3FF3C
FEC8FFEE
FEB3FF93
FEBFFDEF
0200FD0D
FE270BB6
00000038
0068FCAB
FE5300F2
00EDFF37
FDC3FFA0
FF840050
FFA9001D
FF5BFF15
FFF1FFDE
033DFF9C
0191FE7C
FC2C02CD
FE7600C4
FF2BFF4F
0000FFFD
0002FFFF
0008FFFE
017FFDA9
FBB2FD1A
FBACFE72
FBDFFD5B
FDECFC89
FCA0FC27
FE67FCF7
FBD2FCB8
FD26FBEB
FD9FFB49
FC38FD20
FCBAFD80
FC7EFCA8
FE81F97C
FDC4FBAC
FC0E0153
FC6AFE46
FBF2FBA4
FF15FD48
FCF3FC49
FBAC0005
FDD002FD
0E76FFE3
03F328F0
007F06E8
040C02AF
0292030A
002EFCA7
FEBE00CD
FEEDFCCE
0AEAFD7A
FCDB00BD
FF94FF59
FDBDFE12
FE51FD08
041B03DA
FDBD039A
FCA5FD6C
FC86FE6A
FE04FD8D
000EFB0A
FFFF0026
FDAC0005
FDF60173
FF31FBF4
FCA0FC10
FCDCFBD5
FD6FFF2F
FD09FD0F
FD87FECD
FBFBFC90
FC32FD4C
FDA3FDBC
FDB6FC6E
FCC9FD1C
FB85FDDA
FC19FF58
0171FE58
FDF1FCD5
FC3AFD27
FE08FC70
FCBC000E
0141FD95
05C6FEAC
FF72FECE
2B700E26
06C60319
01B70056
020703EA
FBC401EF
FFE100E0
FDDEFFD7
FCD1FF3A
01DC0793
FEBAFCB6
FED000A7
FE99FE83
03B7FEF7
0461039A
FE57FEB6
0070FE13
FE6BFD2E
FBC2FE38
001B0002
00010006
0158FDB4
FBD6FE05
FBFDFEDC
FBC1FBFD
FF01FC9D
FD1BFE1B
FECFFCF5
FC8FFD35
FD47FC1B
FD57FCC2
FC58FD75
FD1DFDC2
FE6FFCEF
FFE2FC7A
FE52FC71
FCFF00C4
FD19FDD4
FCCEFCBD
FF93FE00
FE42FD10
017D00CE
007C07F8
0C72FF1F
01BB2A88
FF2F05B1
02160031
000600EF
FEBBF996
0090FEAD
FFF5FE64
05C5FBE0
FC8D0179
0046FEBF
FE50FE78
FEF7FF16
0081042C
FE8A0464
FE00FF2F
FE10012F
FE50FEBE
0000FCB1
00030008
0003FFFF
FE73FF9D
FF33FF1D
FDDAFD69
0082FE96
FD610182
FF32FDEF
FF46FEE1
FFD3FEDF
FE7E0076
FF5AFDE6
03130157
3AC80242
FE89023D
FF12FE62
FEBD01D7
FF7DFE9B
FEB6FE29
004AFD80
FDAA00E6
FFAAFE21
FEF6FE33
077EFFB0
FAF8FBEC
FEA30068
FD73FDE1
002FFDE0
FEB1FE2C
FF3FFE4C
0000FFA7
FF3F0031
FC8500C0
FDF4FE73
FED3FD62
FE73FDFC
FE25FE1A
FEDDFE1B
FE15FD6C
FEC8002C
FFBE0055
FEAAFD92
0001FF69
0002000A
FFCE0005
FE4FFF30
FD92FF92
FF3AFD4E
FED6FFAD
FE02FE31
FF04FF02
FEBAFF32
00A8FFFD
FDC5FE0C
00C3FE7B
01610319
01C33B10
FE10FF48
01C4FF8F
FEB3FF15
FE70FE97
FD61FEDB
00290001
FE14FEDC
FE82FFD6
FF4EFEFF
FB90071D
0069FB28
FE44FE7D
FDBDFD31
FEB500B8
FDE1FE99
FFBAFF7C
0031FFED
010AFFF4
FDE4FDD6
FDA2FE4F
FE37FF01
FED6FE82
FE56FE40
FDDBFEBD
FFC8FE00
0022FE9F
FE52FFF7
FFC9FED9
0012FFFB
00050003
FE5AFFFB
FF91FDAA
FD2DFDF1
FE78FF13
FE65FDE7
FECAFE41
FEE2FF0B
0093FE6D
FDD200D3
FE88FCD9
023CFFEC
38080004
FEEB00D6
FF94FDEC
FEE9019C
FE5BFEA9
FEAAFE93
FF35FD1B
FF06FED3
FF70FE13
FE94FE38
05C1FE79
FD26FC84
FE54FF77
FD75FE1E
003FFD91
FE6AFE80
FF28FDC2
FF96FF05
005AFFBB
FE8E0071
FE72FDD5
FF17FDDD
FEC6FE21
FE5DFEA5
FE98FE5E
FDF8FE37
FE26FEEB
FFFFFFBD
FED4FE9B
0000FF87
001E001B
0033FFE6
01631090
FFBFFFF4
007E004D
0050000F
FFC10019
FFF1FF7A
FFE3FFE4
FFC0005D
0024FFDE
FF7B00BC
0019FF94
0035FFE5
FFD7000A
FFA2FFAE
FFB50015
FFADFFFE
FFC4FF90
FFD10016
FF8E001B
FFA6FF2C
0025FF95
FF62FFFF
FFBCFFC2
FFB00030
FFD6FFD2
FFA3FFD4
FFB9FFD1
000AFFE7
0062FFFB
FF3EFFF5
FF520027
FFC4FFB4
FFB80091
FF79FF55
0047FFD0
FFC8FF62
00AAFF89
FF4BFF63
000EFFB0
FFC1FFE8
FFE5000F
001E0071
13BC0007
005003F0
0038FF97
00AB0001
FF57FFF3
FF20FFA6
FFDDFF9B
FFD1FFAB
0007FF20
0093FFD7
FFA9FF63
FFDD0030
FFA5003D
FF3FFF7F
FFC4FEB4
FFFCFFC3
FFCDFFBC
FFDCFF54
FFFFFF8F
0048FFEE
FEC3FFB0
FEE0FF05
FECCFF2E
00BBFF1B
FF82FF57
FF6DFF1E
FED1FEB2
00A8FF8C
FF45FEEE
FF73FF7F
004BFE5E
FF230032
FFD2FFC4
FF34FF96
FF5F0095
FEAF00CD
FF87FFA2
FF36FFEE
FF5AFF47
FF61FFB1
FF90FF89
009CFF9F
FFFB0015
01811484
FE980068
FEF30010
FE99001F
FE4DFE17
FF44FED9
FF72FFAA
FEC2FECC
FF43FF64
FF3B0061
FFE1FF53
FFE8FF7A
FF1BFF37
FE42FE77
FFABFE88
FF18FFB3
FEFCFF5F
FF02FF8E
FF95FF5B
FEE7009E
FEBBFEB5
FE92FF27
FE5FFE4F
FEC5007E
FEB7FF3A
FE79FF6D
FF55FE77
FED70042
FF35FF42
FDF7FF3C
FEB8FF7C
FFF8FEAD
FF47FF11
003DFEF0
009DFEE3
FF55FE16
FF75FF0B
FF37FF0A
FF06FF64
FF05FED4
0000FEC2
0003000A
FFFBFFF3
FBD2FE6F
FE98FD58
014CFEBB
FDD8FF6B
FD10FE21
FDC1FE44
FFA8FEF2
FDBFFFD9
FEFC0214
FE83FDEA
FD4FFD8A
FD22FDE0
FECDFDCA
0139FF41
0004FF61
FE590125
FE7A0183
FE56FE54
FFB7FE7E
FE5B005A
FFABFF91
052A0409
FD19FDBA
FDE40272
FE61FDB9
FDB000C4
FF28FE7E
FF39FC8B
00D8FFA3
FED6004F
FF0D024C
00022288
02DD02F3
FF5F020F
01E2FE3C
059401F7
02E01768
FEE9FF2A
FD97014B
0759FF82
00060E0C
FFFBFFFD
FE4D0003
FDA3FD10
FECFFF96
FF1B005D
FE3FFE38
FE5AFD90
FF4CFD93
FEFBFF5E
0216FD60
FE1BFEE8
FE10FEBB
FDDAFD4F
FDBCFD16
FE8CFF1E
FED800B0
010F005B
00B1FDEA
FE6AFF04
FE99FE23
0064FFB7
FF58FE2B
03A3FF72
FDE403B4
0167FE52
FDEBFE54
FFDEFE80
FE67FD57
FD0DFF79
002DFE98
00A6024B
025BFF03
2288FF76
0240FFC9
026B0351
FF1E0009
02360273
172804F8
FF0203BD
0164FEC5
FF5EFEE9
0D880404
FFEF000D
0004FFFD
FE32FE0D
FF5AFE0F
FFE2FEF3
FE46FEA2
FE12FE5A
FD40FE59
FEDBFF5B
FD3AFF17
FE4801D8
FEA1FE74
FD7FFE77
FD51FDCC
FEFFFDEE
00D0FE7A
0139FE72
FE4A004F
FEE5FFC4
FDEBFE66
FF5DFE83
FE4B0009
FF15FEBB
00080237
FF85FDF6
FDFC0103
FDC1FDC2
FD70FEF2
FE57FDE0
FE12FD13
01DF004A
FF2A0160
00050225
FF7E2120
031300CF
FFFD01E0
027FFFA8
02D40134
0496160C
FEDDFF3A
006D0124
010DFF27
000009A2
1E08003F
01560021
00E5FCAF
00F4FEE6
FF74FDFF
FFED0055
FF60FF8D
FEAAFF39
FFC9FF1B
FFC0FEC3
FF5D0069
FEF2FF54
FF9AFF97
FF2EFF7F
01F6FFD2
FFD6018C
FE700053
FE64FF01
FF11FE9D
FFF7FF1F
FDE7FF33
FF9EFFB5
FF9A00EC
FF4EFF5C
0018FF82
FF98FE33
FF29FF30
FF93FFC5
FF4CFF23
FEE4FF66
0011FF3D
00FE0038
FF180015
00ECFF65
FED1FFC8
FE50FF8F
0000FFBA
FF25FFCA
00E6FF33
FF70008B
FFBFFE7C
00620078
0068FFD6
FFC11EF0
FE2B00F2
FF2000DF
FE720073
001EFEF0
FFAD0010
FF16FF37
FF1EFEFD
FF2DFFA2
FFF0FF7A
FF1CFFA9
FF58FED7
FF95FFA4
FF97FF41
001C017E
FFC10003
FEBFFF3D
FF12FF27
FEDCFED5
FF0EFF59
FFFEFECF
0019FF1F
FFF6FF26
FF69FF3E
FE26FFFA
FF25FF9D
FF95FEDF
FF44FF4A
FF6BFF45
FF96FEE7
00200013
00050019
FFECFE87
FF50FFF3
FF40FED4
FF95FEEC
FFD8FF56
FF03FEC7
FFF300C5
FF36FF6F
0028FF55
FF42FFA3
19E4014B
010BFFD8
0106F450
0064FF46
FF02FE9A
00000069
FEF2FFAC
FF18FEFB
FF09FF0D
FF71FF6C
FFC50003
FF0BFF19
FF8CFF33
FF31FF5B
FFF2FF3F
FF240042
FF9BFF65
FF08FEB8
FE98FEF1
FF43FF0B
FEE9FED4
FF07FF92
FF06FF3C
FF810035
FF92FF99
FF82FDC5
FF32FF6C
FF9EFF8F
FFC4FF20
FF3CFFD0
0042FFD2
0062FF8D
FF85FFA5
FF77FFC2
FEB2FF49
FF8DFF02
FF4FFF49
FEE0FFB4
005AFF12
FF7AFFEE
FF44FF6F
FF12FFD3
0000FED9
FFAA0276
012AF7A0
00A2ECAC
03A6021F
014E004E
00C6015C
025700BF
00F5028F
008A00B7
022A024A
006A00A8
014C0083
00B900BE
00F2004A
016301A8
01CD0240
010A0168
026A0023
0137004A
01510217
010500EF
013C0143
01F7029F
011A020E
01780128
017D000F
FFDD00C9
017E007F
FFC00121
0095FF87
0414FFDF
03CF008A
00AF00B7
01B7017F
0051FFF9
009E0143
007000B1
000B0173
02EC01AA
020502DB
00730155
00B500C0
008CFFF0
F59CFF5C
F172012F
021401B4
00AA0245
013E0100
019601A0
01BD01A8
007E0131
020A00C6
00D7011F
008C006B
00830117
006D00E6
01A400C3
015701B0
01C3016E
FFA900A6
006A01F9
01F1004A
FFFD0163
01650072
028F00DD
01900218
0148012F
FF6B016D
00A90163
00CFFFA0
01290199
FFEF0008
FFEFFFF6
011B03B8
01050422
010B0283
006501E0
00C4FFD9
002F00C8
012D0067
01100001
01F70397
01840161
00E6006B
005C006B
008500AE
003AF826
FEBDE920
01D70187
01A60110
02D60131
0210026C
00CA00CE
003B007A
009F0222
00A400FD
00BF00D1
00FE00A5
00BF00AD
00BD0144
003C0178
005800EB
01870031
007B00C6
00E901EF
0022002F
00AA0105
012B00AF
00BB0080
00FC008C
00EDFFC6
001400F1
013400EF
003600C2
002A00E9
01920093
03220185
027E016B
01A400E3
001B011B
00E1009E
008F002A
005E00B7
02BC0124
00B90141
00560057
008A007C
00000085
0001FFFD
00090008
038F0145
FF88014E
00BC008A
021DFFD0
0174007C
01D8001E
FFF2000B
010C02B1
01DC03EA
06E60ADE
24380890
056B0423
00DA06A4
00A601C6
0171FFFB
0056FFAA
0124FFFB
013300B4
0140010F
01590147
FEF7FE84
FDAFFEAB
003000E8
0075FFAD
005AFE68
FF56FF08
009EFF89
FF05FF04
0280FE38
FF720324
00BA01E1
FEC1012F
FD65FD29
FDBEFF74
FD960056
FE5D0113
FEB2FE55
000DFF25
FF65010A
FFA3041E
FFFEFED4
000A0005
01AE0003
00BA03EC
FFFCFEE1
FF6D00F8
015A0256
0002011B
003102B5
01E9FFFD
043E0253
0B1602CE
087C0644
03A52440
0630050C
00DA017F
009100F7
FEFE000C
FF94FF8A
01030068
01130132
01EE0121
FEDA00D6
FECDFF12
00A5FDAB
FFBBFFB3
FEEEFFD2
FEF3FFE4
FFC4FF87
FEAC0071
FE8FFF52
02B202AE
02BBFFE7
003E00F2
FDADFF4E
FE7EFD95
FF0FFDF3
014AFDEB
FE46FE4B
FF24FEC6
017B001A
0472FFA3
FF2CFF68
FFEA000E
00060008
04FF01EE
FE650052
00A3FF93
0214FEF6
00B90191
0281FFAA
FF67000F
034F0198
03E50381
05800AEC
22D007F9
03A9026F
01580484
00390058
FF800075
FE7CFECA
FF6BFED3
FFC30135
005D00D5
FFA300E2
FE9DFE84
FD96FECA
FECAFF47
FF7FFEF6
FF31FF2F
FF2EFEF4
000BFF4B
FF7AFE31
036EFEEB
009A0161
00380259
FF29FF0D
FDFBFE03
FE01FE4B
FE02FE57
FE7E00C2
FF03FE19
FF88FE4E
FF630113
FF130429
0000FF04
0012FFFF
FFF9FFF6
FC1EE824
04D9045F
034DFFE9
069702C3
03530606
02510661
01B303A4
05140672
013E02A0
02E201E9
02550191
01B80232
FF6603CF
FFB303AF
0023FFFF
043400CD
01820105
035A060F
009900E1
02C90309
012800A1
FF4201B5
000DFF60
000200A8
FFCB015E
01880074
FF43FFCD
002EFFB0
001A0019
08D4FFE8
FFAE02F0
064A001C
FF51FFFC
010A0061
0262FEE5
01760028
0558021A
041B006B
00010086
02F9FE12
001CFF8E
FFEE0013
E8B4FFEE
023BFDF0
FF500452
020F0291
04A90514
04770323
037F0210
058E0204
024802C6
00900198
006602DD
01EE025E
030A0124
0400FFB8
004E0031
008C00F2
00CF0387
050B0169
00BD028A
032000A8
0172022B
01AD0127
0006002B
0033004C
00CD007D
00B00008
008201BE
0017FFCE
0054007F
00ED027B
033508A2
00440197
0107066C
0084FFE8
FFBD0135
01360207
02740114
017C0567
01270449
FED30044
FFC60144
FFCAFFEA
FFF1FFEB
FCA2E7FC
0347010A
0202FFD0
03C40198
033D03ED
0143025A
01370233
018904EE
019F015F
01E6000B
01BCFFEA
00D10155
FFB50196
FFD2038F
00FF0052
0217005D
00FC0103
01A303C0
007D0068
014902DE
00C6010D
003C00BF
0005FFCE
0064FFB3
00110051
01CA005F
00150085
005E0012
024B0057
07A700D1
025002CB
04C100B1
00190106
00CA0080
012F0013
00C8015C
04240295
03060156
005C0046
0047FFAC
00000009
FFF60002
00060010
F71C010F
FBF9FDCE
FB59FC9E
069DFC76
FD0902C1
FCD6FD74
FD63FEF6
FC8AFBCD
04E3FBBA
FDB00661
11301538
FDF0FB3C
FD0CFD2F
FC2AFA30
FC92FC05
FB59FDA3
FEB6FC81
FC8503A1
FCD5FDA8
FC0FFC3F
FD31FCA0
FC4FFAD0
FD11FC4C
FBE1FB37
FD4FFDA9
FC84FCAB
FE47FDBC
FD09FD1C
F992FCC0
FCD907E0
F7A8FCCF
FC46FC02
FE05FD67
FD9EFDF4
FE9AFCAE
FF0DFBE9
FBA7FBD1
FCF30040
FD8AFE5D
FE65FC76
000DFE16
000DFFEE
017E0004
FCDBF4AE
FB98FB54
FC9CFAA9
03F506B7
FD1FFCCC
FEBCFD17
FA45FD3D
FAB6FC48
06770505
1538FD9E
FB8B10CC
FD8FFDF2
FA0BFBAF
FC1DFAE0
FDA2FB3F
FCF8FBE1
0408FE76
FDFFFD2F
FC1BFD0F
FD73FC78
FB3AFD6D
FD36FD4C
FB6BFDE2
FD7AFBF8
FCC8FD53
FDA4FC96
FE0AFE92
FD98FDC3
0874FA60
FC9DFB7E
FC51F5FC
FB9CFB51
FDAAFE05
FD2FFE2B
FC06FE77
FC1EFEB0
FD31FB7C
FCEBFD3A
FBC0FD79
FE47FE66
FFED0007
00070007
F37001A5
FA7BFC13
FA80FAE8
054DFB35
FC6A0410
FD63FD56
FD2EFE6C
FB7EF9CD
0491F9E8
FCE304BF
0F881470
FDD1FC30
FAF8FDCA
FB4DF9DC
FAE3FCE6
FCBEFD3B
FDE2FD27
FDB803D1
FD75FE26
FCE0FC84
FDCCFE38
FDBFFC4B
FE3EFDC7
FCBAFC1C
FCDDFD6D
FCBDFCC7
FE9DFE11
FD69FDFC
FADAFDBD
FB0A08EC
F588FCFE
FB15FCAF
FE18FB28
FE5BFDF6
FD3DFD9B
FE41FC78
FB6EFC9D
FD0BFC8E
FDBFFD11
FE41FB7D
0000FE29
00010002
FFFB0001
00A2FFED
022C0073
FF9C018D
04B1FF04
01EB02C5
2F70035F
0246017D
002B0494
02010055
FFF30004
020CFFCB
00D4FEED
FF21005C
01830201
02E5FE65
012001AE
00950040
FFD3FF2F
01EC023D
FE2EFF8E
FEE70075
FDBFFEFA
FD9FFDD6
0000FE9D
FF800105
FFB90247
FEE9025F
FF50FF54
FD0F00EE
04E1FCD0
FF31FDFC
FD1901A1
FD86FCCA
FDD5FE07
FDD2FE41
FD9BFF6C
FFD0FFA8
FFDCFDDC
FEF0015B
FD910051
FFFBFF1B
FFFDFFFE
FFD0FFFF
01440141
016500FE
FF1A0085
0137047B
025300C1
001B2F58
04130142
FF8400E7
006F023B
FF9E0049
FEFD0277
FFD40173
00A3FECE
FF3000FF
008A02A9
007200F7
FF9DFFF9
016AFF5B
FFE60290
00A7FE21
FF80FF58
FE7EFDD6
FE00FE18
FFFF008B
FFD10042
014AFFCF
FEEEFF23
0132FF8F
FCE8FE2D
FE6B04A9
00AAFF72
FDA7FE4D
FE8AFDEE
FEFDFE23
FF67FE6F
00ABFE1A
FE99FFDC
0213FEF5
0045FF38
FF47FE21
FFFBFFF8
FFFEFFFE
01EEFFC3
0018022F
00E0012C
0442FEBD
00490078
2BF0017C
00F3001E
02290398
0202FF36
00E3007E
03AD000C
015CFF83
FEC5FF79
FF1B000F
00CEFECF
FFC3FF74
FFF4004C
FEC1FFBA
01D600F6
FE5B0052
FF88FFDD
FE73FD87
FEB2FEF3
00D3FD5D
0012FF91
0030FE68
FEDAFFFB
FF23FE8A
FE0900C4
04A3FD20
00ECFEEF
FF34FFFC
FE38FE2E
FE96FED1
FEBEFEB3
FE85FF5D
FFF30085
FE62FEAD
FF3601B5
FEE2FFAD
0000FF0A
00030004
FFF6FFFA
FEA90154
FDCD034C
FCA30166
FE97FDAA
FD7EFE94
015CFED5
FF22FFD0
015EFF88
006F011A
FDDC0080
007FFE72
FDEFFEE0
FD48005C
00C0030E
FE40FD07
FE46FE92
FD2EFDE2
FD3DFE83
FFCCFDDE
FE88FE94
022BFE81
FDDCFE1D
FE5EFD36
03EB028C
FF51012C
076F006D
FC42FE7A
FECDFC8F
0233006C
2D70009C
008BFE9D
FF1DFF63
FC790197
FD8AFEB8
01C0FD18
FF2EFD18
0202FFB8
FFF0FF18
FF871770
FFBD022F
FFEF028B
FFFE000D
012EFFFE
0258FFD9
0071FC56
FDF1FD9C
FE0EFF1F
FDFDFDBD
FEFA00BA
FF16FF26
007301CB
FF83FFBF
FE59FE16
FE7D0080
FF49FE4E
0147FD9A
FE4C002E
FE87FD9E
FE31FE66
FF04FD4F
FE2AFD9D
FE90FFE0
FF2EFEF3
FE940239
FD74FDD5
00DEFEAD
00170203
FEDAFF10
FF4A0749
FC97FD88
FF85FF66
0073009F
FEFF2BE8
FF74FF9C
FF1FFE50
FDE9FD39
FE2AFDAE
FC50FF4F
FDE9FDB2
FF1A0148
14D8FF46
0135FEE2
027EFECA
FFD70009
FFFE0000
00350131
FD3800D9
FE4BFF24
FFF5FE38
FF49FEFF
012AFE22
FEB9FED1
01CDFF9B
FF3CFF65
FE32FF0E
0082FF31
FF00FE3F
FE7CFE6D
005700ED
FD2F0057
FDE6FE52
FE2BFEB9
FDF4FEDC
FF7DFEBE
FEE7FDFE
015C010B
FD84002A
FD73FD09
FFFC00FF
FDE3FFF2
05E8FEB4
FE20FF61
FFA8FD10
0091FF66
27D80129
FE3DFFDF
FF5CFFC6
FE05FE8B
FE06FDF2
FE74FDDC
FE3EFCD7
003AFD39
FEE0FED4
FE5C12EC
FEA4003D
0000018D
0003FFB5
22C0FF74
FEEBFB06
00890052
0008FFD2
FF9D0042
FFE2FF66
00200088
008F0088
00CB0134
00E100EA
00870075
005DFFC5
007900B6
02520049
0302006A
00460471
00A20119
010200DA
017400B6
00E200B4
01D20145
00E800D1
017A01BF
018B00DD
0148FF3C
00E000EA
023400DD
00B201ED
01030223
01790113
006000A5
FCAEFF40
002E009F
0092007B
006401ED
007201DE
00A0000F
0118009C
00AE00D0
01B00078
008000C9
FF9C01B5
FFB2005C
079CFCD0
FEF8034B
FFB9FF5D
FF83FF5F
FF960009
FFBCFF0B
000600EA
FEC300C3
FFDEFFB2
00990046
FFEFFF40
0047006C
00B5003E
FF30FE4A
0021FDC2
FFBAFF86
FF52FF6E
FF3DFF28
FFB7FFBA
FFD1FF85
FFC4FF96
FFFAFFCA
FF71FF98
FF4BFF8E
FF42FED8
FF91FF4E
FEA7FEA9
FF37001C
0032FEC6
FEC4FF61
00410021
008C0063
0064FF4E
FFEAFF70
001CFEC9
FFDCFFB8
FF1DFFCB
FF2900CD
009CFF7C
FFE60041
0004FF51
00040038
FD8FFFD5
02A5044D
FF2AFECF
FEF0FF51
FFB6FF55
FEC5FF62
00CEFFBC
00E5FFFC
FFD3FEE0
FFF7FFE5
FF5C0037
0046FFD7
002D003B
FFCB00A4
FF9DFF5E
FF650184
FF32FF4F
