0044
FEFD
0079
0219
C1DE
05FF
0763
FF9D
FF55
FAE6
FADD
005C
0241
09FA
FCE4
FC89
16D6
0570
048B
22EB
F851
0C05
023D
65A9
11F5
FEDB
0725
FE4E
07BE
EF43
0462
F574
FAE4
FF42
016A
FA10
015F
FB22
08D2
EC16
FE62
FAA8
FB80
F933
FCBA
06CB
0227
FB15
00B5
FEDD
008D
FB78
F6F4
FBBD
F99D
FB87
007C
FB9F
FAA1
01DB
FD8A
FE35
0450
FE2F
002A
02C4
027F
F5F1
FAD1
FC9A
028F
FB2F
FDD3
0022
FF8A
FF97
010F
F81A
0D2A
F93D
F39D
E99D
0E85
C6BC
FF16
1BFF
046D
1717
FE37
0B6E
FD89
A788
FF32
FC4C
1549
4543
F24B
06DD
040C
FAA4
FBBC
F7B2
B7C4
F015
1945
188C
FFAE
0665
00E0
05B3
FF87
FD96
FD9D
004E
02EB
EE0C
0106
F364
FC55
DE77
FFED
F794
FB9F
0524
15EC
09E7
05F4
9EC3
0CB0
1405
0AD6
00DE
01F2
1192
1D07
0CB3
F65E
F49B
F13B
1026
0A92
FBAF
0216
12D8
F3B8
064C
F6D1
AD8B
039E
1BC4
F6EC
ECCB
F954
0429
00FE
01A5
EFC1
073B
0667
E8F4
0606
005F
228E
FB18
FEEE
FF63
FFE8
0470
F989
EB43
99A8
FCD0
F7F9
FE86
00FA
FEDF
E1B0
FC9B
FDDB
07BA
FCB4
FC95
1970
164E
FBF4
394C
FA53
0B51
0A56
00D6
FD0A
05EE
1573
01BD
ECC2
D5DC
FFF4
F6DF
FC8C
D64B
F952
BBA7
00B5
FC8F
F7F4
1045
1186
064D
FDA2
C7CB
0408
E903
0254
074A
013E
0FB3
FA2E
0058
FD34
2CFB
10A9
0B65
0C97
C38C
F68D
F900
B623
0228
FE01
FB26
1259
03EB
FC05
0788
4879
035E
0F31
039B
F5C3
FF0C
FFF5
01CA
FE0C
0093
1A5E
030A
0440
FF48
03C6
FFAF
0244
006E
03D0
FF62
FEB4
FE0E
